{"<s>":0,"<pad>":1,"</s>":2,"<unk>":3,"!":4,"\"":5,"#":6,"$":7,"%":8,"&":9,"'":10,"(":11,")":12,"*":13,"+":14,",":15,"-":16,".":17,"/":18,"0":19,"1":20,"2":21,"3":22,"4":23,"5":24,"6":25,"7":26,"8":27,"9":28,":":29,";":30,"<":31,"=":32,">":33,"?":34,"@":35,"A":36,"B":37,"C":38,"D":39,"E":40,"F":41,"G":42,"H":43,"I":44,"J":45,"K":46,"L":47,"M":48,"N":49,"O":50,"P":51,"Q":52,"R":53,"S":54,"T":55,"U":56,"V":57,"W":58,"X":59,"Y":60,"Z":61,"[":62,"\\":63,"]":64,"^":65,"_":66,"`":67,"a":68,"b":69,"c":70,"d":71,"e":72,"f":73,"g":74,"h":75,"i":76,"j":77,"k":78,"l":79,"m":80,"n":81,"o":82,"p":83,"q":84,"r":85,"s":86,"t":87,"u":88,"v":89,"w":90,"x":91,"y":92,"z":93,"{":94,"|":95,"}":96,"~":97,"¡":98,"¢":99,"£":100,"¤":101,"¥":102,"¦":103,"§":104,"¨":105,"©":106,"ª":107,"«":108,"¬":109,"®":110,"¯":111,"°":112,"±":113,"²":114,"³":115,"´":116,"µ":117,"¶":118,"·":119,"¸":120,"¹":121,"º":122,"»":123,"¼":124,"½":125,"¾":126,"¿":127,"À":128,"Á":129,"Â":130,"Ã":131,"Ä":132,"Å":133,"Æ":134,"Ç":135,"È":136,"É":137,"Ê":138,"Ë":139,"Ì":140,"Í":141,"Î":142,"Ï":143,"Ð":144,"Ñ":145,"Ò":146,"Ó":147,"Ô":148,"Õ":149,"Ö":150,"×":151,"Ø":152,"Ù":153,"Ú":154,"Û":155,"Ü":156,"Ý":157,"Þ":158,"ß":159,"à":160,"á":161,"â":162,"ã":163,"ä":164,"å":165,"æ":166,"ç":167,"è":168,"é":169,"ê":170,"ë":171,"ì":172,"í":173,"î":174,"ï":175,"ð":176,"ñ":177,"ò":178,"ó":179,"ô":180,"õ":181,"ö":182,"÷":183,"ø":184,"ù":185,"ú":186,"û":187,"ü":188,"ý":189,"þ":190,"ÿ":191,"Ā":192,"ā":193,"Ă":194,"ă":195,"Ą":196,"ą":197,"Ć":198,"ć":199,"Ĉ":200,"ĉ":201,"Ċ":202,"ċ":203,"Č":204,"č":205,"Ď":206,"ď":207,"Đ":208,"đ":209,"Ē":210,"ē":211,"Ĕ":212,"ĕ":213,"Ė":214,"ė":215,"Ę":216,"ę":217,"Ě":218,"ě":219,"Ĝ":220,"ĝ":221,"Ğ":222,"ğ":223,"Ġ":224,"ġ":225,"Ģ":226,"ģ":227,"Ĥ":228,"ĥ":229,"Ħ":230,"ħ":231,"Ĩ":232,"ĩ":233,"Ī":234,"ī":235,"Ĭ":236,"ĭ":237,"Į":238,"į":239,"İ":240,"ı":241,"Ĳ":242,"ĳ":243,"Ĵ":244,"ĵ":245,"Ķ":246,"ķ":247,"ĸ":248,"Ĺ":249,"ĺ":250,"Ļ":251,"ļ":252,"Ľ":253,"ľ":254,"Ŀ":255,"ŀ":256,"Ł":257,"ł":258,"Ń":259,"Ġ=":260,"in":261,"er":262,"Ġ|":263,"at":264,"en":265,"re":266,"on":267,"Ġa":268,"Ġp":269,"or":270,"am":271,"la":272,"as":273,"Ġg":274,"ent":275,"ame":276,"le":277,"Ġt":278,"lay":279,"ing":280,"for":281,"ti":282,"Ġy":283,"Ġs":284,"Ġn":285,"Ġth":286,"ve":287,"Ġre":288,"int":289,"Ġr":290,"ers":291,"ed":292,"ou":293,"Ġi":294,"ĠP":295,"Ġpers":296,"ĠS":297,"intent":298,"form":299,"ĠT":300,"cti":301,"Ġrat":302,"ĠM":303,"Ġgame":304,"Ġin":305,"leas":306,"ion":307,"Ġreleas":308,"ir":309,"layer":310,"es":311,"Ġh":312,"Ġname":313,"Ġan":314,"Ġ2":315,"Ġm":316,"Ġrating":317,"Ġis":318,"Ġd":319,"ar":320,"ĠE":321,"res":322,"Ġo":323,"ation":324,"pe":325,"oo":326,"Ġrelease":327,"Ġb":328,"Ġyou":329,"ul":330,"ure":331,"Ġhas":332,"Ġgen":333,"Ġ20":334,"ĠI":335,"Ġf":336,"ll":337,"Ġgenres":338,"Ġw":339,"Ġon":340,"an":341,"Ġperson":342,"ver":343,"ac":344,"Ġand":345,"dv":346,"ird":347,"dvent":348,"dventure":349,"Ġof":350,"lat":351,"player":352,"ri":353,"latform":354,"te":355,"Ġplatform":356,"lo":357,"Ġno":358,"ctive":359,"he":360,"ĠPC":361,"Ġperspe":362,"Ġperspective":363,"Ġinform":364,"ulti":365,"Ġmulti":366,"Ġmultiplayer":367,"St":368,"ĠL":369,"Ġ201":370,"Ġthe":371,"om":372,"ĠPlay":373,"Station":374,"ĠPlayStation":375,"ie":376,"ter":377,"Ġe":378,"st":379,"ge":380,"it":381,"Ġde":382,"ai":383,"ear":384,"Ġc":385,"lop":386,"velop":387,"ĠC":388,"Ġdevelop":389,"ction":390,"Ġplatforms":391,"ĠThe":392,"'s":393,"Ġyes":394,"al":395,"Ġaction":396,"Ġthird":397,"Ġplayer":398,"ĠN":399,"bo":400,"Ġthat":401,"Ġfor":402,"Ġyear":403,"ble":404,"ĠA":405,"li":406,"Xbo":407,"ĠXbo":408,"ĠXbox":409,"ĠIt":410,"Ġsh":411,"ĠR":412,"ce":413,"Ġgames":414,"ĠW":415,"Ġav":416,"Ġdeveloper":417,"aila":418,"Ġavaila":419,"Ġavailable":420,"Ġex":421,"ĠSte":422,"ĠSteam":423,"Ġshoo":424,"tr":425,"ĠD":426,"ĠLin":427,"ĠMac":428,"adventure":429,"Ġ(":430,"Ġshooter":431,"ux":432,"ĠLinux":433,"ood":434,"Ġit":435,"Ġgood":436,"age":437,"Ġv":438,"iew":439,"Ġwas":440,"end":441,"est":442,"ort":443,"Ġsi":444,"ld":445,"ate":446,"Ġaver":447,"Ġaverage":448,"Ġplay":449,"Ġ1":450,"Ġview":451,"ĠH":452,"gh":453,"irst":454,"if":455,"Ġfirst":456,"ĠB":457,"ole":458,"port":459,"ke":460,"Ġadventure":461,"is":462,"ateg":463,"Ġstr":464,"Ġreleased":465,"ic":466,"de":467,"ategy":468,"all":469,"play":470,"Ġstrategy":471,"RB":472,"SRB":473,"ĠESRB":474,"ith":475,"Ġpo":476,"Ġrole":477,"playing":478,"Ġsim":479,"riv":480,"Ġby":481,"ut":482,"out":483,"Ġwith":484,"Ġ200":485,"qu":486,"Ġsimul":487,"Ġexce":488,"Ġexcell":489,"Ġexcellent":490,"Ġto":491,"Ġli":492,"ive":493,"ght":494,"ĠF":495,"ly":496,"acing":497,"ay":498,"Ġbird":499,"Ġsport":500,"riving":501,"Ġdriving":502,"ft":503,"intend":504,"ĠTe":505,"intendo":506,"ĠNintendo":507,"Ġsimulation":508,"ave":509,"Ġrequ":510,"ĠG":511,"Ġrequest":512,"ro":513,"un":514,"tri":515,"Ġpoor":516,"Ġlike":517,"Ġbe":518,"Ġfr":519,"zz":520,"io":521,"Ġfrom":522,"Ġind":523,"ĠO":524,"Ġrated":525,"Ġindie":526,"Ġsu":527,"Ġat":528,"99":529,"bu":530,"Ġnot":531,"one":532,"ch":533,"and":534,"racing":535,"ĠV":536,"Ġop":537,"ature":538,"der":539,"ow":540,"tribu":541,"tribute":542,"Ġattribute":543,"ck":544,"us":545,"Ġpu":546,"ĠU":547,"ĠEn":548,"Ġpuzz":549,"ta":550,"Ġbut":551,"Ġpuzzle":552,"Ġplayed":553,"inion":554,"ĠMature":555,"Ġopinion":556,"pec":557,"me":558,"Ġdo":559,"ight":560,"Ġver":561,"lan":562,"ĠII":563,"ad":564,"Ġgive":565,"omb":566,"ify":567,"Ġverify":568,"Ġ3":569,"Ġcan":570,"th":571,"Ġor":572,"Ġhave":573,"Ġ199":574,"You":575,"Ġplatformer":576,"ry":577,"very":578,"id":579,"ia":580,"veryone":581,"ĠSpe":582,"omm":583,"ĠWor":584,"ier":585,"ally":586,"tu":587,"ĠNe":588,"Wh":589,"ĠRe":590,"ment":591,"Ġout":592,"Ġcon":593,"ur":594,"ĠTh":595,"Ġ2014":596,"ted":597,"ĠEveryone":598,"Ġab":599,"ĠTeen":600,"ag":601,"ĠGame":602,"cal":603,"ĠSpeed":604,"ĠGames":605,"Ġdeveloped":606,"Ġabout":607,"Ġrec":608,"ero":609,"ig":610,"Ġexp":611,"'t":612,"ack":613,"dio":614,"tudio":615,"tain":616,"ind":617,"ĠStudio":618,"PG":619,"Ġen":620,"up":621,"Ġspec":622,"oft":623,"Ġ2015":624,"jo":625,"tainment":626,"tertainment":627,"ĠEntertainment":628,"ard":629,"ommend":630,"Ġrecommend":631,"The":632,"joy":633,"Ġta":634,"Ġspecif":635,"Ġenjoy":636,"are":637,"et":638,"Ġspecifier":639,"ctical":640,"ĠDo":641,"ost":642,"Ġwh":643,"ĠNeed":644,"Ġtactical":645,"gest":646,"kn":647,"ade":648,"ĠWorld":649,"Ġconf":650,"ere":651,"irm":652,"ĠUn":653,"ĠStudios":654,"lder":655,"lanation":656,"Ġexplanation":657,"Ġas":658,"What":659,"Ġsug":660,"Ġconfirm":661,").":662,"Ġsuggest":663,"Ġside":664,"ĠSk":665,"king":666,"os":667,"ĠHero":668,"uper":669,"ol":670,"Ġany":671,"tle":672,"Ġ10":673,"ms":674,"Ġ4":675,"itch":676,"Ġreal":677,"ĠWar":678,"ĠSi":679,"iv":680,"Ġfe":681,"ĠCry":682,"mp":683,"Ġcame":684,"ust":685,"time":686,"Ġme":687,"aider":688,"ĠRaider":689,"Do":690,"ĠRo":691,"ho":692,"ball":693,"ass":694,"ĠMe":695,"Ġ2016":696,"ss":697,"ra":698,"sh":699,"Ġare":700,"ber":701,"Ġso":702,"If":703,"raft":704,"ould":705,"Ġpoint":706,"Ġdoes":707,"ill":708,"Ġ2011":709,"ell":710,"lick":711,"Ġthin":712,"ĠAge":713,"click":714,"RPG":715,"Ġal":716,"lar":717,"oom":718,"Ġthink":719,"MO":720,"ĠTomb":721,"ĠMMO":722,"Ġ2018":723,"ĠMMORPG":724,"ased":725,"urn":726,"Ġturn":727,"tro":728,"ittle":729,"Ġratings":730,"Ġ2017":731,"ĠSm":732,"Ġj":733,"based":734,"ingle":735,"Ġsingle":736,"ine":737,"ough":738,"ĠSuper":739,"ĠSoft":740,"Ġjust":741,"Ġkn":742,"ĠCh":743,"Ġpre":744,"ther":745,"aw":746,"ĠK":747,"Ġknow":748,"ores":749,"ĠUs":750,"Ġhack":751,"sla":752,"ĠIn":753,"aid":754,"ĠAn":755,"orest":756,"slash":757,"Ġsaid":758,"Ġreally":759,"ĠEA":760,"ĠForest":761,"se":762,"ast":763,"ĠSh":764,"uit":765,"ĠLe":766,"ĠPay":767,"ular":768,"line":769,"Ġmo":770,"Ġonly":771,"ator":772,"lanc":773,"ater":774,"load":775,"cro":776,"oon":777,"tt":778,"ĠMag":779,"ĠWi":780,"tale":781,"ĠMagic":782,"Ġlo":783,"Ġyour":784,"croll":785,"'re":786,"Ġfun":787,"BA":788,"mber":789,"so":790,"ĠPro":791,"ĠScroll":792,"ĠElder":793,"Ġcomb":794,"ĠScrolls":795,"ention":796,"Ġracing":797,"ĠSky":798,"Ġ2005":799,"Ġsports":800,"ak":801,"ĠStr":802,"ĠLittle":803,"Ġsup":804,"craft":805,"ĠClanc":806,"ĠMetro":807,"ĠSoftw":808,"loaded":809,"ĠClancy":810,"ot":811,"Ġother":812,"Ġone":813,"ĠCor":814,"ĠAm":815,"Ġ15":816,"inball":817,"river":818,"ĠReloaded":819,"rat":820,"witch":821,"Ġ2010":822,"ĠHeroes":823,"ite":824,"Ġall":825,"ĠTy":826,"Ġmade":827,"Ġtry":828,"ax":829,"coon":830,"oration":831,"ĠCre":832,"Ġsupport":833,"dge":834,"Ġrece":835,"Ġ1999":836,"ĠTycoon":837,"ĠMight":838,"hic":839,"ance":840,"Ġexpec":841,"Ġplaying":842,"Ġcombat":843,"ong":844,"tion":845,"loo":846,"ife":847,"ĠBio":848,"ĠZ":849,"Ġve":850,"tty":851,"Ġvehic":852,"ĠYou":853,"Ġalso":854,"Ġmention":855,"anted":856,"Ġmean":857,"ĠTr":858,"ĠMost":859,"ĠWarcraft":860,"Ġvehicular":861,"ĠLast":862,"hock":863,"Ġreceive":864,"Ġte":865,"Ġreceived":866,"Shock":867,"ĠWanted":868,"Ġthis":869,"ĠAss":870,"Ġmode":871,"Ġexpected":872,"Ġ2013":873,"ĠDriver":874,"Ġever":875,"ue":876,"Ġmy":877,"ĠNBA":878,"ĠOn":879,"ĠBe":880,"ĠVI":881,"dertale":882,"Ġpretty":883,"ĠSwitch":884,"ĠAdventure":885,"ĠBig":886,"el":887,"ron":888,"Ġ2009":889,"ory":890,"ĠWorms":891,"Are":892,"Ġmentioned":893,"onder":894,"ĠMan":895,"ake":896,"aos":897,"Ġfight":898,"ĠNight":899,"ĠRoll":900,"ĠChaos":901,"ĠOnline":902,"em":903,"ess":904,"ome":905,"Ġthere":906,"ĠRPG":907,"Ġfighting":908,"16":909,"il":910,"ĠHit":911,"Ġsuch":912,"ond":913,"Ġfind":914,"assin":915,"ĠCreed":916,"Ġar":917,"ĠSoftware":918,"inter":919,"Ġfan":920,"ich":921,"ket":922,"Ġlove":923,"fer":924,"ĠThis":925,"ash":926,"Ġmus":927,"arted":928,"ĠHill":929,"Ġfeel":930,"uitar":931,"cket":932,"ague":933,"ĠLeague":934,"ĠBioShock":935,"Ġmusic":936,"ony":937,"Ġhear":938,"ief":939,"ĠHaw":940,"charted":941,"ĠEnd":942,"ĠIII":943,"ĠThief":944,"ĠSkater":945,"ĠSmash":946,"ĠHits":947,"ĠHawk":948,"ror":949,"Ġrev":950,"ct":951,"ĠTom":952,"ĠHave":953,"av":954,"xt":955,"orm":956,"Ġgener":957,"ma":958,"Ġun":959,"Ġget":960,"rim":961,"hing":962,"yp":963,"aly":964,"Ġsimulator":965,"ĠAmong":966,"Ġheard":967,"ked":968,"ataly":969,"Ġtriv":970,"irror":971,"ĠEdge":972,"Ġ2012":973,"ĠCataly":974,"ĠWol":975,"Ġtrivia":976,"ĠCatalyst":977,"ĠWolf":978,"'m":979,"oun":980,"ĠOlder":981,"Ġreview":982,"ili":983,"ĠDance":984,"Ġtext":985,"Ġdid":986,"board":987,"own":988,"Ġwhich":989,"ire":990,"Ġsay":991,"Ġshoot":992,"Ne":993,"od":994,"Ġmost":995,"ĠUndertale":996,"ap":997,"po":998,"Ġ&":999,"ĠMar":1000,"ĠRoom":1001,"ĠDoom":1002,"ĠMario":1003,"ime":1004,"Ġdate":1005,"ts":1006,"ings":1007,"ĠTeam":1008,"ĠOut":1009,"lizz":1010,"ign":1011,"lizzard":1012,"Ġloo":1013,"cade":1014,"man":1015,"vol":1016,"forge":1017,"arkn":1018,"gel":1019,"ĠRun":1020,"ĠWitch":1021,"ĠDarkn":1022,"ĠHun":1023,"Ġ2004":1024,"Ġ1994":1025,"ĠAngel":1026,"ĠWild":1027,"Ġarcade":1028,"ĠWitcher":1029,"ĠDarkness":1030,"ĠHunt":1031,"lent":1032,"last":1033,"Ġtal":1034,"Ġ2001":1035,"ĠRocket":1036,"ore":1037,"ĠTony":1038,"Ġdis":1039,"ice":1040,"ĠMad":1041,"Ġmak":1042,"ĠGuitar":1043,"ĠSilent":1044,"ires":1045,"ange":1046,"Ġdoesn":1047,"Ġreviews":1048,"Have":1049,"au":1050,"ĠBlizzard":1051,"Ġmakes":1052,"sis":1053,"ĠPri":1054,"ĠPinball":1055,"ĠMon":1056,"ĠEmp":1057,"ant":1058,"ĠTheory":1059,"ortal":1060,"ĠUncharted":1061,"ĠKings":1062,"ĠStrange":1063,"avor":1064,"ĠPrime":1065,"ĠEmpires":1066,"Ġfavor":1067,"ĠInter":1068,"For":1069,"ĠFire":1070,"reat":1071,"ne":1072,"use":1073,"Ġenjoyed":1074,"'ve":1075,"old":1076,"to":1077,"Ġqu":1078,"ĠMirror":1079,"ital":1080,"ishing":1081,"igital":1082,"33":1083,"erman":1084,"ĠSp":1085,"ĠMass":1086,"arter":1087,"ĠEth":1088,"Ġ2033":1089,"anishing":1090,"ĠCarter":1091,"ĠAl":1092,"ĠDigital":1093,"ĠBomb":1094,"Ġ2002":1095,"ĠVanishing":1096,"Why":1097,"ĠSim":1098,"ound":1099,"ĠEthan":1100,"ĠBomberman":1101,"aster":1102,"lid":1103,"Ġtalking":1104,"ami":1105,"arli":1106,"Ġbeen":1107,"ĠSmall":1108,"Need":1109,"arlier":1110,"fe":1111,"ial":1112,"ince":1113,"oot":1114,"ays":1115,"ĠAssassin":1116,"Ġlooking":1117,"Co":1118,"car":1119,"den":1120,"ep":1121,"poration":1122,"ara":1123,"Ġbo":1124,"Ġwonder":1125,"ĠNF":1126,"ision":1127,"ivision":1128,"ĠSkyrim":1129,"ĠCorporation":1130,"Ġfavorite":1131,"hind":1132,"lind":1133,"ox":1134,"rand":1135,"sir":1136,"erCo":1137,"ought":1138,"ĠCro":1139,"ĠDivision":1140,"ĠLines":1141,"ghold":1142,"ĠBlind":1143,"ghty":1144,"ĠTemp":1145,"tris":1146,"ĠOsir":1147,"andos":1148,"ĠEnem":1149,"ommandos":1150,"ager":1151,"ĠDog":1152,"ĠBehind":1153,"ĠManager":1154,"aughty":1155,"ootball":1156,"ĠNFL":1157,"erCoaster":1158,"ĠCroft":1159,"ĠTemple":1160,"ĠOsiris":1161,"ĠEnemy":1162,"Ġsome":1163,"Ġ1998":1164,"ced":1165,"ple":1166,"Ġtoo":1167,"Ġthought":1168,"ĠEv":1169,"ĠSkyforge":1170,"So":1171,"ĠNaughty":1172,"ĠAre":1173,"cage":1174,"ide":1175,"esid":1176,"Ġliked":1177,"ĠEvil":1178,"esident":1179,"blo":1180,"down":1181,"linter":1182,"ud":1183,"ution":1184,"zation":1185,"orSt":1186,"irt":1187,"ĠIll":1188,"ĠCiv":1189,"ĠCell":1190,"ĠApo":1191,"Ġ12":1192,"ift":1193,"Ġ2007":1194,"ĠFear":1195,"ayers":1196,"owdown":1197,"usion":1198,"iablo":1199,"calyp":1200,"ĠMeier":1201,"ĠShift":1202,"ĠShowdown":1203,"otorSt":1204,"ilization":1205,"volution":1206,"ĠSplinter":1207,"ĠAlone":1208,"ĠIllusion":1209,"ĠCivilization":1210,"ĠApocalyp":1211,"otorStorm":1212,"ĠApocalypse":1213,"FA":1214,"IFA":1215,"ye":1216,"Is":1217,"day":1218,"kay":1219,"Ġse":1220,"Ġne":1221,"ous":1222,"Ġele":1223,"rated":1224,"fect":1225,"cl":1226,"ven":1227,"Ġreme":1228,"Ġeye":1229,"Ġboth":1230,"ual":1231,"Ġthough":1232,"ĠPortal":1233,"Ġokay":1234,"anced":1235,"Ġvide":1236,"ĠCrysis":1237,"Ġelement":1238,"Ġremember":1239,"Ġvideo":1240,"HL":1241,"ĠLife":1242,"Ġshould":1243,"ĠThr":1244,"ĠPayne":1245,"Life":1246,"bis":1247,"eld":1248,"fare":1249,"ffect":1250,"ham":1251,"sa":1252,"uck":1253,"zard":1254,"onami":1255,"lack":1256,"ently":1257,"ĠSep":1258,"ĠEffect":1259,"Ġfound":1260,"dvanced":1261,"tember":1262,"ĠAdvanced":1263,"ĠWond":1264,"ĠDut":1265,"Ġcons":1266,"etto":1267,"ĠWarfare":1268,"hot":1269,"ĠWizard":1270,"ĠCorsa":1271,"Ġdidn":1272,"ĠThrone":1273,"bisoft":1274,"ĠSeptember":1275,"ĠWonders":1276,"ĠDuty":1277,"vers":1278,"Ġus":1279,"Ġgreat":1280,"orth":1281,"Ġ2000":1282,"ĠMetroid":1283,"Ġelements":1284,"Super":1285,"ien":1286,"sport":1287,"ĠUbisoft":1288,"ĠKonami":1289,"iz":1290,"Ġwell":1291,"Ġshooters":1292,"Ġdisli":1293,"alve":1294,"back":1295,"gend":1296,"ina":1297,"onghold":1298,"ĠTime":1299,"ĠMax":1300,"Ġche":1301,"ĠCommandos":1302,"ĠOcar":1303,"ĠValve":1304,"ĠLegend":1305,"ĠStronghold":1306,"ĠZeld":1307,"ĠOcarina":1308,"ĠZelda":1309,"af":1310,"hia":1311,"suit":1312,"uro":1313,"les":1314,"ĠPur":1315,"ĠErat":1316,"ulator":1317,"ansport":1318,"Ġoff":1319,"Ġeven":1320,"ĠRest":1321,"rivial":1322,"Ġ1993":1323,"ĠNevers":1324,"ĠThere":1325,"ĠEAD":1326,"ĠPayback":1327,"ĠTruck":1328,"ĠNightma":1329,"ĠSimulator":1330,"afia":1331,"ĠPursuit":1332,"ĠErathia":1333,"ĠRestoration":1334,"ĠNeversoft":1335,"ĠNightmares":1336,"rough":1337,"ĠIs":1338,"llFor":1339,"Ġwill":1340,"Ġearlier":1341,"ĠTetris":1342,"ĠOri":1343,"ĠSims":1344,"llForce":1345,"ky":1346,"med":1347,"led":1348,"vel":1349,"ĠSo":1350,"Ġdon":1351,"Ġover":1352,"Ġfri":1353,"omp":1354,"ĠFar":1355,"ĠRollcage":1356,"ĠOutlast":1357,"Ġthrough":1358,"Ġthem":1359,"ĠResident":1360,"Man":1361,"active":1362,"reak":1363,"Ġtri":1364,"Ġst":1365,"Ġif":1366,"Ġthey":1367,"ĠFootball":1368,"ĠRollerCoaster":1369,"ĠRemed":1370,"ivers":1371,"ĠRemedy":1372,"Craft":1373,"Qu":1374,"able":1375,"arCraft":1376,"Ġwould":1377,"antu":1378,"ĠNorth":1379,"ĠBreak":1380,"Ġpoorly":1381,"ĠRevolution":1382,"ĠRevel":1383,"ĠUnivers":1384,"Ġgeneral":1385,"ĠInteractive":1386,"Quantu":1387,"ĠRevelation":1388,"ĠUniverse":1389,"Quantum":1390,"Ġint":1391,"Ġpinball":1392,"ample":1393,"Ġrun":1394,"ĠMotorStorm":1395,"Ġhad":1396,"ĠLara":1397,"ĠLayers":1398,"Ġexample":1399,"Ġtried":1400,"uch":1401,"ĠCall":1402,"ĠBus":1403,"Ġinto":1404,"Ġup":1405,"Ġmuch":1406,"light":1407,"ĠRed":1408,"ĠNever":1409,"ĠMadden":1410,"Ass":1411,"Spe":1412,"tre":1413,"ties":1414,"ĠTo":1415,"Ġhow":1416,"ĠDiablo":1417,"ither":1418,"ience":1419,"nam":1420,"ynam":1421,"oriz":1422,"Ġwere":1423,"rif":1424,"etal":1425,"ynamic":1426,"bla":1427,"nake":1428,"ua":1429,"enua":1430,"ĠSac":1431,"ĠSid":1432,"ĠSnake":1433,"ĠSenua":1434,"ĠEater":1435,"Ġdec":1436,"ĠTheft":1437,"ĠAut":1438,"ĠDaw":1439,"ĠGear":1440,"Ġwhat":1441,"ellbla":1442,"ĠZero":1443,"ĠMontre":1444,"Ġoffers":1445,"ĠSolid":1446,"orizon":1447,"rifice":1448,"ĠSacrifice":1449,"ĠAuto":1450,"ĠDawn":1451,"ellblade":1452,"ĠMontreal":1453,"Since":1454,"Wor":1455,"ank":1456,"ity":1457,"ĠDirt":1458,"Ġfeat":1459,"Ro":1460,"aking":1461,"Ġtit":1462,"ĠMafia":1463,"Ġcal":1464,"ately":1465,"ĠFIFA":1466,"Ġexper":1467,"Ġfriend":1468,"ĠNHL":1469,"Ġbet":1470,"Ġwondering":1471,"Ġexperience":1472,"ider":1473,"fort":1474,"Ġright":1475,"esign":1476,"stal":1477,"ĠInd":1478,"ĠAssetto":1479,"Ġgenerally":1480,"17":1481,"ci":1482,"uri":1483,"ork":1484,"Ġgot":1485,"Ġgenre":1486,"Ġfond":1487,"alf":1488,"cep":1489,"unately":1490,"CS":1491,"Un":1492,"com":1493,"td":1494,"ures":1495,"attle":1496,"oncep":1497,"ĠSCS":1498,"ĠLtd":1499,"Ġcuri":1500,"ĠConcep":1501,"ĠDesign":1502,"isual":1503,"icles":1504,"ĠVisual":1505,"Ġ1990":1506,"ĠReign":1507,"ĠChron":1508,"ĠTransport":1509,"Ġdecent":1510,"ĠIndia":1511,"Ġcurious":1512,"ĠConcepts":1513,"ĠChronicles":1514,"lt":1515,"tic":1516,"Ġthen":1517,"Ġwant":1518,"Ġoption":1519,"Ġfelt":1520,"ĠSuperhot":1521,"An":1522,"Ġcalled":1523,"Ġfriends":1524,"the":1525,"ĠEuro":1526,"Ġeither":1527,"ĠCan":1528,"ise":1529,"fortunately":1530,"Tom":1531,"ĠTrivial":1532,"ĠFr":1533,"Ġsupported":1534,"ankf":1535,"Age":1536,"Me":1537,"zing":1538,"Ġama":1539,"ĠCore":1540,"urt":1541,"Ġwhy":1542,"Ġruns":1543,"Ġamazing":1544,"19":1545,"by":1546,"fox":1547,"ix":1548,"ities":1549,"mare":1550,"eric":1551,"ĠMic":1552,"oof":1553,"Ġbad":1554,"tek":1555,"Ġ2019":1556,"ĠCities":1557,"ĠWonder":1558,"ĠWake":1559,"ĠDays":1560,"ĠDynamic":1561,"Ġits":1562,"Ġ14":1563,"Ġtoby":1564,"rose":1565,"ada":1566,"ĠCrytek":1567,"ĠPayday":1568,"ĠAmeric":1569,"loober":1570,"ĠNightmare":1571,"cient":1572,"them":1573,"ĠCanada":1574,"ĠFrankf":1575,"Metro":1576,"ĠMicro":1577,"ĠDynamics":1578,"Ġtobyfox":1579,"ĠAmerican":1580,"ĠFrankfurt":1581,"),":1582,"Prose":1583,"ĠQuantum":1584,"asy":1585,"ĠTin":1586,"ress":1587,"ĠBattle":1588,"Ġ2008":1589,"ĠCrystal":1590,"ĠMicroProse":1591,"Ġback":1592,"Ġway":1593,"Ġperspectives":1594,"ĠBloober":1595,"Ġprefer":1596,"interest":1597,"orks":1598,"uter":1599,"erri":1600,"ĠSt":1601,"Ġbest":1602,"ports":1603,"ĠFuse":1604,"ĠGrand":1605,"ĠSpellForce":1606,"Ġwhen":1607,"Ġfeatures":1608,"ful":1609,"mer":1610,"ĠHorizon":1611,"mpress":1612,"Ġdislike":1613,"Ġoverall":1614,"omputer":1615,"ĠStarCraft":1616,"aut":1617,"ways":1618,"ĠSports":1619,"ĠMetal":1620,"Ġisn":1621,"ĠAst":1622,"usive":1623,"ĠAncient":1624,"clusive":1625,"86":1626,"986":1627,"ctr":1628,"ever":1629,"pr":1630,"rts":1631,"sy":1632,"sier":1633,"enox":1634,"onic":1635,"onix":1636,"ledge":1637,"lectr":1638,"ĠSlight":1639,"ĠTur":1640,"arre":1641,"arsier":1642,"Ġcould":1643,"ĠCE":1644,"ĠComputer":1645,"ĠArts":1646,"ĠWay":1647,"Ġ1986":1648,"ĠHole":1649,"ĠBost":1650,"ically":1651,"adow":1652,"ackMan":1653,"Ġalways":1654,"ĠAnthem":1655,"ĠSoftworks":1656,"ronaut":1657,"Ġquite":1658,"ĠIllusions":1659,"hammer":1660,"Ġcheck":1661,"ĠAstronaut":1662,"proof":1663,"syonix":1664,"ledgehammer":1665,"lectronic":1666,"ĠSlightly":1667,"ĠTurbo":1668,"ĠBoston":1669,"ackMania":1670,"ĠAstronauts":1671,"Ġgam":1672,"ĠPsyonix":1673,"ĠSledgehammer":1674,"ĠTarsier":1675,"ĠElectronic":1676,"Ġch":1677,"Ġexclusive":1678,"ĠHellblade":1679,"ĠBlack":1680,"ĠTell":1681,"Ġbeing":1682,"ĠBeenox":1683,"Ġshooting":1684,"ĠMassive":1685,"Ġseem":1686,"Ġtitle":1687,"Little":1688,"Ġinterest":1689,"ase":1690,"Ġsame":1691,"Ġreleases":1692,"ality":1693,"Ġplayers":1694,"ĠRPGs":1695,"ĠFireproof":1696,"Assassin":1697,"ĠTelltale":1698,"cre":1699,"ually":1700,"Ġtr":1701,"Ġtime":1702,"thing":1703,"Ġlot":1704,"Ġconsole":1705,"du":1706,"ug":1707,"ated":1708,"Ġtend":1709,"Ġincl":1710,"ris":1711,"Ġpuzzles":1712,"Roll":1713,"Tomb":1714,"ause":1715,"Ġtyp":1716,"Ġnorm":1717,"Ġnow":1718,"ĠWould":1719,"urr":1720,"asters":1721,"Ġsimulators":1722,"Ġconsider":1723,"In":1724,"Max":1725,"NBA":1726,"fore":1727,"je":1728,"kill":1729,"mble":1730,"masters":1731,"nation":1732,"son":1733,"yro":1734,"Ġl":1735,"Ġlack":1736,"Ġad":1737,"Ġam":1738,"ĠPyro":1739,"verkill":1740,"Ġoffer":1741,"Ġcom":1742,"ĠAde":1743,"Ġ11":1744,"ĠHud":1745,"demasters":1746,"Ġ2003":1747,"ĠEnse":1748,"kyo":1749,"Speaking":1750,"ĠTokyo":1751,"urrently":1752,"national":1753,"ĠAdeline":1754,"ĠHudson":1755,"ĠEnsemble":1756,"Ġlat":1757,"Ġpar":1758,"Ġsolid":1759,"Ġloved":1760,"ĠInternational":1761,"Ġnormally":1762,"By":1763,"Tr":1764,"odemasters":1765,"lore":1766,"ĠCodemasters":1767,"Ġbec":1768,"Ġmore":1769,"ile":1770,"ĠJ":1771,"Ġsince":1772,"Ġwe":1773,"Ġplatformers":1774,"Ġcase":1775,"Ġbefore":1776,"ĠOverkill":1777,"Ġvery":1778,"ĠShadow":1779,"Ġquality":1780,"Ġtypically":1781,"Ġlate":1782,"'d":1783,"ab":1784,"ilar":1785,"tent":1786,"Ġk":1787,"Ġent":1788,"inal":1789,"ersion":1790,"edio":1791,"Ġman":1792,"Ġmight":1793,"Ġmedio":1794,"Ġdown":1795,"ield":1796,"ĠHalf":1797,"World":1798,"Ġbetter":1799,"mpressed":1800,"Ġlately":1801,"Ġmediocre":1802,"Oh":1803,"Pay":1804,"fly":1805,"ls":1806,"Ġnice":1807,"Ġcurrently":1808,"Ġversion":1809,"ĠFant":1810,"ĠVII":1811,"Ġunfortunately":1812,"Ġnew":1813,"Ġgaming":1814,"Ġinclud":1815,"Ġbecause":1816,"ĠFantasy":1817,"Ware":1818,"brand":1819,"field":1820,"ibu":1821,"ĠSout":1822,"ĠTibu":1823,"irax":1824,"Ġmature":1825,"ary":1826,"Ġtheir":1827,"ĠAlan":1828,"ĠRise":1829,"ĠBarre":1830,"ĠFirax":1831,"ĠGrim":1832,"ower":1833,"shade":1834,"ĠProdu":1835,"ĠCrew":1836,"apcom":1837,"ĠFirefly":1838,"ĠFirebrand":1839,"Undertale":1840,"Ġconsoles":1841,"Payday":1842,"ĠSoutham":1843,"ĠTiburon":1844,"ĠBarrels":1845,"ĠFiraxis":1846,"ĠGrimlore":1847,"ĠProduction":1848,"Ġgo":1849,"ĠCapcom":1850,"Ġtold":1851,"ĠGod":1852,"ows":1853,"Ġabs":1854,"ĠBioWare":1855,"Ġusually":1856,"ring":1857,"ward":1858,"Ġaw":1859,"Ġmind":1860,"ail":1861,"Ġrecently":1862,"appo":1863,"Ġdisappo":1864,"Ġinterested":1865,"Ġdisappoint":1866,"Mad":1867,"air":1868,"di":1869,"ste":1870,"ving":1871,"Ġpro":1872,"lection":1873,"Ġsomething":1874,"Worms":1875,"Madden":1876,"Bus":1877,"Far":1878,"Might":1879,"not":1880,"pp":1881,"ru":1882,"ula":1883,"Ġag":1884,"Ġthan":1885,"Ġrefer":1886,"Ġgameplay":1887,"Ġmake":1888,"Ġsimilar":1889,"Ġcannot":1890,"Ġfeature":1891,"ularly":1892,"ĠTrackMania":1893,"SpellForce":1894,"Ġpartic":1895,"Bio":1896,"Dirt":1897,"FIFA":1898,"Lara":1899,"Ġhate":1900,"ĠEx":1901,"Ġeveryone":1902,"ĠDon":1903,"Ġsur":1904,"Ġenjoyable":1905,"Ġteen":1906,"Ġmostly":1907,"Superhot":1908,"Metroid":1909,"Ġreferring":1910,"ED":1911,"IE":1912,"Mass":1913,"Sid":1914,"bru":1915,"een":1916,"ebru":1917,"ious":1918,"iMax":1919,"kt":1920,"lla":1921,"max":1922,"nod":1923,"tnod":1924,"uerri":1925,"yste":1926,"zion":1927,"zero":1928,"eniMax":1929,"Ġsyste":1930,"ĠSan":1931,"Ġ22":1932,"Ġ29":1933,"Ġbit":1934,"llod":1935,"Ġcome":1936,"ĠCD":1937,"ĠCli":1938,"ĠAtt":1939,"ĠAzero":1940,"ĠAllod":1941,"Ġshort":1942,"ĠRED":1943,"ĠDet":1944,"ica":1945,"ĠFebru":1946,"ĠGuerri":1947,"une":1948,"unos":1949,"Ġcontent":1950,"ĠKunos":1951,"ĠProje":1952,"odus":1953,"ĠMonica":1954,"ĠSimula":1955,"Uncharted":1956,"ugust":1957,"Ġconsidered":1958,"ĠJune":1959,"ĠExodus":1960,"ĠDontnod":1961,"iously":1962,"zioni":1963,"ĠSanta":1964,"ĠClimax":1965,"ĠAttention":1966,"ĠAzeroth":1967,"ĠAllods":1968,"ĠDetail":1969,"ĠFebruary":1970,"ĠGuerrilla":1971,"ĠProjekt":1972,"ĠSimulazioni":1973,"Cry":1974,"Earlier":1975,"Guitar":1976,"Half":1977,"Mirror":1978,"Sil":1979,"ten":1980,"viously":1981,"ween":1982,"Ġla":1983,"Ġac":1984,"Ġnor":1985,"Ġinvol":1986,"Ġdes":1987,"Ġwasn":1988,"Ġwithout":1989,"Ġnothing":1990,"though":1991,"ĠZeniMax":1992,"Ġsee":1993,"Ġdisliked":1994,"Ġbetween":1995,"ĠBattlefield":1996,"Ġexclusively":1997,"Ġaddi":1998,"BioShock":1999,"Silent":2000,"Diablo":2001,"Football":2002,"NHL":2003,"Ori":2004,"Portal":2005,"TS":2006,"Trivial":2007,"War":2008,"mall":2009,"yle":2010,"lass":2011,"Ġswitch":2012,"Ġim":2013,"ĠSIE":2014,"ĠMoon":2015,"leased":2016,"Ġmere":2017,"Ġbig":2018,"ull":2019,"Ġoften":2020,"Ġplatforming":2021,"StarCraft":2022,"Ġcreat":2023,"ĠAugust":2024,"ĠDe":2025,"Ġupcom":2026,"Assetto":2027,"Ġhowever":2028,"RollerCoaster":2029,"Ġmany":2030,"Crysis":2031,"Warcraft":2032,"Ġmerely":2033,"Ġcreated":2034,"Ġupcoming":2035,"Euro":2036,"Te":2037,"her":2038,"Ġterri":2039,"Ġyet":2040,"Ġset":2041,"Ġrather":2042,"Ġba":2043,"Ġfam":2044,"Ġfair":2045,"Ġcomm":2046,"Ġclass":2047,"ĠRTS":2048,"ĠFinal":2049,"Ġuni":2050,"Never":2051,"Ġsurp":2052,"Driver":2053,"How":2054,"Hero":2055,"Out":2056,"Sky":2057,"Small":2058,"Tony":2059,"ially":2060,"Ġle":2061,"Ġsti":2062,"Ġsol":2063,"our":2064,"uly":2065,"pecially":2066,"ĠUnfortunately":2067,"Ġallows":2068,"iliar":2069,"Ġsaying":2070,"Rocket":2071,"Ġdisappointing":2072,"Ġterrible":2073,"Ġfamiliar":2074,"Ġcommon":2075,"Ġclassic":2076,"Ġsurpris":2077,"Heroes":2078,"Outlast":2079,"Skyforge":2080,"Hellblade":2081,"Layers":2082,"MotorStorm":2083,"Th":2084,"olo":2085,"rategy":2086,"um":2087,"Ġes":2088,"arn":2089,"strategy":2090,"itable":2091,"ĠNo":2092,"ĠHow":2093,"iffer":2094,"Ġstrateg":2095,"ick":2096,"unch":2097,"Ġsuitable":2098,"ĠDoes":2099,"Ġnever":2100,"Ġcheap":2101,"Ġstyle":2102,"Ġtruly":2103,"Ġkind":2104,"Ġparticularly":2105,"Tetris":2106,"Ġespecially":2107,"Alan":2108,"Metal":2109,"Rise":2110,"az":2111,"elight":2112,"flection":2113,"ja":2114,"ober":2115,"pite":2116,"ute":2117,"vory":2118,"wood":2119,"yer":2120,"©al":2121,"Ã©al":2122,"Ġ7":2123,"inja":2124,"ating":2125,"Ġscar":2126,"ĠSpec":2127,"ĠSho":2128,"ĠSaw":2129,"ĠTower":2130,"ĠEid":2131,"ĠEvolution":2132,"ĠIvory":2133,"Ġwor":2134,"star":2135,"Ġcomp":2136,"ĠNinja":2137,"ĠWh":2138,"trum":2139,"trÃ©al":2140,"Ġ16":2141,"ĠHolo":2142,"ĠHaz":2143,"Ġtoward":2144,"ĠOct":2145,"ckstar":2146,"ĠReflection":2147,"ĠThough":2148,"Ġrecall":2149,"ĠRockstar":2150,"ĠInc":2151,"lanced":2152,"ĠNightshade":2153,"Ġunder":2154,"ĠMontrÃ©al":2155,"ĠRedwood":2156,"Byte":2157,"Transport":2158,"Ġaddictive":2159,"Ġimm":2160,"Ġbalanced":2161,"Ġstill":2162,"ĠHowever":2163,"ifferent":2164,"Ġscary":2165,"ĠSpectrum":2166,"ĠShores":2167,"ĠSawyer":2168,"ĠEidos":2169,"ĠHoloByte":2170,"ĠHazelight":2171,"ĠOctober":2172,"ĠReflections":2173,"Commandos":2174,"fin":2175,"lus":2176,"other":2177,"ting":2178,"ersive":2179,"Ġimpressed":2180,"Stron":2181,"When":2182,"olute":2183,"ĠChris":2184,"ility":2185,"Ġstand":2186,"Ġabsolute":2187,"Ġago":2188,"Ġsystems":2189,"Ġdespite":2190,"Ġsolving":2191,"Ġimmersive":2192,"Stronghold":2193,"Horizon":2194,"One":2195,"Resident":2196,"ces":2197,"ply":2198,"Ġapp":2199,"Ġspe":2200,"esome":2201,"Ġfami":2202,"Ġeasy":2203,"Ġdevelopers":2204,"Ġsimply":2205,"acked":2206,"Ġspecial":2207,"Ġwhile":2208,"Ġtitles":2209,"Rollcage":2210,"TrackMania":2211,"Ġincluding":2212,"Ġawesome":2213,"Ġlaunch":2214,"Ġinvolve":2215,"Ġfamily":2216,"'ll":2217,")?":2218,"20":2219,"Can":2220,"Did":2221,"Grand":2222,"Ġaud":2223,"Ġgiv":2224,"Ġtell":2225,"Ġhav":2226,"Ġmom":2227,"Ġold":2228,"ooter":2229,"Ġfull":2230,"act":2231,"Ġcap":2232,"Ġplays":2233,"Ġplayable":2234,"ish":2235,"allen":2236,"ĠOK":2237,"ose":2238,"shooter":2239,"Ġlook":2240,"Ġchallen":2241,"Ġunimpressed":2242,"Ġstrategic":2243,"Ġtowards":2244,"Ġabsolutely":2245,"Ġspeaking":2246,"Ġcapab":2247,"Call":2248,"Dance":2249,"Mafia":2250,"Would":2251,"bing":2252,"da":2253,"ey":2254,"ype":2255,"inally":2256,"Ġmay":2257,"right":2258,"lic":2259,"Ġvia":2260,"Ġliking":2261,"tually":2262,"Which":2263,"Ġfunction":2264,"Ġcombin":2265,"ilities":2266,"Ġdownload":2267,"Ġactually":2268,"Ġgiven":2269,"Ġmoment":2270,"Ġcapabilities":2271,"God":2272,"cas":2273,"ies":2274,"Ġjo":2275,"ertain":2276,"ening":2277,"oring":2278,"Ġgu":2279,"ented":2280,"less":2281,"tiful":2282,"Ġsad":2283,"Ġrest":2284,"Ġinst":2285,"esda":2286,"Ġdynamic":2287,"Ġolder":2288,"Ġfo":2289,"Ġfar":2290,"Ġwish":2291,"Ġdefin":2292,"Ġtot":2293,"Ġbeau":2294,"Ġgives":2295,"thesda":2296,"uring":2297,"Ġunus":2298,"ount":2299,"Ġreviewed":2300,"Ġquick":2301,"Ġuses":2302,"iences":2303,"Ġfeaturing":2304,"Ġkid":2305,"Ġnewest":2306,"Ġsurprising":2307,"Ġaudiences":2308,"licated":2309,"Ġinstance":2310,"Ġbeautiful":2311,"ER":2312,"HO":2313,"Night":2314,"Pre":2315,"PER":2316,"UPER":2317,"bje":2318,"ging":2319,"host":2320,"iest":2321,"jer":2322,"mit":2323,"no":2324,"si":2325,"ying":2326,"Ġleas":2327,"erful":2328,"orbing":2329,"ason":2330,"astic":2331,"Ġgri":2332,"learn":2333,"Ġtear":2334,"Ġtype":2335,"tive":2336,"Ġthing":2337,"Ġthose":2338,"vember":2339,"Ġreason":2340,"ĠSqu":2341,"ĠSUPER":2342,"Ġmust":2343,"Ġbiz":2344,"Ġboring":2345,"Ġemp":2346,"Ġcho":2347,"ĠNade":2348,"cember":2349,"Ġ13":2350,"Ġlimit":2351,"ghtening":2352,"Ġindifferent":2353,"Ġ1997":2354,"ĠUncas":2355,"itely":2356,"Ġaren":2357,"Ġusers":2358,"Ġcheerful":2359,"Ġoverrated":2360,"Ġfrightening":2361,"Ġchance":2362,"Ġamount":2363,"Ġcomes":2364,"Ġincludes":2365,"owering":2366,"Ġabsorbing":2367,"Ġsimilarly":2368,"Ġshortest":2369,"Ġseems":2370,"ĠDecember":2371,"ĠNovember":2372,"Ġunderrated":2373,"Ġinvolves":2374,"Ġoldest":2375,"Ġchallenging":2376,"Ġdefinitely":2377,"Ġtotally":2378,"Ġunusual":2379,"HOT":2380,"Nightshade":2381,"Previously":2382,"jerking":2383,"Ġleast":2384,"Ġtearjerking":2385,"ĠSquare":2386,"ĠSUPERHOT":2387,"Ġbizarre":2388,"Ġempowering":2389,"Ġchoice":2390,"ĠNadeo":2391,"ĠUncasual":2392,"Hey":2393,"Re":2394,"be":2395,"tastic":2396,"Ġline":2397,"Ġlast":2398,"Ġuse":2399,"erally":2400,"enerally":2401,"rect":2402,"orrect":2403,"Ġreg":2404,"Ġimpress":2405,"Ġhu":2406,"ool":2407,"Ġbu":2408,"Ġfre":2409,"Ġworth":2410,"ieve":2411,"Ġcri":2412,"Ġcorrect":2413,"veloped":2414,"Ġstrong":2415,"ĠGhost":2416,"ĠGenerally":2417,"Ġorig":2418,"agers":2419,"Ġenjoying":2420,"Ġwho":2421,"Ġwhere":2422,"Ġaspec":2423,"ival":2424,"Ġpreviously":2425,"Ġknows":2426,"Ġmeans":2427,"ĠBethesda":2428,"Ġfantastic":2429,"ĠSpider":2430,"Ġneed":2431,"Ġstory":2432,"Ġtrue":2433,"Ġcoming":2434,"Ġhaving":2435,"Ġkids":2436,"Ġgritty":2437,"Ġoriginally":2438,"Final":2439,"PS":2440,"afe":2441,"cus":2442,"igh":2443,"platform":2444,"ption":2445,"wh":2446,"onest":2447,"Ġable":2448,"Ġper":2449,"Ġpla":2450,"Ġgra":2451,"Ġsafe":2452,"Ġhated":2453,"Ġhigh":2454,"Ġanother":2455,"Ġma":2456,"Ġbl":2457,"ĠIf":2458,"rive":2459,"Ġevery":2460,"Ġcour":2461,"Ġcool":2462,"Ġexc":2463,"ĠFPS":2464,"Ġsubje":2465,"Ġtake":2466,"Ġexpect":2467,"Ġfeeling":2468,"ounter":2469,"ĠAlthough":2470,"Ġneither":2471,"Ġoptions":2472,"And":2473,"Ġinteresting":2474,"Ġversions":2475,"Ġcommonly":2476,"Ġworst":2477,"Ġjob":2478,"Ġguess":2479,"Ġfocus":2480,"Ġlineup":2481,"Ġhuge":2482,"Ġfrequ":2483,"Ġcourse":2484,"Ġsubject":2485,"It":2486,"Sh":2487,"cor":2488,"counter":2489,"des":2490,"eo":2491,"lieve":2492,"ning":2493,"oid":2494,"rch":2495,"tac":2496,"uke":2497,"ume":2498,"war":2499,"Ġend":2500,"ence":2501,"red":2502,"Ġadvent":2503,"Ġthri":2504,"Ġhit":2505,"Ġhel":2506,"Ġanno":2507,"Ġmat":2508,"Ġmess":2509,"Ġbro":2510,"Ġonline":2511,"Ġeas":2512,"gether":2513,"ites":2514,"Ġcare":2515,"Ġavoid":2516,"ĠDid":2517,"Ġviews":2518,"ĠBut":2519,"Ġposi":2520,"Ġbelieve":2521,"Ġpurch":2522,"Ġdoing":2523,"ĠReleased":2524,"Ġconven":2525,"Ġenough":2526,"Ġencounter":2527,"Ġspectac":2528,"ared":2529,"ĠMMORPGs":2530,"Ġmodes":2531,"rating":2532,"Ġtrying":2533,"Ġsupports":2534,"ĠHitman":2535,"Ġaround":2536,"app":2537,"Ġfavorites":2538,"Ġuser":2539,"Ġthemes":2540,"Ġluke":2541,"ably":2542,"Ġentire":2543,"Ġentertain":2544,"Ġteenagers":2545,"ĠDeveloped":2546,"Ġlaunched":2547,"Released":2548,"Ġfrequently":2549,"Shadow":2550,"eople":2551,"warm":2552,"Ġadventures":2553,"Ġhelp":2554,"Ġannoying":2555,"Ġpositive":2556,"Ġencountered":2557,"Ġspectacular":2558,"Ġlukewarm":2559,"bably":2560,"ler":2561,"mes":2562,"pic":2563,"packed":2564,"sume":2565,"Ġke":2566,"ative":2567,"Ġpres":2568,"Ġpic":2569,"Ġput":2570,"Ġplus":2571,"Ġpeople":2572,"orough":2573,"Ġthorough":2574,"Ġro":2575,"Ġmis":2576,"Ġdrive":2577,"Ġfact":2578,"lling":2579,"Ġwork":2580,"istic":2581,"Ġtogether":2582,"Ġfrust":2583,"thers":2584,"idd":2585,"While":2586,"ĠThat":2587,"Ġasking":2588,"Ġassume":2589,"Ġanything":2590,"Ġalthough":2591,"Ġsuper":2592,"Ġreception":2593,"Ġmeant":2594,"ĠOne":2595,"Ġselection":2596,"Ġdisliking":2597,"Ġstun":2598,"Ġpreference":2599,"Ġlacking":2600,"Ġamong":2601,"Ġcompe":2602,"Ġprobably":2603,"There":2604,"ĠWhile":2605,"Ġlimiting":2606,"ivalent":2607,"what":2608,"onestly":2609,"Ġblend":2610,"Ġthrilling":2611,"Ġthoroughly":2612,"Ġfrustrating":2613,"10":2614,"Blizzard":2615,"Battle":2616,"EA":2617,"Ever":2618,"Sp":2619,"bility":2620,"bivalent":2621,"cess":2622,"comp":2623,"ding":2624,"gative":2625,"ist":2626,"jor":2627,"ki":2628,"ming":2629,"pth":2630,"ude":2631,"ump":2632,"ens":2633,"ongest":2634,"Ġpacked":2635,"lax":2636,"times":2637,"Ġrelax":2638,"Ġimp":2639,"irky":2640,"Ġhor":2641,"Ġhold":2642,"Ġhapp":2643,"Ġmidd":2644,"Ġday":2645,"Ġdull":2646,"Ġnostal":2647,"Ġmultiple":2648,"Ġcol":2649,"ĠIts":2650,"ĠWith":2651,"Ġvis":2652,"using":2653,"Ġpuzzler":2654,"tactical":2655,"Ġconfusing":2656,"Ġrealistic":2657,"Ġalright":2658,"tten":2659,"Ġcombine":2660,"Ġfans":2661,"Ġquirky":2662,"Ġsomewhat":2663,"Ġnegative":2664,"Ġused":2665,"Another":2666,"Ġpreferred":2667,"Ġlittle":2668,"Ġlacklus":2669,"Ġambivalent":2670,"Ġweird":2671,"ability":2672,"Ġentry":2673,"Ġdownright":2674,"Ġgotten":2675,"Ġmindless":2676,"Ġprodu":2677,"Ġparticular":2678,"Ġsystem":2679,"Ġinvolving":2680,"Ġfairly":2681,"Ġsurprised":2682,"Ġcomplicated":2683,"Ġfunctionality":2684,"Ġsurprisingly":2685,"Ġregularly":2686,"Ġbuy":2687,"Ġcritic":2688,"Ġaspect":2689,"Ġmajor":2690,"Ġpicked":2691,"Ġstunning":2692,"Battlefield":2693,"Spider":2694,"Ġnostalg":2695,"Ġlackluster":2696,"Al":2697,"Just":2698,"Try":2699,"Was":2700,"bor":2701,"ff":2702,"fair":2703,"hus":2704,"hilar":2705,"ient":2706,"iac":2707,"iment":2708,"ken":2709,"ny":2710,"niac":2711,"oki":2712,"put":2713,"pos":2714,"som":2715,"Ġug":2716,"ates":2717,"reci":2718,"Ġadv":2719,"Ġport":2720,"Ġpick":2721,"orful":2722,"labor":2723,"Ġgory":2724,"Ġgoof":2725,"entiment":2726,"Ġton":2727,"ingham":2728,"Ġsentiment":2729,"Ġnause":2730,"Ġreward":2731,"ĠTri":2732,"Ġincre":2733,"Ġdone":2734,"Ġdifferent":2735,"Ġothers":2736,"oose":2737,"Ġbased":2738,"Ġblast":2739,"ĠIO":2740,"lliest":2741,"Ġwhe":2742,"Ġones":2743,"lated":2744,"ĠLoki":2745,"Ġepic":2746,"Ġelabor":2747,"Ġcro":2748,"liest":2749,"Ġavailability":2750,"Ġexhilar":2751,"Ġsilliest":2752,"ĠBirm":2753,"depth":2754,"que":2755,"ĠFor":2756,"ĠOS":2757,"ĠUpp":2758,"Ġexpens":2759,"Ġspecific":2760,"Ġwhole":2761,"olting":2762,"Does":2763,"asts":2764,"Ġlow":2765,"Ġfunky":2766,"Ġfunny":2767,"Ġrevolting":2768,"Ġuninterest":2769,"Ġunfair":2770,"aps":2771,"apan":2772,"Ġtalented":2773,"antage":2774,"Ġsometimes":2775,"ĠMaxis":2776,"anks":2777,"Ġcalming":2778,"Anthem":2779,"Ġgamer":2780,"Ġchoose":2781,"Ġinclude":2782,"Ġlong":2783,"Ġlongest":2784,"Ġoffering":2785,"Ġpart":2786,"ĠJapan":2787,"Ġappro":2788,"Ġappreci":2789,"Ġimpressive":2790,"Ġplain":2791,"Ġbroken":2792,"Ġeasiest":2793,"Ġconvenient":2794,"Ġmiss":2795,"complicated":2796,"umph":2797,"Ġrelaxing":2798,"Ġcolorful":2799,"Ġvisually":2800,"Ġweirdest":2801,"Ġnostalgic":2802,"somniac":2803,"Ġugliest":2804,"Ġadvantage":2805,"Ġgoofy":2806,"Ġnauseating":2807,"Ġrewarding":2808,"ĠTriumph":2809,"Ġwhether":2810,"Ġelaborate":2811,"Ġexhilarating":2812,"ĠBirmingham":2813,"ĠUpper":2814,"Ġexpensive":2815,"Ġuninteresting":2816,"Be":2817,"Core":2818,"Now":2819,"ain":2820,"ffort":2821,"gn":2822,"gle":2823,"ild":2824,"ily":2825,"kes":2826,"lf":2827,"op":2828,"rong":2829,"ty":2830,"wn":2831,"way":2832,"eren":2833,"amp":2834,"tical":2835,"Ġsm":2836,"Ġsure":2837,"Ġstu":2838,"Ġslated":2839,"Ġthings":2840,"Ġrare":2841,"Ġide":2842,"Ġhe":2843,"Ġhard":2844,"Ġheld":2845,"Ġhonestly":2846,"Ġmaster":2847,"Ġmix":2848,"Ġdug":2849,"Ġyoun":2850,"Ġwon":2851,"Ġwrong":2852,"Ġev":2853,"Ġearn":2854,"Ġeffort":2855,"ĠCurrently":2856,"blem":2857,"ĠAs":2858,"ĠWas":2859,"ĠWind":2860,"uted":2861,"Ġlive":2862,"ĠFirst":2863,"Ġsimulations":2864,"owing":2865,"Ġrecent":2866,"Ġtakes":2867,"Ġanyone":2868,"Ġmem":2869,"Ġsoon":2870,"Ġthinking":2871,"Ġalone":2872,"ĠInsomniac":2873,"ĠAnd":2874,"self":2875,"Ġsuppos":2876,"Ġmentioning":2877,"illed":2878,"Ġboard":2879,"Ġfriendly":2880,"Ancient":2881,"Ġchecked":2882,"Ġluck":2883,"Ġlacks":2884,"Ġadore":2885,"Ġcomple":2886,"Ġgoing":2887,"Ġaware":2888,"Ġdisappointed":2889,"Ġproblem":2890,"Ġaddition":2891,"Ġunique":2892,"Ġlet":2893,"Ġcompared":2894,"ĠWhat":2895,"Ġstandard":2896,"200":2897,"201":2898,"Ġmaybe":2899,"Ġcombined":2900,"Ġsadly":2901,"Ġcorrectly":2902,"platformer":2903,"Ġgrab":2904,"Ġexcit":2905,"cording":2906,"Ġpurchase":2907,"Ġentirely":2908,"Ġentertaining":2909,"Ġkeep":2910,"Ġpresented":2911,"Ġhorror":2912,"Ġmiddle":2913,"Although":2914,"husi":2915,"Ġearned":2916,"ĠWindows":2917,"Ġsupposed":2918,"+.":2919,"Ah":2920,"On":2921,"bel":2922,"cted":2923,"din":2924,"eep":2925,"fter":2926,"ger":2927,"gag":2928,"haps":2929,"ible":2930,"ition":2931,"ks":2932,"of":2933,"por":2934,"pleas":2935,"pri":2936,"whe":2937,"Ġour":2938,"erms":2939,"onent":2940,"only":2941,"lain":2942,"asically":2943,"Ġterms":2944,"Ġsc":2945,"Ġser":2946,"Ġsort":2947,"Ġstudio":2948,"Ġthus":2949,"Ġthanks":2950,"Ġrede":2951,"Ġrac":2952,"Ġincor":2953,"lease":2954,"Ġhome":2955,"Ġangle":2956,"Ġmass":2957,"Ġmaking":2958,"Ġdig":2959,"Ġdue":2960,"art":2961,"around":2962,"Ġown":2963,"ations":2964,"peal":2965,"Ġfla":2966,"Ġwanted":2967,"Ġworks":2968,"Ġweren":2969,"ultiplayer":2970,"Ġdeal":2971,"aign":2972,"Ġcle":2973,"Ġcup":2974,"Ġcertain":2975,"Ġcamp":2976,"Ġshot":2977,"trol":2978,"Ġvar":2979,"portant":2980,"ical":2981,"Ġpotent":2982,"ively":2983,"Ġlikeability":2984,"ched":2985,"ush":2986,"ady":2987,"adition":2988,"Who":2989,"Ġcontrol":2990,"Ġexplore":2991,"Ġexplain":2992,"Ġengag":2993,"Ġask":2994,"Ġanyway":2995,"Ġfew":2996,"Ġalong":2997,"crolling":2998,"Ġtea":2999,"Ġunpleas":3000,"Ġgetting":3001,"top":3002,"Ġthoughts":3003,"Ġseen":3004,"Ġusing":3005,"Ġstore":3006,"Ġgotta":3007,"Ġgamers":3008,"Ġchar":3009,"Ġtradition":3010,"Ġconsidering":3011,"Ġadul":3012,"Ġenthusi":3013,"Ġmanag":3014,"Ġdownloaded":3015,"Ġaway":3016,"dible":3017,"pped":3018,"Ġagain":3019,"Ġlabel":3020,"Ġaccording":3021,"Ġimportant":3022,"Ġleave":3023,"Ġlets":3024,"That":3025,"This":3026,"Ġstrategies":3027,"Ġworse":3028,"Ġcomponent":3029,"ĠWhy":3030,"Ġunderwhe":3031,"Ġtelling":3032,"Ġhaven":3033,"Ġcombines":3034,"Ġlimited":3035,"Ġcritical":3036,"Ġaspects":3037,"Ġperfect":3038,"Ġhighly":3039,"Ġeverything":3040,"Ġfocused":3041,"Ġended":3042,"Ġmatter":3043,"Ġcompetent":3044,"Ġhappy":3045,"Ġcritics":3046,"putting":3047,"Ġincredible":3048,"Ġappropri":3049,"Ġappreciate":3050,"Ġstuff":3051,"Ġidea":3052,"Ġexcited":3053,"dinary":3054,"porates":3055,"Ġredefin":3056,"Ġincorporates":3057,"Ġcampaign":3058,"Ġpotential":3059,"Ġengaging":3060,"Ġunpleasant":3061,"Ġenthusiasts":3062,"Ġunderwhel":3063,"Ġappropriate":3064,")-":3065,"+,":3066,".,":3067,"Fuse":3068,"Has":3069,"Hit":3070,"Honestly":3071,"May":3072,"Naughty":3073,"Overkill":3074,"Play":3075,"Red":3076,"Role":3077,"Were":3078,"aus":3079,"bly":3080,"ccess":3081,"dd":3082,"ders":3083,"dic":3084,"fri":3085,"ginally":3086,"ied":3087,"iant":3088,"lse":3089,"most":3090,"more":3091,"mately":3092,"na":3093,"ned":3094,"ps":3095,"pt":3096,"per":3097,"pie":3098,"phic":3099,"pically":3100,"ppeal":3101,"ptop":3102,"sw":3103,"tand":3104,"uled":3105,"vid":3106,"vival":3107,"wd":3108,"wo":3109,"ertainment":3110,"atis":3111,"atch":3112,"released":3113,"ready":3114,"onus":3115,"onna":3116,"Ġacro":3117,"Ġafter":3118,"Ġappeal":3119,"Ġpast":3120,"Ġgr":3121,"Ġgonna":3122,"ley":3123,"Ġtwo":3124,"titive":3125,"Ġsaw":3126,"Ġsong":3127,"Ġsound":3128,"Ġscrolling":3129,"Ġnon":3130,"Ġrave":3131,"ĠTake":3132,"Ġrate":3133,"Ġreleasing":3134,"Ġhand":3135,"Ġhour":3136,"Ġhop":3137,"Ġansw":3138,"Ġmone":3139,"Ġmine":3140,"Ġdar":3141,"Ġdro":3142,"Ġdated":3143,"Ġodd":3144,"Ġboo":3145,"Ġbare":3146,"Ġbunch":3147,"Ġbasically":3148,"Ġbonus":3149,"ured":3150,"Ġfall":3151,"Ġfig":3152,"Ġfine":3153,"Ġfilled":3154,"verall":3155,"ach":3156,"temp":3157,"lose":3158,"iety":3159,"Ġelse":3160,"style":3161,"Ġdev":3162,"Ġdelight":3163,"Ġcateg":3164,"Ġclick":3165,"Ġcaus":3166,"Ġclose":3167,"Ġforward":3168,"Ġyears":3169,"ĠAt":3170,"Ġshows":3171,"ĠRated":3172,"Ġextr":3173,"Ġwaste":3174,"endly":3175,"ortunately":3176,"quate":3177,"Ġtoday":3178,"ĠFortunately":3179,"rove":3180,"ĠOf":3181,"ĠOh":3182,"ĠOverall":3183,"Ġsuccess":3184,"Ġattemp":3185,"Ġoper":3186,"lance":3187,"Ġconst":3188,"ĠThird":3189,"Ġenh":3190,"Ġenem":3191,"Ġwhose":3192,"Ġanymore":3193,"Ġmeh":3194,"Ġsold":3195,"Ġalmost":3196,"Ġalready":3197,"Ġturns":3198,"Ġturned":3199,"ĠKeep":3200,"Ġknown":3201,"ĠAny":3202,"Ġlots":3203,"Ġlovers":3204,"ĠTypically":3205,"Ġvehicle":3206,"Ġteam":3207,"Ġfeels":3208,"aven":3209,"Ġunders":3210,"Ġgets":3211,"Ġtalk":3212,"Ġtalked":3213,"ĠEven":3214,"ĠOriginally":3215,"Ġtrick":3216,"Ġwouldn":3217,"Ġcouldn":3218,"Ġchild":3219,"Ġtypical":3220,"ĠJust":3221,"Ġentertainment":3222,"Ġincluded":3223,"Ġprovid":3224,"Ġsurvival":3225,"Ġlaptop":3226,"Ġbalance":3227,"Ġsolve":3228,"Ġlaunching":3229,"Ġchallenge":3230,"Ġcombination":3231,"Ġjoin":3232,"Ġfoll":3233,"Ġstrongly":3234,"Ġperhaps":3235,"Ġgraphic":3236,"Ġmain":3237,"Ġexpectations":3238,"Ġmatch":3239,"Ġeasily":3240,"Ġconvenience":3241,"Ġkept":3242,"Ġrock":3243,"Ġroad":3244,"Ġimpact":3245,"Ġimprove":3246,"Ġtons":3247,"Ġcrowd":3248,"Ġheaven":3249,"Ġmasterpie":3250,"Ġmixed":3251,"Ġyounger":3252,"Ġevent":3253,"Ġmemor":3254,"Ġcomplete":3255,"Ġrace":3256,"Ġmassively":3257,"Ġflaw":3258,"Ġclear":3259,"Ġvariety":3260,"ushed":3261,"Ġtraditional":3262,"Ġadult":3263,"Ġmanaged":3264,"Ġredefined":3265,"Ġunderwhelmed":3266,"Hitman":3267,"Maybe":3268,"friendly":3269,"atisf":3270,"Ġacross":3271,"Ġhours":3272,"Ġanswer":3273,"Ġmoney":3274,"Ġdark":3275,"Ġbarely":3276,"Ġfigured":3277,"Ġextra":3278,"Ġattempt":3279,"Ġenemies":3280,"Ġunderstand":3281,"Ġprovides":3282,"Ġgraphics":3283,"Ġmasterpiece":3284,"199":3285,"AA":3286,"As":3287,"Adventure":3288,"August":3289,"Bloober":3290,"De":3291,"Don":3292,"Fr":3293,"Fire":3294,"Konami":3295,"My":3296,"Moon":3297,"Multiplayer":3298,"Nintendo":3299,"Okay":3300,"PC":3301,"Say":3302,"Some":3303,"Sports":3304,"SIE":3305,"Ta":3306,"Tin":3307,"Tell":3308,"Ubisoft":3309,"With":3310,"alo":3311,"ait":3312,"bt":3313,"bed":3314,"but":3315,"cy":3316,"cer":3317,"cri":3318,"cuted":3319,"did":3320,"ex":3321,"eye":3322,"eared":3323,"ecuted":3324,"fle":3325,"filled":3326,"game":3327,"ged":3328,"have":3329,"happ":3330,"ip":3331,"ior":3332,"kability":3333,"ling":3334,"lled":3335,"mis":3336,"ped":3337,"pend":3338,"ren":3339,"sed":3340,"sion":3341,"shock":3342,"side":3343,"tin":3344,"tend":3345,"tail":3346,"uti":3347,"uine":3348,"umer":3349,"vin":3350,"vated":3351,"vented":3352,"wise":3353,"waps":3354,"ys":3355,"yled":3356,"zed":3357,"Ġ-":3358,"Ġform":3359,"Ġulti":3360,"Ġintend":3361,"Ġloaded":3362,"ins":3363,"iny":3364,"ered":3365,"atur":3366,"atible":3367,"atalo":3368,"enjoy":3369,"ree":3370,"ret":3371,"Ġade":3372,"Ġplan":3373,"Ġplease":3374,"orge":3375,"ordinary":3376,"asing":3377,"aste":3378,"Ġgarn":3379,"Ġgeared":3380,"Ġgorge":3381,"Ġtame":3382,"Ġtiny":3383,"til":3384,"tial":3385,"Ġsk":3386,"Ġsle":3387,"Ġsal":3388,"Ġspo":3389,"Ġsmall":3390,"Ġsour":3391,"Ġsched":3392,"Ġsatisf":3393,"Ġswaps":3394,"Ġnar":3395,"Ġnear":3396,"Ġnight":3397,"Ġthankf":3398,"ves":3399,"vey":3400,"Ġreput":3401,"Ġroom":3402,"erson":3403,"oubt":3404,"ĠSad":3405,"ctic":3406,"ĠMultiplayer":3407,"Ġincom":3408,"estion":3409,"Ġhating":3410,"Ġhey":3411,"Ġhype":3412,"Ġhonest":3413,"Ġmar":3414,"Ġdil":3415,"Ġdesign":3416,"Ġdist":3417,"Ġdoubt":3418,"arently":3419,"ĠEver":3420,"Ġobje":3421,"Ġomis":3422,"ooth":3423,"Ġbri":3424,"Ġblo":3425,"Ġboot":3426,"Ġbought":3427,"Ġbug":3428,"Ġbring":3429,"ully":3430,"Ġhasn":3431,"Ġgenuine":3432,"Ġfac":3433,"Ġfit":3434,"Ġfut":3435,"Ġfur":3436,"Ġfol":3437,"Ġfield":3438,"Ġwide":3439,"Ġwild":3440,"Ġwatch":3441,"anic":3442,"acter":3443,"rid":3444,"rible":3445,"ricted":3446,"lot":3447,"Ġnovel":3448,"Ġthems":3449,"ĠPlayers":3450,"Ġequ":3451,"get":3452,"iting":3453,"Ġcar":3454,"Ġcall":3455,"Ġcomputer":3456,"Ġcatalo":3457,"ĠCould":3458,"ĠThey":3459,"alue":3460,"Ġforget":3461,"like":3462,"ailable":3463,"Ġextre":3464,"Ġexact":3465,"tractive":3466,"ĠDriving":3467,"Ġitself":3468,"Ġvalue":3469,"Ġsight":3470,"atever":3471,"Ġviewed":3472,"ĠHas":3473,"ified":3474,"key":3475,"Ġpop":3476,"Ġsimulat":3477,"Ġexception":3478,"Ġtop":3479,"Ġtopic":3480,"Ġlist":3481,"Ġlikability":3482,"Ġrequires":3483,"row":3484,"road":3485,"Ġlikely":3486,"Ġfrank":3487,"Ġattractive":3488,"chanic":3489,"anding":3490,"dern":3491,"owed":3492,"table":3493,"tably":3494,"Ġordinary":3495,"Your":3496,"ĠReal":3497,"Ġoutdid":3498,"Ġconvers":3499,"Ġcontin":3500,"ĠThanks":3501,"Ġability":3502,"Ġexpanding":3503,"Ġtactic":3504,"Ġspecifically":3505,"Ġwhatever":3506,"Ġrealiz":3507,"iving":3508,"Ġmechanic":3509,"Ġalley":3510,"Ġpredic":3511,"Ġprevented":3512,"Ġmodern":3513,"Ġyourself":3514,"Ġotherwise":3515,"rative":3516,"Ġallowing":3517,"Ġallowed":3518,"Ġreceiving":3519,"elves":3520,"ils":3521,"Ġarrive":3522,"Ġfancy":3523,"Ġloves":3524,"Ġfeelings":3525,"Ġhearing":3526,"ormally":3527,"Ġunent":3528,"Ġunless":3529,"Ġunhapp":3530,"Ġunenjoy":3531,"Ġuntil":3532,"Ġreviewers":3533,"ired":3534,"Ġdisc":3535,"Ġmaker":3536,"Codemasters":3537,"Ġboast":3538,"Ġboasts":3539,"Ġsometime":3540,"Ġsees":3541,"Ġnext":3542,"Ġelevated":3543,"Ġusual":3544,"Ġgreatly":3545,"Ġthroughout":3546,"Ġstarted":3547,"Ġdecide":3548,"Ġdecently":3549,"ĠIndie":3550,"ĠFrom":3551,"Ġamazingly":3552,"Ġchecking":3553,"Ġtrend":3554,"Ġtrust":3555,"Ġtends":3556,"Ġnormal":3557,"Ġlame":3558,"Ġadd":3559,"Ġoffered":3560,"Ġpartial":3561,"Ġbecome":3562,"Ġweak":3563,"Ġnicely":3564,"Ġnewer":3565,"Ġgoes":3566,"Ġawful":3567,"Ġdisappointment":3568,"step":3569,"Ġproper":3570,"ructed":3571,"Ġages":3572,"Ġagree":3573,"Ġfeatured":3574,"Ġteens":3575,"Ġacc":3576,"Ġaccess":3577,"Ġdescri":3578,"Ġswitched":3579,"Team":3580,"Ġleg":3581,"Ġless":3582,"Ġlevel":3583,"Ġstick":3584,"Though":3585,"Ġkinda":3586,"Ġworld":3587,"Ġcompatible":3588,"Ġstands":3589,"Ġstanding":3590,"Ġapparently":3591,"Ġlauncher":3592,"2016":3593,"2010":3594,"Ġaudience":3595,"acters":3596,"Ġcombining":3597,"Ġrestricted":3598,"Ġreasons":3599,"Ġregret":3600,"Ġimpression":3601,"ieved":3602,"Ġneeded":3603,"Ġstoryline":3604,"platforming":3605,"Ġplace":3606,"Ġplaced":3607,"Ġexcpec":3608,"Ġexcuse":3609,"Ġmessed":3610,"Ġbrothers":3611,"Ġpurchased":3612,"Ġpurchasing":3613,"Ġentertained":3614,"Ġhelps":3615,"Ġpresent":3616,"Ġmisstep":3617,"Ġcompete":3618,"Ġcompetitive":3619,"Ġblends":3620,"Ġhorrible":3621,"Ġholds":3622,"Ġhappen":3623,"Ġmiddling":3624,"Ġproduct":3625,"Ġproduced":3626,"Ġported":3627,"Ġcross":3628,"Ġapproach":3629,"Ġappreciated":3630,"Before":3631,"Bethesda":3632,"Ġsmash":3633,"Ġsmooth":3634,"Ġrarely":3635,"Ġmemory":3636,"Ġadored":3637,"2005":3638,"2013":3639,"Ġgrabbing":3640,"Ġseries":3641,"Ġcharacter":3642,"Ġcharacters":3643,"Ġleaves":3644,"PlayStation":3645,"Ġappealing":3646,"Ġgrou":3647,"Ġsongs":3648,"Ġhopes":3649,"Ġdropped":3650,"Ġbook":3651,"Ġdelightful":3652,"Ġcategory":3653,"Ġcauses":3654,"Ġconstructed":3655,"Ġenhanced":3656,"Ġchildren":3657,"Ġfollowing":3658,"Ġeventually":3659,"Ġmemories":3660,"Ġflawless":3661,"Ġextraordinary":3662,"Developed":3663,"Fireproof":3664,"Ġultimately":3665,"aturally":3666,"Ġadequate":3667,"asteful":3668,"Ġgarnered":3669,"Ġgorgeous":3670,"Ġspoils":3671,"Ġscheduled":3672,"Ġnarrative":3673,"Ġthankfully":3674,"Ġreputation":3675,"ĠSadly":3676,"estions":3677,"Ġmarket":3678,"Ġdiluted":3679,"Ġdistasteful":3680,"Ġomission":3681,"Ġgenuinely":3682,"Ġfuture":3683,"Ġfurther":3684,"Ġfolks":3685,"Ġthemselves":3686,"Ġcatalog":3687,"Ġextreme":3688,"Ġconversation":3689,"Ġmechanics":3690,"Ġpredictably":3691,"Ġarrived":3692,"Ġunhappy":3693,"Ġunenjoyable":3694,"Ġproperly":3695,"Ġdescribe":3696}