#version: 0.2 - Trained by `huggingface/tokenizers`
Ġ =
i n
e r
Ġ |
a t
e n
r e
o n
Ġ a
Ġ p
o r
a m
l a
a s
Ġ g
en t
am e
l e
Ġ t
la y
in g
f or
t i
Ġ y
Ġ s
Ġ n
Ġt h
v e
Ġ re
in t
Ġ r
er s
e d
o u
Ġ i
Ġ P
Ġp ers
Ġ S
int ent
for m
Ġ T
c ti
Ġr at
Ġ M
Ġg ame
Ġ in
le as
i on
Ġre leas
i r
lay er
e s
Ġ h
Ġn ame
Ġa n
Ġ 2
Ġ m
Ġrat ing
Ġi s
Ġ d
a r
Ġ E
re s
Ġ o
at ion
p e
o o
Ġreleas e
Ġ b
Ġy ou
u l
u re
Ġh as
Ġg en
Ġ2 0
Ġ I
Ġ f
l l
Ġgen res
Ġ w
Ġ on
a n
Ġpers on
v er
a c
Ġan d
d v
ir d
dv ent
dvent ure
Ġo f
l at
p layer
r i
lat form
t e
Ġp latform
l o
Ġn o
cti ve
h e
ĠP C
Ġpers pe
Ġperspe ctive
Ġin form
ul ti
Ġm ulti
Ġmulti player
S t
Ġ L
Ġ20 1
Ġth e
o m
ĠP lay
St ation
ĠPlay Station
i e
t er
Ġ e
s t
g e
i t
Ġd e
a i
e ar
Ġ c
lo p
ve lop
Ġ C
Ġde velop
cti on
Ġplatform s
ĠT he
' s
Ġy es
a l
Ġa ction
Ġth ird
Ġp layer
Ġ N
b o
Ġth at
Ġ for
Ġy ear
b le
Ġ A
l i
X bo
Ġ Xbo
ĠXbo x
ĠI t
Ġs h
Ġ R
c e
Ġgame s
Ġ W
Ġa v
Ġdevelop er
ai la
Ġav aila
Ġavaila ble
Ġe x
ĠS te
ĠSte am
Ġsh oo
t r
Ġ D
ĠL in
ĠM ac
a dventure
Ġ (
Ġshoo ter
u x
ĠLin ux
oo d
Ġi t
Ġg ood
a ge
Ġ v
ie w
Ġw as
en d
es t
or t
Ġs i
l d
at e
Ġa ver
Ġaver age
Ġp lay
Ġ 1
Ġv iew
Ġ H
g h
ir st
i f
Ġf irst
Ġ B
o le
p ort
k e
Ġa dventure
i s
ate g
Ġs tr
Ġreleas ed
i c
d e
ateg y
a ll
p lay
Ġstr ategy
R B
S RB
ĠE SRB
it h
Ġp o
Ġr ole
play ing
Ġsi m
ri v
Ġb y
u t
ou t
Ġw ith
Ġ20 0
q u
Ġsim ul
Ġex ce
Ġexce ll
Ġexcell ent
Ġt o
Ġ li
i ve
gh t
Ġ F
l y
ac ing
a y
Ġb ird
Ġs port
riv ing
Ġd riving
f t
int end
ĠT e
intend o
ĠN intendo
Ġsimul ation
a ve
Ġre qu
Ġ G
Ġrequ est
r o
u n
t ri
Ġpo or
Ġli ke
Ġb e
Ġf r
z z
i o
Ġfr om
Ġin d
Ġ O
Ġrat ed
Ġind ie
Ġs u
Ġ at
9 9
b u
Ġno t
on e
c h
an d
r acing
Ġ V
Ġo p
at ure
d er
o w
tri bu
tribu te
Ġat tribute
c k
u s
Ġp u
Ġ U
ĠE n
Ġpu zz
t a
Ġb ut
Ġpuzz le
Ġplay ed
in ion
ĠM ature
Ġop inion
pe c
m e
Ġd o
i ght
Ġ ver
la n
ĠI I
a d
Ġg ive
om b
if y
Ġver ify
Ġ 3
Ġc an
t h
Ġ or
Ġh ave
Ġ1 99
Y ou
Ġplatform er
r y
ver y
i d
i a
very one
ĠS pe
om m
ĠW or
i er
all y
t u
ĠN e
W h
ĠR e
m ent
Ġ out
Ġc on
u r
ĠT h
Ġ201 4
t ed
ĠE veryone
Ġa b
ĠTe en
a g
ĠG ame
c al
ĠSpe ed
ĠGame s
Ġdevelop ed
Ġab out
Ġre c
er o
i g
Ġex p
' t
ac k
d io
tu dio
ta in
in d
ĠS tudio
P G
Ġ en
u p
Ġs pec
o ft
Ġ201 5
j o
tain ment
ter tainment
ĠEn tertainment
ar d
omm end
Ġrec ommend
T he
jo y
Ġt a
Ġspec if
Ġen joy
a re
e t
Ġspecif ier
cti cal
ĠD o
o st
Ġw h
ĠNe ed
Ġta ctical
g est
k n
a de
ĠWor ld
Ġcon f
er e
ir m
ĠU n
ĠStudio s
ld er
lan ation
Ġexp lanation
Ġa s
Wh at
Ġsu g
Ġconf irm
) .
Ġsug gest
Ġsi de
ĠS k
k ing
o s
ĠH ero
up er
o l
Ġan y
t le
Ġ1 0
m s
Ġ 4
it ch
Ġre al
ĠW ar
ĠS i
i v
Ġf e
ĠC ry
m p
Ġc ame
u st
ti me
Ġm e
ai der
ĠR aider
D o
ĠR o
h o
b all
as s
ĠM e
Ġ201 6
s s
r a
s h
Ġa re
b er
Ġs o
I f
ra ft
ou ld
Ġpo int
Ġdo es
i ll
Ġ201 1
e ll
li ck
Ġth in
ĠA ge
c lick
R PG
Ġa l
la r
oo m
Ġthin k
M O
ĠT omb
ĠM MO
Ġ201 8
ĠMMO RPG
as ed
ur n
Ġt urn
tr o
it tle
Ġrating s
Ġ201 7
ĠS m
Ġ j
b ased
ing le
Ġs ingle
in e
ou gh
ĠS uper
ĠS oft
Ġj ust
Ġ kn
ĠC h
Ġp re
th er
a w
Ġ K
Ġkn ow
o res
ĠU s
Ġh ack
s la
ĠI n
ai d
ĠA n
ores t
sla sh
Ġs aid
Ġre ally
ĠE A
ĠF orest
s e
as t
ĠS h
u it
ĠL e
ĠP ay
u lar
l ine
Ġm o
Ġon ly
at or
lan c
at er
lo ad
c ro
o on
t t
ĠM ag
ĠW i
ta le
ĠMag ic
Ġ lo
Ġyou r
cro ll
' re
Ġf un
B A
m ber
s o
ĠP ro
ĠS croll
ĠE lder
Ġc omb
ĠScroll s
ent ion
Ġr acing
ĠSk y
Ġ200 5
Ġsport s
a k
ĠS tr
ĠL ittle
Ġsu p
c raft
ĠC lanc
ĠMe tro
ĠSoft w
load ed
ĠClanc y
o t
Ġo ther
Ġon e
ĠC or
ĠA m
Ġ1 5
in ball
ri ver
ĠRe loaded
r at
w itch
Ġ201 0
ĠHero es
i te
Ġa ll
ĠT y
Ġm ade
Ġt ry
a x
c oon
or ation
ĠC re
Ġsup port
d ge
Ġre ce
Ġ199 9
ĠTy coon
ĠM ight
h ic
an ce
Ġex pec
Ġplay ing
Ġcomb at
on g
ti on
l oo
if e
ĠB io
Ġ Z
Ġ ve
tt y
Ġve hic
Ġ You
Ġal so
Ġm ention
an ted
Ġme an
ĠT r
ĠM ost
ĠWar craft
Ġvehic ular
ĠL ast
ho ck
Ġrece ive
Ġt e
Ġreceive d
S hock
ĠW anted
Ġth is
ĠA ss
Ġmo de
Ġexpec ted
Ġ201 3
ĠD river
Ġe ver
u e
Ġm y
ĠN BA
ĠO n
ĠB e
ĠV I
der tale
Ġpre tty
ĠS witch
ĠA dventure
ĠB ig
e l
r on
Ġ200 9
or y
ĠWor ms
A re
Ġmention ed
on der
ĠM an
a ke
a os
Ġf ight
ĠN ight
ĠRo ll
ĠCh aos
ĠOn line
e m
es s
om e
Ġth ere
ĠR PG
Ġfight ing
1 6
i l
ĠH it
Ġsu ch
on d
Ġf ind
ass in
ĠCre ed
Ġa r
ĠSoftw are
int er
Ġf an
ic h
ke t
Ġlo ve
f er
ĠTh is
as h
Ġm us
ar ted
ĠH ill
Ġfe el
uit ar
c ket
ag ue
ĠLe ague
ĠBio Shock
Ġmus ic
on y
Ġh ear
ie f
ĠH aw
ch arted
ĠEn d
ĠII I
ĠTh ief
ĠSk ater
ĠSm ash
ĠHit s
ĠHaw k
r or
Ġre v
c t
ĠT om
ĠH ave
a v
x t
or m
Ġgen er
m a
Ġ un
Ġg et
ri m
h ing
y p
al y
Ġsimul ator
ĠAm ong
Ġhear d
k ed
at aly
Ġt riv
ir ror
ĠE dge
Ġ201 2
ĠC ataly
ĠW ol
Ġtriv ia
ĠCataly st
ĠWol f
' m
ou n
ĠO lder
Ġrev iew
i li
ĠD ance
Ġte xt
Ġd id
bo ard
ow n
Ġwh ich
i re
Ġs ay
Ġshoo t
N e
o d
Ġm ost
ĠUn dertale
a p
p o
Ġ &
ĠM ar
ĠR oom
ĠD oom
ĠMar io
i me
Ġd ate
t s
ing s
ĠTe am
ĠO ut
li zz
ig n
lizz ard
Ġ loo
c ade
m an
v ol
for ge
ar kn
ge l
ĠR un
ĠW itch
ĠD arkn
ĠH un
Ġ200 4
Ġ199 4
ĠAn gel
ĠWi ld
Ġar cade
ĠWitch er
ĠDarkn ess
ĠHun t
l ent
la st
Ġt al
Ġ200 1
ĠRo cket
o re
ĠT ony
Ġd is
i ce
ĠM ad
Ġm ak
ĠG uitar
ĠSi lent
i res
an ge
Ġdoes n
Ġreview s
H ave
a u
ĠB lizzard
Ġmak es
s is
ĠP ri
ĠP inball
ĠM on
ĠE mp
an t
ĠThe ory
ort al
ĠUn charted
ĠK ings
ĠStr ange
av or
ĠPri me
ĠEmp ires
Ġf avor
ĠIn ter
F or
ĠF ire
re at
n e
us e
Ġenjoy ed
' ve
o ld
t o
Ġ qu
ĠM irror
it al
is hing
ig ital
3 3
er man
ĠS p
ĠM ass
ar ter
ĠE th
Ġ20 33
an ishing
ĠC arter
ĠA l
ĠD igital
ĠB omb
Ġ200 2
ĠV anishing
Wh y
ĠSi m
oun d
ĠEth an
ĠBomb erman
as ter
li d
Ġtal king
am i
ar li
Ġbe en
ĠSm all
Ne ed
arli er
f e
i al
in ce
oo t
ay s
ĠAss assin
Ġloo king
C o
c ar
d en
e p
p oration
ar a
Ġb o
Ġw onder
ĠN F
is ion
iv ision
ĠSky rim
ĠCor poration
Ġfavor ite
h ind
l ind
o x
r and
s ir
er Co
ou ght
ĠC ro
ĠD ivision
ĠLin es
gh old
ĠB lind
ght y
ĠTe mp
tri s
ĠO sir
and os
ĠEn em
omm andos
ag er
ĠDo g
ĠBe hind
ĠMan ager
au ghty
oot ball
ĠNF L
erCo aster
ĠCro ft
ĠTemp le
ĠOsir is
ĠEnem y
Ġs ome
Ġ199 8
c ed
p le
Ġt oo
Ġth ought
ĠE v
ĠSky forge
S o
ĠN aughty
ĠA re
c age
i de
es id
Ġli ked
ĠEv il
esid ent
b lo
d own
l inter
u d
u tion
z ation
or St
ir t
ĠI ll
ĠC iv
ĠC ell
ĠA po
Ġ1 2
if t
Ġ200 7
ĠF ear
ay ers
ow down
us ion
ia blo
cal yp
ĠMe ier
ĠSh ift
ĠSh owdown
ot orSt
ili zation
vol ution
ĠSp linter
ĠAl one
ĠIll usion
ĠCiv ilization
ĠApo calyp
otorSt orm
ĠApocalyp se
F A
I FA
y e
I s
d ay
k ay
Ġs e
Ġn e
ou s
Ġe le
rat ed
fe ct
c l
v en
Ġre me
Ġe ye
Ġbo th
u al
Ġth ough
ĠP ortal
Ġo kay
an ced
Ġv ide
ĠCry sis
Ġele ment
Ġreme mber
Ġvide o
H L
ĠL ife
Ġsh ould
ĠTh r
ĠPay ne
L ife
b is
e ld
f are
f fect
h am
s a
u ck
z ard
on ami
la ck
ent ly
ĠS ep
ĠE ffect
Ġf ound
dv anced
te mber
ĠA dvanced
ĠW ond
ĠD ut
Ġcon s
et to
ĠWar fare
ho t
ĠWi zard
ĠCor sa
Ġdid n
ĠThr one
bis oft
ĠSep tember
ĠWond ers
ĠDut y
v ers
Ġ us
Ġg reat
ort h
Ġ200 0
ĠMetro id
Ġelement s
S uper
i en
s port
ĠU bisoft
ĠK onami
i z
Ġw ell
Ġshoot ers
Ġdis li
al ve
b ack
g end
in a
on ghold
ĠT ime
ĠM ax
Ġc he
ĠC ommandos
ĠO car
ĠV alve
ĠLe gend
ĠStr onghold
ĠZ eld
ĠOcar ina
ĠZeld a
a f
h ia
s uit
u ro
le s
ĠP ur
ĠE rat
ul ator
an sport
Ġof f
Ġe ven
ĠR est
riv ial
Ġ199 3
ĠNe vers
ĠTh ere
ĠEA D
ĠPay back
ĠTr uck
ĠNight ma
ĠSim ulator
af ia
ĠPur suit
ĠErat hia
ĠRest oration
ĠNevers oft
ĠNightma res
r ough
ĠI s
ll For
Ġw ill
Ġe arlier
ĠTe tris
ĠO ri
ĠSi ms
llFor ce
k y
m ed
le d
ve l
ĠS o
Ġd on
Ġo ver
Ġf ri
om p
ĠF ar
ĠRoll cage
ĠOut last
Ġth rough
Ġthe m
ĠR esident
M an
a ctive
re ak
Ġt ri
Ġs t
Ġi f
Ġthe y
ĠF ootball
ĠRoll erCoaster
ĠRe med
iv ers
ĠRemed y
C raft
Q u
a ble
ar Craft
Ġw ould
an tu
ĠN orth
ĠB reak
Ġpoor ly
ĠRe volution
ĠRe vel
ĠUn ivers
Ġgener al
ĠInter active
Qu antu
ĠRevel ation
ĠUnivers e
Quantu m
Ġ int
Ġp inball
am ple
Ġr un
ĠM otorStorm
Ġh ad
ĠL ara
ĠL ayers
Ġex ample
Ġtri ed
u ch
ĠC all
ĠB us
Ġint o
Ġ up
Ġm uch
li ght
ĠR ed
ĠNe ver
ĠMad den
A ss
S pe
t re
ti es
ĠT o
Ġh ow
ĠD iablo
ith er
ien ce
n am
y nam
or iz
Ġw ere
ri f
et al
ynam ic
b la
n ake
u a
en ua
ĠS ac
ĠS id
ĠS nake
ĠS enua
ĠE ater
Ġde c
ĠThe ft
ĠA ut
ĠD aw
ĠG ear
Ġwh at
ell bla
ĠZ ero
ĠMon tre
Ġoff ers
ĠSo lid
oriz on
rif ice
ĠSac rifice
ĠAut o
ĠDaw n
ellbla de
ĠMontre al
S ince
W or
an k
it y
ĠD irt
Ġfe at
R o
a king
Ġt it
ĠM afia
Ġc al
ate ly
ĠF IFA
Ġexp er
Ġfri end
ĠN HL
Ġbe t
Ġwonder ing
Ġexper ience
i der
for t
Ġr ight
es ign
st al
ĠIn d
ĠAss etto
Ġgener ally
1 7
c i
u ri
or k
Ġg ot
Ġgen re
Ġf ond
al f
ce p
un ately
C S
U n
c om
t d
u res
at tle
on cep
ĠS CS
ĠL td
Ġc uri
ĠC oncep
ĠD esign
is ual
ic les
ĠV isual
Ġ199 0
ĠRe ign
ĠCh ron
ĠTr ansport
Ġdec ent
ĠInd ia
Ġcuri ous
ĠConcep ts
ĠChron icles
l t
ti c
Ġth en
Ġw ant
Ġop tion
Ġfe lt
ĠSuper hot
A n
Ġcal led
Ġfriend s
t he
ĠE uro
Ġe ither
ĠC an
is e
fort unately
T om
ĠT rivial
ĠF r
Ġsupport ed
ank f
A ge
M e
z ing
Ġa ma
ĠC ore
ur t
Ġwh y
Ġrun s
Ġama zing
1 9
b y
f ox
i x
i ties
m are
er ic
ĠM ic
oo f
Ġb ad
te k
Ġ201 9
ĠC ities
ĠW onder
ĠW ake
ĠD ays
ĠD ynamic
Ġit s
Ġ1 4
Ġto by
ro se
ad a
ĠCry tek
ĠPay day
ĠAm eric
loo ber
ĠNight mare
ci ent
the m
ĠCan ada
ĠFr ankf
Me tro
ĠMic ro
ĠDynamic s
Ġtoby fox
ĠAmeric an
ĠFrankf urt
) ,
P rose
Ġ Quantum
as y
ĠT in
res s
ĠB attle
Ġ200 8
ĠCry stal
ĠMicro Prose
Ġb ack
Ġw ay
Ġperspective s
ĠB loober
Ġpre fer
inter est
ork s
u ter
er ri
ĠS t
Ġb est
port s
ĠF use
ĠG rand
ĠSpe llForce
Ġwh en
Ġfeat ures
f ul
m er
ĠH orizon
mp ress
Ġdisli ke
Ġover all
omp uter
ĠSt arCraft
a ut
w ays
ĠS ports
ĠM etal
Ġis n
ĠA st
us ive
ĠAn cient
cl usive
8 6
9 86
c tr
e ver
p r
r ts
s y
s ier
en ox
on ic
on ix
le dge
le ctr
ĠS light
ĠT ur
ar re
ar sier
Ġc ould
ĠC E
ĠC omputer
ĠA rts
ĠW ay
Ġ1 986
ĠH ole
ĠB ost
ic ally
ad ow
ack Man
Ġal ways
ĠAn them
ĠSoftw orks
ron aut
Ġqu ite
ĠIllusion s
ham mer
Ġche ck
ĠAst ronaut
pr oof
sy onix
ledge hammer
lectr onic
ĠSlight ly
ĠTur bo
ĠBost on
ackMan ia
ĠAstronaut s
Ġg am
ĠP syonix
ĠS ledgehammer
ĠT arsier
ĠE lectronic
Ġc h
Ġex clusive
ĠH ellblade
ĠB lack
ĠTe ll
Ġbe ing
ĠBe enox
Ġshoot ing
ĠMass ive
Ġse em
Ġtit le
L ittle
Ġ interest
as e
Ġs ame
Ġreleas es
al ity
Ġplay ers
ĠRPG s
ĠFire proof
Ass assin
ĠTell tale
c re
u ally
Ġt r
Ġt ime
th ing
Ġlo t
Ġcons ole
d u
u g
at ed
Ġt end
Ġin cl
ri s
Ġpuzzle s
Ro ll
T omb
a use
Ġt yp
Ġn orm
Ġno w
ĠW ould
ur r
ast ers
Ġsimulator s
Ġcons ider
I n
M ax
N BA
f ore
j e
k ill
m ble
m asters
n ation
s on
y ro
Ġ l
Ġ lack
Ġa d
Ġa m
ĠP yro
ver kill
Ġof fer
Ġc om
ĠA de
Ġ1 1
ĠH ud
de masters
Ġ200 3
ĠEn se
ky o
Spe aking
ĠTo kyo
urr ently
nation al
ĠAde line
ĠHud son
ĠEnse mble
Ġ lat
Ġp ar
Ġso lid
Ġlove d
ĠInter national
Ġnorm ally
B y
T r
o demasters
lo re
ĠC odemasters
Ġbe c
Ġmo re
i le
Ġ J
Ġs ince
Ġw e
Ġplatform ers
Ġc ase
Ġbe fore
ĠO verkill
Ġver y
ĠSh adow
Ġqu ality
Ġtyp ically
Ġlat e
' d
a b
i lar
t ent
Ġ k
Ġ ent
in al
ers ion
ed io
Ġm an
Ġm ight
Ġm edio
Ġd own
ie ld
ĠH alf
Wor ld
Ġbet ter
mpress ed
Ġlate ly
Ġmedio cre
O h
P ay
f ly
l s
Ġn ice
Ġc urrently
Ġv ersion
ĠF ant
ĠVI I
Ġun fortunately
Ġne w
Ġgam ing
Ġincl ud
Ġbec ause
ĠFant asy
W are
b rand
f ield
i bu
ĠS out
ĠT ibu
ir ax
Ġm ature
ar y
Ġthe ir
ĠA lan
ĠR ise
ĠB arre
ĠF irax
ĠG rim
ow er
sh ade
ĠPro du
ĠCre w
ap com
ĠFire fly
ĠFire brand
Un dertale
Ġconsole s
Pay day
ĠSout ham
ĠTibu ron
ĠBarre ls
ĠFirax is
ĠGrim lore
ĠProdu ction
Ġg o
ĠC apcom
Ġto ld
ĠG od
ow s
Ġab s
ĠBio Ware
Ġus ually
r ing
w ard
Ġa w
Ġm ind
ai l
Ġrec ently
ap po
Ġdis appo
Ġinterest ed
Ġdisappo int
M ad
a ir
d i
s te
v ing
Ġp ro
le ction
Ġsome thing
Wor ms
Mad den
B us
F ar
M ight
n ot
p p
r u
u la
Ġa g
Ġth an
Ġre fer
Ġgame play
Ġm ake
Ġsim ilar
Ġcan not
Ġfe ature
ular ly
ĠTr ackMania
Spe llForce
Ġpar tic
B io
D irt
F IFA
L ara
Ġh ate
ĠE x
Ġe veryone
ĠD on
Ġsu r
Ġenjoy able
Ġte en
Ġmost ly
Super hot
Metro id
Ġrefer ring
E D
I E
M ass
S id
b ru
e en
e bru
i ous
i Max
k t
l la
m ax
n od
t nod
u erri
y ste
z ion
z ero
en iMax
Ġs yste
ĠS an
Ġ2 2
Ġ2 9
Ġb it
ll od
Ġc ome
ĠC D
ĠC li
ĠA tt
ĠA zero
ĠA llod
Ġsh ort
ĠR ED
ĠD et
ic a
ĠF ebru
ĠG uerri
un e
un os
Ġcon tent
ĠK unos
ĠPro je
od us
ĠMon ica
ĠSim ula
Un charted
ug ust
Ġconsider ed
ĠJ une
ĠEx odus
ĠDon tnod
ious ly
zion i
ĠSan ta
ĠCli max
ĠAtt ention
ĠAzero th
ĠAllod s
ĠDet ail
ĠFebru ary
ĠGuerri lla
ĠProje kt
ĠSimula zioni
C ry
E arlier
G uitar
H alf
M irror
S il
t en
v iously
w een
Ġ la
Ġa c
Ġn or
Ġin vol
Ġd es
Ġwas n
Ġwith out
Ġnot hing
th ough
ĠZ eniMax
Ġse e
Ġdisli ked
Ġbet ween
ĠBattle field
Ġexclusive ly
Ġad di
Bio Shock
Sil ent
D iablo
F ootball
N HL
O ri
P ortal
T S
T rivial
W ar
m all
y le
la ss
Ġs witch
Ġi m
ĠS IE
ĠM oon
leas ed
Ġm ere
Ġb ig
ul l
Ġof ten
Ġplatform ing
St arCraft
Ġc reat
ĠA ugust
ĠD e
Ġup com
Ass etto
Ġhow ever
Roll erCoaster
Ġman y
Cry sis
War craft
Ġmere ly
Ġcreat ed
Ġupcom ing
E uro
T e
h er
Ġt erri
Ġy et
Ġs et
Ġrat her
Ġb a
Ġf am
Ġf air
Ġc omm
Ġc lass
ĠR TS
ĠF inal
Ġun i
Ne ver
Ġsur p
D river
H ow
H ero
O ut
S ky
S mall
T ony
i ally
Ġ le
Ġs ti
Ġs ol
ou r
ul y
pec ially
ĠUn fortunately
Ġall ows
ili ar
Ġsay ing
Ro cket
Ġdisappoint ing
Ġterri ble
Ġfam iliar
Ġcomm on
Ġclass ic
Ġsurp ris
Hero es
Out last
Sky forge
H ellblade
L ayers
M otorStorm
T h
o lo
r ategy
u m
Ġ es
ar n
st rategy
it able
ĠN o
ĠH ow
if fer
Ġstr ateg
ic k
un ch
Ġsu itable
ĠDo es
Ġne ver
Ġche ap
Ġst yle
Ġtr uly
Ġk ind
Ġpartic ularly
Te tris
Ġes pecially
A lan
M etal
R ise
a z
e light
f lection
j a
o ber
p ite
u te
v ory
w ood
y er
© al
Ã ©al
Ġ 7
in ja
at ing
Ġs car
ĠS pec
ĠS ho
ĠS aw
ĠT ower
ĠE id
ĠE volution
ĠI vory
Ġw or
st ar
Ġc omp
ĠN inja
ĠW h
tr um
tr Ã©al
Ġ1 6
ĠH olo
ĠH az
Ġto ward
ĠO ct
ck star
ĠRe flection
ĠTh ough
Ġrec all
ĠRo ckstar
ĠIn c
lanc ed
ĠNight shade
Ġun der
ĠMon trÃ©al
ĠRed wood
By te
Tr ansport
Ġaddi ctive
Ġim m
Ġba lanced
Ġsti ll
ĠHow ever
iffer ent
Ġscar y
ĠSpec trum
ĠSho res
ĠSaw yer
ĠEid os
ĠHolo Byte
ĠHaz elight
ĠOct ober
ĠReflection s
C ommandos
f in
l us
o ther
t ing
ers ive
Ġi mpressed
St ron
Wh en
ol ute
ĠCh ris
il ity
Ġst and
Ġabs olute
Ġag o
Ġsyste ms
Ġdes pite
Ġsol ving
Ġimm ersive
Stron ghold
H orizon
O ne
R esident
c es
p ly
Ġa pp
Ġs pe
es ome
Ġf ami
Ġe asy
Ġdevelop ers
Ġsim ply
ack ed
Ġspec ial
Ġwh ile
Ġtit les
Roll cage
Tr ackMania
Ġinclud ing
Ġaw esome
Ġla unch
Ġinvol ve
Ġfami ly
' ll
) ?
2 0
C an
D id
G rand
Ġa ud
Ġg iv
Ġt ell
Ġh av
Ġm om
Ġo ld
oo ter
Ġf ull
ac t
Ġc ap
Ġplay s
Ġplay able
is h
all en
ĠO K
os e
sh ooter
Ġloo k
Ġch allen
Ġuni mpressed
Ġstrateg ic
Ġtoward s
Ġabsolute ly
Ġspe aking
Ġcap ab
C all
D ance
M afia
W ould
b ing
d a
e y
y pe
in ally
Ġm ay
ri ght
li c
Ġv ia
Ġli king
tu ally
Wh ich
Ġfun ction
Ġcomb in
ili ties
Ġdown load
Ġac tually
Ġgiv en
Ġmom ent
Ġcapab ilities
G od
c as
i es
Ġ jo
er tain
en ing
or ing
Ġg u
ent ed
le ss
ti ful
Ġs ad
Ġre st
Ġin st
es da
Ġd ynamic
Ġo lder
Ġf o
Ġf ar
Ġw ish
Ġde fin
Ġto t
Ġbe au
Ġgive s
th esda
ur ing
Ġun us
oun t
Ġreview ed
Ġqu ick
Ġus es
ien ces
Ġfeat uring
Ġk id
Ġnew est
Ġsurpris ing
Ġaud iences
lic ated
Ġinst ance
Ġbeau tiful
E R
H O
N ight
P re
P ER
U PER
b je
g ing
h ost
i est
j er
m it
n o
s i
y ing
Ġ leas
er ful
or bing
as on
as tic
Ġg ri
le arn
Ġt ear
Ġt ype
ti ve
Ġth ing
Ġth ose
ve mber
Ġre ason
ĠS qu
ĠS UPER
Ġm ust
Ġb iz
Ġb oring
Ġe mp
Ġc ho
ĠN ade
ce mber
Ġ1 3
Ġli mit
ght ening
Ġind ifferent
Ġ199 7
ĠUn cas
ite ly
Ġar en
Ġus ers
Ġche erful
Ġover rated
Ġfri ghtening
Ġch ance
Ġam ount
Ġcom es
Ġinclud es
ower ing
Ġabs orbing
Ġsimilar ly
Ġshort est
Ġsee ms
ĠDe cember
ĠNo vember
Ġunder rated
Ġinvolve s
Ġold est
Ġchallen ging
Ġdefin itely
Ġtot ally
Ġunus ual
HO T
Night shade
Pre viously
jer king
Ġleas t
Ġtear jerking
ĠSqu are
ĠSUPER HOT
Ġbiz arre
Ġemp owering
Ġcho ice
ĠNade o
ĠUncas ual
H ey
R e
b e
t astic
Ġ line
Ġ last
Ġ use
er ally
en erally
re ct
or rect
Ġre g
Ġi mpress
Ġh u
oo l
Ġb u
Ġf re
Ġw orth
ie ve
Ġc ri
Ġc orrect
velop ed
Ġstr ong
ĠG host
ĠG enerally
Ġor ig
ag ers
Ġenjoy ing
Ġwh o
Ġwh ere
Ġas pec
iv al
Ġpre viously
Ġknow s
Ġmean s
ĠBe thesda
Ġfan tastic
ĠSp ider
Ġne ed
Ġst ory
Ġtr ue
Ġcom ing
Ġhav ing
Ġkid s
Ġgri tty
Ġorig inally
F inal
P S
a fe
c us
i gh
p latform
p tion
w h
on est
Ġa ble
Ġp er
Ġp la
Ġg ra
Ġs afe
Ġh ated
Ġh igh
Ġan other
Ġm a
Ġb l
ĠI f
ri ve
Ġe very
Ġc our
Ġc ool
Ġex c
ĠF PS
Ġsu bje
Ġta ke
Ġexpec t
Ġfeel ing
oun ter
ĠAl though
Ġne ither
Ġoption s
An d
Ġinterest ing
Ġversion s
Ġcommon ly
Ġwor st
Ġjo b
Ġgu ess
Ġfo cus
Ġline up
Ġhu ge
Ġfre qu
Ġcour se
Ġsubje ct
I t
S h
c or
c ounter
d es
e o
l ieve
n ing
o id
r ch
t ac
u ke
u me
w ar
Ġ end
en ce
re d
Ġa dvent
Ġth ri
Ġh it
Ġh el
Ġan no
Ġm at
Ġm ess
Ġb ro
Ġon line
Ġe as
ge ther
it es
Ġc are
Ġav oid
ĠD id
Ġview s
ĠB ut
Ġpo si
Ġbe lieve
Ġpu rch
Ġdo ing
ĠRe leased
Ġcon ven
Ġen ough
Ġen counter
Ġspec tac
are d
ĠMMORPG s
Ġmo des
rat ing
Ġtry ing
Ġsupport s
ĠHit man
Ġar ound
ap p
Ġfavor ites
Ġus er
Ġthem es
Ġl uke
ab ly
Ġent ire
Ġent ertain
Ġteen agers
ĠDe veloped
Ġlaunch ed
Re leased
Ġfrequ ently
Sh adow
eo ple
war m
Ġadvent ures
Ġhel p
Ġanno ying
Ġposi tive
Ġencounter ed
Ġspectac ular
Ġluke warm
b ably
l er
m es
p ic
p acked
s ume
Ġ ke
at ive
Ġp res
Ġp ic
Ġp ut
Ġp lus
Ġp eople
or ough
Ġth orough
Ġr o
Ġm is
Ġd rive
Ġf act
ll ing
Ġw ork
is tic
Ġto gether
Ġfr ust
th ers
id d
Wh ile
ĠTh at
Ġas king
Ġas sume
Ġany thing
Ġal though
Ġsup er
Ġrece ption
Ġmean t
ĠOn e
Ġse lection
Ġdisli king
Ġst un
Ġprefer ence
Ġlack ing
Ġam ong
Ġcom pe
Ġpro bably
Th ere
ĠWh ile
Ġlimit ing
ival ent
wh at
onest ly
Ġbl end
Ġthri lling
Ġthorough ly
Ġfrust rating
1 0
B lizzard
B attle
E A
E ver
S p
b ility
b ivalent
c ess
c omp
d ing
g ative
i st
j or
k i
m ing
p th
u de
u mp
en s
on gest
Ġp acked
la x
ti mes
Ġre lax
Ġi mp
ir ky
Ġh or
Ġh old
Ġh app
Ġm idd
Ġd ay
Ġd ull
Ġno stal
Ġmulti ple
Ġc ol
ĠIt s
ĠW ith
Ġv is
us ing
Ġpuzz ler
ta ctical
Ġconf using
Ġreal istic
Ġal right
tt en
Ġcomb ine
Ġfan s
Ġqu irky
Ġsome what
Ġne gative
Ġus ed
An other
Ġprefer red
Ġl ittle
Ġlack lus
Ġam bivalent
Ġwe ird
ab ility
Ġent ry
Ġdown right
Ġgo tten
Ġmind less
Ġpro du
Ġpartic ular
Ġsyste m
Ġinvol ving
Ġfair ly
Ġsurpris ed
Ġcomp licated
Ġfunction ality
Ġsurprising ly
Ġreg ularly
Ġbu y
Ġcri tic
Ġaspec t
Ġma jor
Ġpic ked
Ġstun ning
Battle field
Sp ider
Ġnostal g
Ġlacklus ter
A l
J ust
T ry
W as
b or
f f
f air
h us
h ilar
i ent
i ac
i ment
k en
n y
n iac
o ki
p ut
p os
s om
Ġ ug
at es
re ci
Ġa dv
Ġp ort
Ġp ick
or ful
la bor
Ġg ory
Ġg oof
ent iment
Ġt on
ing ham
Ġs entiment
Ġn ause
Ġre ward
ĠT ri
Ġin cre
Ġd one
Ġd ifferent
Ġo thers
oo se
Ġb ased
Ġb last
ĠI O
ll iest
Ġw he
Ġon es
lat ed
ĠL oki
Ġe pic
Ġe labor
Ġc ro
li est
Ġavaila bility
Ġex hilar
Ġsi lliest
ĠB irm
de pth
qu e
ĠF or
ĠO S
ĠU pp
Ġexp ens
Ġspecif ic
Ġwh ole
ol ting
Do es
ast s
Ġlo w
Ġfun ky
Ġfun ny
Ġrev olting
Ġun interest
Ġun fair
ap s
ap an
Ġtal ented
ant age
Ġsome times
ĠMax is
ank s
Ġcal ming
An them
Ġgam er
Ġch oose
Ġincl ude
Ġl ong
Ġl ongest
Ġoffer ing
Ġpar t
ĠJ apan
Ġapp ro
Ġapp reci
Ġimpress ive
Ġpla in
Ġbro ken
Ġeas iest
Ġconven ient
Ġmis s
comp licated
ump h
Ġrelax ing
Ġcol orful
Ġvis ually
Ġweird est
Ġnostalg ic
som niac
Ġug liest
Ġadv antage
Ġgoof y
Ġnause ating
Ġreward ing
ĠTri umph
Ġwhe ther
Ġelabor ate
Ġexhilar ating
ĠBirm ingham
ĠUpp er
Ġexpens ive
Ġuninterest ing
B e
C ore
N ow
a in
f fort
g n
g le
i ld
i ly
k es
l f
o p
r ong
t y
w n
w ay
er en
am p
ti cal
Ġs m
Ġs ure
Ġs tu
Ġs lated
Ġth ings
Ġr are
Ġi de
Ġh e
Ġh ard
Ġh eld
Ġh onestly
Ġm aster
Ġm ix
Ġd ug
Ġyou n
Ġw on
Ġw rong
Ġe v
Ġe arn
Ġe ffort
ĠC urrently
ble m
ĠA s
ĠW as
ĠW ind
ut ed
Ġli ve
ĠF irst
Ġsimulation s
ow ing
Ġrec ent
Ġta kes
Ġany one
Ġme m
Ġso on
Ġthin king
Ġal one
ĠIn somniac
ĠAn d
se lf
Ġsup pos
Ġmention ing
il led
Ġbo ard
Ġfriend ly
An cient
Ġcheck ed
Ġl uck
Ġlack s
Ġad ore
Ġcom ple
Ġgo ing
Ġaw are
Ġdisappoint ed
Ġpro blem
Ġaddi tion
Ġuni que
Ġle t
Ġcomp ared
ĠWh at
Ġstand ard
20 0
20 1
Ġmay be
Ġcombin ed
Ġsad ly
Ġcorrect ly
platform er
Ġgra b
Ġexc it
cor ding
Ġpurch ase
Ġentire ly
Ġentertain ing
Ġke ep
Ġpres ented
Ġhor ror
Ġmidd le
Al though
hus i
Ġearn ed
ĠWind ows
Ġsuppos ed
+ .
A h
O n
b el
c ted
d in
e ep
f ter
g er
g ag
h aps
i ble
i tion
k s
o f
p or
p leas
p ri
w he
Ġ our
er ms
on ent
on ly
la in
as ically
Ġt erms
Ġs c
Ġs er
Ġs ort
Ġs tudio
Ġth us
Ġth anks
Ġre de
Ġr ac
Ġin cor
leas e
Ġh ome
Ġan gle
Ġm ass
Ġm aking
Ġd ig
Ġd ue
ar t
ar ound
Ġo wn
ation s
pe al
Ġf la
Ġw anted
Ġw orks
Ġw eren
ulti player
Ġde al
ai gn
Ġc le
Ġc up
Ġc ertain
Ġc amp
Ġsh ot
tr ol
Ġv ar
port ant
ic al
Ġpo tent
ive ly
Ġlike ability
ch ed
us h
ad y
ad ition
Wh o
Ġcon trol
Ġexp lore
Ġexp lain
Ġen gag
Ġas k
Ġany way
Ġfe w
Ġal ong
croll ing
Ġte a
Ġun pleas
Ġget ting
to p
Ġthought s
Ġse en
Ġus ing
Ġst ore
Ġgot ta
Ġgam ers
Ġch ar
Ġtr adition
Ġconsider ing
Ġad ul
Ġent husi
Ġman ag
Ġdown loaded
Ġaw ay
di ble
pp ed
Ġag ain
Ġla bel
Ġac cording
Ġim portant
Ġle ave
Ġle ts
Th at
Th is
Ġstrateg ies
Ġwor se
Ġcomp onent
ĠWh y
Ġunder whe
Ġtell ing
Ġhav en
Ġcombin es
Ġlimit ed
Ġcri tical
Ġaspec ts
Ġper fect
Ġhigh ly
Ġevery thing
Ġfocus ed
Ġend ed
Ġmat ter
Ġcompe tent
Ġhapp y
Ġcritic s
put ting
Ġincre dible
Ġappro pri
Ġappreci ate
Ġstu ff
Ġide a
Ġexcit ed
din ary
por ates
Ġrede fin
Ġincor porates
Ġcamp aign
Ġpotent ial
Ġengag ing
Ġunpleas ant
Ġenthusi asts
Ġunderwhe l
Ġappropri ate
) -
+ ,
. ,
F use
H as
H it
H onestly
M ay
N aughty
O verkill
P lay
R ed
R ole
W ere
a us
b ly
c cess
d d
d ers
d ic
f ri
g inally
i ed
i ant
l se
m ost
m ore
m ately
n a
n ed
p s
p t
p er
p ie
p hic
p ically
p peal
p top
s w
t and
u led
v id
v ival
w d
w o
er tainment
at is
at ch
re leased
re ady
on us
on na
Ġa cro
Ġa fter
Ġa ppeal
Ġp ast
Ġg r
Ġg onna
le y
Ġt wo
ti tive
Ġs aw
Ġs ong
Ġs ound
Ġs crolling
Ġn on
Ġr ave
ĠT ake
Ġrat e
Ġreleas ing
Ġh and
Ġh our
Ġh op
Ġan sw
Ġm one
Ġm ine
Ġd ar
Ġd ro
Ġd ated
Ġo dd
Ġb oo
Ġb are
Ġb unch
Ġb asically
Ġb onus
ure d
Ġf all
Ġf ig
Ġf ine
Ġf illed
ver all
ac h
te mp
lo se
ie ty
Ġe lse
st yle
Ġde v
Ġde light
Ġc ateg
Ġc lick
Ġc aus
Ġc lose
Ġfor ward
Ġyear s
ĠA t
Ġsh ows
ĠR ated
Ġex tr
Ġwas te
end ly
ort unately
qu ate
Ġto day
ĠF ortunately
ro ve
ĠO f
ĠO h
ĠO verall
Ġsu ccess
Ġat temp
Ġop er
lan ce
Ġcon st
ĠTh ird
Ġen h
Ġen em
Ġwh ose
Ġany more
Ġme h
Ġso ld
Ġal most
Ġal ready
Ġturn s
Ġturn ed
ĠK eep
Ġknow n
ĠAn y
Ġlo ts
Ġlo vers
ĠTy pically
Ġvehic le
Ġte am
Ġfeel s
av en
Ġun ders
Ġget s
Ġtal k
Ġtal ked
ĠEv en
ĠOri ginally
Ġtri ck
Ġwould n
Ġcould n
Ġch ild
Ġtyp ical
ĠJ ust
Ġent ertainment
Ġinclud ed
Ġpro vid
Ġsur vival
Ġla ptop
Ġba lance
Ġsol ve
Ġlaunch ing
Ġchallen ge
Ġcombin ation
Ġjo in
Ġfo ll
Ġstrong ly
Ġper haps
Ġgra phic
Ġma in
Ġexpect ations
Ġmat ch
Ġeas ily
Ġconven ience
Ġke pt
Ġro ck
Ġro ad
Ġimp act
Ġimp rove
Ġton s
Ġcro wd
Ġhe aven
Ġmaster pie
Ġmix ed
Ġyoun ger
Ġev ent
Ġmem or
Ġcomple te
Ġrac e
Ġmass ively
Ġfla w
Ġcle ar
Ġvar iety
ush ed
Ġtradition al
Ġadul t
Ġmanag ed
Ġredefin ed
Ġunderwhel med
Hit man
May be
fri endly
atis f
Ġacro ss
Ġhour s
Ġansw er
Ġmone y
Ġdar k
Ġbare ly
Ġfig ured
Ġextr a
Ġattemp t
Ġenem ies
Ġunders tand
Ġprovid es
Ġgraphic s
Ġmasterpie ce
1 99
A A
A s
A dventure
A ugust
B loober
D e
D on
F r
F ire
K onami
M y
M oon
M ultiplayer
N intendo
O kay
P C
S ay
S ome
S ports
S IE
T a
T in
T ell
U bisoft
W ith
a lo
a it
b t
b ed
b ut
c y
c er
c ri
c uted
d id
e x
e ye
e ared
e cuted
f le
f illed
g ame
g ed
h ave
h app
i p
i or
k ability
l ing
l led
m is
p ed
p end
r en
s ed
s ion
s hock
s ide
t in
t end
t ail
u ti
u ine
u mer
v in
v ated
v ented
w ise
w aps
y s
y led
z ed
Ġ -
Ġ form
Ġ ulti
Ġ intend
Ġ loaded
in s
in y
er ed
at ur
at ible
at alo
en joy
re e
re t
Ġa de
Ġp lan
Ġp lease
or ge
or dinary
as ing
as te
Ġg arn
Ġg eared
Ġg orge
Ġt ame
Ġt iny
ti l
ti al
Ġs k
Ġs le
Ġs al
Ġs po
Ġs mall
Ġs our
Ġs ched
Ġs atisf
Ġs waps
Ġn ar
Ġn ear
Ġn ight
Ġth ankf
ve s
ve y
Ġre put
Ġr oom
ers on
ou bt
ĠS ad
cti c
ĠM ultiplayer
Ġin com
es tion
Ġh ating
Ġh ey
Ġh ype
Ġh onest
Ġm ar
Ġd il
Ġd esign
Ġd ist
Ġd oubt
ar ently
ĠE ver
Ġo bje
Ġo mis
oo th
Ġb ri
Ġb lo
Ġb oot
Ġb ought
Ġb ug
Ġb ring
ul ly
Ġhas n
Ġgen uine
Ġf ac
Ġf it
Ġf ut
Ġf ur
Ġf ol
Ġf ield
Ġw ide
Ġw ild
Ġw atch
an ic
ac ter
ri d
ri ble
ri cted
lo t
Ġno vel
Ġthe ms
ĠPlay ers
Ġe qu
ge t
it ing
Ġc ar
Ġc all
Ġc omputer
Ġc atalo
ĠC ould
ĠThe y
al ue
Ġfor get
li ke
aila ble
Ġex tre
Ġex act
tr active
ĠD riving
Ġit self
Ġv alue
Ġsi ght
ate ver
Ġview ed
ĠH as
if ied
ke y
Ġpo p
Ġsimul at
Ġexce ption
Ġto p
Ġto pic
Ġli st
Ġli kability
Ġrequ ires
ro w
ro ad
Ġlike ly
Ġfr ank
Ġat tractive
ch anic
and ing
der n
ow ed
ta ble
ta bly
Ġor dinary
You r
ĠRe al
Ġout did
Ġcon vers
Ġcon tin
ĠTh anks
Ġab ility
Ġexp anding
Ġta ctic
Ġspecif ically
Ġwh atever
Ġreal iz
iv ing
Ġme chanic
Ġal ley
Ġpre dic
Ġpre vented
Ġmo dern
Ġyour self
Ġother wise
rat ive
Ġall owing
Ġall owed
Ġrece iving
el ves
il s
Ġar rive
Ġfan cy
Ġlove s
Ġfeel ings
Ġhear ing
orm ally
Ġun ent
Ġun less
Ġun happ
Ġun enjoy
Ġun til
Ġreview ers
ire d
Ġdis c
Ġmak er
Co demasters
Ġbo ast
Ġbo asts
Ġsome time
Ġse es
Ġne xt
Ġele vated
Ġus ual
Ġgreat ly
Ġthrough out
Ġst arted
Ġdec ide
Ġdec ently
ĠInd ie
ĠFr om
Ġamazing ly
Ġcheck ing
Ġtr end
Ġtr ust
Ġtend s
Ġnorm al
Ġl ame
Ġad d
Ġoffer ed
Ġpar tial
Ġbec ome
Ġwe ak
Ġnice ly
Ġnew er
Ġgo es
Ġaw ful
Ġdisappoint ment
ste p
Ġpro per
ru cted
Ġag es
Ġag ree
Ġfeature d
Ġteen s
Ġac c
Ġac cess
Ġdes cri
Ġswitch ed
Te am
Ġle g
Ġle ss
Ġle vel
Ġsti ck
Th ough
Ġkind a
Ġwor ld
Ġcomp atible
Ġstand s
Ġstand ing
Ġapp arently
Ġlaunch er
20 16
20 10
Ġaud ience
act ers
Ġcombin ing
Ġrest ricted
Ġreason s
Ġreg ret
Ġimpress ion
ieve d
Ġneed ed
Ġstory line
platform ing
Ġpla ce
Ġpla ced
Ġexc pec
Ġexc use
Ġmess ed
Ġbro thers
Ġpurch ased
Ġpurch asing
Ġentertain ed
Ġhelp s
Ġpres ent
Ġmis step
Ġcompe te
Ġcompe titive
Ġblend s
Ġhor rible
Ġhold s
Ġhapp en
Ġmidd ling
Ġprodu ct
Ġprodu ced
Ġport ed
Ġcro ss
Ġappro ach
Ġappreci ated
Be fore
Be thesda
Ġsm ash
Ġsm ooth
Ġrare ly
Ġmem ory
Ġadore d
200 5
201 3
Ġgrab bing
Ġser ies
Ġchar acter
Ġchar acters
Ġleave s
Play Station
Ġappeal ing
Ġgr ou
Ġsong s
Ġhop es
Ġdro pped
Ġboo k
Ġdelight ful
Ġcateg ory
Ġcaus es
Ġconst ructed
Ġenh anced
Ġchild ren
Ġfoll owing
Ġevent ually
Ġmemor ies
Ġflaw less
Ġextra ordinary
De veloped
Fire proof
Ġulti mately
atur ally
Ġade quate
aste ful
Ġgarn ered
Ġgorge ous
Ġspo ils
Ġsched uled
Ġnar rative
Ġthankf ully
Ġreput ation
ĠSad ly
estion s
Ġmar ket
Ġdil uted
Ġdist asteful
Ġomis sion
Ġgenuine ly
Ġfut ure
Ġfur ther
Ġfol ks
Ġthems elves
Ġcatalo g
Ġextre me
Ġconvers ation
Ġmechanic s
Ġpredic tably
Ġarrive d
Ġunhapp y
Ġunenjoy able
Ġproper ly
Ġdescri be
