{"<s>":0,"<pad>":1,"</s>":2,"<unk>":3,"!":4,"\"":5,"#":6,"$":7,"%":8,"&":9,"'":10,"(":11,")":12,"*":13,"+":14,",":15,"-":16,".":17,"/":18,"0":19,"1":20,"2":21,"3":22,"4":23,"5":24,"6":25,"7":26,"8":27,"9":28,":":29,";":30,"<":31,"=":32,">":33,"?":34,"@":35,"A":36,"B":37,"C":38,"D":39,"E":40,"F":41,"G":42,"H":43,"I":44,"J":45,"K":46,"L":47,"M":48,"N":49,"O":50,"P":51,"Q":52,"R":53,"S":54,"T":55,"U":56,"V":57,"W":58,"X":59,"Y":60,"Z":61,"[":62,"\\":63,"]":64,"^":65,"_":66,"`":67,"a":68,"b":69,"c":70,"d":71,"e":72,"f":73,"g":74,"h":75,"i":76,"j":77,"k":78,"l":79,"m":80,"n":81,"o":82,"p":83,"q":84,"r":85,"s":86,"t":87,"u":88,"v":89,"w":90,"x":91,"y":92,"z":93,"{":94,"|":95,"}":96,"~":97,"¡":98,"¢":99,"£":100,"¤":101,"¥":102,"¦":103,"§":104,"¨":105,"©":106,"ª":107,"«":108,"¬":109,"®":110,"¯":111,"°":112,"±":113,"²":114,"³":115,"´":116,"µ":117,"¶":118,"·":119,"¸":120,"¹":121,"º":122,"»":123,"¼":124,"½":125,"¾":126,"¿":127,"À":128,"Á":129,"Â":130,"Ã":131,"Ä":132,"Å":133,"Æ":134,"Ç":135,"È":136,"É":137,"Ê":138,"Ë":139,"Ì":140,"Í":141,"Î":142,"Ï":143,"Ð":144,"Ñ":145,"Ò":146,"Ó":147,"Ô":148,"Õ":149,"Ö":150,"×":151,"Ø":152,"Ù":153,"Ú":154,"Û":155,"Ü":156,"Ý":157,"Þ":158,"ß":159,"à":160,"á":161,"â":162,"ã":163,"ä":164,"å":165,"æ":166,"ç":167,"è":168,"é":169,"ê":170,"ë":171,"ì":172,"í":173,"î":174,"ï":175,"ð":176,"ñ":177,"ò":178,"ó":179,"ô":180,"õ":181,"ö":182,"÷":183,"ø":184,"ù":185,"ú":186,"û":187,"ü":188,"ý":189,"þ":190,"ÿ":191,"Ā":192,"ā":193,"Ă":194,"ă":195,"Ą":196,"ą":197,"Ć":198,"ć":199,"Ĉ":200,"ĉ":201,"Ċ":202,"ċ":203,"Č":204,"č":205,"Ď":206,"ď":207,"Đ":208,"đ":209,"Ē":210,"ē":211,"Ĕ":212,"ĕ":213,"Ė":214,"ė":215,"Ę":216,"ę":217,"Ě":218,"ě":219,"Ĝ":220,"ĝ":221,"Ğ":222,"ğ":223,"Ġ":224,"ġ":225,"Ģ":226,"ģ":227,"Ĥ":228,"ĥ":229,"Ħ":230,"ħ":231,"Ĩ":232,"ĩ":233,"Ī":234,"ī":235,"Ĭ":236,"ĭ":237,"Į":238,"į":239,"İ":240,"ı":241,"Ĳ":242,"ĳ":243,"Ĵ":244,"ĵ":245,"Ķ":246,"ķ":247,"ĸ":248,"Ĺ":249,"ĺ":250,"Ļ":251,"ļ":252,"Ľ":253,"ľ":254,"Ŀ":255,"ŀ":256,"Ł":257,"ł":258,"Ń":259,"Ġ=":260,"Ġ|":261,"in":262,"re":263,"Ġt":264,"en":265,"Ġin":266,"Ġa":267,"ic":268,"ent":269,"op":270,"ra":271,"ou":272,"Ġint":273,"st":274,"opic":275,"Ġintent":276,"he":277,"Ġc":278,"Ġre":279,"or":280,"Ġn":281,"Ġb":282,"Ġi":283,"you":284,"Ġp":285,"topic":286,"on":287,"er":288,"Ġw":289,"Ġyou":290,"oo":291,"for":292,"Ġh":293,"Ġg":294,"el":295,"Ġthe":296,"ing":297,"est":298,"Ġm":299,"at":300,"ve":301,"Ġl":302,"ook":303,"form":304,"Ġinform":305,"Ġd":306,"Ġis":307,"mb":308,"uest":309,"Ġbook":310,"Ġan":311,"Ġtopic":312,"me":313,"ran":314,"an":315,"era":316,"se":317,"Ġto":318,"ice":319,"th":320,"Ġare":321,"Ġf":322,"ar":323,"Ġreq":324,"Ġrequest":325,"ay":326,"ot":327,"Ġnu":328,"mber":329,"Ġnumber":330,"enera":331,"Ġgenera":332,"Ġgeneral":333,"Ġs":334,"ion":335,"ge":336,"ave":337,"Ġo":338,"ri":339,"Ġof":340,"Ġat":341,"Ġtra":342,"ce":343,"Ġhot":344,"Ġhotel":345,"sta":346,"rant":347,"urant":348,"staurant":349,"Ġrestaurant":350,"Ġtrain":351,"ke":352,"le":353,"Ġand":354,"co":355,"Ġmo":356,"ld":357,"Ġ1":358,"ed":359,"Ġpr":360,"ere":361,"one":362,"ct":363,"Ġarea":364,"Ġfor":365,"ame":366,"ould":367,"hat":368,"Ġname":369,"Ġprice":370,"ss":371,"fere":372,"feren":373,"Ġbooking":374,"Ġch":375,"Ġhave":376,"Ġwi":377,"Ġwould":378,"Ġli":379,"Ġ0":380,"it":381,"ference":382,"ll":383,"Ġmore":384,"ye":385,"Ġst":386,"Ġlike":387,"ood":388,"the":389,"Ġreference":390,"Ġle":391,"Ġany":392,"ation":393,"pe":394,"Ġday":395,"et":396,"tra":397,"range":398,"Ġrange":399,"Ġca":400,"23":401,"ction":402,"Ġcho":403,"Ġchoice":404,"traction":405,"Ġattraction":406,"Ġar":407,"dge":408,"Ġcan":409,"de":410,"Ġcent":411,"Ġyour":412,"Ġthat":413,"Ġe":414,"art":415,"Ġel":416,"hone":417,"ouse":418,"Ġty":419,"Ġtype":420,"thing":421,"dd":422,"Ġphone":423,"12":424,"fer":425,"Ġcentre":426,"ress":427,"ridge":428,"Ġelse":429,"ro":430,"Ġthere":431,"Ġadd":432,"Ġdo":433,"Ġleave":434,"Ġbye":435,"Ġanything":436,"Ġaddress":437,"Ġcamb":438,"Ġwith":439,"Ġhe":440,"Ġfood":441,"Ġcambridge":442,"Ġit":443,"Ġarri":444,"1223":445,"Ġtr":446,"Ġpo":447,"Ġwel":448,"Ġ01223":449,"Ġoffer":450,"lp":451,"wn":452,"come":453,"Ġhelp":454,"Ġwelcome":455,"day":456,"ime":457,"Ġtime":458,"Ġde":459,"Ġta":460,"Ġguest":461,"Ġbe":462,"Ġarrive":463,"al":464,"as":465,"Ġcb":466,"Ġpost":467,"es":468,"Ġdep":469,"Ġdepart":470,"mm":471,"Ġno":472,"Ġtown":473,"Ġlo":474,"ble":475,"Ġme":476,"code":477,"Ġpostcode":478,"Ġth":479,"ark":480,"end":481,"Ġ2":482,"Ġgre":483,"comm":484,"Ġche":485,"Ġpark":486,"si":487,"is":488,"Ġu":489,"Ġ4":490,"commend":491,"Ġrecommend":492,"Ġne":493,"there":494,"ton":495,"la":496,"Ġwill":497,"ree":498,"ry":499,"Ġon":500,"ity":501,"ow":502,"ut":503,"Ġfe":504,"Ġhouse":505,"ure":506,"ch":507,"Ġbooked":508,"ul":509,"house":510,"Ġwhat":511,"ol":512,"Ġ3":513,"ad":514,"Ġro":515,"ur":516,"Ġex":517,"ket":518,"Ġmod":519,"ap":520,"Ġor":521,"Ġguesthouse":522,"ast":523,"'s":524,"oun":525,"Ġneed":526,"ination":527,"estination":528,"Ġdestination":529,"xi":530,"Ġfree":531,"Ġloc":532,"Ġ5":533,"ta":534,"erat":535,"Ġmoderat":536,"Ġtaxi":537,"orth":538,"Ġexp":539,"Ġres":540,"Ġ012233":541,"Ġfee":542,"Ġsu":543,"Ġpe":544,"ir":545,"ting":546,"Ġk":547,"ound":548,"Ġwas":549,"Ġroad":550,"Ġse":551,"reet":552,"ensi":553,"Ġone":554,"ople":555,"ensive":556,"Ġpeople":557,"Ġstay":558,"Ġstreet":559,"Ġreser":560,"icket":561,"gh":562,"Ġticket":563,"Ġv":564,"ank":565,"Ġexpensive":566,"Ġcity":567,"Ġ07":568,"Ġnorth":569,"ated":570,"ok":571,"Ġid":572,"Ġlocated":573,"ely":574,"Ġra":575,"Ġgood":576,"Ġmin":577,"Ġpre":578,"Ġman":579,"our":580,"if":581,"Ġcheap":582,"Ġparking":583,"ect":584,"ine":585,"ern":586,"00":587,"ful":588,"Ġmany":589,"um":590,"Ġcon":591,"ooking":592,"Ġnone":593,"Ġrating":594,"Ġgreat":595,"Ġtoday":596,"Ġpart":597,"her":598,"cce":599,"'re":600,"Ġwh":601,"ccess":602,"ian":603,"Ġintern":604,"ver":605,"rom":606,"Ġ15":607,"21":608,"ounds":609,"thank":610,"Ġfrom":611,"un":612,"all":613,"il":614,"Ġr":615,"Ġeast":616,"ell":617,"Ġsel":618,"yes":619,"Ġwest":620,"Ġselect":621,"ccessful":622,"Ġminut":623,"Ġinternet":624,"Ġpounds":625,"other":626,"11":627,"Ġmu":628,"Ġreserv":629,"Ġ7":630,"Ġreservation":631,"ist":632,"Ġall":633,"ia":634,"Ġminutes":635,"Ġtw":636,"ght":637,"Ġcar":638,"sure":639,"tact":640,"Ġstar":641,"Ġcontact":642,"Ġtwo":643,"Ġsuccessful":644,"Ġcol":645,"Ġsou":646,"Ġmuse":647,"Ġmuseum":648,"Ġrestaurants":649,"Ġco":650,"ai":651,"Ġby":652,"Ġcolle":653,"Ġus":654,"Ġcollege":655,"Ġpriced":656,"Ġmoderately":657,"24":658,"Ġ:":659,"out":660,"bp":661,"ving":662,"Ġent":663,"58":664,"and":665,"Ġtheir":666,"Ġsouth":667,"here":668,"Ġser":669,"rit":670,"jo":671,"Ġtable":672,"bye":673,"Ġgbp":674,"orry":675,"Ġ10":676,"okay":677,"Ġ8":678,"ill":679,"Ġhotels":680,"Ġmoderate":681,"ant":682,"51":683,"Ġun":684,"Ġso":685,"Ġ6":686,"ck":687,"ly":688,"Ġma":689,"Ġlen":690,"'m":691,"Ġ13":692,"Ġsh":693,"Ġab":694,"Ġhow":695,"Ġinformation":696,"66":697,"ich":698,"Ġass":699,"Ġwant":700,"ral":701,"what":702,"Ġ9":703,"Ġj":704,"Ġgreet":705,"Ġassist":706,"Ġtrav":707,"Ġgoodbye":708,"Ġav":709,"oom":710,"30":711,"ight":712,"Ġ11":713,"ak":714,"Ġ17":715,"Ġsorry":716,"Ġabout":717,"os":718,"Ġpla":719,"tion":720,"veral":721,"Ġseveral":722,"ain":723,"Ġplace":724,"07":725,"ery":726,"eria":727,"lu":728,"orn":729,"booking":730,"Ġif":731,"joy":732,"enjoy":733,"Ġtravel":734,"Ġind":735,"Ġstation":736,"Ġhas":737,"Ġop":738,"tain":739,"ertain":740,"Ġas":741,"Ġpreference":742,"20":743,"ish":744,"ond":745,"Ġtry":746,"Ġprefer":747,"Ġleaves":748,"Ġguesthouses":749,"Ġthey":750,"17":751,"ite":752,"Ġbed":753,"50":754,"Ġindian":755,"Ġdif":756,"ferent":757,"Ġdifferent":758,"aila":759,"Ġlooking":760,"Ġnight":761,"Ġnot":762,"Ġoption":763,"Ġtrains":764,"Ġking":765,"88":766,"Ġple":767,"Ġsi":768,"Ġac":769,"54":770,"Ġavaila":771,"ment":772,"we":773,"am":774,"Ġenjoy":775,"Ġgo":776,"ard":777,"Ġwe":778,"Ġwhere":779,"fi":780,"ool":781,"Ġy":782,"Ġbar":783,"Ġ16":784,"Ġarrives":785,"rance":786,"Ġwhich":787,"'t":788,"gth":789,"Ġlength":790,"your":791,"Ġentrance":792,"Ġanother":793,"inese":794,"Ġbut":795,"Ġchinese":796,"Ġreserve":797,"aint":798,"Ġthis":799,"60":800,"29":801,"Ġavailable":802,"sted":803,"Ġbre":804,"Ġ12":805,"10":806,"Ġoptions":807,"Ġsaint":808,"fast":809,"us":810,"Ġbreak":811,"zz":812,"Ġbreakfast":813,"fo":814,"ork":815,"Ġusing":816,"ind":817,"08":818,"Ġ19":819,"Ġq":820,"Ġsome":821,"Ġacorn":822,"Ġcrit":823,"Ġcriteria":824,"ase":825,"Ġ14":826,"ope":827,"Ġlodge":828,"erton":829,"Ġroom":830,"Ġbo":831,"ort":832,"ilton":833,"aving":834,"Ġkn":835,"15":836,"Ġchest":837,"Ġnice":838,"Ġleaving":839,"Ġknow":840,"52":841,"Ġother":842,"59":843,"Ġchesterton":844,"able":845,"how":846,"40":847,"Ġside":848,"27":849,"46":850,"Ġam":851,"side":852,"Ġmake":853,"Ġgall":854,"Ġcould":855,"39":856,"Ġcenter":857,"'d":858,"osp":859,"ital":860,"Ġhosp":861,"tal":862,"Ġhospital":863,"Ġtotal":864,"Ġital":865,"Ġitalian":866,"izz":867,"Ġwork":868,"Ġintere":869,"Ġthank":870,"Ġmay":871,"Ġserve":872,"id":873,"Ġplease":874,"Ġmat":875,"Ġspe":876,"ular":877,"35":878,"34":879,"bs":880,"Ġspec":881,"Ġable":882,"Ġget":883,"Ġour":884,"Ġfind":885,"sity":886,"Ġmeet":887,"Ġhin":888,"esday":889,"Ġmar":890,"Ġ18":891,"Ġreserved":892,"Ġal":893,"Ġpol":894,"Ġspecif":895,"rip":896,"Ġdoes":897,"Ġ21":898,"41":899,"Ġpay":900,"Ġdeparting":901,"01":902,"Ġchur":903,"ane":904,"57":905,"Ġhinton":906,"Ġcher":907,"ple":908,"Ġthree":909,"Ġpolice":910,"Ġcherry":911,"Ġtickets":912,"Ġspecific":913,"32":914,"Ġbrit":915,"icular":916,"Ġparticular":917,"Ġbritish":918,"Ġ20":919,"tr":920,"Ġhill":921,"Ġparkside":922,"Ġserv":923,"Ġservice":924,"Ġarch":925,"Ġfound":926,"iver":927,"Ġpizz":928,"ille":929,"Ġpayable":930,"Ġchurch":931,"ville":932,"reat":933,"43":934,"Ġcl":935,"iversity":936,"Ġcall":937,"Ġup":938,"ms":939,"Ġfour":940,"90":941,"great":942,"Ġtrip":943,"Ġstars":944,"Ġper":945,"Ġmuseums":946,"Ġdeparture":947,"ough":948,"ue":949,"Ġcu":950,"ive":951,"Ġthem":952,"56":953,"che":954,"Ġvery":955,"Ġuniversity":956,"Ġfri":957,"80":958,"onville":959,"Ġfriday":960,"Ġfit":961,"enb":962,"36":963,"Ġdon":964,"Ġ23":965,"have":966,"py":967,"Ġway":968,"Ġgallery":969,"Ġri":970,"Ġdown":971,"Ġlane":972,"lex":973,"ander":974,"ose":975,"lexander":976,"do":977,"Ġpool":978,"45":979,"Ġinterested":980,"Ġwifi":981,"38":982,"Ġaf":983,"Ġgonville":984,"Ġhills":985,"19":986,"og":987,"bu":988,"Ġmind":989,"clu":990,"no":991,"ther":992,"em":993,"info":994,"da":995,"Ġreg":996,"Ġtowninfo":997,"appy":998,"Ġkings":999,"16":1000,"Ġart":1001,"09":1002,"Ġsomething":1003,"Ġgard":1004,"Ġtheat":1005,"Ġgarden":1006,"Ġ05":1007,"lad":1008,"Ġboth":1009,"Ġlook":1010,"Ġarriving":1011,"53":1012,"Ġnew":1013,"Ġalexander":1014,"where":1015,"'ve":1016,"Ġeur":1017,"Ġeurope":1018,"Ġmatch":1019,"Ġeuropean":1020,"Ġcertain":1021,"Ġwhite":1022,"Ġfew":1023,"87":1024,"Ġcuis":1025,"Ġpro":1026,"Ġthose":1027,"06":1028,"Ġqu":1029,"Ġplaces":1030,"Ġregent":1031,"unting":1032,"Ġnights":1033,"ter":1034,"Ġarms":1035,"Ġserves":1036,"Ġcuisine":1037,"urry":1038,"Ġlet":1039,"Ġmilton":1040,"Ġhappy":1041,"Ġcode":1042,"Ġsun":1043,"ven":1044,"Ġsunday":1045,"Ġ0122324":1046,"Ġlocation":1047,"Ġfen":1048,"ately":1049,"966":1050,"Ġfur":1051,"Ġfurther":1052,"55":1053,"44":1054,"Ġsp":1055,"qq":1056,"Ġtheatre":1057,"fe":1058,"onder":1059,"ina":1060,"Ġrd":1061,"onderful":1062,"ham":1063,"tun":1064,"42":1065,"ie":1066,"fortun":1067,"Ġsat":1068,"isit":1069,"fortunately":1070,"ley":1071,"Ġvisit":1072,"so":1073,"gg":1074,"hley":1075,"Ġbel":1076,"urday":1077,"ca":1078,"ne":1079,"Ġsaturday":1080,"iss":1081,"ma":1082,"row":1083,"Ġnar":1084,"Ġ09":1085,"Ġnarrow":1086,"Ġad":1087,"ott":1088,"77":1089,"Ġcom":1090,"13":1091,"ust":1092,"Ġcurry":1093,"Ġyell":1094,"Ġpic":1095,"Ġho":1096,"Ġcolleges":1097,"Ġyellow":1098,"Ġhunting":1099,"Ġdit":1100,"Ġbla":1101,"Ġbeen":1102,"Ġwhen":1103,"Ġwonderful":1104,"Ġbridge":1105,"Ġpa":1106,"Ġashley":1107,"Ġblack":1108,"Ġquite":1109,"Ġcine":1110,"Ġvol":1111,"Ġcost":1112,"Ġpizza":1113,"49":1114,"Ġditton":1115,"olog":1116,"ance":1117,"jg":1118,"Ġnightclu":1119,"sfi":1120,"Ġgrey":1121,"onday":1122,"Ġhour":1123,"eld":1124,"sfield":1125,"Ġdid":1126,"Ġ01223358":1127,"Ġlensfield":1128,"enbell":1129,"Ġmonday":1130,"Ġchoo":1131,"Ġattractions":1132,"ches":1133,"Ġred":1134,"Ġsugg":1135,"Ġbelf":1136,"Ġsuggest":1137,"rist":1138,"Ġz":1139,"ican":1140,"ult":1141,"bury":1142,"ies":1143,"Ġassistance":1144,"ha":1145,"Ġstart":1146,"lue":1147,"Ġ01223358966":1148,"Ġblue":1149,"ondon":1150,"Ġbelfry":1151,"28":1152,"don":1153,"Ġlondon":1154,"ab":1155,"Ġneeds":1156,"Ġhope":1157,"oor":1158,"would":1159,"Ġcontacting":1160,"oodle":1161,"Ġonly":1162,"Ġallenbell":1163,"Ġnoodle":1164,"48":1165,"arl":1166,"urs":1167,"add":1168,"unfortunately":1169,"Ġglad":1170,"Ġthurs":1171,"Ġthursday":1172,"Ġwed":1173,"very":1174,"Ġtraveling":1175,"tle":1176,"Ġhuntingdon":1177,"sian":1178,"Ġlov":1179,"nesday":1180,"Ġwednesday":1181,"ertainment":1182,"Ġalso":1183,"age":1184,"Ġla":1185,"78":1186,"Ġentertainment":1187,"val":1188,"ate":1189,"Ġfive":1190,"ag":1191,"itect":1192,"uck":1193,"Ġtu":1194,"18":1195,"Ġevery":1196,"Ġarchitect":1197,"Ġtuesday":1198,"su":1199,"Ġcour":1200,"Ġleis":1201,"Ġleisure":1202,"Ġnor":1203,"ifton":1204,"Ġclifton":1205,"26":1206,"king":1207,"ers":1208,"79":1209,"arch":1210,"Ġboat":1211,"Ġlot":1212,"Ġsy":1213,"Ġchoose":1214,"sa":1215,"Ġarrival":1216,"their":1217,"ted":1218,"rew":1219,"Ġpl":1220,"way":1221,"raf":1222,"Ġchrist":1223,"Ġtell":1224,"33":1225,"ep":1226,"mar":1227,"market":1228,"ire":1229,"Ġthing":1230,"Ġnewmarket":1231,"Ġ012234":1232,"Ġset":1233,"Ġandrew":1234,"Ġsyst":1235,"Ġcourse":1236,"Ġsystem":1237,"Ġsearch":1238,"Ġ.":1239,"Ġ0122336":1240,"inity":1241,"ount":1242,"Ġ22":1243,"Ġgreen":1244,"Ġmarri":1245,"Ġpleas":1246,"of":1247,"lden":1248,"Ġarchitecture":1249,"Ġshould":1250,"Ġhol":1251,"Ġtrinity":1252,"Ġproble":1253,"ko":1254,"Ġ33":1255,"right":1256,"Ġproblem":1257,"are":1258,"Ġexpress":1259,"Ġcomple":1260,"Ġasian":1261,"certain":1262,"room":1263,"irst":1264,"can":1265,"Ġ?":1266,"Ġriver":1267,"Ġcount":1268,"that":1269,"certainly":1270,"qu":1271,"ci":1272,"Ġstarting":1273,"miss":1274,"Ġdeparts":1275,"ud":1276,"Ġgraf":1277,"Ġshall":1278,"Ġstaying":1279,"mission":1280,"25":1281,"rough":1282,"Ġcinema":1283,"Ġmarriott":1284,"roomz":1285,"Ġchan":1286,"irm":1287,"Ġgoing":1288,"ford":1289,"Ġfun":1290,"alright":1291,"gd":1292,"Ġfirst":1293,"wh":1294,"Ġx":1295,"Ġadmission":1296,"Ġgolden":1297,"Ġhond":1298,"5151":1299,"Ġhonda":1300,"Ġmy":1301,"led":1302,"'ll":1303,"mw":1304,"Ġdays":1305,"Ġcro":1306,"ip":1307,"Ġtake":1308,"Ġ01223245151":1309,"rop":1310,"37":1311,"Ġsee":1312,"Ġpleasure":1313,"Ġrequ":1314,"Ġsko":1315,"Ġlex":1316,"Ġskoda":1317,"ray":1318,"Ġhall":1319,"89":1320,"Ġjust":1321,"Ġrequire":1322,"they":1323,"Ġconf":1324,"Ġap":1325,"Ġmill":1326,"Ġlexus":1327,"Ġtes":1328,"Ġshadd":1329,"Ġcalling":1330,"Ġwell":1331,"yn":1332,"Ġdepartment":1333,"Ġtesla":1334,"ack":1335,"sw":1336,"Ġhut":1337,"Ġsure":1338,"Ġ08":1339,"bray":1340,"ong":1341,"andoor":1342,"Ġshaddai":1343,"yot":1344,"22":1345,"Ġtoyot":1346,"Ġcross":1347,"andoori":1348,"Ġtoyota":1349,"64":1350,"Ġag":1351,"Ġbist":1352,"Ġbistro":1353,"ology":1354,"Ġseat":1355,"Ġpreferences":1356,"99":1357,"Ġback":1358,"Ġcal":1359,"Ġtandoori":1360,"Ġcalled":1361,"Ġwere":1362,"Ġsaints":1363,"Ġagain":1364,"ub":1365,"Ġford":1366,"Ġste":1367,"Ġcityroomz":1368,"14":1369,"wi":1370,"70":1371,"Ġcheck":1372,"Ġafter":1373,"Ġbmw":1374,"esus":1375,"Ġnightclub":1376,"Ġhere":1377,"Ġmatching":1378,"ient":1379,"Ġreservations":1380,"Ġlisted":1381,"be":1382,"Ġluck":1383,"ore":1384,"oat":1385,"Ġjesus":1386,"roughton":1387,"68":1388,"ug":1389,"train":1390,"Ġmade":1391,"Ġpara":1392,"yal":1393,"Ġout":1394,"yle":1395,"Ġlyn":1396,"Ġsch":1397,"ither":1398,"ester":1399,"ourne":1400,"Ġpools":1401,"Ġschool":1402,"Ġcafe":1403,"Ġnow":1404,"ene":1405,"Ġmodern":1406,"Ġleic":1407,"thanks":1408,"ince":1409,"Ġrea":1410,"Ġham":1411,"Ġ0122330":1412,"Ġpick":1413,"Ġleicester":1414,"alene":1415,"Ġhamilton":1416,"ex":1417,"rook":1418,"Ġ0122333":1419,"gdalene":1420,"olut":1421,"af":1422,"Ġorient":1423,"Ġresult":1424,"Ġthese":1425,"olutely":1426,"Ġoriental":1427,"ksw":1428,"vo":1429,"Ġaud":1430,"umn":1431,"Ġvolksw":1432,"Ġaudi":1433,"Ġvolkswag":1434,"ments":1435,"Ġthanks":1436,"69":1437,"iday":1438,"ze":1439,"Ġparade":1440,"worth":1441,"Ġgive":1442,"Ġthan":1443,"Ġcountry":1444,"Ġearl":1445,"Ġ0122390":1446,"andos":1447,"Ġmeets":1448,"Ġholiday":1449,"hap":1450,"Ġ24":1451,"Ġmagdalene":1452,"haps":1453,"utumn":1454,"Ġearli":1455,"sorry":1456,"ons":1457,"itch":1458,"Ġ079":1459,"Ġvolkswagen":1460,"stle":1461,"Ġcastle":1462,"Ġeither":1463,"Ġinn":1464,"Ġbroughton":1465,"Ġsound":1466,"Ġperhaps":1467,"sbray":1468,"Ġ-":1469,"Ġvin":1470,"86":1471,"abs":1472,"Ġ79":1473,"Ġinfo":1474,"Ġresults":1475,"good":1476,"star":1477,"Ġlit":1478,"Ġchoices":1479,"Ġpizzeria":1480,"absolutely":1481,"Ġgot":1482,"Ġlittle":1483,"pool":1484,"Ġely":1485,"port":1486,"arkworth":1487,"ally":1488,"Ġlovell":1489,"Ġ154":1490,"Ġrequirements":1491,"ling":1492,"na":1493,"Ġpet":1494,"Ġprince":1495,"bor":1496,"igh":1497,"Ġautumn":1498,"Ġok":1499,"Ġroyal":1500,"Ġcompleted":1501,"Ġhist":1502,"Ġkind":1503,"71":1504,"Ġayle":1505,"Ġworth":1506,"my":1507,"wich":1508,"Ġwok":1509,"borough":1510,"Ġnorwich":1511,"Ġwarkworth":1512,"Ġlynn":1513,"Ġcla":1514,"Ġclu":1515,"Ġswi":1516,"Ġparty":1517,"Ġten":1518,"Ġ076":1519,"Ġaylesbray":1520,"Ġswimm":1521,"ouin":1522,"Ġbet":1523,"Ġvolvo":1524,"ira":1525,"Ġits":1526,"Ġvar":1527,"Ġpeter":1528,"Ġswimming":1529,"vi":1530,"Ġ40":1531,"Ġpeterborough":1532,"dy":1533,"888":1534,"Ġservices":1535,"76":1536,"xb":1537,"Ġgast":1538,"Ġ01223334":1539,"oh":1540,"Ġ30":1541,"Ġda":1542,"alon":1543,"Ġserving":1544,"rookes":1545,"Ġavalon":1546,"Ġinterest":1547,"Ġclub":1548,"iet":1549,"Ġunsu":1550,"uese":1551,"ull":1552,"work":1553,"Ġrest":1554,"Ġhigh":1555,"bsons":1556,"Ġali":1557,"Ġartwork":1558,"uguese":1559,"Ġvinci":1560,"Ġartworks":1561,"Ġunsuccessful":1562,"Ġport":1563,"Ġgastrop":1564,"av":1565,"hn":1566,"Ġair":1567,"Ġbedouin":1568,"ala":1569,"enbrookes":1570,"ked":1571,"Ġshow":1572,"Ġportuguese":1573,"Ġairport":1574,"Ġafr":1575,"Ġ0122335":1576,"Ġ06":1577,"Ġ51":1578,"Ġ01223353":1579,"Ġafrican":1580,"sc":1581,"ren":1582,"Ġthen":1583,"red":1584,"Ġlist":1585,"Ġliver":1586,"Ġshort":1587,"Ġliverpool":1588,"Ġover":1589,"Ġdowning":1590,"inches":1591,"Ġbro":1592,"Ġunable":1593,"84":1594,"Ġ077":1595,"Ġconfirm":1596,"Ġjell":1597,"Ġgrafton":1598,"Ġchop":1599,"venage":1600,"Ġstevenage":1601,"Ġjello":1602,"fit":1603,"glad":1604,"iple":1605,"po":1606,"Ġmult":1607,"Ġmost":1608,"Ġ36":1609,"Ġnightclubs":1610,"ky":1611,"Ġseven":1612,"Ġmatches":1613,"Ġnandos":1614,"Ġpass":1615,"96":1616,"sh":1617,"elep":1618,"Ġold":1619,"ational":1620,"elephone":1621,"Ġinternational":1622,"Ġmultiple":1623,"Ġarchway":1624,"Ġ37":1625,"reference":1626,"ang":1627,"Ġparks":1628,"Ġunit":1629,"Ġhobsons":1630,"zb":1631,"Ġcorn":1632,"Ġarbury":1633,"Ġrosa":1634,"Ġlovely":1635,"72":1636,"ops":1637,"Ġsport":1638,"oy":1639,"Ġjo":1640,"Ġtelephone":1641,"Ġstan":1642,"Ġgastropub":1643,"Ġbish":1644,"ater":1645,"4646":1646,"arlie":1647,"Ġlots":1648,"xbourne":1649,"Ġstansted":1650,"Ġapolog":1651,"Ġbroxbourne":1652,"ah":1653,"te":1654,"Ġ47":1655,"000":1656,"Ġ75":1657,"itchen":1658,"Ġkitchen":1659,"iqu":1660,"Ġbishops":1661,"ae":1662,"Ġprovi":1663,"Ġsports":1664,"Ġprovide":1665,"wnham":1666,"Ġnewnham":1667,"31":1668,"67":1669,"Ġ28":1670,"za":1671,"Ġcor":1672,"ert":1673,"ions":1674,"Ġ35":1675,"Ġfinches":1676,"olina":1677,"Ġ50":1678,"Ġ98":1679,"Ġandrews":1680,"ka":1681,"Ġ44":1682,"Ġ49":1683,"olia":1684,"Ġ078":1685,"Ġ60":1686,"Ġmary":1687,"Ġspice":1688,"fiti":1689,"der":1690,"Ġstort":1691,"Ġyard":1692,"Ġschools":1693,"ger":1694,"Ġtoo":1695,"atolia":1696,"Ġsame":1697,"Ġsuccess":1698,"Ġstortford":1699,"eries":1700,"ition":1701,"Ġ0122321":1702,"Ġquest":1703,"Ġjohn":1704,"milton":1705,"inh":1706,"Ġbinh":1707,"Ġgalleries":1708,"ched":1709,"Ġfits":1710,"im":1711,"Ġbra":1712,"Ġbarn":1713,"Ġclare":1714,"ully":1715,"Ġvic":1716,"Ġask":1717,"63":1718,"Ġcharlie":1719,"Ġreach":1720,"Ġearliest":1721,"Ġhiston":1722,"47":1723,"sj":1724,"tor":1725,"Ġdojo":1726,"ln":1727,"Ġconc":1728,"Ġenter":1729,"Ġokay":1730,"hi":1731,"ning":1732,"Ġ#":1733,"Ġmight":1734,"Ġfren":1735,"olk":1736,"Ġsuit":1737,"Ġven":1738,"Ġshorter":1739,"Ġvictor":1740,"Ġfrench":1741,"Ġvictoria":1742,"Ġend":1743,"lpha":1744,"Ġcarolina":1745,"Ġright":1746,"900":1747,"Ġinclu":1748,"Ġge":1749,"anish":1750,"Ġtravell":1751,"Ġ88":1752,"fore":1753,"Ġlucky":1754,"irala":1755,"Ġnirala":1756,"Ġdu":1757,"Ġrice":1758,"240":1759,"Ġchange":1760,"Ġbrass":1761,"Ġ01223353888":1762,"100":1763,"73":1764,"dp":1765,"org":1766,"98":1767,"od":1768,"Ġmed":1769,"pee":1770,"Ġcold":1771,"Ġmarket":1772,"Ġgardens":1773,"Ġhome":1774,"149":1775,"hal":1776,"Ġoffers":1777,"Ġthin":1778,"verton":1779,"Ġquestions":1780,"Ġbrasser":1781,"boat":1782,"fully":1783,"ny":1784,"91":1785,"name":1786,"oul":1787,"Ġinto":1788,"ghna":1789,"Ġpreferred":1790,"ippee":1791,"Ġ012239021":1792,"Ġgeorg":1793,"Ġcoldham":1794,"Ġbrasserie":1795,"Ġalpha":1796,"stal":1797,"xican":1798,"Ġcare":1799,"Ġmexican":1800,"Ġ070":1801,"Ġ70":1802,"Ġlisting":1803,"94":1804,"Ġoak":1805,"Ġhead":1806,"mmoy":1807,"Ġgeorgina":1808,"Ġviet":1809,"Ġrated":1810,"namese":1811,"Ġvietnamese":1812,"pr":1813,"enty":1814,"Ġlong":1815,"ito":1816,"Ġleverton":1817,"ations":1818,"Ġlooks":1819,"exp":1820,"Ġsuccessfully":1821,"74":1822,"ac":1823,"Ġ56":1824,"92":1825,"ize":1826,"Ġsite":1827,"Ġ52":1828,"Ġseoul":1829,"mentum":1830,"Ġgraffiti":1831,"ghe":1832,"Ġpostal":1833,"camb":1834,"Ġcosts":1835,"iquito":1836,"ds":1837,"ping":1838,"Ġtur":1839,"Ġbirm":1840,"ingham":1841,"Ġclos":1842,"Ġpers":1843,"goodbye":1844,"Ġwan":1845,"Ġdin":1846,"Ġky":1847,"Ġalimentum":1848,"Ġbirmingham":1849,"Ġperson":1850,"cell":1851,"inoor":1852,"rita":1853,"Ġthai":1854,"Ġbyard":1855,"andle":1856,"Ġmarghe":1857,"Ġplenty":1858,"Ġapologize":1859,"cellent":1860,"Ġmargherita":1861,"Ġact":1862,"Ġmiss":1863,"Ġug":1864,"Ġ53":1865,"zzo":1866,"Ġride":1867,"Ġhours":1868,"Ġriverboat":1869,"well":1870,"kettle":1871,"Ġ105":1872,"kish":1873,"Ġanatolia":1874,"abas":1875,"Ġ01223446":1876,"when":1877,"Ġbarnabas":1878,"Ġturkish":1879,"ffe":1880,"ange":1881,"Ġchurchill":1882,"aq":1883,"Ġ38":1884,"Ġthanh":1885,"change":1886,"Ġexchange":1887,"umping":1888,"Ġ163":1889,"Ġwanting":1890,"andlebury":1891,"Ġeat":1892,"Ġyippee":1893,"which":1894,"itional":1895,"Ġclosest":1896,"Ġdine":1897,"akka":1898,"Ġmissing":1899,"ually":1900,"Ġduck":1901,"Ġspanish":1902,"oats":1903,"Ġjohns":1904,"Ġkettle":1905,"Ġ01223336":1906,"Ġsock":1907,"anese":1908,"Ġpicked":1909,"Ġthink":1910,"566":1911,"62":1912,"cy":1913,"ef":1914,"fect":1915,"kw":1916,"lh":1917,"will":1918,"Ġsal":1919,"Ġbefore":1920,"Ġkoh":1921,"Ġkymmoy":1922,"Ġugly":1923,"Ġkohinoor":1924,"Ġhouses":1925,"az":1926,"tt":1927,"Ġaren":1928,"Ġfunky":1929,"Ġduckling":1930,"Ġsalsa":1931,"kok":1932,"gon":1933,"rs":1934,"sbury":1935,"Ġadc":1936,"ean":1937,"sca":1938,"Ġbest":1939,"erran":1940,"Ġ087":1941,"iterran":1942,"illies":1943,"angkok":1944,"Ġmediterran":1945,"Ġmediterranean":1946,"loom":1947,"per":1948,"int":1949,"Ġwandlebury":1950,"Ġsuch":1951,"cambridge":1952,"ale":1953,"ib":1954,"Ġbab":1955,"Ġmeal":1956,"Ġmeghna":1957,"Ġpeking":1958,"Ġvue":1959,"zbillies":1960,"pin":1961,"aigon":1962,"Ġseats":1963,"xt":1964,"anic":1965,"Ġsc":1966,"Ġadditional":1967,"Ġsix":1968,"Ġyu":1969,"82":1970,"dg":1971,"dq":1972,"not":1973,"Ġbot":1974,"Ġdate":1975,"eraina":1976,"ote":1977,"Ġ074":1978,"Ġminute":1979,"Ġmuch":1980,"Ġgreens":1981,"loomsbury":1982,"Ġpala":1983,"Ġhakka":1984,"279":1985,"Ġbotanic":1986,"Ġpalace":1987,"ile":1988,"ween":1989,"Ġ01223334900":1990,"rim":1991,"Ġ012233149":1992,"Ġprezzo":1993,"Ġ01223314960":1994,"tem":1995,"Ġrose":1996,"587":1997,"Ġtheatres":1998,"Ġbetween":1999,"expensive":2000,"js":2001,"orld":2002,"avera":2003,"Ġstand":2004,"allare":2005,"Ġlocations":2006,"rimavera":2007,"511":2008,"kie":2009,"ru":2010,"enny":2011,"Ġfut":2012,"Ġfav":2013,"Ġdesc":2014,"Ġvarsity":2015,"Ġfuture":2016,"gl":2017,"Ġinexpensive":2018,"ration":2019,"Ġbur":2020,"Ġbus":2021,"93":2022,"ael":2023,"may":2024,"ner":2025,"pus":2026,"Ġbenny":2027,"rankie":2028,"Ġnothing":2029,"Ġholy":2030,"Ġduration":2031,"raid":2032,"Ġcamboats":2033,"izzi":2034,"ription":2035,"Ġafraid":2036,"Ġgardenia":2037,"Ġstandard":2038,"Ġdescription":2039,"fin":2040,"usion":2041,"Ġcertainly":2042,"otto":2043,"Ġ01223452":2044,"Ġshowing":2045,"Ġnear":2046,"Ġpassage":2047,"05":2048,"inling":2049,"Ġchiquito":2050,"itely":2051,"Ġaddenbrookes":2052,"Ġtasca":2053,"Ġraza":2054,"Ġreached":2055,"Ġ012239020":2056,"Ġtenpin":2057,"finitely":2058,"Ġ01223452587":2059,"sha":2060,"rary":2061,"Ġnusha":2062,"Ġtrumping":2063,"osa":2064,"Ġplan":2065,"porary":2066,"Ġtrumpington":2067,"time":2068,"Ġmoon":2069,"Ġbeg":2070,"Ġcontem":2071,"Ġgalleria":2072,"please":2073,"Ġcoming":2074,"Ġfavor":2075,"Ġcontemporary":2076,"act":2077,"jma":2078,"rh":2079,"ence":2080,"Ġmim":2081,"price":2082,"Ġactually":2083,"02":2084,"ax":2085,"Ġte":2086,"Ġbloomsbury":2087,"Ġisn":2088,"Ġoff":2089,"Ġ0122357":2090,"Ġ29":2091,"iness":2092,"506":2093,"Ġ01223446100":2094,"Ġbennys":2095,"tu":2096,"world":2097,"Ġ&":2098,"Ġprimavera":2099,"Ġlu":2100,"Ġef":2101,"Ġneeding":2102,"Ġfitzbillies":2103,"addenbrookes":2104,"orean":2105,"Ġbusiness":2106,"jmahal":2107,"Ġmimosa":2108,"cb":2109,"Ġtree":2110,"Ġcotto":2111,"Ġnine":2112,"Ġballare":2113,"Ġstill":2114,"236":2115,"door":2116,"Ġpicking":2117,"Ġbegin":2118,"Ġeraina":2119,"head":2120,"Ġposs":2121,"Ġchristi":2122,"Ġoutdoor":2123,"lf":2124,"Ġahead":2125,"street":2126,"ries":2127,"Ġhedge":2128,"Ġfeel":2129,"Ġzizzi":2130,"ix":2131,"Ġcote":2132,"Ġfinding":2133,"bw":2134,"man":2135,"Ġsaigon":2136,"233":2137,"ility":2138,"ama":2139,"Ġrooms":2140,"Ġcomplete":2141,"Ġtravelling":2142,"Ġdining":2143,"Ġefes":2144,"Ġhedges":2145,"04":2146,"97":2147,"ps":2148,"Ġbangkok":2149,"Ġlater":2150,"met":2151,"Ġ01223357":2152,"ourmet":2153,"Ġarchae":2154,"Ġcounty":2155,"Ġconfirmation":2156,"Ġarchaeology":2157,"fr":2158,"use":2159,"Ġpun":2160,"ities":2161,"2320":2162,"Ġsoul":2163,"priced":2164,"by":2165,"Ġinst":2166,"ical":2167,"Ġ01223312":2168,"Ġuno":2169,"Ġothers":2170,"Ġearlier":2171,"Ġburger":2172,"Ġfavorite":2173,"75":2174,"83":2175,"dw":2176,"fl":2177,"ues":2178,"Ġsit":2179,"Ġ019":2180,"irkw":2181,"Ġkorean":2182,"Ġboating":2183,"irkwood":2184,"pt":2185,"Ġ012234646":2186,"commod":2187,"Ġrajmahal":2188,"Ġunfortunately":2189,"Ġopen":2190,"ueen":2191,"ek":2192,"ead":2193,"iv":2194,"sit":2195,"Ġref":2196,"237":2197,"chn":2198,"Ġaccommod":2199,"Ġdoesn":2200,"Ġinclude":2201,"Ġ01954":2202,"ous":2203,"Ġgr":2204,"Ġtimes":2205,"Ġ01223338":2206,"Ġriverside":2207,"Ġpunter":2208,"Ġinstead":2209,"95":2210,"dz":2211,"qf":2212,"erc":2213,"Ġmerc":2214,"Ġanth":2215,"let":2216,"Ġ100":2217,"Ġeven":2218,"Ġ32":2219,"Ġrow":2220,"umford":2221,"Ġrun":2222,"Ġarts":2223,"Ġluca":2224,"Ġanthrop":2225,"65":2226,"happy":2227,"wel":2228,"ory":2229,"Ġmumford":2230,"Ġfrankie":2231,"Ġshop":2232,"Ġjinling":2233,"Ġmaybe":2234,"ustri":2235,"Ġanthropology":2236,"bd":2237,"own":2238,"tz":2239,"uy":2240,"xh":2241,"enue":2242,"Ġpop":2243,"Ġlast":2244,"arry":2245,"Ġsl":2246,"Ġlove":2247,"Ġ01223366":2248,"517":2249,"Ġavenue":2250,"Ġthings":2251,"Ġbackstreet":2252,"Ġ01223304":2253,"Ġtechn":2254,"Ġmercers":2255,"welcome":2256,"bo":2257,"Ġkirkwood":2258,"Ġvill":2259,"353":2260,"ogy":2261,"Ġbetter":2262,"Ġbaba":2263,"Ġpopular":2264,"Ġvillage":2265,"600":2266,"cina":2267,"mo":2268,"Ġgourmet":2269,"Ġ517":2270,"Ġ01223307":2271,"Ġ073":2272,"660":2273,"Ġ191":2274,"Ġpassen":2275,"city":2276,"eg":2277,"folk":2278,"pp":2279,"Ġwish":2280,"Ġthong":2281,"Ġentries":2282,"andhi":2283,"Ġcineworld":2284,"Ġlistings":2285,"ig":2286,"Ġcook":2287,"Ġcow":2288,"Ġwine":2289,"Ġdefinitely":2290,"Ġ01223324":2291,"Ġavailab":2292,"Ġamer":2293,"Ġperfect":2294,"Ġcucina":2295,"Ġplay":2296,"bey":2297,"Ġcookhouse":2298,"book":2299,"Ġgandhi":2300,"Ġmeeting":2301,"Ġnorfolk":2302,"Ġ01223464646":2303,"Ġtechnology":2304,"Ġavailability":2305,"bert":2306,"hy":2307,"sk":2308,"sing":2309,"uel":2310,"Ġgil":2311,"arge":2312,"Ġsle":2313,"Ġhesit":2314,"110":2315,"Ġ82":2316,"akhouse":2317,"Ġqueen":2318,"Ġsteakhouse":2319,"orey":2320,"Ġcorpus":2321,"Ġgilbert":2322,"Ġsleep":2323,"Ġhesitate":2324,"cum":2325,"rq":2326,"Ġ152":2327,"Ġappe":2328,"excellent":2329,"Ġconcert":2330,"acorn":2331,"Ġsleeper":2332,"81":2333,"aw":2334,"bj":2335,"mas":2336,"Ġwater":2337,"anuel":2338,"Ġstorey":2339,"Ġ0122327":2340,"Ġ0122342":2341,"mmanuel":2342,"unction":2343,"Ġ74":2344,"Ġjunction":2345,"Ġchurches":2346,"Ġslot":2347,"Ġsleeperz":2348,"away":2349,"pot":2350,"rot":2351,"Ġest":2352,"its":2353,"Ġtaj":2354,"Ġguests":2355,"Ġnext":2356,"Ġcheaper":2357,"5725":2358,"Ġhold":2359,"Ġtakeaway":2360,"booked":2361,"388":2362,"85":2363,"ever":2364,"jb":2365,"nz":2366,"px":2367,"Ġve":2368,"urf":2369,"astic":2370,"Ġconsi":2371,"antastic":2372,"Ġspecifications":2373,"Ġheading":2374,"Ġamerican":2375,"gx":2376,"rect":2377,"Ġwhe":2378,"Ġmid":2379,"med":2380,"any":2381,"Ġfolk":2382,"mmer":2383,"Ġchoosing":2384,"03":2385,"did":2386,"dne":2387,"hx":2388,"zion":2389,"Ġast":2390,"Ġdat":2391,"Ġdet":2392,"Ġfy":2393,"stazion":2394,"Ġanytime":2395,"Ġarca":2396,"Ġrecommendation":2397,"summer":2398,"Ġboats":2399,"dney":2400,"Ġastrot":2401,"stazione":2402,"Ġarcade":2403,"01223":2404,"ach":2405,"mg":2406,"sr":2407,"Ġgran":2408,"Ġlat":2409,"124":2410,"ady":2411,"Ġmidsummer":2412,"860":2413,"je":2414,"jf":2415,"jx":2416,"kv":2417,"nf":2418,"nt":2419,"pq":2420,"pton":2421,"Ġjub":2422,"Ġvenues":2423,"27908":2424,"ilee":2425,"50688":2426,"arrys":2427,"Ġpassenger":2428,"Ġastroturf":2429,"Ġjubilee":2430,"ail":2431,"gbp":2432,"ho":2433,"up":2434,"opper":2435,"Ġcru":2436,"Ġcopper":2437,"Ġ01":2438,"Ġlear":2439,"pect":2440,"Ġpoint":2441,"asha":2442,"Ġthough":2443,"Ġ451":2444,"Ġwhale":2445,"Ġsidney":2446,"ipasha":2447,"Ġevening":2448,"Ġgrande":2449,"257":2450,"jj":2451,"kin":2452,"wy":2453,"Ġyes":2454,"Ġpitch":2455,"Ġfusion":2456,"Ġ0122350":2457,"Ġnortham":2458,"Ġabbey":2459,"uskin":2460,"525":2461,"Ġclose":2462,"Ġfyne":2463,"Ġnorthampton":2464,"0353":2465,"banese":2466,"Ġareas":2467,"Ġcharge":2468,"Ġlebanese":2469,"Ġhear":2470,"urch":2471,"Ġ68":2472,"cr":2473,"ding":2474,"sx":2475,"Ġfine":2476,"Ġtypes":2477,"Ġruskin":2478,"516":2479,"668":2480,"906":2481,"Ġeverything":2482,"erth":2483,"Ġcaffe":2484,"Ġ41":2485,"Ġhowever":2486,"Ġcorrect":2487,"Ġconcerth":2488,"Ġvenue":2489,"..":2490,"112":2491,"alexander":2492,"curry":2493,"go":2494,"nandos":2495,"tl":2496,"Ġbat":2497,"Ġbit":2498,"Ġeach":2499,"Ġcambourne":2500,"Ġmeze":2501,"isers":2502,"Ġfees":2503,"christ":2504,"Ġcocum":2505,"Ġmatter":2506,"eman":2507,"cience":2508,"iraz":2509,"Ġ01223210353":2510,"Ġheaded":2511,"Ġ01223336233":2512,"23737":2513,"Ġdetail":2514,"Ġcruisers":2515,"Ġlearner":2516,"Ġconcerthall":2517,"Ġbateman":2518,"jy":2519,"Ġsala":2520,"Ġstop":2521,"Ġthrough":2522,"irmed":2523,"ify":2524,"Ġrout":2525,"Ġ202":2526,"Ġconfirmed":2527,"Ġhistory":2528,"hg":2529,"pb":2530,"qy":2531,"erg":2532,"Ġhotpot":2533,"Ġpricerange":2534,"Ġ075":2535,"0060":2536,"Ġ66":2537,"274":2538,"265":2539,"Ġvariet":2540,"Ġvariety":2541,"hill":2542,"Ġstazione":2543,"Ġpipasha":2544,"Ġscience":2545,"river":2546,"Ġemmanuel":2547,"Ġ0122352":2548,"Ġneeded":2549,"Ġshiraz":2550,"Ġclass":2551,"Ġplanning":2552,"Ġ01223525725":2553,"223":2554,"61":2555,"741":2556,"cor":2557,"ey":2558,"ff":2559,"lo":2560,"sv":2561,"ward":2562,"yu":2563,"Ġpound":2564,"Ġgri":2565,"Ġ017":2566,"12240":2567,"Ġfez":2568,"Ġ01223300":2569,"Ġ151":2570,"402":2571,"ffee":2572,"Ġ01223902091":2573,"12240240":2574,"ouble":2575,"ars":2576,"Ġcannot":2577,"owing":2578,"Ġ39":2579,"Ġcome":2580,"Ġcoffee":2581,"Ġ133":2582,"Ġ08712240240":2583,"Ġlatest":2584,"Ġdetails":2585,"Ġroute":2586,"512":2587,"ej":2588,"om":2589,"pd":2590,"pm":2591,"ty":2592,"restaurant":2593,"mbar":2594,"Ġrequested":2595,"Ġsounds":2596,"Ġexcellent":2597,"Ġjap":2598,"397":2599,"Ġsitar":2600,"nd":2601,"tw":2602,"Ġdarrys":2603,"Ġsw":2604,"Ġeight":2605,"Ġ012238":2606,"Ġ64":2607,"amore":2608,"agam":2609,"Ġ01223334860":2610,"Ġgrill":2611,"154":2612,"611":2613,"gm":2614,"ht":2615,"lx":2616,"uf":2617,"Ġ(":2618,"Ġpunting":2619,"Ġha":2620,"Ġhk":2621,"Ġlodg":2622,"Ġka":2623,"Ġseaf":2624,"Ġ071":2625,"Ġ63":2626,"085":2627,"Ġhuntington":2628,"Ġcinemas":2629,"Ġ012234741":2630,"Ġhighly":2631,"Ġtravellers":2632,"51707":2633,"Ġjapanese":2634,"Ġseafood":2635,"Ġ01223474144":2636,"ency":2637,"mehouse":2638,"Ġlimehouse":2639,"Ġloch":2640,"Ġ31":2641,"Ġexpect":2642,"ily":2643,"udamore":2644,"Ġgrounds":2645,"agamama":2646,"Ġlodging":2647,"200":2648,"db":2649,"jv":2650,"just":2651,"nx":2652,"tq":2653,"uw":2654,"zq":2655,"Ġ,":2656,"ick":2657,"eler":2658,"Ġ124":2659,"Ġones":2660,"Ġ0778":2661,"Ġentry":2662,"208":2663,"270":2664,"Ġarchael":2665,"387":2666,"Ġseems":2667,"Ġ01223902168":2668,"Ġbeginning":2669,"fron":2670,"Ġwheeler":2671,"Ġarchaelogy":2672,"708":2673,"elve":2674,"Ġfantastic":2675,"Ġcause":2676,"Ġaround":2677,"Ġ01223315":2678,"Ġ156":2679,"Ġgets":2680,"Ġ01223332320":2681,"cl":2682,"cv":2683,"merton":2684,"pj":2685,"qg":2686,"Ġdire":2687,"arly":2688,"Ġ01223566":2689,"Ġ072":2690,"Ġ78":2691,"Ġtwelve":2692,"Ġ108":2693,"077":2694,"598":2695,"Ġhomerton":2696,"Ġroseford":2697,"Ġ01223307402":2698,"Ġ01223420060":2699,"Ġconsider":2700,"Ġkambar":2701,"udamores":2702,"Ġcauseway":2703,"bz":2704,"lit":2705,"pizz":2706,"Ġprices":2707,"Ġstro":2708,"Ġ80":2709,"Ġunav":2710,"170":2711,"ailable":2712,"Ġtheater":2713,"Ġ01223357708":2714,"pizza":2715,"Ġunavailable":2716,"cu":2717,"fy":2718,"hu":2719,"ible":2720,"nj":2721,"nl":2722,"nr":2723,"rj":2724,"vd":2725,"Ġtang":2726,"Ġsaf":2727,"Ġearly":2728,"210":2729,"ichael":2730,"299":2731,"382":2732,"thern":2733,"Ġnorman":2734,"705":2735,"Ġcorner":2736,"Ġ01223312112":2737,"Ġstrover":2738,"done":2739,"nk":2740,"pa":2741,"Ġpric":2742,"Ġ0122329":2743,"Ġ83":2744,"5010":2745,"Ġweek":2746,"0872":2747,"Ġfinders":2748,"chel":2749,"Ġvisiting":2750,"Ġpleasant":2751,"Ġpossible":2752,"Ġsaffron":2753,"aa":2754,"bg":2755,"cw":2756,"could":2757,"qs":2758,"qw":2759,"rf":2760,"tern":2761,"uj":2762,"vx":2763,"wbray":2764,"Ġangl":2765,"Ġmowbray":2766,"232":2767,"Ġhers":2768,"Ġ0122351":2769,"Ġexact":2770,"Ġ529":2771,"Ġ01223311":2772,"Ġ106":2773,"Ġ96":2774,"178":2775,"60966":2776,"Ġ205":2777,"Ġwhitehill":2778,"Ġletting":2779,"Ġplough":2780,"ipple":2781,"Ġ01223217":2782,"Ġcoldhams":2783,"cityroomz":2784,"Ġqueens":2785,"Ġclassical":2786,"Ġ01223300085":2787,"208000":2788,"Ġpricing":2789,"Ġanglia":2790,"Ġherschel":2791,"lk":2792,"pl":2793,"to":2794,"zw":2795,"Ġter":2796,"ouple":2797,"Ġcre":2798,"Ġcouple":2799,"Ġfam":2800,"arian":2801,"Ġsched":2802,"Ġ00872":2803,"ison":2804,"Ġ01223333":2805,"Ġ0788":2806,"2456":2807,"Ġamen":2808,"Ġfitting":2809,"Ġtenison":2810,"Ġscudamores":2811,"Ġschedu":2812,"Ġ00872208000":2813,"Ġ01223333516":2814,"bt":2815,"fis":2816,"hl":2817,"jm":2818,"oc":2819,"pri":2820,"vm":2821,"xa":2822,"Ġran":2823,"Ġpan":2824,"Ġwagamama":2825,"Ġdesk":2826,"Ġwhipple":2827,"509":2828,"599":2829,"4600":2830,"8882":2831,"scent":2832,"Ġ01223336265":2833,"Ġpossib":2834,"Ġ01223366611":2835,"Ġ01223304705":2836,"both":2837,"most":2838,"27410":2839,"Ġcrescent":2840,"afe":2841,"brook":2842,"same":2843,"ws":2844,"Ġer":2845,"Ġreally":2846,"Ġmichael":2847,"Ġcase":2848,"Ġheld":2849,"Ġallowing":2850,"aid":2851,"Ġ69":2852,"Ġspecify":2853,"Ġclar":2854,"little":2855,"221":2856,"354":2857,"446":2858,"bi":2859,"fw":2860,"graf":2861,"mf":2862,"phone":2863,"qb":2864,"rl":2865,"wonderful":2866,"xy":2867,"zc":2868,"Ġed":2869,"ention":2870,"Ġcat":2871,"Ġhong":2872,"Ġgir":2873,"elix":2874,"Ġmention":2875,"Ġland":2876,"Ġfelix":2877,"Ġslu":2878,"Ġranges":2879,"238":2880,"Ġ42":2881,"Ġ327908":2882,"Ġorder":2883,"Ġ01223355":2884,"Ġ71":2885,"Ġmahal":2886,"orning":2887,"Ġkingfis":2888,"4050":2889,"Ġgetting":2890,"Ġwhitehouse":2891,"Ġlettu":2892,"428":2893,"222":2894,"Ġ01223902112":2895,"5664":2896,"66800":2897,"Ġgirton":2898,"Ġslug":2899,"Ġ01223355397":2900,"Ġkingfisher":2901,"Ġlettuce":2902,"aut":2903,"qa":2904,"Ġaustri":2905,"Ġmorning":2906,"Ġrequests":2907,"277":2908,"Ġlynne":2909,"Ġincluding":2910,"owns":2911,"Ġ01223866800":2912,"Ġamenities":2913,"Ġaustrian":2914,"bn":2915,"dt":2916,"dx":2917,"hs":2918,"iz":2919,"iking":2920,"jk":2921,"rg":2922,"rk":2923,"vb":2924,"vf":2925,"zk":2926,"zt":2927,"Ġye":2928,"heep":2929,"Ġbu":2930,"Ġpas":2931,"Ġdouble":2932,"deed":2933,"12660":2934,"Ġoffering":2935,"Ġbeaut":2936,"Ġ01223354":2937,"iful":2938,"Ġ62":2939,"Ġwanted":2940,"1018":2941,"596":2942,"Ġhinch":2943,"nown":2944,"877":2945,"781018":2946,"Ġ01223365664":2947,"quale":2948,"Ġmillers":2949,"702":2950,"Ġ01223304050":2951,"714600":2952,"Ġscott":2953,"Ġ01223902088":2954,"Ġ01954781018":2955,"Ġ01954714600":2956,"Ġestate":2957,"Ġpasquale":2958,"Ġbeautiful":2959,"451":2960,"di":2961,"ging":2962,"park":2963,"yc":2964,"yr":2965,"Ġwithin":2966,"Ġ710":2967,"155010":2968,"Ġfitz":2969,"Ġarchitectu":2970,"Ġ365":2971,"Ġdinner":2972,"Ġclarify":2973,"552":2974,"dh":2975,"ij":2976,"ius":2977,"lj":2978,"mu":2979,"zf":2980,"inbrook":2981,"Ġreta":2982,"Ġbart":2983,"Ġwor":2984,"Ġgrant":2985,"Ġlan":2986,"Ġsqu":2987,"Ġcaius":2988,"1241":2989,"Ġ012237":2990,"Ġ25":2991,"Ġsesame":2992,"Ġviking":2993,"00170":2994,"5166":2995,"Ġ139":2996,"Ġ99":2997,"Ġindustri":2998,"Ġcouldn":2999,"Ġclowns":3000,"3830":3001,"ways":3002,"6412":3003,"Ġ0122330257":3004,"Ġ40428":3005,"Ġ01223351241":3006,"ahar":3007,"Ġ087155010":3008,"12430":3009,"Ġedward":3010,"Ġhinchinbrook":3011,"Ġarchitectural":3012,"Ġretail":3013,"Ġbarton":3014,"Ġgranta":3015,"Ġindustrial":3016,"known":3017,"lq":3018,"xs":3019,"Ġhun":3020,"Ġmet":3021,"Ġdriver":3022,"Ġsort":3023,"Ġsafe":3024,"Ġanywhere":3025,"table":3026,"Ġseem":3027,"Ġwhile":3028,"118":3029,"Ġindia":3030,"Ġnews":3031,"Ġtakes":3032,"Ġswimmingpool":3033,"Ġapologies":3034,"Ġaccommodate":3035,"Ġ01223315702":3036,"con":3037,"iy":3038,"kf":3039,"mp":3040,"tb":3041,"vh":3042,"xd":3043,"zn":3044,"rame":3045,"angh":3046,"Ġsheep":3047,"Ġstyle":3048,"mmas":3049,"Ġ46":3050,"Ġ350688":3051,"Ġ566":3052,"Ġ0730":3053,"Ġring":3054,"Ġunder":3055,"Ġ619":3056,"Ġshangh":3057,"Ġalways":3058,"4222":3059,"Ġ01223576412":3060,"Ġ01223324600":3061,"prise":3062,"Ġ01223302579":3063,"Ġ08715501010":3064,"Ġshanghai":3065,"bq":3066,"cla":3067,"ew":3068,"gn":3069,"ial":3070,"ome":3071,"Ġen":3072,"Ġacce":3073,"Ġready":3074,"this":3075,"Ġsay":3076,"rosa":3077,"Ġ01223323":3078,"Ġwasn":3079,"Ġ0760":3080,"iam":3081,"Ġ169":3082,"1480":3083,"perfect":3084,"Ġincludes":3085,"Ġexpecting":3086,"parkside":3087,"Ġsquare":3088,"188":3089,"734":3090,"911":3091,"cg":3092,"cj":3093,"gog":3094,"mn":3095,"ux":3096,"wf":3097,"wk":3098,"xq":3099,"zm":3100,"zy":3101,"Ġpress":3102,"Ġpern":3103,"Ġlion":3104,"Ġant":3105,"Ġfar":3106,"Ġsil":3107,"2360":3108,"1260":3109,"Ġ012232":3110,"Ġneare":3111,"Ġ351707":3112,"248":3113,"580":3114,"5159":3115,"Ġunknown":3116,"Ġ138":3117,"880":3118,"296":3119,"104":3120,"Ġ144":3121,"8745":3122,"Ġhourly":3123,"abase":3124,"Ġlammas":3125,"Ġ01223332360":3126,"Ġenterprise":3127,"Ġ01223304906":3128,"Ġ01223324222":3129,"Ġdatabase":3130,"Ġ0778221":3131,"Ġfamily":3132,"Ġranging":3133,"Ġpanahar":3134,"446000":3135,"Ġperne":3136,"Ġsilver":3137,"Ġnearest":3138,"Ġ07782218745":3139,"rt":3140,"vk":3141,"Ġ\"":3142,"ero":3143,"Ġ01480":3144,"royal":3145,"esome":3146,"Ġcheaply":3147,"Ġratings":3148,"Ġjama":3149,"202":3150,"Ġtheaters":3151,"Ġinterests":3152,"Ġ01480446000":3153,"Ġjamaican":3154,"251":3155,"851":3156,"bh":3157,"berg":3158,"cm":3159,"ious":3160,"jd":3161,"jq":3162,"rv":3163,"sn":3164,"vc":3165,"vg":3166,"vn":3167,"vie":3168,"wb":3169,"wd":3170,"Ġinqu":3171,"Ġindeed":3172,"raham":3173,"elberg":3174,"arri":3175,"get":3176,"Ġtrainid":3177,"Ġheid":3178,"ute":3179,"Ġ57":3180,"Ġ0758":3181,"Ġ0779":3182,"111":3183,"51880":3184,"Ġmagog":3185,"306":3186,"074":3187,"5017":3188,"Ġgog":3189,"5264":3190,"591":3191,"8786":3192,"Ġ01223364222":3193,"Ġconfusion":3194,"Ġ08451":3195,"Ġchecking":3196,"Ġ40210":3197,"rent":3198,"Ġ362456":3199,"962320":3200,"Ġ01223902158":3201,"tty":3202,"Ġbabraham":3203,"Ġrunning":3204,"golden":3205,"Ġ01799":3206,"Ġmentioned":3207,"Ġheidelberg":3208,"Ġ08451962320":3209,"bb":3210,"ik":3211,"ptable":3212,"yh":3213,"res":3214,"Ġcur":3215,"Ġrecor":3216,"Ġpurch":3217,"Ġhad":3218,"Ġfare":3219,"Ġframe":3220,"chiquito":3221,"Ġcolville":3222,"Ġ01223243830":3223,"Ġzero":3224,"Ġapp":3225,"Ġinteresting":3226,"teen":3227,"iques":3228,"william":3229,"Ġaccommodations":3230,"Ġfitzwilliam":3231,"clare":3232,"Ġacceptable":3233,"Ġcurrent":3234,"Ġpurchase":3235,"ience":3236,"ju":3237,"pf":3238,"ph":3239,"qe":3240,"sf":3241,"sm":3242,"vq":3243,"wg":3244,"xf":3245,"ready":3246,"Ġstur":3247,"2330":3248,"Ġthorn":3249,"church":3250,"Ġ354":3251,"Ġ360966":3252,"Ġexhi":3253,"Ġ54":3254,"Ġ59":3255,"Ġ012233279":3256,"Ġ01223323737":3257,"Ġrather":3258,"Ġpretty":3259,"Ġ89":3260,"Ġ132":3261,"Ġ110":3262,"2010":3263,"504":3264,"565":3265,"Ġregard":3266,"555":3267,"18591":3268,"Ġnorthern":3269,"681":3270,"Ġ40270":3271,"Ġ355166":3272,"Ġ078077":3273,"Ġ01223295264":3274,"50914":3275,"Ġmichaelhouse":3276,"Ġ566388":3277,"Ġsturton":3278,"Ġthornton":3279,"Ġexhib":3280,"Ġ01223327978":3281,"Ġ07807718591":3282,"cked":3283,"eh":3284,"more":3285,"ns":3286,"pen":3287,"wr":3288,"Ġet":3289,"Ġtran":3290,"race":3291,"hes":3292,"Ġpm":3293,"elf":3294,"Ġsir":3295,"Ġem":3296,"Ġdesi":3297,"Ġtables":3298,"Ġmaking":3299,"5015":3300,"Ġalready":3301,"abl":3302,"Ġ01223302330":3303,"Ġappears":3304,"Ġestabl":3305,"Ġantiques":3306,"187":3307,"2525":3308,"500":3309,"au":3310,"bk":3311,"cc":3312,"cn":3313,"jc":3314,"nn":3315,"nw":3316,"oll":3317,"rx":3318,"ror":3319,"self":3320,"vp":3321,"wc":3322,"wm":3323,"ww":3324,"wick":3325,"xp":3326,"zl":3327,"anatolia":3328,"Ġanymore":3329,"12299":3330,"Ġdepend":3331,"Ġ323737":3332,"Ġ01223359":3333,"Ġ01223350914":3334,"Ġ0746":3335,"Ġ0739":3336,"2138":3337,"2400":3338,"Ġsidg":3339,"390":3340,"355":3341,"3471":3342,"3200":3343,"361":3344,"77900":3345,"7942":3346,"7015":3347,"8650":3348,"Ġ01223355159":3349,"Ġ01223446104":3350,"52500":3351,"Ġdirect":3352,"Ġterrace":3353,"Ġerror":3354,"Ġrecords":3355,"Ġestablish":3356,"gonville":3357,"hk":3358,"iq":3359,"min":3360,"ni":3361,"til":3362,"Ġke":3363,"then":3364,"roke":3365,"Ġ241":3366,"Ġsec":3367,"Ġ72":3368,"Ġuntil":3369,"Ġ172":3370,"5314":3371,"Ġquery":3372,"Ġ01223477900":3373,"Ġmarriot":3374,"Ġ01223334200":3375,"Ġnearby":3376,"Ġ01223575314":3377,"Ġdates":3378,"Ġexactly":3379,"334":3380,"aj":3381,"gv":3382,"hd":3383,"hq":3384,"kp":3385,"sb":3386,"tp":3387,"tx":3388,"uv":3389,"xo":3390,"yk":3391,"zp":3392,"Ġrevie":3393,"Ġhap":3394,"Ġmal":3395,"Ġdone":3396,"mbroke":3397,"anh":3398,"Ġfull":3399,"Ġwide":3400,"Ġ244":3401,"Ġchecked":3402,"Ġ356":3403,"Ġ01223350688":3404,"Ġ0707":3405,"Ġ0754":3406,"Ġ0708":3407,"Ġ0727":3408,"Ġ812660":3409,"Ġstations":3410,"Ġsomewhere":3411,"Ġpolar":3412,"7766":3413,"post":3414,"11053":3415,"Ġveget":3416,"Ġ012235033":3417,"Ġ01223566388":3418,"Ġ012233116":3419,"Ġ01223217118":3420,"Ġschedule":3421,"Ġcurrently":3422,"Ġtrans":3423,"Ġsidgwick":3424,"Ġvegetarian":3425,"bridge":3426,"even":3427,"gy":3428,"hc":3429,"oon":3430,"uh":3431,"vel":3432,"Ġaust":3433,"thanh":3434,"aysian":3435,"Ġnamed":3436,"ctions":3437,"Ġuse":3438,"allenbell":3439,"ilities":3440,"Ġsoon":3441,"Ġassisting":3442,"Ġ196":3443,"before":3444,"Ġ01223355017":3445,"express":3446,"Ġactiv":3447,"511511":3448,"Ġpossibly":3449,"Ġdesired":3450,"Ġreviews":3451,"Ġhappen":3452,"Ġmalaysian":3453,"Ġaustral":3454,"166":3455,"400":3456,"616":3457,"7660":3458,"7877":3459,"843":3460,"bangkok":3461,"df":3462,"gq":3463,"ii":3464,"ja":3465,"jah":3466,"sounds":3467,"ua":3468,"vy":3469,"wq":3470,"xc":3471,"xm":3472,"zo":3473,"zs":3474,"rajah":3475,"Ġpumping":3476,"Ġwent":3477,"Ġdanish":3478,"member":3479,"Ġnumbers":3480,"lly":3481,"Ġarrange":3482,"Ġeleven":3483,"ddars":3484,"Ġthom":3485,"Ġ251":3486,"Ġ290":3487,"Ġcheddars":3488,"Ġ400170":3489,"Ġ412430":3490,"Ġ328":3491,"Ġ01223335":3492,"Ġpeas":3493,"Ġ0724":3494,"Ġ0756":3495,"Ġ0777":3496,"Ġ0799":3497,"0089":3498,"Ġ86":3499,"1763":3500,"8871":3501,"6055":3502,"467":3503,"Ġamaz":3504,"Ġworks":3505,"413":3506,"802":3507,"194":3508,"Ġcomp":3509,"4917":3510,"Ġdidn":3511,"harajah":3512,"7977":3513,"Ġ01223368650":3514,"Ġ01223332138":3515,"Ġ404":3516,"9224":3517,"Ġpersonally":3518,"psons":3519,"Ġ01223338000":3520,"anything":3521,"Ġthroughout":3522,"ergency":3523,"Ġworked":3524,"churchill":3525,"Ġexhibition":3526,"Ġemergency":3527,"Ġthompsons":3528,"Ġ01223335511":3529,"Ġamazing":3530,"broughton":3531,"finches":3532,"gu":3533,"logy":3534,"oe":3535,"saint":3536,"ti":3537,"uc":3538,"va":3539,"vw":3540,"ines":3541,"Ġremember":3542,"Ġhaving":3543,"Ġmi":3544,"meghna":3545,"edb":3546,"ered":3547,"Ġheard":3548,"Ġ01223511511":3549,"Ġ0726":3550,"Ġmaharajah":3551,"Ġjourne":3552,"Ġtrying":3553,"Ġ01223247942":3554,"ughes":3555,"Ġbarnwell":3556,"Ġappeal":3557,"awesome":3558,"Ġswiss":3559,"ternoon":3560,"Ġjourney":3561,"466":3562,"534":3563,"679":3564,"755":3565,"901":3566,"bm":3567,"cs":3568,"dn":3569,"ded":3570,"fg":3571,"har":3572,"kq":3573,"lc":3574,"ng":3575,"old":3576,"pk":3577,"pu":3578,"pz":3579,"sue":3580,"ubs":3581,"wl":3582,"wv":3583,"xe":3584,"xv":3585,"yf":3586,"zr":3587,"Ġ!":3588,"oup":3589,"ortra":3590,"Ġportra":3591,"Ġgi":3592,"Ġlank":3593,"ayside":3594,"Ġsri":3595,"2372":3596,"Ġcant":3597,"Ġ0122346":3598,"ashley":3599,"urgh":3600,"Ġ58":3601,"Ġ01223327908":3602,"Ġpembroke":3603,"Ġ0749":3604,"Ġparts":3605,"216":3606,"Ġru":3607,"Ġ732":3608,"iams":3609,"Ġcarib":3610,"6653":3611,"Ġjedb":3612,"Ġ113":3613,"5478":3614,"08681":3615,"526":3616,"2725":3617,"357":3618,"Ġ183":3619,"Ġalmost":3620,"Ġquayside":3621,"Ġ01223247015":3622,"Ġ01223240089":3623,"448":3624,"Ġcourt":3625,"bean":3626,"Ġ01223333200":3627,"Ġ01223337766":3628,"Ġ248882":3629,"Ġgastropubs":3630,"Ġgroup":3631,"Ġvere":3632,"5122":3633,"Ġ01223519224":3634,"Ġhung":3635,"Ġ354382":3636,"Ġetc":3637,"Ġ01223503333":3638,"Ġportraits":3639,"Ġlankan":3640,"Ġcaribbean":3641,"529":3642,"ban":3643,"kk":3644,"ks":3645,"oi":3646,"sp":3647,"vely":3648,"Ġaccess":3649,"Ġfa":3650,"Ġfact":3651,"Ġwilling":3652,"Ġ01223356":3653,"Ġkos":3654,"Ġ0712":3655,"Ġ0734":3656,"219":3657,"247":3658,"lyn":3659,"Ġ94":3660,"Ġtravels":3661,"bson":3662,"Ġcuban":3663,"Ġafternoon":3664,"533":3665,"Ġhobson":3666,"Ġ01223368786":3667,"8988":3668,"actually":3669,"Ġ01223575122":3670,"hobsons":3671,"graffiti":3672,"Ġregarding":3673,"146":3674,"180":3675,"300":3676,"407":3677,"750":3678,"807":3679,"8111":3680,"977":3681,"bf":3682,"cf":3683,"cq":3684,"gf":3685,"gs":3686,"jl":3687,"lm":3688,"nq":3689,"pn":3690,"rb":3691,"rd":3692,"sd":3693,"saigon":3694,"vl":3695,"was":3696,"xu":3697,"xx":3698,"xz":3699,"zd":3700,"Ġpaid":3701,"erman":3702,"Ġhilton":3703,"Ġhughes":3704,"Ġgerman":3705,"com":3706,"Ġmoment":3707,"Ġprint":3708,"2354":3709,"definitely":3710,"Ġ0122384":3711,"Ġbeing":3712,"Ġmean":3713,"Ġgreek":3714,"Ġ315":3715,"Ġsection":3716,"Ġ0719":3717,"university":3718,"Ġ727410":3719,"581":3720,"Ġ90":3721,"Ġplaza":3722,"2054":3723,"292":3724,"404":3725,"462":3726,"32565":3727,"903":3728,"does":3729,"53355":3730,"hamilton":3731,"Ġsearching":3732,"Ġcrown":3733,"Ġ01223332400":3734,"Ġshorten":3735,"Ġ01223276653":3736,"Ġ01223425478":3737,"Ġ01223506055":3738,"Ġ01223566188":3739,"Ġ01223518111":3740,"Ġcathar":3741,"Ġbudge":3742,"Ġ241387":3743,"postcode":3744,"Ġjedburgh":3745,"Ġ01223842725":3746,"Ġ315232":3747,"frankie":3748,"got":3749,"hunting":3750,"pre":3751,"qh":3752,"qm":3753,"wo":3754,"Ġresta":3755,"Ġide":3756,"Ġput":3757,"Ġwa":3758,"Ġdrop":3759,"Ġfac":3760,"Ġyourself":3761,"Ġ26":3762,"Ġ34":3763,"uring":3764,"Ġlocate":3765,"Ġexper":3766,"Ġ0757":3767,"Ġsele":3768,"5153":3769,"Ġmain":3770,"Ġaltern":3771,"Ġdepartures":3772,"Ġdont":3773,"Ġafford":3774,"Ġspot":3775,"Ġnarrows":3776,"Ġ01223367660":3777,"Ġ01223353248":3778,"Ġincluded":3779,"Ġthinking":3780,"Ġsites":3781,"Ġ01223277977":3782,"Ġkeep":3783,"Ġtransport":3784,"Ġkosher":3785,"Ġbudget":3786,"030":3787,"212":3788,"358":3789,"330":3790,"317":3791,"360":3792,"bc":3793,"br":3794,"ee":3795,"fn":3796,"ft":3797,"gc":3798,"hj":3799,"ied":3800,"kb":3801,"kd":3802,"kz":3803,"lz":3804,"mc":3805,"mr":3806,"nu":3807,"pc":3808,"qk":3809,"ql":3810,"qp":3811,"tn":3812,"tv":3813,"tree":3814,"uq":3815,"xg":3816,"yy":3817,"yz":3818,"zh":3819,"Ġcate":3820,"Ġiri":3821,"Ġmor":3822,"Ġlate":3823,"Ġduring":3824,"Ġfin":3825,"Ġsince":3826,"Ġsaid":3827,"lesbray":3828,"ssian":3829,"yeah":3830,"peking":3831,"travel":3832,"Ġcentra":3833,"Ġtaking":3834,"Ġ200":3835,"Ġwilliams":3836,"Ġ01223348":3837,"Ġ01223352500":3838,"Ġ0721":3839,"Ġ0711":3840,"Ġ0717":3841,"Ġ0759":3842,"Ġ0701":3843,"Ġ0736":3844,"Ġ0738":3845,"Ġ0706":3846,"Ġ0789":3847,"Ġ0769":3848,"0059":3849,"unt":3850,"518":3851,"Ġ116":3852,"540":3853,"Ġgoes":3854,"276":3855,"Ġalright":3856,"Ġpersian":3857,"dojo":3858,"Ġregency":3859,"cafe":3860,"131":3861,"494":3862,"184":3863,"Ġ01223412299":3864,"Ġ01223363471":3865,"Ġhalls":3866,"Ġsuitable":3867,"Ġ521260":3868,"Ġ01223357851":3869,"ively":3870,"Ġdoubletree":3871,"Ġ01223727410":3872,"contact":3873,"Ġsecond":3874,"Ġaustralian":3875,"Ġrussian":3876,"Ġcrowne":3877,"Ġcatharine":3878,"Ġaffordable":3879,"Ġcateg":3880,"Ġirish":3881,"cine":3882,"fantastic":3883,"ier":3884,"que":3885,"ron":3886,"sic":3887,"zen":3888,"stand":3889,"Ġim":3890,"Ġgh":3891,"Ġdue":3892,"edish":3893,"onese":3894,"etian":3895,"Ġchose":3896,"Ġdozen":3897,"Ġwithout":3898,"Ġthir":3899,"Ġ48":3900,"Ġrecommended":3901,"Ġonce":3902,"iring":3903,"Ġ0740":3904,"Ġmust":3905,"Ġamount":3906,"Ġ01223247877":3907,"Ġseeing":3908,"Ġ01223302010":3909,"Ġvenetian":3910,"Ġ01223312843":3911,"Ġswedish":3912,"Ġyet":3913,"Ġcantonese":3914,"prezzo":3915,"377":3916,"557":3917,"620":3918,"657":3919,"709":3920,"7966":3921,"828":3922,"9448":3923,"ba":3924,"cd":3925,"dv":3926,"fm":3927,"fs":3928,"first":3929,"gt":3930,"hf":3931,"jn":3932,"jp":3933,"jw":3934,"jz":3935,"kl":3936,"li":3937,"lr":3938,"nb":3939,"oj":3940,"qc":3941,"rn":3942,"sala":3943,"tf":3944,"ual":3945,"vs":3946,"vu":3947,"vent":3948,"wa":3949,"wz":3950,"wery":3951,"xr":3952,"zv":3953,"raunt":3954,"Ġbill":3955,"aylesbray":3956,"Ġsend":3957,"231":3958,"239":3959,"12598":3960,"rology":3961,"Ġ0122344":3962,"Ġ01223512":3963,"Ġ432565":3964,"Ġlocal":3965,"Ġ01223351707":3966,"ensively":3967,"Ġ0700":3968,"Ġ0751":3969,"Ġ0750":3970,"Ġ0715":3971,"Ġ0716":3972,"Ġ0709":3973,"Ġ76":3974,"245":3975,"583":3976,"ando":3977,"6666":3978,"501":3979,"6060":3980,"Ġbrewery":3981,"Ġ141":3982,"Ġknown":3983,"Ġpolish":3984,"Ġspecifically":3985,"16074":3986,"Ġprov":3987,"4264":3988,"771":3989,"7786":3990,"48100":3991,"786":3992,"Ġchristmas":3993,"trains":3994,"Ġvary":3995,"Ġdale":3996,"Ġrestate":3997,"Ġ01223350059":3998,"fitzbillies":3999,"camboats":4000,"occan":4001,"grafton":4002,"Ġ01223748100":4003,"Ġexperience":4004,"Ġtransportation":4005,"Ġmoroccan":4006,"Ġcentrally":4007,").":4008,".,":4009,"321":4010,"826":4011,"bed":4012,"cp":4013,"fic":4014,"jinling":4015,"lt":4016,"might":4017,"sl":4018,"wha":4019,"Ġnando":4020,"Ġdel":4021,"ses":4022,"Ġfif":4023,"Ġcab":4024,"Ġaddres":4025,"Ġhelping":4026,"asian":4027,"Ġmins":4028,"Ġunsure":4029,"Ġabs":4030,"8842":4031,"Ġbarbe":4032,"ased":4033,"Ġspecial":4034,"down":4035,"Ġnarrowed":4036,"Ġ01223335153":4037,"Ġ01223353110":4038,"Ġbroad":4039,"kymmoy":4040,"Ġpersonal":4041,"byard":4042,"Ġopening":4043,"Ġconsid":4044,"Ġwhether":4045,"Ġconcerthalls":4046,"Ġscheduled":4047,"Ġpossibilities":4048,"Ġswimmingpools":4049,"Ġinquiring":4050,"Ġdirectly":4051,"Ġestablishment":4052,"Ġhungarian":4053,"Ġ01223512596":4054,"Ġprovid":4055,"250":4056,"339":4057,"378":4058,"3270":4059,"5599":4060,"817":4061,"908":4062,"980":4063,"938":4064,"autumn":4065,"bx":4066,"cote":4067,"du":4068,"dir":4069,"fd":4070,"fh":4071,"hb":4072,"hr":4073,"jt":4074,"kj":4075,"km":4076,"ku":4077,"mz":4078,"ob":4079,"oq":4080,"sq":4081,"sse":4082,"vr":4083,"vt":4084,"vell":4085,"xj":4086,"xk":4087,"yippee":4088,"zi":4089,"hell":4090,"Ġpast":4091,"Ġgues":4092,"Ġgwy":4093,"Ġdis":4094,"Ġful":4095,"Ġfoll":4096,"ary":4097,"cept":4098,"onesian":4099,"Ġcentral":4100,"ross":4101,"Ġpolyn":4102,"Ġ0122369":4103,"Ġhelped":4104,"Ġbeca":4105,"esian":4106,"charlie":4107,"Ġ351880":4108,"Ġ312598":4109,"Ġexpensively":4110,"Ġ01223306":4111,"Ġ01223351880":4112,"Ġ01223311053":4113,"Ġ0710":4114,"Ġ0780":4115,"Ġ0744":4116,"Ġ0737":4117,"117":4118,"Ġsouthern":4119,"Ġcomm":4120,"585":4121,"5154":4122,"662":4123,"3071":4124,"Ġindonesian":4125,"209":4126,"2094":4127,"502":4128,"8800":4129,"293":4130,"2987":4131,"199":4132,"Ġqual":4133,"Ġ01223248882":4134,"ieve":4135,"Ġbelieve":4136,"286":4137,"address":4138,"success":4139,"Ġ01223361763":4140,"Ġ01223362372":4141,"Ġ01223363270":4142,"Ġ01223365599":4143,"Ġ225":4144,"2512":4145,"899":4146,"Ġ01223357187":4147,"Ġ01462":4148,"Ġcomes":4149,"Ġhaven":4150,"Ġ01223311911":4151,"59988":4152,"Ġ01223323361":4153,"Ġ01223359750":4154,"minute":4155,"Ġ356555":4156,"52607":4157,"Ġfair":4158,"Ġcategory":4159,"cineworld":4160,"bedouin":4161,"Ġbroaden":4162,"hello":4163,"Ġgueshouse":4164,"Ġgwydir":4165,"Ġpolynesian":4166,"Ġ01223694264":4167,"Ġbecause":4168,"cast":4169,"cher":4170,"from":4171,"ild":4172,"ring":4173,"Ġtou":4174,"Ġnap":4175,"Ġwon":4176,"Ġhop":4177,"Ġhal":4178,"Ġmis":4179,"ancy":4180,"Ġfoo":4181,"Ġfall":4182,"Ġbookings":4183,"Ġever":4184,"Ġtrouble":4185,"ali":4186,"Ġlow":4187,"Ġneu":4188,"Ġneither":4189,"Ġexcept":4190,"ghan":4191,"Ġconven":4192,"4187":4193,"Ġspecifics":4194,"Ġupsca":4195,"568988":4196,"Ġlets":4197,"147":4198,"home":4199,"Ġlodgings":4200,"Ġdirections":4201,"Ġscottish":4202,"Ġappro":4203,"Ġactivity":4204,"huntingdon":4205,"whale":4206,"Ġfifteen":4207,"downing":4208,"Ġconsidered":4209,"castle":4210,"cherry":4211,"Ġupscale":4212,"107":4213,"260":4214,"2580":4215,"351":4216,"319":4217,"629":4218,"659":4219,"754":4220,"808":4221,"839":4222,"958":4223,"989":4224,"bl":4225,"bloomsbury":4226,"dm":4227,"ez":4228,"fk":4229,"gz":4230,"hh":4231,"kc":4232,"ls":4233,"mt":4234,"mv":4235,"nc":4236,"np":4237,"oz":4238,"over":4239,"ojg":4240,"pw":4241,"qz":4242,"rr":4243,"rice":4244,"ten":4245,"tely":4246,"uz":4247,"vv":4248,"xw":4249,"yp":4250,"ys":4251,"zu":4252,"Ġtus":4253,"Ġmood":4254,"ature":4255,"arbury":4256,"Ġnum":4257,"Ġsing":4258,"Ġsur":4259,"leigh":4260,"Ġ0124":4261,"Ġleast":4262,"230":4263,"126":4264,"Ġ43":4265,"Ġ450":4266,"Ġ413":4267,"adc":4268,"Ġexam":4269,"xim":4270,"Ġ012233240":4271,"Ġ012233236":4272,"Ġ01223360966":4273,"Ġ01223316074":4274,"Ġ01223352607":4275,"Ġ0766":4276,"Ġ0735":4277,"Ġ0713":4278,"Ġ0718":4279,"Ġ0733":4280,"218":4281,"unch":4282,"Ġeastside":4283,"1100":4284,"Ġ84":4285,"Ġ92":4286,"309":4287,"8860":4288,"Ġacross":4289,"290":4290,"Ġ143":4291,"594":4292,"2753":4293,"468":4294,"393":4295,"3942":4296,"Ġspecified":4297,"4149":4298,"5767":4299,"561":4300,"564":4301,"363":4302,"Ġcuisines":4303,"ters":4304,"283":4305,"Ġ01223364917":4306,"Ġ01223362054":4307,"Ġcompletely":4308,"898":4309,"wise":4310,"Ġ01223302580":4311,"Ġ01223338800":4312,"Ġ01223331100":4313,"Ġvarious":4314,"765":4315,"Ġ302":4316,"Ġ01223353071":4317,"Ġ01223353942":4318,"Ġ362525":4319,"7423":4320,"Ġscand":4321,"Ġburleigh":4322,"Ġ01223312598":4323,"Ġ01223338400":4324,"Ġ01223366202":4325,"6003":4326,"Ġ01223307030":4327,"Ġappear":4328,"Ġ01223505015":4329,"corpus":4330,"Ġ01223354382":4331,"Ġ01223354755":4332,"tball":4333,"Ġunderstand":4334,"2515":4335,"Ġ01223311625":4336,"Ġidea":4337,"Ġabsolutely":4338,"Ġnapier":4339,"Ġhoping":4340,"Ġfootball":4341,"Ġapproxim":4342,"Ġtuscan":4343,"Ġ012454":4344,"Ġ413000":4345,"Ġexample":4346,"Ġ01223324033":4347,"5219":4348,"bour":4349,"eb":4350,"emmanuel":4351,"fu":4352,"iod":4353,"ki":4354,"lb":4355,"ov":4356,"ric":4357,"yq":4358,"Ġtri":4359,"Ġtour":4360,"icine":4361,"Ġbas":4362,"Ġbased":4363,"erify":4364,"Ġsm":4365,"cess":4366,"Ġ02":4367,"Ġcam":4368,"Ġcanc":4369,"Ġwelsh":4370,"Ġ01223568988":4371,"Ġverify":4372,"241":4373,"Ġperiod":4374,"Ġriding":4375,"Ġbelg":4376,"Ġsuggestion":4377,"Ġ01223362525":4378,"Ġprovides":4379,"9859":4380,"Ġmedical":4381,"Ġmedicine":4382,"Ġ01223336540":4383,"glish":4384,"...":4385,"Ġ01223292094":4386,"Ġenglish":4387,"Ġ01223323178":4388,"Ġ01223259988":4389,"Ġmista":4390,"Ġselection":4391,"Ġapproximately":4392,"Ġtried":4393,"144":4394,"335":4395,"412":4396,"458":4397,"410":4398,"4277":4399,"610":4400,"636":4401,"618":4402,"706":4403,"744":4404,"769":4405,"827":4406,"846":4407,"834":4408,"990":4409,"955":4410,"949":4411,"ao":4412,"back":4413,"car":4414,"dk":4415,"dl":4416,"fc":4417,"fp":4418,"fz":4419,"gj":4420,"gw":4421,"hv":4422,"hope":4423,"hakka":4424,"ih":4425,"jr":4426,"kg":4427,"kh":4428,"kn":4429,"kx":4430,"ken":4431,"lg":4432,"lw":4433,"look":4434,"mh":4435,"mj":4436,"nh":4437,"ped":4438,"qd":4439,"qt":4440,"qv":4441,"rp":4442,"tc":4443,"td":4444,"tg":4445,"tj":4446,"town":4447,"vz":4448,"vian":4449,"wx":4450,"yb":4451,"yw":4452,"yx":4453,"zj":4454,"zx":4455,"Ġtd":4456,"Ġnt":4457,"Ġpub":4458,"Ġpull":4459,"Ġwoll":4460,"Ġgpb":4461,"atology":4462,"Ġfully":4463,"Ġ123":4464,"Ġ0184":4465,"dep":4466,"129":4467,"Ġ01223413":4468,"alan":4469,"ask":4470,"Ġ300":4471,"Ġ353":4472,"Ġ308681":4473,"aston":4474,"Ġ553355":4475,"Ġexpand":4476,"Ġ01223330":4477,"Ġsusse":4478,"Ġ0743":4479,"Ġ0790":4480,"Ġ0748":4481,"Ġ0770":4482,"Ġ0786":4483,"ific":4484,"005":4485,"Ġeastern":4486,"2420":4487,"andi":4488,"Ġ107":4489,"519":4490,"5170":4491,"667":4492,"2025":4493,"2083":4494,"886":4495,"8813":4496,"545":4497,"5484":4498,"Ġyo":4499,"603":4500,"2900":4501,"522":4502,"27330":4503,"4630":4504,"395":4505,"579":4506,"438":4507,"Ġtrips":4508,"569":4509,"3682":4510,"4550":4511,"193":4512,"club":4513,"nothing":4514,"Ġregion":4515,"169":4516,"0637":4517,"Ġ012232449":4518,"Ġ01223244149":4519,"Ġ01223244277":4520,"inavian":4521,"776":4522,"7755":4523,"77977":4524,"Ġze":4525,"Ġzk":4526,"261":4527,"archway":4528,"Ġ01223400170":4529,"Ġ01223412430":4530,"Ġ01223363682":4531,"Ġconfuse":4532,"Ġcrossover":4533,"9900":4534,"Ġ01223332900":4535,"8620":4536,"Ġclubs":4537,"Ġ308871":4538,"Ġresturant":4539,"Ġcorsic":4540,"4748":4541,"Ġsuits":4542,"8207":4543,"93131":4544,"0254":4545,"Ġ01223307581":4546,"Ġ01733":4547,"Ġ01223812660":4548,"Ġhaem":4549,"Ġ01223315232":4550,"Ġ07229":4551,"Ġcatalan":4552,"Ġ464630":4553,"Ġdepending":4554,"Ġ244277":4555,"Ġ01223311687":4556,"Ġ01223462354":4557,"Ġalternat":4558,"Ġghandi":4559,"Ġthirteen":4560,"Ġ01223448620":4561,"Ġaddresses":4562,"Ġprovided":4563,"Ġfairly":4564,"Ġconvenient":4565,"Ġ01223323639":4566,"2753771":4567,"Ġscandinavian":4568,"Ġ01245493131":4569,"8464":4570,"Ġwollaston":4571,"Ġ01842753771":4572,"Ġ01223413000":4573,"Ġ01223330906":4574,"Ġsussex":4575,"Ġ01223244955":4576,"Ġconfused":4577,"Ġcorsica":4578,"1387":4579,"432":4580,"719":4581,"ballare":4582,"dred":4583,"darrys":4584,"iu":4585,"iry":4586,"lic":4587,"try":4588,"Ġton":4589,"Ġrel":4590,"Ġba":4591,"Ġfancy":4592,"Ġatt":4593,"Ġprop":4594,"ites":4595,"Ġuk":4596,"Ġfeature":4597,"Ġresp":4598,"Ġrq":4599,"Ġwestside":4600,"Ġmusue":4601,"102":4602,"usual":4603,"Ġworking":4604,"Ġalone":4605,"4134":4606,"Ġafghan":4607,"Ġsatis":4608,"Ġadress":4609,"koh":4610,"Ġ01223308871":4611,"after":4612,"vious":4613,"Ġdaily":4614,"Ġ012232173":4615,"Ġconcern":4616,"0552":4617,"Ġlasts":4618,"riverboat":4619,"lovell":4620,"Ġterri":4621,"Ġyear":4622,"Ġworries":4623,"Ġhundred":4624,"arrive":4625,"Ġestablishments":4626,"Ġ01223356354":4627,"Ġwait":4628,"Ġimport":4629,"Ġdozens":4630,"Ġfollowing":4631,"Ġgueshouses":4632,"Ġbelgian":4633,"carolina":4634,"Ġfeatures":4635,"259":4636,"253":4637,"420":4638,"454":4639,"4216":4640,"5390":4641,"654":4642,"641":4643,"676":4644,"759":4645,"8903":4646,"930":4647,"9561":4648,"bv":4649,"cz":4650,"call":4651,"cue":4652,"dj":4653,"eq":4654,"fv":4655,"fx":4656,"ga":4657,"gers":4658,"hp":4659,"iat":4660,"ji":4661,"kr":4662,"lv":4663,"list":4664,"mx":4665,"nus":4666,"pg":4667,"primavera":4668,"qj":4669,"qr":4670,"rm":4671,"rdi":4672,"tk":4673,"uo":4674,"vue":4675,"wp":4676,"were":4677,"warkworth":4678,"yo":4679,"ret":4680,"Ġtons":4681,"Ġaw":4682,"icious":4683,"rat":4684,"Ġcw":4685,"Ġcle":4686,"Ġcreat":4687,"Ġig":4688,"Ġpd":4689,"eron":4690,"Ġworld":4691,"Ġmn":4692,"Ġlw":4693,"Ġdk":4694,"Ġdri":4695,"Ġissue":4696,"Ġansw":4697,"meters":4698,"otel":4699,"Ġoy":4700,"Ġ112":4701,"Ġ03":4702,"Ġec":4703,"Ġeh":4704,"Ġevent":4705,"121":4706,"Ġthereafter":4707,"Ġ0122359":4708,"ason":4709,"Ġ264":4710,"Ġ277977":4711,"Ġ414":4712,"Ġ311053":4713,"Ġ577":4714,"taj":4715,"Ġ01223308681":4716,"Ġva":4717,"Ġvj":4718,"Ġ0723":4719,"Ġ0720":4720,"Ġ0752":4721,"Ġ0764":4722,"Ġ0776":4723,"Ġprevious":4724,"Ġmanage":4725,"Ġ150":4726,"115":4727,"1159":4728,"1163":4729,"Ġreserving":4730,"246":4731,"Ġ102":4732,"Ġunusual":4733,"Ġunlist":4734,"Ġ61":4735,"Ġ600":4736,"661":4737,"Ġ942":4738,"Ġ9180":4739,"Ġjz":4740,"Ġ115":4741,"Ġ118":4742,"075":4743,"076":4744,"206":4745,"2045":4746,"1791":4747,"5056":4748,"887":4749,"5454":4750,"604":4751,"605":4752,"2974":4753,"Ġ122":4754,"108":4755,"Ġ140":4756,"Ġchesteron":4757,"528":4758,"5225":4759,"521260":4760,"Ġotherwise":4761,"5921":4762,"406":4763,"4651":4764,"Ġ189":4765,"414":4766,"0189":4767,"5729":4768,"4319":4769,"567":4770,"803":4771,"806":4772,"Ġdowntown":4773,"167":4774,"1681":4775,"531":4776,"870":4777,"0635":4778,"Ġbelfast":4779,"Ġ01223358899":4780,"Ġsuggestions":4781,"Ġzb":4782,"Ġstarts":4783,"2800":4784,"481":4785,"4859":4786,"269":4787,"Ġ01223367755":4788,"Ġ01223364319":4789,"Ġcomplex":4790,"2534":4791,"9937":4792,"Ġstev":4793,"7040":4794,"6834":4795,"Ġparameters":4796,"Ġ0797":4797,"Ġkinds":4798,"Ġ01223334898":4799,"Ġ01223356666":4800,"Ġ01223356060":4801,"Ġshortly":4802,"point":4803,"474":4804,"Ġeating":4805,"Ġ0871":4806,"Ġaccommodation":4807,"Ġ01223338901":4808,"Ġ01223338300":4809,"Ġ01223366552":4810,"Ġpassengers":4811,"8530":4812,"Ġlatin":4813,"Ġ01223300552":4814,"Ġ01223354679":4815,"Ġ01799521260":4816,"Ġ01223359506":4817,"Ġ244955":4818,"1661":4819,"6163":4820,"uarant":4821,"Ġcompany":4822,"5348":4823,"Ġgiven":4824,"Ġ01223356555":4825,"8070":4826,"Ġrestaraunt":4827,"Ġfacility":4828,"Ġ012233483":4829,"Ġdelicious":4830,"Ġbarbecue":4831,"Ġfulbour":4832,"Ġcommon":4833,"Ġhalal":4834,"Ġneurology":4835,"Ġnumer":4836,"backstreet":4837,"Ġ353110":4838,"Ġhaematology":4839,"Ġalternative":4840,"Ġimportant":4841,"Ġ577786":4842,"Ġunlisted":4843,"Ġfulbourn":4844,"024":4845,"312":4846,"338":4847,"423":4848,"833":4849,"978":4850,"926":4851,"cid":4852,"cong":4853,"ditional":4854,"gourmet":4855,"ise":4856,"mit":4857,"qn":4858,"queen":4859,"wandlebury":4860,"zizzi":4861,"Ġtex":4862,"hed":4863,"ors":4864,"Ġbring":4865,"Ġpul":4866,"Ġplu":4867,"Ġwr":4868,"Ġtraditional":4869,"Ġhote":4870,"Ġ00":4871,"Ġless":4872,"Ġanyth":4873,"23178":4874,"Ġelder":4875,"ddle":4876,"Ġelsewhere":4877,"Ġtal":4878,"Ġmeant":4879,"ending":4880,"oly":4881,"Ġroman":4882,"Ġrespect":4883,"under":4884,"0788":4885,"Ġoperat":4886,"Ġasked":4887,"3577":4888,"Ġlookout":4889,"Ġ01223241387":4890,"Ġadjust":4891,"Ġzip":4892,"Ġentertainments":4893,"ersborough":4894,"Ġ01223362456":4895,"Ġrequirement":4896,"Ġappoint":4897,"stars":4898,"Ġpetersborough":4899,"Ġquestion":4900,"Ġfavorites":4901,"Ġ01223338600":4902,"Ġ01223227330":4903,"arriving":4904,"Ġactivities":4905,"Ġdropped":4906,"3211":4907,"tenpin":4908,"Ġbasque":4909,"Ġcancel":4910,"Ġpublic":4911,"kohinoor":4912,"Ġmanaged":4913,"Ġnumerous":4914,"Ġpulled":4915,"Ġelderly":4916,"Ġromanian":4917,"Ġappointment":4918,"--":4919,"049":4920,"134":4921,"1502":4922,"207":4923,"256":4924,"2292":4925,"311":4926,"359":4927,"4765":4928,"558":4929,"559":4930,"536":4931,"677":4932,"6110":4933,"6357":4934,"757":4935,"787":4936,"7802":4937,"8494":4938,"8199":4939,"987":4940,"aval":4941,"alpha":4942,"cx":4943,"dan":4944,"ei":4945,"een":4946,"fq":4947,"gi":4948,"gp":4949,"gall":4950,"hz":4951,"holy":4952,"io":4953,"iw":4954,"jh":4955,"mi":4956,"mk":4957,"ml":4958,"mq":4959,"nv":4960,"none":4961,"pv":4962,"rc":4963,"rw":4964,"rz":4965,"sion":4966,"spot":4967,"tandoori":4968,"ume":4969,"wj":4970,"xl":4971,"xn":4972,"ref":4973,"reci":4974,"Ġtj":4975,"entrance":4976,"rate":4977,"rajmahal":4978,"Ġcy":4979,"Ġreason":4980,"ordan":4981,"Ġns":4982,"Ġbl":4983,"Ġbs":4984,"Ġih":4985,"Ġpy":4986,"erv":4987,"Ġwv":4988,"Ġhh":4989,"Ġhj":4990,"Ġgave":4991,"ating":4992,"atively":4993,"Ġlarge":4994,"Ġdb":4995,"Ġdarry":4996,"anage":4997,"sed":4998,"three":4999,"those":5000,"Ġff":5001,"Ġfz":5002,"Ġowe":5003,"Ġhotspot":5004,"Ġ188":5005,"ediat":5006,"Ġstick":5007,"234":5008,"Ġep":5009,"Ġcambrdi":5010,"Ġ01223500":5011,"aland":5012,"Ġ226":5013,"Ġuq":5014,"Ġuz":5015,"Ġ412299":5016,"Ġ311":5017,"Ġ366":5018,"Ġ323178":5019,"Ġsuff":5020,"Ġ0729":5021,"Ġ0787":5022,"Ġ0728":5023,"Ġ0784":5024,"Ġ07511":5025,"2130":5026,"2153":5027,"Ġwestern":5028,"114":5029,"119":5030,"Ġ77":5031,"2433":5032,"589":5033,"5874":5034,"Ġ87":5035,"Ġ828":5036,"669":5037,"6688":5038,"Ġjordan":5039,"307":5040,"3043":5041,"071":5042,"072":5043,"2021":5044,"2061":5045,"508":5046,"8824":5047,"Ġsize":5048,"Ġacute":5049,"Ġaccom":5050,"543":5051,"546":5052,"5401":5053,"Ġyy":5054,"2939":5055,"Ġqa":5056,"1537":5057,"592":5058,"2730":5059,"2715":5060,"463":5061,"4626":5062,"4679":5063,"4698":5064,"3948":5065,"341":5066,"345":5067,"349":5068,"5711":5069,"5737":5070,"328":5071,"Ġclin":5072,"909":5073,"386":5074,"1923":5075,"168":5076,"0927":5077,"0995":5078,"8792":5079,"Ġprocess":5080,"Ġ012232499":5081,"5507":5082,"449":5083,"4466":5084,"4212":5085,"4256":5086,"770":5087,"7733":5088,"Ġpaediat":5089,"4975":5090,"Ġzf":5091,"Ġzj":5092,"Ġzn":5093,"2826":5094,"482":5095,"1828":5096,"2621":5097,"792":5098,"7931":5099,"rooms":5100,"2530":5101,"Ġxv":5102,"Ġxy":5103,"374":5104,"3702":5105,"9969":5106,"684":5107,"6838":5108,"6971":5109,"Ġ0796":5110,"Ġ07956":5111,"Ġtension":5112,"Ġ07623":5113,"761":5114,"7656":5115,"Ġ368786":5116,"Ġ363471":5117,"Ġ361763":5118,"Ġ364917":5119,"3138":5120,"6334":5121,"Ġreachable":5122,"1499":5123,"Ġ01223902116":5124,"Ġ0704":5125,"0523":5126,"Ġ01223464630":5127,"Ġ01223338100":5128,"6009":5129,"Ġperfectly":5130,"Ġsteakhouses":5131,"Ġ41518":5132,"Ġ017335":5133,"1549":5134,"Ġpanasian":5135,"arrival":5136,"reserv":5137,"Ġappreci":5138,"5009":5139,"Ġ356354":5140,"9016":5141,"5570":5142,"Ġopenings":5143,"Ġ01223306283":5144,"9892":5145,"Ġcampus":5146,"Ġmistake":5147,"8272":5148,"depart":5149,"Ġzealand":5150,"Ġrelatively":5151,"Ġrespon":5152,"nusha":5153,"Ġawesome":5154,"Ġstevanage":5155,"congrat":5156,"Ġrespectively":5157,"avalon":5158,"galleria":5159,"Ġcambrdige":5160,"Ġ01223500005":5161,"Ġ311911":5162,"Ġ366668":5163,"Ġjordans":5164,"Ġaccomod":5165,"Ġ01223249955":5166,"Ġpaediatric":5167,"Ġ01733553355":5168,"!!":5169,"836":5170,"8533":5171,"ape":5172,"bab":5173,"gery":5174,"hm":5175,"hic":5176,"hotel":5177,"jwe":5178,"mil":5179,"sy":5180,"sen":5181,"wagamama":5182,"Ġot":5183,"rean":5184,"Ġrec":5185,"Ġbuy":5186,"Ġpat":5187,"Ġwy":5188,"Ġhi":5189,"Ġhand":5190,"Ġmt":5191,"Ġissu":5192,"less":5193,"cocum":5194,"Ġforgot":5195,"Ġpricey":5196,"fered":5197,"Ġ04":5198,"itrean":5199,"Ġchosen":5200,"Ġeas":5201,"Ġdeal":5202,"Ġtaken":5203,"Ġ45":5204,"uter":5205,"ulations":5206,"aporean":5207,"Ġ0742":5208,"Ġrate":5209,"Ġmine":5210,"Ġcardi":5211,"Ġserver":5212,"515":5213,"Ġ97":5214,"0721":5215,"Ġasking":5216,"Ġsimil":5217,"Ġalot":5218,"Ġalong":5219,"magdalene":5220,"otten":5221,"abbey":5222,"Ġmyself":5223,"Ġhistor":5224,"7610":5225,"Ġmostly":5226,"shall":5227,"Ġchanged":5228,"ign":5229,"Ġvehic":5230,"0122324":5231,"riverside":5232,"loch":5233,"Ġweekend":5234,"Ġeritrean":5235,"Ġinquiry":5236,"Ġcomputer":5237,"Ġappeals":5238,"Ġappealing":5239,"Ġfacilities":5240,"Ġspots":5241,"Ġquality":5242,"Ġtourist":5243,"Ġmisunder":5244,"Ġsingaporean":5245,"Ġtonight":5246,"4235":5247,"9781":5248,"Ġtext":5249,"Ġtalking":5250,"Ġappreciate":5251,"congratulations":5252,"Ġissues":5253,"Ġcardiology":5254,"Ġsimilar":5255,"Ġvehicle":5256,"010":5257,"0467":5258,"158":5259,"1581":5260,"254":5261,"2000":5262,"332":5263,"380":5264,"3596":5265,"429":5266,"408":5267,"434":5268,"4170":5269,"4202":5270,"550":5271,"532":5272,"538":5273,"724":5274,"740":5275,"738":5276,"749":5277,"7309":5278,"838":5279,"8387":5280,"917":5281,"941":5282,"919":5283,"9533":5284,"9276":5285,"9102":5286,"ace":5287,"but":5288,"cotto":5289,"dc":5290,"ea":5291,"eo":5292,"fun":5293,"gb":5294,"pounds":5295,"pipasha":5296,"qi":5297,"slf":5298,"telephone":5299,"uk":5300,"vj":5301,"vol":5302,"wt":5303,"yg":5304,"yi":5305,"yj":5306,"yt":5307,"Ġic":5308,"Ġoo":5309,"Ġzz":5310,"indeed":5311,"Ġtb":5312,"Ġtf":5313,"Ġtg":5314,"Ġtp":5315,"enu":5316,"Ġao":5317,"Ġay":5318,"Ġaz":5319,"Ġintend":5320,"stood":5321,"Ġcut":5322,"Ġcool":5323,"Ġnd":5324,"Ġbq":5325,"Ġbell":5326,"Ġbunch":5327,"Ġia":5328,"Ġij":5329,"Ġiv":5330,"Ġpw":5331,"Ġwp":5332,"Ġws":5333,"Ġwz":5334,"Ġhc":5335,"Ġgj":5336,"Ġgk":5337,"Ġgdp":5338,"Ġgotten":5339,"Ġmc":5340,"Ġlg":5341,"Ġlk":5342,"Ġln":5343,"Ġlp":5344,"Ġlx":5345,"Ġlunch":5346,"Ġdg":5347,"Ġdx":5348,"sess":5349,"Ġfk":5350,"Ġft":5351,"Ġsd":5352,"Ġsg":5353,"Ġsq":5354,"Ġsv":5355,"Ġ120":5356,"Ġwis":5357,"Ġliking":5358,"Ġstated":5359,"2379":5360,"2325":5361,"Ġeo":5362,"Ġev":5363,"Ġeater":5364,"125":5365,"roy":5366,"Ġdoing":5367,"Ġfoods":5368,"Ġ0122325":5369,"Ġdec":5370,"Ġdear":5371,"Ġdeci":5372,"esp":5373,"Ġuj":5374,"Ġum":5375,"Ġurology":5376,"Ġ400":5377,"Ġ420":5378,"Ġ480":5379,"Ġ448":5380,"ows":5381,"cht":5382,"Ġ352500":5383,"Ġexist":5384,"Ġ55":5385,"Ġ518":5386,"Ġ525":5387,"taxi":5388,"Ġvf":5389,"Ġvm":5390,"Ġvw":5391,"Ġvx":5392,"Ġ0747":5393,"Ġ07598":5394,"009":5395,"0032":5396,"Ġconst":5397,"213":5398,"Ġrt":5399,"Ġallenb":5400,"249":5401,"Ġ81":5402,"5108":5403,"666":5404,"Ġassume":5405,"Ġjc":5406,"Ġjn":5407,"Ġavo":5408,"079":5409,"0743":5410,"0718":5411,"0798":5412,"0797":5413,"Ġassess":5414,"2058":5415,"1756":5416,"1755":5417,"1704":5418,"1761":5419,"505":5420,"542":5421,"5413":5422,"5465":5423,"Ġyb":5424,"Ġyv":5425,"601":5426,"602":5427,"606":5428,"6066":5429,"298":5430,"2950":5431,"2929":5432,"2985":5433,"29180":5434,"Ġ12233":5435,"1027":5436,"086":5437,"087":5438,"Ġqf":5439,"Ġqk":5440,"Ġsomeone":5441,"Ġboast":5442,"5212":5443,"5909":5444,"5965":5445,"4015":5446,"275":5447,"278":5448,"2704":5449,"469":5450,"4680":5451,"4625":5452,"392":5453,"394":5454,"398":5455,"Ġpleased":5456,"356":5457,"3412":5458,"3456":5459,"419":5460,"0188":5461,"572":5462,"573":5463,"574":5464,"5720":5465,"3225":5466,"4379":5467,"9020":5468,"5677":5469,"5686":5470,"5694":5471,"809":5472,"8017":5473,"8042":5474,"369":5475,"3600":5476,"3685":5477,"381":5478,"3844":5479,"198":5480,"1997":5481,"1688":5482,"1610":5483,"0919":5484,"0922":5485,"0996":5486,"537":5487,"873":5488,"8730":5489,"Ġquick":5490,"4494":5491,"Ġspend":5492,"4284":5493,"Ġvisitors":5494,"137":5495,"1316":5496,"Ġwhenever":5497,"496":5498,"Ġzm":5499,"4849":5500,"4828":5501,"again":5502,"262":5503,"268":5504,"kings":5505,"793":5506,"7928":5507,"3371":5508,"Ġ012233650":5509,"Ġ01223365454":5510,"Ġ01223362433":5511,"why":5512,"Ġxm":5513,"Ġxx":5514,"373":5515,"3720":5516,"8913":5517,"Ġrequired":5518,"2257":5519,"998":5520,"9933":5521,"7047":5522,"685":5523,"6811":5524,"Ġ01223302800":5525,"Ġpickup":5526,"Ġvolkswagon":5527,"696":5528,"6939":5529,"Ġgives":5530,"Ġ0793":5531,"Ġ07924":5532,"Ġ07915":5533,"8610":5534,"8636":5535,"nac":5536,"Ġ07629":5537,"Ġ07657":5538,"Ġ07618":5539,"Ġ302010":5540,"Ġrestraunt":5541,"Ġrestuarant":5542,"Ġ01223355166":5543,"Ġ0772":5544,"Ġ07727":5545,"Ġ362372":5546,"9629":5547,"9635":5548,"Ġjoin":5549,"3112":5550,"3158":5551,"3130":5552,"6745":5553,"Ġ012232177":5554,"Ġ01223216811":5555,"1492":5556,"Ġ07017":5557,"5662":5558,"Ġ087194":5559,"8224":5560,"Ġ07421":5561,"Ġ07479":5562,"0532":5563,"0212":5564,"8314":5565,"Ġsitu":5566,"9557":5567,"Ġ0122327618":5568,"Ġcharges":5569,"Ġ07558":5570,"correct":5571,"wards":5572,"two":5573,"Ġfamous":5574,"Ġfitzroy":5575,"Ġ462354":5576,"Ġ464550":5577,"7349":5578,"2514":5579,"Ġ354755":5580,"3342":5581,"3343":5582,"6167":5583,"4664":5584,"Ġgiving":5585,"Ġ01223461661":5586,"5298":5587,"3005":5588,"Ġselections":5589,"Ġalternate":5590,"2125":5591,"3602":5592,"6578":5593,"7094":5594,"Ġvarying":5595,"9082":5596,"Ġ01223306306":5597,"Ġtouch":5598,"6595":5599,"8080":5600,"6368":5601,"7447":5602,"9904":5603,"ifications":5604,"Ġpropert":5605,"Ġclear":5606,"Ġanswer":5607,"queens":5608,"Ġeateries":5609,"Ġ012232566":5610,"Ġdecide":5611,"Ġ448620":5612,"Ġ518111":5613,"Ġassessment":5614,"Ġ08719429180":5615,"Ġ01223276182":5616,"),":5617,"329":5618,"336":5619,"6247":5620,"ders":5621,"each":5622,"hmm":5623,"kirkwood":5624,"line":5625,"oa":5626,"tur":5627,"ticket":5628,"ucr":5629,"wad":5630,"zil":5631,"Ġform":5632,"inion":5633,"reg":5634,"rey":5635,"read":5636,"Ġah":5637,"ential":5638,"raint":5639,"Ġcq":5640,"Ġcame":5641,"Ġreal":5642,"Ġir":5643,"Ġpot":5644,"Ġwal":5645,"Ġhog":5646,"Ġhig":5647,"Ġmone":5648,"ves":5649,"mbridge":5650,"Ġfron":5651,"leverton":5652,"cology":5653,"Ġforward":5654,"Ġwife":5655,"Ġlight":5656,"Ġcanape":5657,"Ġaddition":5658,"Ġhelpful":5659,"Ġoncology":5660,"adly":5661,"admission":5662,"Ġdestinations":5663,"Ġexpl":5664,"Ġnorthend":5665,"Ġcheapest":5666,"Ġavai":5667,"Ġopinion":5668,"Ġenjoyed":5669,"Ġyt":5670,"Ġ1223":5671,"156":5672,"Ġriders":5673,"196":5674,"1958":5675,"1612":5676,"5331":5677,"0674":5678,"Ġspace":5679,"feel":5680,"7713":5681,"Ġcompl":5682,"4969":5683,"7846":5684,"saf":5685,"Ġchrists":5686,"3330":5687,"Ġvaries":5688,"postal":5689,"Ġbrazil":5690,"Ġreaching":5691,"Ġending":5692,"Ġkettles":5693,"efes":5694,"Ġplans":5695,"anytime":5696,"0315":5697,"Ġenough":5698,"Ġinquire":5699,"Ġdepends":5700,"Ġdependency":5701,"Ġsecure":5702,"Ġaustralasian":5703,"Ġarranged":5704,"Ġmiddle":5705,"lynne":5706,"comend":5707,"Ġfinal":5708,"Ġfinish":5709,"Ġbarbeque":5710,"Ġqualifications":5711,"Ġlower":5712,"Ġsingle":5713,"7195":5714,"Ġattending":5715,"Ġmusuem":5716,"Ġ01223217314":5717,"Ġterrific":5718,"Ġwaiting":5719,"Ġcreative":5720,"Ġdriving":5721,"Ġevents":5722,"8331":5723,"Ġplus":5724,"Ġwrong":5725,"Ġsuffice":5726,"Ġresponse":5727,"bably":5728,"Ġeasy":5729,"Ġdecis":5730,"Ġconstraint":5731,"Ġboasts":5732,"tickets":5733,"Ġhigher":5734,"Ġmoney":5735,"Ġfront":5736,"Ġcanapes":5737,"Ġbrazilian":5738,")?":5739,".\"":5740,"0357":5741,"0363":5742,"0545":5743,"0115":5744,"123":5745,"138":5746,"1395":5747,"288":5748,"228":5749,"2286":5750,"323":5751,"366":5752,"352":5753,"316":5754,"3000":5755,"3194":5756,"3404":5757,"459":5758,"456":5759,"487":5760,"524":5761,"530":5762,"560":5763,"5077":5764,"5504":5765,"5567":5766,"624":5767,"651":5768,"640":5769,"643":5770,"6517":5771,"6387":5772,"6585":5773,"6193":5774,"758":5775,"743":5776,"7245":5777,"7075":5778,"7604":5779,"7803":5780,"830":5781,"849":5782,"848":5783,"818":5784,"8265":5785,"8306":5786,"8585":5787,"8662":5788,"8126":5789,"8290":5790,"8241":5791,"8685":5792,"920":5793,"915":5794,"935":5795,"9299":5796,"9178":5797,"9580":5798,"9802":5799,"9886":5800,"agg":5801,"best":5802,"bal":5803,"bry":5804,"bly":5805,"bmg":5806,"cin":5807,"cing":5808,"cular":5809,"cjv":5810,"dated":5811,"ev":5812,"fb":5813,"fj":5814,"fri":5815,"gk":5816,"gyc":5817,"gbq":5818,"gbh":5819,"hcw":5820,"ibp":5821,"ios":5822,"iment":5823,"jesus":5824,"jqg":5825,"kt":5826,"lot":5827,"md":5828,"mal":5829,"main":5830,"mod":5831,"nm":5832,"nect":5833,"omy":5834,"pi":5835,"pan":5836,"qo":5837,"qx":5838,"sz":5839,"sadly":5840,"tm":5841,"tsi":5842,"uvd":5843,"vpa":5844,"vrv":5845,"wu":5846,"wof":5847,"wkv":5848,"xxh":5849,"xej":5850,"yd":5851,"yv":5852,"yln":5853,"ymg":5854,"yhu":5855,"Ġ'":5856,"Ġxi":5857,"inue":5858,"Ġtq":5859,"Ġtz":5860,"Ġtandoor":5861,"Ġinfect":5862,"Ġaj":5863,"Ġave":5864,"Ġari":5865,"Ġaway":5866,"icas":5867,"option":5868,"oua":5869,"ourit":5870,"Ġinter":5871,"Ġce":5872,"Ġcm":5873,"Ġcp":5874,"Ġcz":5875,"Ġcet":5876,"Ġcities":5877,"Ġrefer":5878,"Ġnh":5879,"Ġnk":5880,"Ġnr":5881,"Ġnz":5882,"Ġnigh":5883,"Ġbb":5884,"Ġbg":5885,"Ġbm":5886,"Ġbt":5887,"Ġbv":5888,"Ġbw":5889,"Ġbx":5890,"Ġbib":5891,"Ġie":5892,"Ġian":5893,"Ġimp":5894,"Ġpc":5895,"Ġpf":5896,"Ġpg":5897,"Ġpj":5898,"Ġpq":5899,"Ġpz":5900,"Ġpar":5901,"Ġpri":5902,"Ġwb":5903,"Ġwd":5904,"Ġwf":5905,"Ġwj":5906,"Ġwk":5907,"Ġwt":5908,"Ġhl":5909,"Ġhq":5910,"Ġhw":5911,"Ġhz":5912,"Ġhdt":5913,"Ġgc":5914,"Ġgf":5915,"Ġgs":5916,"Ġgw":5917,"Ġgray":5918,"Ġglo":5919,"ingling":5920,"Ġmb":5921,"Ġml":5922,"Ġmp":5923,"Ġmq":5924,"Ġmix":5925,"atc":5926,"Ġls":5927,"Ġlbs":5928,"Ġlnk":5929,"Ġdh":5930,"Ġdm":5931,"Ġdr":5932,"Ġdw":5933,"Ġdise":5934,"Ġbooks":5935,"seo":5936,"though":5937,"Ġfd":5938,"Ġfl":5939,"Ġfp":5940,"Ġfw":5941,"Ġfas":5942,"aru":5943,"Ġoi":5944,"Ġos":5945,"riate":5946,"Ġattem":5947,"leave":5948,"lecular":5949,"Ġmove":5950,"Ġmovie":5951,"Ġmolecular":5952,"Ġforty":5953,"Ġnames":5954,"ssage":5955,"Ġchines":5956,"Ġ012":5957,"itti":5958,"Ġstate":5959,"people":5960,"Ġcabridge":5961,"2311":5962,"2378":5963,"Ġarche":5964,"Ġez":5965,"Ġema":5966,"arts":5967,"1227":5968,"Ġtrust":5969,"Ġ01223257":5970,"lpm":5971,"Ġtast":5972,"Ġguestrooms":5973,"Ġarrived":5974,"asg":5975,"Ġnoon":5976,"Ġmessage":5977,"endly":5978,"Ġ211":5979,"ished":5980,"Ġue":5981,"Ġuf":5982,"Ġur":5983,"Ġrecommendations":5984,"Ġnever":5985,"lac":5986,"Ġonline":5987,"utc":5988,"Ġ306":5989,"Ġexc":5990,"Ġextra":5991,"Ġ500":5992,"Ġmoderatly":5993,"Ġresol":5994,"Ġ0122335010":5995,"Ġ0122333948":5996,"Ġsuper":5997,"Ġsupp":5998,"Ġkh":5999,"Ġkz":6000,"Ġvc":6001,"Ġvh":6002,"Ġvo":6003,"Ġvy":6004,"Ġ0732":6005,"Ġ0745":6006,"Ġ0755":6007,"Ġ0768":6008,"Ġ0771":6009,"Ġ07248":6010,"Ġ074134":6011,"okt":6012,"001":6013,"0044":6014,"0031":6015,"0094":6016,"Ġcont":6017,"Ġwhy":6018,"Ġwhose":6019,"217":6020,"2166":6021,"2145":6022,"2178":6023,"2164":6024,"ilv":6025,"Ġrj":6026,"Ġrw":6027,"Ġrx":6028,"Ġrz":6029,"yesbray":6030,"116":6031,"1156":6032,"1180":6033,"1162":6034,"Ġ73":6035,"Ġcontacted":6036,"244":6037,"5866":6038,"5806":6039,"5831":6040,"5867":6041,"Ġsouthend":6042,"5107":6043,"Ġ65":6044,"Ġabo":6045,"6607":6046,"6628":6047,"6692":6048,"6697":6049,"Ġ91":6050,"Ġjm":6051,"Ġjp":6052,"Ġjq":6053,"Ġju":6054,"Ġjw":6055,"Ġjingling":6056,"303":6057,"3057":6058,"3087":6059,"3062":6060,"0717":6061,"0713":6062,"0776":6063,"0774":6064,"203":6065,"205":6066,"2029":6067,"2052":6068,"2042":6069,"171":6070,"173":6071,"1750":6072,"1709":6073,"1770":6074,"5012":6075,"5034":6076,"5042":6077,"5089":6078,"Ġdiffic":6079,"882":6080,"5473":6081,"amg":6082,"five":6083,"Ġyg":6084,"Ġyj":6085,"Ġyn":6086,"Ġ165":6087,"6034":6088,"6053":6089,"297":6090,"2912":6091,"109":6092,"fod":6093,"082":6094,"0813":6095,"0862":6096,"Ġqb":6097,"Ġqd":6098,"Ġqg":6099,"Ġqq":6100,"ases":6101,"153":6102,"157":6103,"1526":6104,"1567":6105,"1575":6106,"5266":6107,"5256":6108,"597":6109,"5910":6110,"5901":6111,"5953":6112,"5949":6113,"5928":6114,"5918":6115,"5979":6116,"5972":6117,"5998":6118,"4016":6119,"4031":6120,"2788":6121,"2764":6122,"2771":6123,"2775":6124,"4638":6125,"4689":6126,"4673":6127,"396":6128,"Ġserved":6129,"3450":6130,"3470":6131,"3476":6132,"Ġalthough":6133,"418":6134,"4194":6135,"0141":6136,"570":6137,"576":6138,"5754":6139,"5713":6140,"5747":6141,"3207":6142,"3257":6143,"Ġparticularly":6144,"Ġchurchhill":6145,"4329":6146,"4334":6147,"904":6148,"905":6149,"9066":6150,"9039":6151,"9025":6152,"9063":6153,"8056":6154,"8026":6155,"362":6156,"367":6157,"3677":6158,"3637":6159,"Ġ231":6160,"383":6161,"3854":6162,"3810":6163,"3839":6164,"3843":6165,"3847":6166,"1699":6167,"1672":6168,"098":6169,"0945":6170,"0953":6171,"5358":6172,"Ġnewham":6173,"876":6174,"8714":6175,"8705":6176,"Ġprobably":6177,"0680":6178,"0625":6179,"0686":6180,"0684":6181,"Ġsundays":6182,"4447":6183,"422":6184,"4288":6185,"4226":6186,"4283":6187,"caffe":6188,"Ġadvent":6189,"7721":6190,"7734":6191,"7769":6192,"4987":6193,"4928":6194,"Ġbelfy":6195,"Ġbelfrey":6196,"Ġzc":6197,"Ġzl":6198,"Ġzs":6199,"Ġzt":6200,"haa":6201,"2854":6202,"2860":6203,"2863":6204,"2895":6205,"484":6206,"4824":6207,"4863":6208,"784":6209,"7850":6210,"7822":6211,"1800":6212,"1854":6213,"1827":6214,"1898":6215,"1892":6216,"263":6217,"2617":6218,"2635":6219,"2694":6220,"erson":6221,"795":6222,"796":6223,"797":6224,"337":6225,"Ġ01223369299":6226,"2557":6227,"whg":6228,"Ġxj":6229,"ropriate":6230,"372":6231,"376":6232,"3732":6233,"8932":6234,"6477":6235,"996":6236,"999":6237,"9956":6238,"with":6239,"704":6240,"7020":6241,"7057":6242,"683":6243,"686":6244,"6833":6245,"Ġ01223301761":6246,"aft":6247,"voq":6248,"693":6249,"697":6250,"6946":6251,"Ġ07937":6252,"Ġ--":6253,"867":6254,"8600":6255,"8676":6256,"8631":6257,"7187":6258,"myl":6259,"Ġ0767":6260,"Ġ07621":6261,"Ġ07611":6262,"Ġ07650":6263,"Ġ07648":6264,"8885":6265,"762":6266,"763":6267,"7678":6268,"Ġgastron":6269,"ava":6270,"Ġ01223355012":6271,"Ġ0122335388":6272,"8410":6273,"Ġ07749":6274,"should":6275,"Ġ375":6276,"aej":6277,"6742":6278,"Ġ505015":6279,"kambar":6280,"Ġ0782":6281,"Ġ07823":6282,"Ġ07854":6283,"Ġ0122321629":6284,"sjz":6285,"1006":6286,"7324":6287,"7360":6288,"981":6289,"9823":6290,"9839":6291,"Ġ07060":6292,"Ġ07059":6293,"9452":6294,"Ġlonger":6295,"7430":6296,"7450":6297,"7460":6298,"Ġ568988":6299,"5669":6300,"6226":6301,"lho":6302,"iby":6303,"Ġ07411":6304,"Ġ07430":6305,"Ġ07417":6306,"Ġfavourit":6307,"9360":6308,"0559":6309,"Ġ01223577786":6310,"Ġluxu":6311,"8335":6312,"flx":6313,"sitar":6314,"Ġruns":6315,"6524":6316,"Ġ01223366668":6317,"Ġ07330":6318,"Ġ07314":6319,"Ġamericas":6320,"8151":6321,"Ġ01223274680":6322,"Ġ01223274284":6323,"medi":6324,"Ġdeter":6325,"0122333":6326,"01223358":6327,"jxx":6328,"upu":6329,"crc":6330,"crn":6331,"gob":6332,"Ġbites":6333,"Ġ07554":6334,"Ġclassic":6335,"2232":6336,"Ġ07138":6337,"2001":6338,"2006":6339,"zqe":6340,"fyq":6341,"nkz":6342,"qwfw":6343,"Ġ01223217231":6344,"Ġ01223217261":6345,"3544":6346,"rlm":6347,"Ġcatch":6348,"vbb":6349,"vfa":6350,"vfv":6351,"zkd":6352,"gnm":6353,"mnu":6354,"Ġ01223256":6355,"2519":6356,"jqm":6357,"Ġappropriate":6358,"50420":6359,"Ġexhibits":6360,"1879":6361,"vpv":6362,"zlr":6363,"sbrookes":6364,"Ġsoonest":6365,"1662":6366,"4003":6367,"Ġarrangements":6368,"Ġ079989":6369,"4669":6370,"5343":6371,"dnb":6372,"Ġhungting":6373,"1465":6374,"1469":6375,"8078":6376,"9775":6377,"huntington":6378,"Ġideas":6379,"2129":6380,"3177":6381,"Ġ01223348144":6382,"Ġthirty":6383,"7092":6384,"2503":6385,"3782":6386,"8176":6387,"Ġdisc":6388,"Ġfulf":6389,"Ġfalls":6390,"1079":6391,"2602":6392,"7548":6393,"8399":6394,"9589":6395,"Ġsurgery":6396,"126194":6397,"6105":6398,"7062":6399,"Ġpulling":6400,"4322":6401,"Ġmusuems":6402,"Ġsatisfy":6403,"Ġterribly":6404,"9303":6405,"Ġ01223596066":6406,"Ġvacan":6407,"Ġpreviously":6408,"Ġcomplexes":6409,"Ġ01223348313":6410,"Ġ01223348314":6411,"Ġoperation":6412,"1342":6413,"2078":6414,"7878":6415,"Ġclinic":6416,"reservation":6417,"departure":6418,"Ġpatience":6419,"Ġmisunderstood":6420,"funky":6421,"Ġallenball":6422,"Ġavoid":6423,"Ġ01223365068":6424,"Ġjoining":6425,"Ġ07479126194":6426,"Ġcompliment":6427,"Ġconstraints":6428,"8185":6429,"cinating":6430,"Ġinfectious":6431,"Ġglobal":6432,"Ġdiseases":6433,"Ġfascinating":6434,"Ġarcheology":6435,"Ġemail":6436,"Ġ306306":6437,"Ġ01223350106":6438,"Ġ01223339485":6439,"Ġdifficult":6440,"Ġgastronomy":6441,"Ġ01223216297":6442,"Ġfavourite":6443,"01223358966":6444,"qwfwx":6445,"Ġcomplimentary":6446,"324":6447,"315":6448,"480":6449,"aurant":6450,"bet":6451,"cre":6452,"cent":6453,"cap":6454,"cated":6455,"den":6456,"fa":6457,"four":6458,"fly":6459,"frame":6460,"iar":6461,"idge":6462,"lime":6463,"mine":6464,"michael":6465,"ned":6466,"pla":6467,"sry":6468,"sful":6469,"soul":6470,"tance":6471,"tang":6472,"uge":6473,"warts":6474,"Ġ/":6475,"Ġou":6476,"Ġtel":6477,"Ġtook":6478,"ensbrookes":6479,"Ġincon":6480,"Ġinju":6481,"oux":6482,"Ġintensive":6483,"hey":6484,"Ġrep":6485,"Ġrepe":6486,"Ġretur":6487,"Ġnic":6488,"Ġbon":6489,"Ġik":6490,"Ġil":6491,"Ġph":6492,"onary":6493,"erology":6494,"Ġwou":6495,"Ġwet":6496,"Ġhang":6497,"Ġhuh":6498,"Ġga":6499,"Ġgl":6500,"Ġgone":6501,"Ġgaf":6502,"Ġguy":6503,"ings":6504,"Ġmg":6505,"Ġmm":6506,"Ġmenu":6507,"Ġlq":6508,"Ġlt":6509,"Ġlco":6510,"Ġline":6511,"Ġdj":6512,"Ġdiver":6513,"Ġiscb":6514,"meze":6515,"another":6516,"see":6517,"sey":6518,"Ġtota":6519,"Ġfi":6520,"Ġfo":6521,"Ġfu":6522,"Ġflu":6523,"Ġfix":6524,"Ġob":6525,"Ġoh":6526,"Ġown":6527,"Ġocc":6528,"rific":6529,"Ġatm":6530,"lect":6531,"Ġwise":6532,"Ġwouldn":6533,"Ġlie":6534,"Ġ000":6535,"Ġleft":6536,"travell":6537,"Ġes":6538,"Ġeye":6539,"Ġecon":6540,"ros":6541,"Ġaddenb":6542,"Ġcambri":6543,"Ġher":6544,"Ġhelps":6545,"Ġtimeframe":6546,"Ġdesp":6547,"Ġtax":6548,"ured":6549,"Ġmodify":6550,"Ġresaurant":6551,"Ġ01223329":6552,"Ġki":6553,"ounding":6554,"Ġvice":6555,"Ġ0714":6556,"Ġpref":6557,"Ġprefered":6558,"Ġconnect":6559,"Ġpartial":6560,"ccesful":6561,"Ġwho":6562,"Ġmusic":6563,"isty":6564,"Ġtwenty":6565,"5859":6566,"665":6567,"Ġji":6568,"Ġassisted":6569,"0734":6570,"Ġnote":6571,"Ġsimp":6572,"Ġaccid":6573,"fied":6574,"Ġqm":6575,"1596":6576,"Ġamong":6577,"Ġmatched":6578,"Ġspeak":6579,"Ġspecification":6580,"3262":6581,"illed":6582,"433":6583,"Ġupdated":6584,"Ġfewer":6585,"terrific":6586,"venience":6587,"Ġ0122324515":6588,"Ġspread":6589,"neither":6590,"Ġnarrowing":6591,"Ġadmit":6592,"Ġpasta":6593,"itecture":6594,"183":6595,"1819":6596,"rewell":6597,"ared":6598,"Ġgrafitti":6599,"Ġseeking":6600,"6488":6601,"trainid":6602,"Ġoutside":6603,"Ġaylesbury":6604,"Ġgastro":6605,"Ġshows":6606,"Ġ01223355711":6607,"scudamores":6608,"Ġbishop":6609,"464646":6610,"Ġcoronary":6611,"4724":6612,"Ġ#:":6613,"1493":6614,"Ġpostalcode":6615,"Ġturns":6616,"Ġcloser":6617,"Ġactual":6618,"perhaps":6619,"Ġtechnical":6620,"Ġdata":6621,"0122321":6622,"0122330":6623,"Ġpoints":6624,"Ġclosed":6625,"located":6626,"Ġdirection":6627,"Ġconsidering":6628,"plant":6629,"Ġspecifying":6630,"Ġbuild":6631,"ique":6632,"Ġtransplant":6633,"Ġcompared":6634,"Ġfinished":6635,"standing":6636,"Ġspecializ":6637,"Ġproviding":6638,"Ġneuros":6639,"Ġsmall":6640,"Ġmistaken":6641,"ification":6642,"Ġresturants":6643,"Ġproper":6644,"Ġsatisfied":6645,"Ġhundreds":6646,"retfully":6647,"Ġcreate":6648,"Ġanythign":6649,"Ġhistoric":6650,"Ġintended":6651,"Ġcutting":6652,"regretfully":6653,"Ġpotential":6654,"Ġhogwarts":6655,"Ġexplore":6656,"saffron":6657,"Ġimpress":6658,"Ġresolve":6659,"Ġadventure":6660,"Ġdetermine":6661,"Ġfulfill":6662,"centre":6663,"limehouse":6664,"Ġinconvenience":6665,"Ġinjury":6666,"Ġrepeat":6667,"Ġguys":6668,"Ġdiverse":6669,"Ġtotally":6670,"travellers":6671,"Ġeconom":6672,"Ġdespite":6673,"Ġ01223329432":6674,"Ġsimply":6675,"Ġaccident":6676,"Ġadmittance":6677,"\".":6678,"020":6679,"059":6680,"027":6681,"032":6682,"045":6683,"0517":6684,"0516":6685,"0117":6686,"0209":6687,"0121":6688,"0481":6689,"0269":6690,"0328":6691,"0601":6692,"0394":6693,"0217":6694,"141":6695,"190":6696,"142":6697,"1233":6698,"1428":6699,"1309":6700,"224":6701,"258":6702,"266":6703,"229":6704,"280":6705,"225":6706,"2583":6707,"346":6708,"3888":6709,"3353":6710,"3387":6711,"3390":6712,"3293":6713,"3661":6714,"417":6715,"488":6716,"452":6717,"440":6718,"427":6719,"439":6720,"443":6721,"445":6722,"479":6723,"4506":6724,"4404":6725,"4117":6726,"4594":6727,"4115":6728,"4887":6729,"4604":6730,"521":6731,"507":6732,"554":6733,"5517":6734,"5234":6735,"623":6736,"630":6737,"652":6738,"646":6739,"649":6740,"628":6741,"6210":6742,"6583":6743,"6870":6744,"6386":6745,"6809":6746,"6998":6747,"751":6748,"707":6749,"717":6750,"732":6751,"790":6752,"745":6753,"728":6754,"718":6755,"7299":6756,"7222":6757,"7355":6758,"7276":6759,"7239":6760,"7583":6761,"7293":6762,"7147":6763,"7468":6764,"7667":6765,"7169":6766,"7307":6767,"7213":6768,"7278":6769,"7683":6770,"823":6771,"821":6772,"811":6773,"858":6774,"801":6775,"890":6776,"844":6777,"842":6778,"8149":6779,"8509":6780,"8504":6781,"8361":6782,"8292":6783,"8363":6784,"8522":6785,"8406":6786,"8167":6787,"912":6788,"907":6789,"950":6790,"988":6791,"939":6792,"953":6793,"928":6794,"933":6795,"9517":6796,"9382":6797,"9202":6798,"9219":6799,"9209":6800,"9286":6801,"9545":6802,"9522":6803,"9605":6804,"9531":6805,"9345":6806,"9792":6807,"9704":6808,"??":6809,"axi":6810,"aok":6811,"ben":6812,"bpe":6813,"bif":6814,"bqq":6815,"boh":6816,"bza":6817,"bjs":6818,"based":6819,"cxb":6820,"cnx":6821,"cnl":6822,"dr":6823,"dra":6824,"dim":6825,"dtz":6826,"darry":6827,"dje":6828,"djx":6829,"duf":6830,"dnk":6831,"djm":6832,"eu":6833,"eel":6834,"eas":6835,"eog":6836,"ebg":6837,"ezt":6838,"found":6839,"fda":6840,"fgd":6841,"fwh":6842,"fbo":6843,"fpx":6844,"fpq":6845,"fzc":6846,"fmn":6847,"fsf":6848,"fbk":6849,"gr":6850,"gst":6851,"gma":6852,"gac":6853,"gcl":6854,"gvm":6855,"gwv":6856,"hw":6857,"hit":6858,"hrq":6859,"hqy":6860,"hhs":6861,"hwc":6862,"iere":6863,"iit":6864,"iye":6865,"iog":6866,"iester":6867,"ikv":6868,"iww":6869,"iwl":6870,"jen":6871,"jor":6872,"jed":6873,"jad":6874,"jful":6875,"jyn":6876,"jds":6877,"jaw":6878,"jmg":6879,"jnf":6880,"jpq":6881,"jnn":6882,"jrd":6883,"jnac":6884,"kvo":6885,"kff":6886,"kcv":6887,"kjk":6888,"lol":6889,"lof":6890,"liple":6891,"lhi":6892,"mon":6893,"mpe":6894,"mia":6895,"mof":6896,"mtl":6897,"mlx":6898,"mjc":6899,"mvl":6900,"nice":6901,"net":6902,"ntu":6903,"nsk":6904,"njx":6905,"nho":6906,"ngm":6907,"ncv":6908,"namg":6909,"ox":6910,"ora":6911,"ozc":6912,"oxq":6913,"ovk":6914,"ova":6915,"ozr":6916,"pound":6917,"pai":6918,"pab":6919,"pax":6920,"pgq":6921,"person":6922,"qot":6923,"qit":6924,"qis":6925,"qam":6926,"qlh":6927,"qmu":6928,"qrd":6929,"rfr":6930,"rfl":6931,"rxh":6932,"rpl":6933,"sg":6934,"sly":6935,"sgg":6936,"since":6937,"smo":6938,"srq":6939,"spl":6940,"szk":6941,"sheep":6942,"sdi":6943,"sgj":6944,"szj":6945,"ts":6946,"tre":6947,"tep":6948,"toy":6949,"tpr":6950,"tdb":6951,"uic":6952,"uran":6953,"udd":6954,"ulp":6955,"uoh":6956,"ufr":6957,"ucu":6958,"uhu":6959,"uvx":6960,"vis":6961,"vok":6962,"vlu":6963,"vso":6964,"vma":6965,"vies":6966,"vhn":6967,"vsr":6968,"vgm":6969,"vcv":6970,"vaa":6971,"vlk":6972,"vvf":6973,"vjp":6974,"vvpv":6975,"wre":6976,"wla":6977,"wow":6978,"wun":6979,"wly":6980,"wfo":6981,"wka":6982,"wpr":6983,"wmg":6984,"wzq":6985,"wxs":6986,"xen":6987,"xed":6988,"xag":6989,"xbe":6990,"xmy":6991,"xoc":6992,"xgy":6993,"yl":6994,"ym":6995,"yay":6996,"yce":6997,"yka":6998,"ypx":6999,"yjx":7000,"ypd":7001,"ykf":7002,"yvg":7003,"yyh":7004,"zg":7005,"zly":7006,"zte":7007,"ziv":7008,"zuy":7009,"zyu":7010,"zjm":7011,"zvm":7012,"zxo":7013,"zaft":7014,"Ġsta":7015,"Ġry":7016,"inera":7017,"inet":7018,"Ġtc":7019,"Ġts":7020,"Ġtx":7021,"Ġtop":7022,"Ġtat":7023,"enn":7024,"enage":7025,"Ġincorrect":7026,"Ġae":7027,"Ġau":7028,"Ġaen":7029,"Ġale":7030,"Ġakf":7031,"Ġaeb":7032,"iche":7033,"ically":7034,"enterology":7035,"opok":7036,"raa":7037,"rable":7038,"ought":7039,"oubt":7040,"oucjv":7041,"stnz":7042,"stom":7043,"hely":7044,"Ġcd":7045,"Ġcg":7046,"Ġcj":7047,"Ġck":7048,"Ġcv":7049,"Ġcen":7050,"Ġcct":7051,"Ġcit":7052,"Ġcul":7053,"Ġcig":7054,"Ġcxz":7055,"Ġrese":7056,"Ġrece":7057,"Ġremain":7058,"ories":7059,"Ġna":7060,"Ġnb":7061,"Ġnl":7062,"Ġnm":7063,"Ġnw":7064,"Ġnx":7065,"Ġny":7066,"Ġnch":7067,"Ġngh":7068,"Ġninet":7069,"Ġbc":7070,"Ġbp":7071,"Ġbz":7072,"Ġbad":7073,"Ġbank":7074,"Ġbout":7075,"Ġbsj":7076,"Ġbtt":7077,"Ġbloom":7078,"Ġbnf":7079,"Ġbvc":7080,"Ġbvu":7081,"Ġbzx":7082,"Ġib":7083,"Ġiu":7084,"Ġiy":7085,"Ġive":7086,"Ġiil":7087,"Ġivx":7088,"Ġixe":7089,"Ġikc":7090,"Ġpn":7091,"Ġpv":7092,"Ġpie":7093,"Ġpux":7094,"Ġwo":7095,"Ġwq":7096,"Ġwu":7097,"Ġww":7098,"Ġworry":7099,"Ġwww":7100,"Ġwsp":7101,"ooj":7102,"Ġhb":7103,"Ġhg":7104,"Ġhv":7105,"Ġhy":7106,"Ġhld":7107,"Ġhno":7108,"Ġhag":7109,"Ġhandle":7110,"Ġhxg":7111,"Ġgm":7112,"Ġgq":7113,"Ġgu":7114,"Ġgx":7115,"Ġgz":7116,"Ġgra":7117,"Ġgxt":7118,"Ġgvn":7119,"Ġgpu":7120,"Ġglb":7121,"Ġmd":7122,"Ġmf":7123,"Ġmh":7124,"Ġmj":7125,"Ġmr":7126,"Ġms":7127,"Ġmz":7128,"Ġmut":7129,"Ġmil":7130,"Ġmrq":7131,"Ġmxm":7132,"Ġmdk":7133,"Ġmqr":7134,"veg":7135,"vered":7136,"Ġlf":7137,"Ġlj":7138,"Ġlm":7139,"Ġlr":7140,"Ġlv":7141,"Ġlz":7142,"Ġlma":7143,"Ġldy":7144,"Ġlgm":7145,"Ġlqs":7146,"Ġlxm":7147,"formation":7148,"Ġdd":7149,"Ġdf":7150,"Ġdi":7151,"Ġdl":7152,"Ġdn":7153,"Ġdp":7154,"Ġdq":7155,"Ġdt":7156,"Ġdv":7157,"Ġdy":7158,"Ġdke":7159,"Ġdilton":7160,"Ġdci":7161,"Ġdjf":7162,"Ġdkv":7163,"Ġanf":7164,"Ġanh":7165,"rania":7166,"erable":7167,"sesame":7168,"Ġtowards":7169,"thj":7170,"Ġfr":7171,"Ġfan":7172,"Ġfle":7173,"Ġfab":7174,"Ġfig":7175,"Ġfkv":7176,"Ġfgo":7177,"Ġfrg":7178,"Ġfvn":7179,"arm":7180,"aria":7181,"arzy":7182,"Ġsb":7183,"Ġsf":7184,"Ġsn":7185,"Ġsop":7186,"Ġsol":7187,"Ġsly":7188,"Ġoe":7189,"Ġog":7190,"Ġom":7191,"Ġoq":7192,"Ġow":7193,"Ġox":7194,"Ġoz":7195,"Ġowa":7196,"Ġojful":7197,"rian":7198,"Ġoffered":7199,"Ġtraum":7200,"ceed":7201,"kei":7202,"kev":7203,"Ġmovies":7204,"ldq":7205,"Ġ111":7206,"eda":7207,"Ġprot":7208,"cttg":7209,"ssl":7210,"ssyp":7211,"Ġchance":7212,"Ġchild":7213,"Ġlimit":7214,"Ġ011":7215,"Ġstree":7216,"these":7217,"Ġlevel":7218,"Ġleiester":7219,"Ġanyone":7220,"pey":7221,"pembroke":7222,"pefs":7223,"2329":7224,"2334":7225,"2357":7226,"2319":7227,"2392":7228,"Ġeq":7229,"Ġew":7230,"Ġeopok":7231,"Ġerania":7232,"arting":7233,"dding":7234,"ddha":7235,"120":7236,"1220":7237,"1287":7238,"1242":7239,"rogd":7240,"Ġitinera":7241,"wnh":7242,"wnx":7243,"Ġguesth":7244,"alf":7245,"alble":7246,"also":7247,"almost":7248,"asa":7249,"mmy":7250,"Ġnoddle":7251,"Ġtowne":7252,"Ġtowns":7253,"Ġthous":7254,"Ġthought":7255,"Ġ223":7256,"Ġ266":7257,"Ġ278":7258,"isne":7259,"Ġuc":7260,"Ġuh":7261,"Ġuv":7262,"Ġux":7263,"Ġuy":7264,"Ġucw":7265,"Ġuxy":7266,"Ġuqm":7267,"Ġ439":7268,"Ġneigh":7269,"ryc":7270,"rym":7271,"owl":7272,"owr":7273,"utf":7274,"utt":7275,"uting":7276,"uli":7277,"ulous":7278,"Ġ307":7279,"urt":7280,"urz":7281,"Ġmodrate":7282,"Ġorig":7283,"xiw":7284,"xible":7285,"Ġ536":7286,"Ġ544":7287,"tai":7288,"taq":7289,"take":7290,"Ġmoderatley":7291,"Ġ01223360":7292,"Ġ01223349":7293,"Ġ01223350420":7294,"Ġpey":7295,"irg":7296,"iroom":7297,"Ġkj":7298,"Ġko":7299,"Ġkp":7300,"Ġks":7301,"Ġku":7302,"Ġkv":7303,"Ġkx":7304,"Ġkci":7305,"Ġksh":7306,"Ġksf":7307,"Ġkhb":7308,"Ġkvv":7309,"Ġsed":7310,"Ġseen":7311,"Ġsear":7312,"ghn":7313,"Ġvq":7314,"Ġvr":7315,"Ġvt":7316,"Ġvon":7317,"Ġvie":7318,"Ġvers":7319,"Ġvzf":7320,"Ġ0741":7321,"Ġ0753":7322,"Ġ0722":7323,"Ġ0731":7324,"Ġ07149":7325,"Ġ07566":7326,"Ġ07237":7327,"Ġ07906":7328,"Ġ07299":7329,"Ġ072054":7330,"Ġnorthside":7331,"Ġmintu":7332,"004":7333,"006":7334,"0035":7335,"0033":7336,"00085":7337,"Ġconver":7338,"211":7339,"2141":7340,"2106":7341,"2148":7342,"2118":7343,"2192":7344,"und":7345,"unl":7346,"Ġrc":7347,"Ġrf":7348,"Ġrg":7349,"Ġrh":7350,"Ġrk":7351,"Ġrp":7352,"Ġrr":7353,"Ġrs":7354,"Ġselected":7355,"1188":7356,"1160":7357,"1110":7358,"1108":7359,"1152":7360,"1144":7361,"1149":7362,"1193":7363,"1197":7364,"1165":7365,"Ġ738":7366,"Ġ718":7367,"Ġallen":7368,"iaj":7369,"Ġtwice":7370,"Ġcob":7371,"2417":7372,"2408":7373,"2452":7374,"2436":7375,"2445":7376,"2444":7377,"2442":7378,"2478":7379,"2471":7380,"2473":7381,"2462":7382,"2475":7383,"2432565":7384,"5815":7385,"5849":7386,"5869":7387,"5884":7388,"5863":7389,"Ġsouthside":7390,"jos":7391,"Ġ800":7392,"510":7393,"5100":7394,"5167":7395,"5163":7396,"51603":7397,"Ġuniver":7398,"Ġuncertain":7399,"Ġunless":7400,"Ġunique":7401,"Ġ67":7402,"Ġ623":7403,"lyl":7404,"Ġmajor":7405,"Ġabkff":7406,"6633":7407,"6668":7408,"6673":7409,"6698":7410,"6662":7411,"Ġ93":7412,"Ġja":7413,"Ġjb":7414,"Ġjd":7415,"Ġjg":7416,"Ġjak":7417,"Ġjjwe":7418,"301":7419,"304":7420,"308":7421,"3066":7422,"3052":7423,"3078":7424,"ightly":7425,"Ġ114":7426,"070":7427,"073":7428,"0757":7429,"0755":7430,"0768":7431,"0767":7432,"luw":7433,"luck":7434,"Ġifhs":7435,"Ġifxp":7436,"Ġhasn":7437,"Ġasbury":7438,"Ġashely":7439,"2016":7440,"2069":7441,"2098":7442,"174":7443,"175":7444,"176":7445,"1764":7446,"1784":7447,"5060":7448,"5057":7449,"5032":7450,"50505":7451,"Ġdiffer":7452,"881":7453,"884":7454,"8899":7455,"8863":7456,"8873":7457,"8893":7458,"8805":7459,"Ġacron":7460,"544":7461,"547":7462,"5412":7463,"5410":7464,"5408":7465,"5436":7466,"5433":7467,"5496":7468,"wek":7469,"weqk":7470,"Ġenjoyable":7471,"Ġyh":7472,"Ġyq":7473,"Ġys":7474,"Ġyon":7475,"Ġywn":7476,"Ġyrip":7477,"Ġyip":7478,"Ġyff":7479,"Ġysv":7480,"Ġ168":7481,"Ġ1630":7482,"Ġ1610":7483,"609":7484,"6011":7485,"6024":7486,"6088":7487,"6027":7488,"6016":7489,"6037":7490,"6096":7491,"2958":7492,"2952":7493,"2941":7494,"2919":7495,"2913":7496,"2999":7497,"2969":7498,"Ġ125":7499,"101":7500,"103":7501,"1030":7502,"1088":7503,"1039":7504,"1044":7505,"1037":7506,"1086":7507,"1047":7508,"1062":7509,"zzny":7510,"zzgl":7511,"089":7512,"0823":7513,"0822":7514,"Ġqo":7515,"Ġqw":7516,"Ġqx":7517,"Ġqit":7518,"Ġqmy":7519,"Ġqlk":7520,"Ġqsn":7521,"Ġqlm":7522,"Ġsometime":7523,"Ġ1414":7524,"Ġboard":7525,"159":7526,"1521":7527,"1550":7528,"1534":7529,"1590":7530,"1528":7531,"1562":7532,"5287":7533,"5273":7534,"5285":7535,"5936":7536,"5906":7537,"5971":7538,"409":7539,"4017":7540,"4068":7541,"4096":7542,"2759":7543,"2709":7544,"2755":7545,"2713":7546,"2776":7547,"4615":7548,"463830":7549,"462432565":7550,"Ġmakes":7551,"399":7552,"3940":7553,"3922":7554,"3999":7555,"3969":7556,"3973":7557,"3904":7558,"ids":7559,"3566":7560,"3564":7561,"3451":7562,"3466":7563,"3420":7564,"3433":7565,"3447":7566,"34356":7567,"Ġ180":7568,"Ġalyesbray":7569,"416":7570,"4144":7571,"4161":7572,"013":7573,"0139":7574,"0168":7575,"0192":7576,"5717":7577,"5749":7578,"5762":7579,"5793":7580,"5797":7581,"3212":7582,"3259":7583,"Ġ206":7584,"Ġpizzaria":7585,"437":7586,"4300":7587,"4351":7588,"4346":7589,"4387":7590,"4389":7591,"4376":7592,"902":7593,"9024":7594,"9030":7595,"9033":7596,"90257":7597,"uey":7598,"Ġcustom":7599,"5611":7600,"5688":7601,"5613":7602,"5649":7603,"5648":7604,"5678":7605,"5626":7606,"5670":7607,"5691":7608,"cheap":7609,"check":7610,"804":7611,"8054":7612,"8036":7613,"8044":7614,"368":7615,"3624":7616,"3634":7617,"362974":7618,"pyo":7619,"4553":7620,"45339":7621,"3873":7622,"192":7623,"1911":7624,"1955":7625,"1978":7626,"ogbr":7627,"bud":7628,"clubs":7629,"nom":7630,"163":7631,"164":7632,"165":7633,"1656":7634,"0916":7635,"0998":7636,"0992":7637,"09147":7638,"Ġlookup":7639,"5312":7640,"5370":7641,"879":7642,"8724":7643,"8762":7644,"Ġproceed":7645,"063":7646,"0615":7647,"0638":7648,"0644":7649,"0677":7650,"0678":7651,"0672":7652,"5511":7653,"5558":7654,"5538":7655,"feq":7656,"4266":7657,"4250":7658,"4280":7659,"sof":7660,"ggn":7661,"neq":7662,"mac":7663,"774":7664,"7759":7665,"7727":7666,"7706":7667,"7744":7668,"7768":7669,"7776":7670,"7763":7671,"7747":7672,"7785":7673,"1339":7674,"1336":7675,"138056":7676,"Ġyello":7677,"Ġditto":7678,"492":7679,"4977":7680,"4992":7681,"Ġ01223358399":7682,"Ġzg":7683,"Ġzi":7684,"Ġzp":7685,"Ġzq":7686,"Ġzu":7687,"Ġzw":7688,"Ġzxi":7689,"Ġzmg":7690,"Ġzcr":7691,"Ġzdt":7692,"Ġzvf":7693,"281":7694,"282":7695,"2851":7696,"2850":7697,"2815":7698,"2840":7699,"2833":7700,"2831":7701,"abqg":7702,"485":7703,"4800":7704,"4829":7705,"4840":7706,"4836":7707,"4813":7708,"4899":7709,"4861":7710,"addensbrookes":7711,"Ġweds":7712,"785":7713,"789":7714,"7852":7715,"7834":7716,"7864":7717,"1830":7718,"1817":7719,"1842":7720,"1849":7721,"1864":7722,"18620":7723,"suh":7724,"suq":7725,"suagg":7726,"267":7727,"2634":7728,"2656":7729,"2636":7730,"2687":7731,"2677":7732,"2625":7733,"2673":7734,"26339":7735,"7940":7736,"7935":7737,"7943":7738,"7978":7739,"7979":7740,"Ġtelling":7741,"3339":7742,"epk":7743,"epn":7744,"Ġ331":7745,"quu":7746,"udn":7747,"2521":7748,"Ġfunk":7749,"gdibp":7750,"gdbza":7751,"Ġxf":7752,"Ġxh":7753,"Ġxl":7754,"Ġxn":7755,"Ġxr":7756,"Ġxz":7757,"Ġxpe":7758,"Ġxdy":7759,"Ġxfd":7760,"Ġxgbq":7761,"mwg":7762,"mwp":7763,"mwr":7764,"ipf":7765,"3730":7766,"3735":7767,"3780":7768,"3736":7769,"3787":7770,"3765":7771,"3703":7772,"897":7773,"8954":7774,"8935":7775,"ynw":7776,"Ġhuts":7777,"6457":7778,"6456":7779,"Ġbistros":7780,"9911":7781,"9942":7782,"9999":7783,"9997":7784,"1412":7785,"1400":7786,"1490":7787,"1477":7788,"1472":7789,"1475":7790,"wik":7791,"7043":7792,"703476":7793,"6823":7794,"68321":7795,"ugq":7796,"Ġparace":7797,"afp":7798,"afs":7799,"6958":7800,"6908":7801,"6980":7802,"6919":7803,"6913":7804,"Ġ247877":7805,"Ġ07912":7806,"Ġ07951":7807,"Ġ07908":7808,"Ġ07957":7809,"Ġ07980":7810,"Ġ07916":7811,"Ġ07987":7812,"Ġ07976":7813,"Ġ079410":7814,"Ġ079449":7815,"Ġ079394":7816,"Ġ07918620":7817,"8659":7818,"8627":7819,"8653":7820,"8699":7821,"8674":7822,"Ġkinda":7823,"7151":7824,"myg":7825,"myx":7826,"myrl":7827,"Ġ07634":7828,"Ġ07643":7829,"Ġ07625":7830,"Ġ07699":7831,"Ġ07674":7832,"Ġ076199":7833,"Ġ076468":7834,"Ġ076359":7835,"Ġ076362974":7836,"dyj":7837,"dyt":7838,"7634":7839,"7653":7840,"7671":7841,"xbf":7842,"xby":7843,"ohdj":7844,"Ġ01223355909":7845,"8466":7846,"8420":7847,"Ġ0775":7848,"Ġ07700":7849,"Ġ07730":7850,"Ġ07760":7851,"Ġ07740":7852,"Ġ07736":7853,"Ġ07738":7854,"Ġ07733":7855,"Ġ077466":7856,"Ġ077378":7857,"Ġ0771027":7858,"gladly":7859,"Ġ367660":7860,"kyz":7861,"961":7862,"9611":7863,"9688":7864,"9641":7865,"9680":7866,"9616":7867,"9644":7868,"9678":7869,"shc":7870,"zbr":7871,"zbt":7872,"zbnkz":7873,"7223":7874,"7257":7875,"oyk":7876,"ahm":7877,"aeg":7878,"3190":7879,"3187":7880,"673":7881,"6741":7882,"6725":7883,"Ġ2800":7884,"Ġ2828":7885,"Ġ356666":7886,"Ġ356060":7887,"Ġ07835":7888,"Ġ07857":7889,"Ġ078558":7890,"Ġ01223217450":7891,"Ġ01223217671":7892,"6310":7893,"6313":7894,"473":7895,"4758":7896,"4708":7897,"4757":7898,"lnx":7899,"hih":7900,"Ġtraveller":7901,"2402":7902,"Ġbrassiere":7903,"7310":7904,"dpb":7905,"dpu":7906,"9835":7907,"9831":7908,"odsgj":7909,"nyhs":7910,"9187":7911,"Ġ07021":7912,"Ġ07058":7913,"Ġ07029":7914,"Ġ07015":7915,"Ġ070552":7916,"Ġ0704379":7917,"9424":7918,"9460":7919,"9427":7920,"9445":7921,"9487":7922,"7420":7923,"Ġ5636":7924,"9226":7925,"9225":7926,"Ġclosely":7927,"Ġwanna":7928,"Ġrides":7929,"Ġeatery":7930,"Ġducking":7931,"6224":7932,"kwt":7933,"williams":7934,"xtp":7935,"8260":7936,"8255":7937,"dqz":7938,"Ġ07451":7939,"Ġ07407":7940,"Ġ07439":7941,"Ġ074247":7942,"Ġ0742054":7943,"Ġ074218":7944,"Ġbotanical":7945,"jsq":7946,"jsr":7947,"gljed":7948,"9332":7949,"Ġnearly":7950,"Ġtech":7951,"Ġteenage":7952,"Ġ2929":7953,"2361":7954,"ixg":7955,"ixj":7956,"2333057":7957,"0466":7958,"0415":7959,"0440":7960,"0471":7961,"9724":7962,"9732":7963,"psd":7964,"psy":7965,"psgf":7966,"frx":7967,"frzlr":7968,"dwv":7969,"sitive":7970,"Ġtimeslot":7971,"dzw":7972,"dzgma":7973,"qfy":7974,"bdj":7975,"tzh":7976,"uyv":7977,"Ġslightly":7978,"Ġ0122336661":7979,"moz":7980,"Ġ07323":7981,"Ġ07321":7982,"Ġ07359":7983,"Ġ07346":7984,"Ġ07334":7985,"Ġ073599":7986,"ppd":7987,"igs":7988,"Ġ01223324351":7989,"hyb":7990,"skic":7991,"singly":7992,"rqr":7993,"8135":7994,"aww":7995,"Ġ01223274222":7996,"3889":7997,"pxr":7998,"0378":7999,"hxg":8000,"hxk":8001,"01223353":8002,"01223334":8003,"8604":8004,"jev":8005,"jff":8006,"kvn":8007,"kvjv":8008,"nfd":8009,"nty":8010,"Ġ01233":8011,"Ġ01462432565":8012,"2575401":8013,"jjd":8014,"jjn":8015,"wyt":8016,"....":8017,"1120":8018,"goi":8019,"tlc":8020,"tlw":8021,"Ġroutes":8022,"qypsgf":8023,"Ġ07520":8024,"lox":8025,"lock":8026,"svf":8027,"omk":8028,"pdt":8029,"pmq":8030,"pmu":8031,"39758":8032,"twa":8033,"Ġeighteen":8034,"1542":8035,"1546":8036,"gmv":8037,"htb":8038,"Ġ07123":8039,"Ġ07130":8040,"Ġ07140":8041,"Ġ07146":8042,"jvd":8043,"jvt":8044,"uwf":8045,"zqv":8046,"cvh":8047,"Ġ07212":8048,"Ġ07207":8049,"huxe":8050,"njh":8051,"njn":8052,"nrce":8053,"cwd":8054,"qsq":8055,"qwr":8056,"rfm":8057,"rft":8058,"rfjq":8059,"zwp":8060,"Ġterms":8061,"Ġ07880":8062,"btn":8063,"bts":8064,"jmto":8065,"ocx":8066,"prisingly":8067,"vmj":8068,"vmt":8069,"vmx":8070,"Ġclarification":8071,"2211":8072,"3547":8073,"biq":8074,"fwj":8075,"xyh":8076,"zcf":8077,"bnbr":8078,"izi":8079,"jkm":8080,"vbm":8081,"zkz":8082,"Ġbuddha":8083,"Ġbuisne":8084,"Ġofferings":8085,"diw":8086,"yrzn":8087,"55225":8088,"ijp":8089,"iju":8090,"ljghn":8091,"tbm":8092,"vhb":8093,"vhj":8094,"vhw":8095,"Ġstyles":8096,"Ġ566188":8097,"Ġ07306":8098,"Ġ0730458":8099,"ewg":8100,"ewq":8101,"gnb":8102,"Ġaccept":8103,"Ġsaying":8104,"cji":8105,"cjz":8106,"wki":8107,"zmv":8108,"zym":8109,"12603":8110,"Ġ012232564":8111,"8519":8112,"cmh":8113,"jdc":8114,"rvy":8115,"vcf":8116,"wdraa":8117,"Ġ075852":8118,"php":8119,"qee":8120,"sfh":8121,"smh":8122,"vql":8123,"churchhill":8124,"Ġregardless":8125,"1873":8126,"rxz":8127,"wmd":8128,"wmr":8129,"zlg":8130,"Ġ0746915":8131,"Ġ07462575401":8132,"hkc":8133,"hkr":8134,"minton":8135,"hqvd":8136,"kpv":8137,"uvz":8138,"Ġ075407":8139,"Ġ070809":8140,"Ġ0122350333":8141,"6162":8142,"8431":8143,"vytsi":8144,"xcd":8145,"Ġ0756247":8146,"oeik":8147,"Ġ07263703":8148,"6799":8149,"9012325":8150,"puq":8151,"oiwki":8152,"Ġfarewell":8153,"Ġ07121756":8154,"1809":8155,"4076":8156,"4078":8157,"90366":8158,"Ġrestauran":8159,"Ġ0757463830":8160,"3304":8161,"3173":8162,"number":8163,"tvyr":8164,"Ġ07389012325":8165,"Ġ070642":8166,"Ġ0789839":8167,"Ġimmedi":8168,"Ġ074040":8169,"6203":8170,"6572":8171,"8285":8172,"like":8173,"Ġdelay":8174,"8177":8175,"9083":8176,"9805":8177,"9383":8178,"9384":8179,"9386":8180,"ssed":8181,"Ġfollows":8182,"Ġ071013":8183,"Ġhalf":8184,"3515":8185,"3197":8186,"7542":8187,"8089":8188,"9588":8189,"9891":8190,"Ġ07669":8191,"Ġ07137":8192,"fui":8193,"Ġtours":8194,"Ġcancer":8195,"4106":8196,"7692":8197,"9495":8198,"dkt":8199,"looks":8200,"wxesp":8201,"yxaw":8202,"Ġ07862333057":8203,"Ġzkogbr":8204,"26151603":8205,"Ġ072298":8206,"Ġconcerns":8207,"4204":8208,"4549":8209,"6549":8210,"6419":8211,"6763":8212,"Ġmnkwt":8213,"Ġeclect":8214,"Ġ01223596055":8215,"Ġ076400":8216,"545456":8217,"28007":8218,"3128":8219,"0497":8220,"5365":8221,"7578":8222,"Ġreasonable":8223,"Ġuzfw":8224,"Ġ07289":8225,"Ġ07845910":8226,"34136":8227,"Ġclinical":8228,"reservations":8229,"Ġaccomodate":8230,"8364":8231,"Ġreccomend":8232,"Ġhandful":8233,"Ġservers":8234,"Ġhistorical":8235,"01223245151":8236,"1584":8237,"4344":8238,"5389":8239,"7409":8240,"9179":8241,"Ġftvoq":8242,"Ġwishes":8243,"Ġwished":8244,"Ġexists":8245,"Ġ1223316074":8246,"Ġxmcht":8247,"Ġ07924138056":8248,"Ġ077226339":8249,"Ġ01223217712":8250,"Ġsituation":8251,"Ġsituated":8252,"Ġproperty":8253,"Ġproperties":8254,"Ġ01223256650":8255,"Ġ01223256645":8256,"Ġwallet":8257,"Ġavaialble":8258,"Ġdecisions":8259,"8495":8260,"bmgni":8261,"friendly":8262,"panahar":8263,"Ġajte":8264,"optional":8265,"Ġnighclubs":8266,"Ġprior":8267,"Ġattempt":8268,"Ġ01223257168":8269,"Ġ075554":8270,"Ġcontinue":8271,"586609":8272,"Ġaboard":8273,"Ġ07621703476":8274,"Ġ07648586609":8275,"Ġ0741190257":8276,"Ġluxury":8277,"Ġ07330545456":8278,"Ġ01223256166":8279,"Ġ07998934356":8280,"Ġhungtington":8281,"Ġvacancy":8282,"michaelhouse":8283,"ugese":8284,"Ġaddenbrook":8285,"Ġpreferable":8286,"Ġbuildings":8287,"7177":8288,"bifd":8289,"eelpu":8290,"fgdre":8291,"ikvz":8292,"kcvthj":8293,"personally":8294,"splt":8295,"toyzuy":8296,"tdbiju":8297,"uddov":8298,"Ġaebkvjv":8299,"Ġcitiroom":8300,"Ġcigyxaw":8301,"Ġnghd":8302,"Ġnineteen":8303,"Ġbtts":8304,"Ġbloomsb":8305,"Ġixezzny":8306,"Ġglbnk":8307,"Ġmutliple":8308,"Ġmxmohdj":8309,"Ġmqrgdbza":8310,"Ġlmabmgni":8311,"Ġlxmfrzlr":8312,"Ġflexible":8313,"Ġfabulous":8314,"Ġfgom":8315,"arzytlc":8316,"Ġsolid":8317,"Ġtrauma":8318,"Ġchildren":8319,"Ġeopokff":8320,"Ġitinerary":8321,"Ġthousand":8322,"Ġ01223360409":8323,"Ġ0122334900":8324,"Ġkciwxesp":8325,"Ġksfskic":8326,"Ġkhbljghn":8327,"Ġview":8328,"Ġversa":8329,"Ġmintues":8330,"Ġmajority":8331,"Ġjjweo":8332,"Ġifhsyrzn":8333,"Ġifxpnyhs":8334,"Ġyffshc":8335,"Ġysvsly":8336,"Ġqsnsuagg":8337,"Ġcustomer":8338,"Ġzvftq":8339,"Ġxdyjmto":8340,"Ġxgbqhc":8341,"Ġ07918620184":8342,"Ġ07619968321":8343,"Ġ07636297454":8344,"Ġ07737828007":8345,"Ġ07710275649":8346,"Ġ07855855225":8347,"Ġ07043795737":8348,"Ġ07420542713":8349,"gljedpz":8350,"qypsgfh":8351,"huxeuz":8352,"Ġbuisness":8353,"Ġ07304585611":8354,"Ġ01223256459":8355,"Ġ07469156027":8356,"vytsij":8357,"Ġ07562472408":8358,"Ġ07263703306":8359,"Ġ07121756826":8360,"Ġ07574638307":8361,"Ġ07898395762":8362,"Ġimmediately":8363,"Ġzkogbrmr":8364,"Ġeclectic":8365,"Ġ07845910981":8366,"Ġftvoqphp":8367,"Ġ07722633912":8368,"Ġ07411902572":8369,"Ġcitiroomz":8370,"Ġixezznyl":8371,"!)":8372,"!.":8373,"0277":8374,"287":8375,"3279":8376,"8202":8377,"9236":8378,"aar":8379,"blue":8380,"every":8381,"find":8382,"gca":8383,"han":8384,"hood":8385,"hughes":8386,"ien":8387,"iest":8388,"ide":8389,"ias":8390,"ises":8391,"jured":8392,"london":8393,"mation":8394,"nic":8395,"now":8396,"rounding":8397,"sat":8398,"sot":8399,"tel":8400,"tot":8401,"tit":8402,"tes":8403,"tell":8404,"uu":8405,"ude":8406,"uate":8407,"vest":8408,"vak":8409,"want":8410,"yell":8411,"zuc":8412,"Ġ$":8413,"Ġ+":8414,"ined":8415,"Ġtll":8416,"ens":8417,"Ġincre":8418,"Ġinjured":8419,"Ġaut":8420,"Ġawh":8421,"Ġaim":8422,"Ġawa":8423,"Ġambridge":8424,"ics":8425,"ication":8426,"icient":8427,"entry":8428,"ently":8429,"entertainment":8430,"rating":8431,"raving":8432,"starting":8433,"Ġcn":8434,"Ġchat":8435,"Ġcde":8436,"Ġcraving":8437,"Ġrenown":8438,"Ġrecomend":8439,"Ġnc":8440,"Ġbn":8441,"Ġbound":8442,"Ġbase":8443,"Ġbbq":8444,"Ġill":8445,"Ġibi":8446,"Ġpap":8447,"Ġpint":8448,"oos":8449,"Ġhs":8450,"Ġhu":8451,"Ġhous":8452,"Ġgoo":8453,"Ġgue":8454,"Ġmon":8455,"Ġmotel":8456,"ather":8457,"vera":8458,"Ġlb":8459,"Ġld":8460,"Ġlab":8461,"Ġlines":8462,"Ġinformat":8463,"Ġdan":8464,"mbe":8465,"rand":8466,"sec":8467,"Ġtoward":8468,"thre":8469,"Ġfro":8470,"Ġfil":8471,"Ġfill":8472,"Ġfond":8473,"Ġfilled":8474,"Ġnumbe":8475,"Ġshe":8476,"ged":8477,"ges":8478,"Ġov":8479,"Ġodd":8480,"rig":8481,"rike":8482,"Ġoften":8483,"ces":8484,"Ġtraining":8485,"lev":8486,"ede":8487,"ctuate":8488,"Ġcharm":8489,"Ġhavea":8490,"Ġwild":8491,"Ġlive":8492,"Ġliek":8493,"itude":8494,"Ġstun":8495,"Ġstrot":8496,"Ġstrike":8497,"Ġliked":8498,"Ġlikewise":8499,"peci":8500,"Ġarr":8501,"deb":8502,"Ġcentere":8503,"Ġeg":8504,"Ġeaf":8505,"Ġtypo":8506,"Ġadded":8507,"Ġdoor":8508,"Ġhep":8509,"Ġtrick":8510,"Ġpositive":8511,"Ġ01223596":8512,"imeters":8513,"Ġtalk":8514,"Ġguestroom":8515,"Ġguesthome":8516,"als":8517,"Ġcbr":8518,"Ġpostco":8519,"Ġtownsh":8520,"Ġmegh":8521,"Ġmeghan":8522,"ends":8523,"ended":8524,"Ġcheers":8525,"sid":8526,"six":8527,"sider":8528,"sidney":8529,"Ġut":8530,"Ġuu":8531,"utes":8532,"cho":8533,"chy":8534,"chinese":8535,"houses":8536,"Ġ324":8537,"adress":8538,"adoux":8539,"urgery":8540,"aster":8541,"Ġlocale":8542,"Ġsus":8543,"Ġvk":8544,"Ġvia":8545,"Ġvag":8546,"Ġcityrooms":8547,"Ġ07236":8548,"Ġgooday":8549,"Ġpreci":8550,"ified":8551,"0087":8552,"uming":8553,"unit":8554,"unfortun":8555,"unication":8556,"iliar":8557,"Ġcaridge":8558,"Ġcover":8559,"Ġuser":8560,"Ġ:)":8561,"Ġentre":8562,"Ġentire":8563,"Ġentered":8564,"Ġunaw":8565,"Ġshown":8566,"Ġabd":8567,"Ġassign":8568,"Ġjra":8569,"Ġavail":8570,"ightful":8571,"0742":8572,"0714":8573,"Ġtravelers":8574,"Ġindust":8575,"Ġsign":8576,"5476":8577,"ams":8578,"ardon":8579,"Ġyi":8580,"Ġ1600":8581,"Ġbutter":8582,"295":8583,"2965":8584,"105":8585,"ussed":8586,"Ġqh":8587,"Ġcritera":8588,"Ġknew":8589,"Ġchestert":8590,"Ġcouldnt":8591,"osphere":8592,"Ġmarvel":8593,"Ġalter":8594,"trinity":8595,"Ġfourteen":8596,"9062":8597,"Ġperimeters":8598,"ema":8599,"Ġnewest":8600,"Ġspending":8601,"some":8602,"Ġhuntingdo":8603,"Ġblast":8604,"jgi":8605,"Ġzizi":8606,"Ġstarted":8607,"2823":8608,"oodles":8609,"architecture":8610,"Ġ...":8611,"cial":8612,"Ġchanging":8613,"alrighty":8614,"Ġadmissions":8615,"ipt":8616,"Ġapart":8617,"Ġdepartments":8618,"6454":8619,"afr":8620,"Ġinfomation":8621,"Ġkindly":8622,"Ġswim":8623,"Ġunsuccesful":8624,"hns":8625,"Ġ07720":8626,"Ġ07726151603":8627,"shiraz":8628,"Ġjob":8629,"Ġjoint":8630,"3149":8631,"Ġquesthouse":8632,"6354":8633,"lnf":8634,"7329":8635,"ghest":8636,"Ġscudamore":8637,"ructions":8638,"Ġdescri":8639,"Ġoffice":8640,"many":8641,"0427":8642,"Ġinstructions":8643,"Ġopened":8644,"lets":8645,"Ġshopping":8646,"Ġlasting":8647,"igo":8648,"awa":8649,"Ġslots":8650,"Ġveg":8651,"Ġconsist":8652,"0339":8653,"012233":8654,"0122357":8655,"01223464646":8656,"hold":8657,"Ġcruises":8658,"Ġ011223":8659,"Ġlearn":8660,"Ġcloses":8661,"Ġcharged":8662,"Ġcaffee":8663,"christs":8664,"ciences":8665,"hills":8666,"lovely":8667,"clowns":8668,"Ġfamiliar":8669,"Ġamenity":8670,"parking":8671,"Ġsorts":8672,"consider":8673,"Ġrecord":8674,"Ġpurchased":8675,"Ġregards":8676,"Ġdesire":8677,"minutes":8678,"Ġmeans":8679,"Ġexperien":8680,"Ġcategories":8681,"Ġsending":8682,"Ġlocals":8683,"Ġdelightful":8684,"Ġcommuting":8685,"Ġmisin":8686,"Ġlowest":8687,"Ġconvenience":8688,"Ġsurprisingly":8689,"Ġsurrounding":8690,"rict":8691,"cessful":8692,"Ġpulls":8693,"Ġconveniently":8694,"Ġattend":8695,"Ġdrive":8696,"Ġanswered":8697,"Ġrestaraunts":8698,"0244":8699,"9263":8700,"Ġmeantime":8701,"357708":8702,"Ġcancelled":8703,"Ġsufficient":8704,"Ġaccomodation":8705,"Ġaccomodations":8706,"Ġhighest":8707,"01223243830":8708,"Ġmisunderstanding":8709,"Ġrestuarants":8710,"Ġformal":8711,"Ġwalk":8712,"Ġdecision":8713,"moderat":8714,"Ġarive":8715,"Ġreferring":8716,"Ġmixed":8717,"leaves":8718,"Ġtasty":8719,"Ġsupply":8720,"Ġsuppose":8721,"Ġdiscussed":8722,"Ġdifficulty":8723,"Ġdifficulties":8724,"Ġreturned":8725,"Ġglitch":8726,"Ġlcoated":8727,"Ġfluctuate":8728,"Ġatmosphere":8729,"Ġespeci":8730,"Ġkidding":8731,"Ġwhole":8732,"Ġgastroenterology":8733,"01223210353":8734,"01223302010":8735,"Ġspecializes":8736,"Ġneurosciences":8737,"Ġimpressive":8738,"Ġeconomically":8739,"Ġresearch":8740,"Ġreceipt":8741,"Ġremainder":8742,"Ġbankok":8743,"Ġthoughts":8744,"Ġneighbor":8745,"Ġorigin":8746,"Ġsearches":8747,"Ġconvers":8748,"undant":8749,"Ġuniveristy":8750,"Ġdiffernt":8751,"Ġsometimes":8752,"Ġaddenbrooks":8753,"yellow":8754,"Ġrenowned":8755,"Ġpapadoux":8756,"Ġpinto":8757,"Ġdancing":8758,"Ġstunning":8759,"Ġstrotford":8760,"Ġguesthomes":8761,"Ġtownship":8762,"Ġprecise":8763,"Ġunaware":8764,"Ġassigned":8765,"Ġbutterfly":8766,"Ġmarvelous":8767,"Ġexperiencing":8768,"Ġespecially":8769,"\",":8770,"\"?":8771,"'.":8772,"(?":8773,",.":8774,",?":8775,".?":8776,"023":8777,"058":8778,"051":8779,"066":8780,"088":8781,"015":8782,"039":8783,"057":8784,"055":8785,"028":8786,"033":8787,"031":8788,"0279":8789,"0236":8790,"0397":8791,"0104":8792,"02010":8793,"0292":8794,"0583":8795,"0662":8796,"0393":8797,"0283":8798,"0667":8799,"0579":8800,"0605":8801,"0449":8802,"0275":8803,"0469":8804,"0537":8805,"0904":8806,"0176":8807,"0609":8808,"151":8809,"130":8810,"136":8811,"148":8812,"1660":8813,"1402":8814,"1382":8815,"14600":8816,"1238":8817,"15015":8818,"1404":8819,"1903":8820,"1393":8821,"13577":8822,"1328":8823,"1392":8824,"1419":8825,"14828":8826,"220":8827,"2236":8828,"2274":8829,"2504":8830,"2526":8831,"22725":8832,"2293":8833,"2568988":8834,"2569":8835,"2887":8836,"2870":8837,"2589":8838,"350":8839,"310":8840,"340":8841,"327":8842,"318":8843,"379":8844,"3237":8845,"3660":8846,"3210":8847,"3111":8848,"3504":8849,"3355":8850,"3292":8851,"3245":8852,"3501":8853,"3209":8854,"3126":8855,"3102":8856,"3246":8857,"3206":8858,"3108":8859,"3234":8860,"3183":8861,"430":8862,"450":8863,"441":8864,"457":8865,"4966":8866,"471":8867,"4888":8868,"472":8869,"4906":8870,"4274":8871,"4210":8872,"4178":8873,"45015":8874,"4209":8875,"4230":8876,"4218":8877,"4564":8878,"4886":8879,"4603":8880,"4414":8881,"4803":8882,"4909":8883,"4792":8884,"4249":8885,"4905":8886,"47769":8887,"4902":8888,"523":8889,"539":8890,"553":8891,"5353":8892,"5124":8893,"5580":8894,"55017":8895,"5216":8896,"5245":8897,"5502":8898,"5076":8899,"52042":8900,"52098":8901,"607":8902,"627":8903,"632":8904,"690":8905,"680":8906,"645":8907,"638":8908,"687":8909,"655":8910,"644":8911,"626":8912,"625":8913,"637":8914,"689":8915,"622":8916,"670":8917,"671":8918,"631":8919,"6240":8920,"6516":8921,"6906":8922,"6270":8923,"62456":8924,"6880":8925,"6413":8926,"6309":8927,"6564":8928,"6898":8929,"6806":8930,"6072":8931,"64256":8932,"6125":8933,"65694":8934,"6496":8935,"65866":8936,"6881":8937,"6159":8938,"712":8939,"700":8940,"711":8941,"720":8942,"727":8943,"746":8944,"736":8945,"753":8946,"748":8947,"733":8948,"722":8949,"731":8950,"7397":8951,"7598":8952,"7178":8953,"7509":8954,"7277":8955,"752500":8956,"7467":8957,"7526":8958,"7494":8959,"7564":8960,"7519":8961,"7438":8962,"7569":8963,"7406":8964,"7909":8965,"7298":8966,"7156":8967,"7001":8968,"7372":8969,"7376":8970,"7013":8971,"75648":8972,"800":8973,"824":8974,"850":8975,"854":8976,"829":8977,"810":8978,"840":8979,"835":8980,"841":8981,"857":8982,"856":8983,"845":8984,"853":8985,"8966":8986,"813":8987,"822":8988,"831":8989,"8511":8990,"8233":8991,"8517":8992,"8208":8993,"8598":8994,"8238":8995,"8118":8996,"8580":8997,"8390":8998,"8131":8999,"8184":9000,"8239":9001,"8293":9002,"8230":9003,"8569":9004,"8121":9005,"8206":9006,"8531":9007,"82130":9008,"8542":9009,"8574":9010,"8373":9011,"8244":9012,"8297":9013,"8372":9014,"8665":9015,"923":9016,"921":9017,"952":9018,"927":9019,"946":9020,"932":9021,"936":9022,"945":9023,"913":9024,"918":9025,"925":9026,"964":9027,"968":9028,"931":9029,"947":9030,"9100":9031,"9149":9032,"9110":9033,"9525":9034,"9077":9035,"9296":9036,"9404":9037,"9518":9038,"9131":9039,"9494":9040,"92094":9041,"9199":9042,"9468":9043,"9283":9044,"9765":9045,"9395":9046,"9246":9047,"9414":9048,"9275":9049,"94284":9050,"91827":9051,"9376":9052,"9693":9053,"9547":9054,"ahe":9055,"aor":9056,"amb":9057,"aot":9058,"aed":9059,"ade":9060,"amm":9061,"aow":9062,"aai":9063,"aos":9064,"afi":9065,"afo":9066,"aue":9067,"aem":9068,"awi":9069,"aaf":9070,"axb":9071,"aav":9072,"aac":9073,"aax":9074,"auy":9075,"auel":9076,"aup":9077,"aoe":9078,"aava":9079,"augq":9080,"ajsr":9081,"ajjn":9082,"acial":9083,"ber":9084,"bing":9085,"bat":9086,"bge":9087,"bco":9088,"bll":9089,"bad":9090,"bxi":9091,"bta":9092,"bcce":9093,"bck":9094,"bog":9095,"bno":9096,"bag":9097,"bci":9098,"bvo":9099,"bze":9100,"bmy":9101,"bky":9102,"bzb":9103,"bah":9104,"bae":9105,"baq":9106,"btt":9107,"billies":9108,"bib":9109,"bgl":9110,"brh":9111,"btu":9112,"bbw":9113,"big":9114,"bkv":9115,"bho":9116,"bqy":9117,"btq":9118,"bfw":9119,"brl":9120,"bbn":9121,"bhs":9122,"bkf":9123,"brt":9124,"bvq":9125,"bcc":9126,"brx":9127,"blc":9128,"bvl":9129,"bvs":9130,"bvu":9131,"blt":9132,"blho":9133,"bstnz":9134,"birg":9135,"bhtb":9136,"brft":9137,"bcji":9138,"cen":9139,"cst":9140,"came":9141,"cwn":9142,"cch":9143,"cul":9144,"cur":9145,"cif":9146,"cus":9147,"czz":9148,"cple":9149,"cso":9150,"cies":9151,"csa":9152,"croomz":9153,"cwh":9154,"csw":9155,"cester":9156,"cna":9157,"cvi":9158,"csh":9159,"cln":9160,"cds":9161,"ccy":9162,"crh":9163,"cdz":9164,"ccina":9165,"crq":9166,"cjb":9167,"cje":9168,"cup":9169,"cjj":9170,"cwy":9171,"cpb":9172,"cqg":9173,"ccu":9174,"cfy":9175,"ccw":9176,"czw":9177,"cqb":9178,"cdt":9179,"czk":9180,"czt":9181,"czf":9182,"ccg":9183,"czm":9184,"cpu":9185,"cxu":9186,"cxj":9187,"cseo":9188,"cutc":9189,"cilv":9190,"ckev":9191,"cpsy":9192,"cpdt":9193,"doo":9194,"dat":9195,"dth":9196,"dla":9197,"dol":9198,"destination":9199,"dai":9200,"dzz":9201,"dpy":9202,"dander":9203,"dci":9204,"dze":9205,"dhn":9206,"dzb":9207,"dka":9208,"dny":9209,"dlh":9210,"drh":9211,"div":9212,"dxh":9213,"dnf":9214,"dtl":9215,"dht":9216,"dtq":9217,"dfy":9218,"duj":9219,"dcg":9220,"dcj":9221,"dvk":9222,"djq":9223,"dvq":9224,"dcc":9225,"dnn":9226,"dkp":9227,"djl":9228,"dvl":9229,"duq":9230,"dlr":9231,"drr":9232,"diaj":9233,"dfwj":9234,"ehe":9235,"eve":9236,"eay":9237,"ece":9238,"ess":9239,"epe":9240,"eet":9241,"eow":9242,"eif":9243,"eum":9244,"ems":9245,"eub":9246,"ebe":9247,"eky":9248,"ezb":9249,"egl":9250,"ecb":9251,"eig":9252,"ejf":9253,"eej":9254,"ezq":9255,"ecl":9256,"eaa":9257,"eqw":9258,"ezw":9259,"ebi":9260,"eqa":9261,"ebn":9262,"eiy":9263,"ebb":9264,"ecc":9265,"ezl":9266,"evw":9267,"eoj":9268,"ebx":9269,"eiry":9270,"ecnl":9271,"eoyk":9272,"fst":9273,"foo":9274,"fan":9275,"fge":9276,"fke":9277,"fed":9278,"fet":9279,"fdd":9280,"free":9281,"fry":9282,"fta":9283,"fir":9284,"fos":9285,"fus":9286,"fbs":9287,"fbu":9288,"fem":9289,"frow":9290,"fmw":9291,"fack":9292,"faf":9293,"fze":9294,"fdy":9295,"fxb":9296,"fza":9297,"ffiti":9298,"flh":9299,"ftt":9300,"fusion":9301,"fact":9302,"frh":9303,"fpt":9304,"fpp":9305,"fcum":9306,"fmg":9307,"fkv":9308,"fpb":9309,"fqy":9310,"fyu":9311,"fjv":9312,"fuw":9313,"fpj":9314,"fbz":9315,"fnj":9316,"fvd":9317,"fbg":9318,"fzw":9319,"fbn":9320,"fdx":9321,"fmp":9322,"fcj":9323,"fux":9324,"fzm":9325,"fcm":9326,"fjq":9327,"fph":9328,"fns":9329,"fau":9330,"ftp":9331,"fua":9332,"fvl":9333,"fzd":9334,"fpc":9335,"fuq":9336,"fcd":9337,"fdv":9338,"fjw":9339,"fkl":9340,"fbx":9341,"fhkr":9342,"gor":9343,"guest":9344,"gouse":9345,"gas":9346,"gis":9347,"gta":9348,"gine":9349,"gun":9350,"gck":9351,"gos":9352,"gzz":9353,"give":9354,"gose":9355,"gbu":9356,"gne":9357,"gci":9358,"gip":9359,"gxb":9360,"gsc":9361,"gah":9362,"gza":9363,"gaq":9364,"gcy":9365,"gtt":9366,"gosa":9367,"gical":9368,"gfl":9369,"gxh":9370,"grq":9371,"gaw":9372,"gwy":9373,"gff":9374,"gcv":9375,"gcu":9376,"gpa":9377,"gbi":9378,"grl":9379,"gzk":9380,"gij":9381,"gvh":9382,"gwk":9383,"gsn":9384,"gyh":9385,"gsf":9386,"gsm":9387,"gcn":9388,"gkp":9389,"gzp":9390,"gzs":9391,"gcf":9392,"grd":9393,"gpc":9394,"gba":9395,"grc":9396,"gfyq":9397,"giaj":9398,"gixg":9399,"grfm":9400,"hst":9401,"hse":9402,"hth":9403,"hri":9404,"hle":9405,"hct":9406,"hwn":9407,"his":9408,"hut":9409,"hir":9410,"hgh":9411,"hil":9412,"hus":9413,"hzz":9414,"hno":9415,"hqq":9416,"hbury":9417,"hko":9418,"hub":9419,"hug":9420,"hsh":9421,"hange":9422,"hrs":9423,"hcb":9424,"huy":9425,"hpp":9426,"hpx":9427,"hjj":9428,"hjy":9429,"hpm":9430,"hpj":9431,"hqg":9432,"hcu":9433,"hfy":9434,"hbg":9435,"hvx":9436,"hzw":9437,"hbt":9438,"hhl":9439,"hrl":9440,"hjk":9441,"hmu":9442,"hcg":9443,"hzy":9444,"hju":9445,"hpf":9446,"hwq":9447,"hzr":9448,"hwo":9449,"hvu":9450,"hzv":9451,"hlac":9452,"hzqe":9453,"ior":9454,"ith":9455,"ihat":9456,"iut":9457,"ixi":9458,"iir":9459,"ium":9460,"iyn":9461,"ihn":9462,"iky":9463,"iosa":9464,"iiv":9465,"iig":9466,"iits":9467,"ijb":9468,"ijx":9469,"ijj":9470,"iyu":9471,"iht":9472,"izq":9473,"iyc":9474,"iik":9475,"ihc":9476,"iuc":9477,"iwv":9478,"ioq":9479,"ioz":9480,"ikoh":9481,"iuli":9482,"iwmr":9483,"ihkc":9484,"jhe":9485,"jer":9486,"joo":9487,"jmb":9488,"jme":9489,"jlp":9490,"jas":9491,"jmm":9492,"jsi":9493,"jir":9494,"jfi":9495,"jid":9496,"jbu":9497,"jda":9498,"jgg":9499,"jjg":9500,"jag":9501,"jsu":9502,"jko":9503,"jci":9504,"jmy":9505,"jsc":9506,"jky":9507,"jsh":9508,"jza":9509,"jka":9510,"jhi":9511,"jdp":9512,"jny":9513,"jaq":9514,"jjs":9515,"jbw":9516,"jnt":9517,"jtl":9518,"jqy":9519,"jpm":9520,"jlx":9521,"juf":9522,"jzq":9523,"jnk":9524,"jzw":9525,"jhs":9526,"jcg":9527,"jcj":9528,"jrt":9529,"jwg":9530,"jns":9531,"jau":9532,"jww":9533,"jhq":9534,"jtx":9535,"jpu":9536,"jrn":9537,"jwhg":9538,"jzqe":9539,"jpyo":9540,"kel":9541,"kmb":9542,"kar":9543,"kle":9544,"klp":9545,"kwn":9546,"kow":9547,"kut":9548,"kir":9549,"kely":9550,"kia":9551,"klu":9552,"kfo":9553,"kind":9554,"kca":9555,"karl":9556,"kbe":9557,"kav":9558,"kds":9559,"kcy":9560,"krs":9561,"kxt":9562,"kdq":9563,"kru":9564,"ktu":9565,"kcb":9566,"kdz":9567,"ktz":9568,"kxh":9569,"kmo":9570,"kig":9571,"ksk":9572,"krq":9573,"knz":9574,"khx":9575,"kje":9576,"kjf":9577,"knf":9578,"ksx":9579,"kjy":9580,"kty":9581,"ktq":9582,"kcl":9583,"kbz":9584,"kcu":9585,"kfy":9586,"kqs":9587,"kfis":9588,"kbi":9589,"kbn":9590,"klj":9591,"kmu":9592,"kzm":9593,"kbh":9594,"kns":9595,"kcn":9596,"kni":9597,"kuv":9598,"kgy":9599,"kuh":9600,"kxc":9601,"kxe":9602,"klm":9603,"kxx":9604,"ktn":9605,"kuq":9606,"kgt":9607,"krn":9608,"kdnb":9609,"kugq":9610,"kzbt":9611,"kjsr":9612,"kqfy":9613,"lin":9614,"lon":9615,"loo":9616,"lat":9617,"lan":9618,"lpe":9619,"lis":9620,"lif":9621,"lun":9622,"lbs":9623,"ltr":9624,"log":9625,"lno":9626,"lsw":9627,"loy":9628,"lsj":9629,"lcy":9630,"lrs":9631,"lby":9632,"liv":9633,"lqf":9634,"lbo":9635,"lrq":9636,"lbj":9637,"lje":9638,"ltl":9639,"ltq":9640,"lcu":9641,"lrf":9642,"lto":9643,"lbi":9644,"lzn":9645,"lvk":9646,"lwm":9647,"lww":9648,"lii":9649,"lva":9650,"lwl":9651,"lvt":9652,"lmyl":9653,"ljxx":9654,"lrym":9655,"lqwr":9656,"mer":9657,"mse":9658,"mri":9659,"mark":9660,"mut":9661,"mir":9662,"mely":9663,"mand":9664,"mda":9665,"mqq":9666,"mway":9667,"mko":9668,"mip":9669,"myn":9670,"mna":9671,"mvi":9672,"mcy":9673,"mkw":9674,"mib":9675,"mrh":9676,"mcb":9677,"mix":9678,"mfr":9679,"muse":9680,"mtz":9681,"mrq":9682,"mgx":9683,"mjx":9684,"mhg":9685,"mht":9686,"mdb":9687,"mnl":9688,"mqw":9689,"mvx":9690,"mxa":9691,"mzc":9692,"mjk":9693,"mrk":9694,"mlj":9695,"mlq":9696,"miy":9697,"mcm":9698,"mik":9699,"mju":9700,"mzl":9701,"mhk":9702,"mkp":9703,"mzp":9704,"mva":9705,"mqh":9706,"mtn":9707,"mjz":9708,"mlr":9709,"mkj":9710,"mls":9711,"mqd":9712,"miry":9713,"mveg":9714,"mxbf":9715,"mhih":9716,"mpmu":9717,"mcwd":9718,"mjdc":9719,"nre":9720,"nou":9721,"nor":9722,"nth":9723,"nce":9724,"nke":9725,"ndd":9726,"nwn":9727,"nal":9728,"nes":9729,"nis":9730,"nut":9731,"north":9732,"nia":9733,"nwe":9734,"nope":9735,"ntr":9736,"niver":9737,"nted":9738,"nsw":9739,"nyal":9740,"nsc":9741,"npo":9742,"nito":9743,"nds":9744,"nxt":9745,"nfl":9746,"njb":9747,"nhx":9748,"nnf":9749,"njy":9750,"nsv":9751,"npd":9752,"nnx":9753,"nnr":9754,"nuj":9755,"nvx":9756,"nhs":9757,"nwk":9758,"nik":9759,"nvq":9760,"ngv":9761,"nhd":9762,"nvw":9763,"nvl":9764,"nmc":9765,"oin":9766,"ove":9767,"omb":9768,"oay":9769,"oet":9770,"oas":9771,"oad":9772,"ogh":9773,"obp":9774,"oag":9775,"oyn":9776,"oops":9777,"oah":9778,"oim":9779,"oef":9780,"oman":9781,"oby":9782,"obd":9783,"ojb":9784,"omg":9785,"oje":9786,"ojf":9787,"ocr":9788,"ocl":9789,"oqg":9790,"obz":9791,"ocu":9792,"oaa":9793,"ovx":9794,"ojm":9795,"oxy":9796,"oxd":9797,"ojd":9798,"ovq":9799,"ojc":9800,"ovp":9801,"ovy":9802,"oxc":9803,"obf":9804,"ozv":9805,"oalf":9806,"ozzgl":9807,"ojvt":9808,"oqsq":9809,"par":9810,"pay":9811,"pld":9812,"pdd":9813,"pis":9814,"pum":9815,"pia":9816,"pos":9817,"ption":9818,"pam":9819,"phow":9820,"pple":9821,"ppy":9822,"pqq":9823,"pie":9824,"pted":9825,"pwi":9826,"psc":9827,"pte":9828,"pae":9829,"polk":9830,"ppee":9831,"pac":9832,"pps":9833,"pby":9834,"pbd":9835,"pje":9836,"pjf":9837,"pnf":9838,"puw":9839,"pcl":9840,"pcu":9841,"phs":9842,"pvb":9843,"pial":9844,"pcj":9845,"pux":9846,"pwd":9847,"pute":9848,"pwg":9849,"pvp":9850,"puv":9851,"plly":9852,"pva":9853,"pgt":9854,"pgz":9855,"prym":9856,"pdyj":9857,"paww":9858,"pardon":9859,"qat":9860,"qay":9861,"qpe":9862,"qet":9863,"qes":9864,"qut":9865,"qck":9866,"qos":9867,"qdo":9868,"qbu":9869,"qgg":9870,"qag":9871,"qci":9872,"qgd":9873,"qsw":9874,"qvo":9875,"qsh":9876,"qzb":9877,"qah":9878,"qka":9879,"qim":9880,"qef":9881,"qib":9882,"qcb":9883,"qfr":9884,"qxh":9885,"qmg":9886,"qho":9887,"qej":9888,"qlx":9889,"qbz":9890,"qnl":9891,"qrj":9892,"qlk":9893,"qij":9894,"qlj":9895,"qxs":9896,"qxd":9897,"qzn":9898,"qcj":9899,"qjd":9900,"qvg":9901,"qxf":9902,"qcc":9903,"qcn":9904,"qzl":9905,"qtx":9906,"qcs":9907,"qpu":9908,"qcq":9909,"qvl":9910,"qtn":9911,"qvs":9912,"qvu":9913,"qdu":9914,"qjt":9915,"qxk":9916,"qnc":9917,"qava":9918,"qjxx":9919,"rre":9920,"rou":9921,"rhe":9922,"rme":9923,"rct":9924,"rss":9925,"rdd":9926,"rut":9927,"rur":9928,"rxi":9929,"rly":9930,"rinese":9931,"rms":9932,"rda":9933,"rust":9934,"rinity":9935,"rte":9936,"rny":9937,"rkw":9938,"rjs":9939,"rcb":9940,"rby":9941,"rical":9942,"rbd":9943,"rbo":9944,"rpp":9945,"rpx":9946,"rmg":9947,"rjx":9948,"rpq":9949,"ruskin":9950,"rlo":9951,"rpd":9952,"rty":9953,"rgm":9954,"rnx":9955,"rcu":9956,"rvx":9957,"rmf":9958,"rxy":9959,"rtb":9960,"rvh":9961,"rxd":9962,"rwf":9963,"rxq":9964,"rcm":9965,"rwb":9966,"rwd":9967,"rcn":9968,"rrx":9969,"rni":9970,"rdn":9971,"rzr":9972,"rcq":9973,"rnq":9974,"rrn":9975,"rcp":9976,"rpw":9977,"rmwp":9978,"rmyg":9979,"rpsy":9980,"rgoi":9981,"sce":9982,"sle":9983,"sct":9984,"sll":9985,"slp":9986,"sal":9987,"sas":9988,"scode":9989,"sow":9990,"sut":9991,"sul":9992,"sxi":9993,"sos":9994,"sbs":9995,"sdo":9996,"sfe":9997,"sjg":9998,"sican":9999}