#version: 0.2 - Trained by `huggingface/tokenizers`
Ġ =
Ġ |
n t
r e
Ġ i
Ġ t
Ġ a
i c
e nt
o p
r a
o u
Ġi nt
op ic
Ġint ent
s t
i n
h e
o r
Ġ re
Ġ n
t opic
e r
Ġ b
o n
Ġ c
Ġ p
Ġ y
o o
Ġy ou
f or
Ġi n
g e
e l
in g
Ġ w
m e
e st
Ġ h
v e
a t
Ġt he
oo k
for m
Ġin form
Ġ l
m b
u est
Ġb ook
Ġt opic
n d
Ġ m
n e
Ġi s
Ġ d
s e
Ġ I
ic e
o t
Ġa re
a r
Ġre q
Ġreq uest
ra l
Ġt o
a y
Ġ ge
mb er
Ġn u
Ġnu mber
Ġ f
ne ral
Ġge neral
t h
a n
i on
a ve
Ġ C
Ġ o
r i
Ġo f
Ġa t
Ġt ra
Ġ s
c e
ot el
T he
u ra
ura nt
a urant
l e
Ġtra in
k e
Ġre st
Ġh otel
Ġrest aurant
c o
Ġa nd
Ġm o
l d
Ġ 1
e d
e re
h at
Ġare a
Ġp r
c t
a me
Ġ g
ou ld
Ġ for
on e
Ġn ame
Ġpr ice
f ere
n ce
d e
s s
Ġbook ing
p e
Ġ 0
Ġ W
Ġ ra
Ġw i
Ġl i
fere nce
Ġmo re
l l
Ġli ke
Ġa n
Ġc h
i t
oo d
Ġh ave
Ġl e
at ion
re e
Ġd ay
n ge
y e
Ġ H
Ġra nge
2 3
ct ion
Ġ T
t ra
Ġch o
Ġcho ice
tra ction
Ġat traction
Ġre ference
d ge
Ġan y
Ġt hat
ar t
Ġ st
h one
ou se
Ġt y
Ġty pe
th ing
Ġ e
1 2
Ġp hone
Ġ el
Ġa r
d d
f er
ent re
re ss
ri dge
Ġel se
Ġ The
Ġle ave
a mb
Ġa dd
Ġadd ress
Ġb ye
e s
amb ridge
Ġwi th
Ġf ood
Ġthe re
Ġ he
Ġ A
Ġ G
Ġ S
Ġar ri
Y ou
12 23
o w
Ġany thing
Ġ0 1223
Ġof fer
Ġw el
Ġyou r
l p
ĠW ould
Ġ R
Ġc an
co me
Ġhe lp
Ġwel come
Ġp o
i me
Ġw ould
Ġb e
Ġt ime
a s
e p
Ġc entre
Ġ B
Ġarri ve
Ġt a
r y
ĠC ambridge
d ay
a l
Ġpo st
ep art
Ġd epart
b le
co de
Ġ me
ar k
Ġn o
Ġpost code
Ġ 2
w n
Ġg uest
co m
Ġc o
ĠT R
ree t
Ġto wn
Ġ 4
com me
comme nd
Ġre commend
r o
s i
Ġc b
Ġ D
Ġ P
The re
a d
it y
Ġ on
Ġl o
Ġf e
u t
i s
u re
Ġn e
Ġwi ll
h ouse
u l
Ġi t
Ġ 3
Ġ L
a st
Ġbook ed
Ġd o
ĠI s
u r
he r
t on
c h
a p
ke t
l a
Ġ M
Ġ u
' s
Ġt h
in ation
est ination
Ġd estination
Ġe x
ra t
Ġne ed
Ġ 5
x i
Ġlo c
Ġp ark
de rat
Ġ or
Ġguest house
Ġmo derat
Ġta xi
Ġf ree
or th
Ġ01223 3
Ġre s
Ġfe e
i r
Ġp e
Ġc he
ou nd
Ġw as
pe n
pen si
re at
op le
Ġst ay
Ġpe ople
pensi ve
ic ket
Ġres er
Ġt icket
a i
an k
g h
You r
Ġ se
Ġex pensive
ĠS t
Ġ0 7
l le
ĠD o
at ed
Ġ one
Ġloc ated
el y
Ġs u
ĠI D
v er
t ing
ou r
Ġm in
a ll
ĠI t
Ġche ap
f ul
Ġp re
Ġpark ing
Ġm an
ook ing
in e
e ct
0 0
u m
Ġman y
h ank
Ġn one
Ġn orth
i f
Ġra ting
Ġto day
Ġp art
Ġg reat
ĠC an
c ce
' re
Ġ E
ĠR o
Ġ F
O k
cce ss
e n
i an
o l
ro m
Ġh ouse
Ġ1 5
2 1
ound s
Ġf rom
el l
Ġ N
Ġs el
Ġsel ect
i ll
er ne
Ġw hat
ccess ful
Ġmin ut
erne t
T hank
ot her
1 1
ĠC entre
v ation
Ġp ounds
i st
Ġ 7
Ġreser vation
Y es
a ct
Ġ Your
Ġminut es
u se
Ġw est
ĠSt reet
gh t
ĠRo ad
ĠH ouse
ĠR e
i a
nt act
w o
t er
Ġsu ccessful
use um
Ġ k
Ġrestaurant s
lle ge
Ġe ast
ĠW hat
Ġu s
Ġprice d
he re
2 4
Ġc ar
Ġ :
v ing
Ġmoderat ely
Ġst ar
5 8
B P
ĠC ity
a nt
ou t
S ure
Ġb y
ou th
l y
ĠH ave
Ġ ent
Ġs er
ĠC h
Ġta ble
ĠG BP
Ġt wo
b ye
or ry
Ġ1 0
Ġ 8
Ġco ntact
Ġhotel s
5 1
Ġmoderat e
Ok ay
Ġs outh
a in
Ġm useum
o y
Ġ 6
ood bye
a nd
' m
Ġw ant
c k
Ġc ambridge
Ġ1 3
Ġ K
Ġinform ation
Ġse ve
6 6
ic h
Ġa ss
Ġs o
Ġ 9
Ġa b
Ġg reet
Ġass ist
Ġ ro
er t
ĠI nt
oo m
i ght
3 0
Ġ1 1
ĠRe ference
Ġ1 7
a k
ĠInt ernet
Ġab out
Ġtra v
Ġs orry
t ion
ow n
Ġseve ral
o s
W hat
la ce
0 7
B ooking
Ġa ll
j oy
e t
Ġ r
l u
Ġh as
or n
Ġtrav el
Ġw h
Ġm a
Ġro ad
Ġ v
ert ain
Ġ op
Ġpre ference
n g
2 0
n joy
Ġn ot
is h
i l
on d
Ġpre fer
Ġt ry
Ġguesthouse s
1 7
Ġleave s
ĠH otel
it e
Ġco llege
Ġp lace
5 0
Ġc ity
Ġa v
h a
Ġd if
fere nt
Ġdif ferent
ai la
Ġl ooking
ĠP ark
Ġop tion
8 8
Ġtrain s
Ġst reet
5 4
Ġn ight
Ġav aila
m ent
oo l
Ġ1 6
Ġs i
Ġarrive s
ra nce
u s
' t
Ġle ng
Ġleng th
ine se
n y
ĠC B
c orn
Ġan other
ai nt
ĠG oodbye
Ġreser ve
Ġst ation
Ġent rance
6 0
2 9
I t
st ed
Ġavaila ble
Ġthe ir
Ġ1 2
1 0
Ġoption s
f i
Ġb ut
a se
f ast
Ġth is
re ak
ver y
Ġi f
reak fast
or k
Ġus ing
0 8
Ġ1 9
in d
u n
Ġc ri
ter ia
Ġcri teria
Ġ1 4
Ġ U
op e
Ġ V
er ton
ĠC o
Ġso me
f o
a ble
i z
Ġr oom
Ġu n
a ving
il ton
i ver
ĠA r
Ġk n
Ġ J
1 5
Ġn ice
Ġ O
Ġle aving
Ġkn ow
5 2
st erton
5 9
Ġg ood
ĠA ny
Ġw e
Ġ other
W e
4 0
2 7
Ġh ow
Ġsi de
v i
4 6
le ase
si de
all er
Ġg o
Ġma ke
ĠI nd
3 9
ent er
ĠG uest
or t
' d
Ġa s
ri t
os p
ot al
it al
H ow
osp ital
al ian
q u
i nt
iz z
ĠInd ian
d a
Ġw ork
Ġint ere
Ġser ve
Ġc enter
Ġt otal
c he
Ġs pe
de n
ĠR est
Ġm at
Ġs h
ul ar
3 5
Ġa m
ing s
s day
3 4
Ġspe c
Ġa ble
Ġge t
i d
Ġ our
s ity
Ġ1 8
Ġreserve d
Ġspec if
ĠL o
ĠAny thing
b s
ri p
Ġ2 1
4 1
Ġp ay
0 1
Ġdepart ing
ĠRest aurant
a ne
Ġc ould
ur ch
5 7
Ġf ind
int on
her ry
Ġwh ich
Ġticket s
Ġspecif ic
3 2
ic ular
Ġpart icular
rit ish
T R
Ġ2 0
ĠThe ir
Ġme et
ĠL e
v ice
Ġf ound
Ġth ree
Ġser vice
ĠCh inese
ĠC he
vi lle
Ġpay able
4 3
Ġ j
I n
Ġe njoy
iver sity
Ġw here
9 0
i ve
m s
Ġu p
Ġt rip
Ġstar s
ĠT h
ou gh
Ġthe m
Ġdepart ure
5 6
Ġh ospital
Ġf our
Ġ very
ĠPark side
Ġmuseum s
Ġc all
ri day
8 0
on ville
3 6
ĠChe sterton
Ġ 23
le x
ot h
Ġthe y
u nt
Ġint ernet
aller y
and er
o at
ĠH ill
lex ander
a ge
Ġb ed
l i
o se
4 5
Ġintere sted
3 8
ĠT own
H ave
G reat
m p
1 9
Ġmin d
u is
ap p
ĠThe y
app y
1 6
0 9
ĠB ed
c lu
Ġb ar
Ġd on
ĠCo llege
ar den
ĠH ow
ĠThe re
Ġwi fi
Ġsome thing
l ad
Ġ0 5
a f
u e
he n
Ġp er
ĠIt alian
Ġb reakfast
Ġarri ving
In fo
ĠA corn
ĠTown Info
5 3
o g
Ġf it
ve n
m a
' ve
t her
ĠHill s
ur ope
Ġmat ch
urope an
Ġc ertain
ĠN e
ĠLo dge
Ġfe w
ĠU n
8 7
b u
Ġl ook
Ġpo l
Ġc on
0 6
g ent
Ġpr o
Ġth ose
Ġc uis
Ġ qu
Ġplace s
Ġp lease
ar d
unt ing
Ġdo es
Ġ Y
Ġnight s
Ġpol ice
ĠF riday
Ġserve s
ur ry
Ġs aint
ĠS aint
v al
ĠT hank
Ġcuis ine
re y
I s
ĠB ar
Ġco de
nd ay
Ġ01223 24
Ġh appy
Ġar ch
Ġloc ation
at ely
9 66
o or
Ġf ur
Ġfur ther
5 5
Q Q
4 4
at re
Ġd own
ar ket
ond er
in a
onder ful
ĠM ay
izz a
4 2
r ow
for t
h ich
fort un
ĠC herry
is it
r in
Ġa l
fortun ately
Ġv isit
N o
le y
u st
ĠB ritish
m m
ĠH inton
ri ght
u es
ĠR d
h ley
W here
Ġa f
at ur
atur day
i ss
Ġn ar
ot t
Ġ0 9
Ġnar row
e m
Ġp ool
ĠN orth
Ġwh ite
7 7
Ġb oth
el f
1 3
er n
ell ow
Ġp ic
ĠB reakfast
Ġbe en
Ġw onderful
la ck
ĠE njoy
Ġqu ite
Ġcollege s
4 9
D o
it ton
lle n
ol og
i p
ĠW here
an ce
Ġy ellow
ĠW ill
ĠS u
Ġco st
llen b
J G
s fi
on day
el d
Ġh our
Ġlo dge
ĠSu nday
sfi eld
Ġ012233 58
Ġa corn
Ġch oo
che s
Ġattraction s
g ge
Ġsu gge
llenb ell
ri st
Ġsugge st
Ġ You
ic an
bu ry
Ġb lack
ul t
Ġassist ance
Ġin d
lu e
ha m
ĠUn iversity
Ġ01223358 966
i es
ond on
elf ry
ĠS h
2 8
o k
Ġst art
ĠRe gent
Ġneed s
unting d
Ġg rey
si an
Ġcontact ing
ood le
ĠA s
untingd on
Ġon ly
4 8
ĠS aturday
U n
Ġre d
Ġnight clu
ar li
a b
ur sday
Ġtravel ing
t le
s o
ĠG ood
Ġb lue
Ġch inese
Ġh ope
ne sday
ed nesday
ĠG onville
Ġle t
ertain ment
7 8
i re
ol k
at e
Un fortunately
it ect
u ck
Ġent ertainment
ĠK ings
p ort
er s
1 8
re w
ues day
Ġf ive
W ould
l if
is ure
lif ton
Ġg oodbye
Ġe very
ĠM ar
Ġind ian
2 6
7 9
ĠF en
ĠM onday
Ġc our
ĠW hich
Ġco mp
Ġarch itect
Ġchoo se
ĠA nd
ĠA lexander
Ġarri val
m ilton
Ġl ot
ĠL ane
ra f
p ress
Ġa d
i e
w ay
ar ch
3 3
a re
ĠCh urch
ĠNe w
t ed
y st
Ġt ell
Ġ01223 4
Ġse t
m arket
Ġcour se
yst em
Ġ .
Ġ Z
Ġthe atre
Ġ012233 6
Ġse arch
ĠAr ms
ĠD itton
ĠB ridge
ĠW ednesday
ou nt
Ġs ystem
ĠTh ursday
le as
ree n
ĠG arden
Ġ2 2
Ġp leas
rin ity
Ġb oat
ld en
Ġpro ble
Ġpic k
Ġ3 3
ĠW ay
Ġproble m
ĠAs hley
Ġ ri
The ir
Ġg allery
ir st
Ġm ay
Ġarchitect ure
Ġ ?
ĠT uesday
ĠK ing
C ertain
n n
ĠC urry
Ġch urch
ĠE uropean
Ġcomp le
Certain ly
Ġg lad
Ġal so
ra in
m iss
Ġ Q
oom z
Ġstay ing
miss ion
A l
ri ott
2 5
r ough
ine ma
ĠAr t
Ġdepart s
Ġstart ing
ir m
for d
af e
Ġw hen
ĠA re
Ġgo ing
T hat
Ġ X
51 51
ond a
Al right
' ll
ĠM ilton
le d
Ġday s
ĠG allery
s a
Ġth ank
Ġ0122324 5151
O f
r op
3 7
k o
Ġp l
r oomz
Ġw ay
ro ss
Ġpleas ure
t he
Ġreq u
Ġse e
ko da
8 9
ĠL en
Ġrequ ire
ra y
x us
ĠE ast
ĠLen sfield
Ġa p
ha dd
Ġcall ing
Ġaf ter
es la
ĠP izza
Ġcon f
Ġche sterton
a ck
Ġ0 8
Ġdepart ment
b ray
on g
hadd ai
a ra
o h
v ell
ĠI f
Ġs ure
Ġwel l
c a
Ġar t
ĠE x
2 2
ot a
The y
oor i
ĠP lease
ĠM ill
6 4
Ġm y
ist ro
g ain
Ġth ing
Ġf irst
ĠP e
olog y
Ġad mission
Ġse at
Ġpreference s
ĠNew market
9 9
u b
Ġc al
ĠH o
Ġcal led
an ge
ĠC lifton
Ġc l
Ġl ane
1 4
a g
7 0
a milton
Ġa gain
Ġj ust
d i
Ġit alian
Ġche ck
O K
y le
es us
ĠLe isure
ĠL ondon
Ġmatch ing
o st
Ġli sted
Ġreservation s
ĠH untingdon
e ven
Ġm ar
ĠL a
rough ton
6 8
Ġma de
it her
Ġta ke
est er
Ġh inton
ĠM useum
our ne
s w
ch ool
d ern
Ġg ive
ĠB elfry
ast le
ic ester
Ġre a
Ġ012233 0
le ne
ĠA llenbell
C an
o lden
r ook
Ġ012233 3
da lene
ol ut
b rook
k ing
ent al
Ġres ult
e x
olut ely
T rain
u di
Ġw ere
Ġthe se
olk sw
ĠP ol
ĠCh rist
ment s
6 9
i day
Ġg arden
ara de
ount ry
Ġ01223 90
um n
ol iday
and os
Ġmeet s
h ap
s bray
Ġn ow
Ġ2 4
hap s
Ġe arli
ut umn
Ġc herry
ĠDo es
Ġ07 9
age n
olksw agen
s u
Ġe uropean
on s
ĠA ll
ĠD id
Ġk ing
Ġ -
Ġe ither
ĠSt ation
8 6
Ġs ound
Ġ7 9
Ġsh ould
all y
Ġresult s
er ia
ĠCo ntact
Ġun iversity
bs olutely
st ar
Ġchoice s
izz eria
u g
w i
Ġb ritish
A bsolutely
p ool
w orth
y al
Ġnightclu b
ou l
Ġg ot
ark worth
Ġg onville
Ġhe re
c i
Ġ15 4
Ġrequire ments
l ing
Ġ out
a z
at er
i gh
Ġcomple ted
b or
7 1
ĠO ne
yle sbray
w ich
Ġk ind
Ġk ings
ĠN oodle
ĠSh all
bor ough
or wich
Ġm ilton
ĠG raf
v ely
S orry
y nn
Ġin fo
ĠG olden
Ġpart y
Ġs wi
Ġne w
lu b
Ġ07 6
ou in
v o
ook ed
Ġbe t
ol vo
Thank s
mm ing
Ġd id
Ġ4 0
ter borough
Ġswi mming
Ġa lexander
Ġh onda
88 8
7 6
b e
Ġ012233 34
ĠMar riott
Ġ3 0
d den
Ġs koda
ell o
ĠT rinity
Ġpool s
in ci
Ġser ving
Ġb ack
Ġintere st
brook es
e f
Ġfor d
Ġun su
Ġservice s
ue se
w ork
bs ons
ĠPol ice
ug uese
work s
i et
u ll
Ġn oodle
Ġle xus
Ġunsu ccessful
ast rop
Ġo k
ĠT wo
ke d
Ġmo dern
ĠH ospital
ir port
ort uguese
Ġsh ow
ĠEx press
dden brookes
Ġh o
r ican
Ġ012233 5
Ġ0 6
ĠB ye
al a
Ġ5 1
Ġ012233 53
o re
Ġc inema
ĠAr ch
Ġri ver
ĠW e
Ġli st
Ġo ver
Ġand rew
la re
in ches
Ġun able
8 4
Ġt esla
Ġ07 7
ĠA sian
e en
y ota
Ġthe n
Ġto yota
even age
R e
Ġ3 6
Ġpro vi
Ġnightclu bs
Ġm ult
Ġmat ches
Ġconf irm
ĠG reen
9 6
G lad
n a
el ep
ation al
elep hone
Ġar ms
ĠE ly
ĠLe icester
ern ational
an g
ip le
Ġmult iple
Ġb elfry
Ġ3 7
ĠM ag
and oori
Ġd es
ĠS p
Ġf un
ĠH ut
ĠH amilton
ĠGuest house
Ġf a
Re ference
7 2
j o
m w
Ġs port
Ġlo vely
Ġpark s
ĠAnd rew
i qu
Ġg reen
it che
ĠLo vell
astrop ub
b ourne
x bourne
op s
Ġb mw
an sted
46 46
arli e
Ġap olog
f it
ĠS haddai
ro xbourne
Ġ4 7
00 0
Ġ7 5
itche n
ĠT andoori
Ġh all
ish ops
ĠJ esus
Ġlot s
m er
Ġa llenbell
ĠW est
ĠMag dalene
Ġsport s
wn ham
3 1
6 7
Ġa udi
Ġ2 8
ĠE l
Ġprovi de
ion s
Ġ3 5
Ġper haps
ĠB istro
ĠL ynn
Ġ5 0
ol ina
Ġ9 8
ĠP ool
n s
re d
er ie
Ġp izza
Ġl ondon
Ġ4 4
Ġ4 9
Ġor i
Ġ07 8
ol ia
Ġ6 0
fit i
d y
chool s
q uest
Ġt oo
at olia
Ġs ame
Ġsu ccess
ort ford
Ġ quest
it ion
it tle
Ġ01223 21
Ġit s
ĠN orwich
ost code
in h
ĠA utumn
Ġth an
Ġv olkswagen
aller ies
Ġfit s
ull y
Ġori ental
re n
Ġa sian
6 3
s ure
ic t
ist on
Ġearli est
4 7
che d
Ġrea ch
n ing
Ġint ernational
Ġmo st
ĠThe atre
Ġv olvo
Ġcon c
n sfield
Ġ #
or ia
or ter
Ġle nsfield
ĠS outh
Ġsu it
ĠRo yal
Ġsh orter
ren ch
ict oria
Ġt elephone
lp ha
ĠThank s
uck y
9 00
Ġin clu
an ish
Ġok ay
i ral
Ġ right
Ġex press
ĠCity roomz
Ġ8 8
fo re
val on
iral a
ra ss
ĠC ross
Ġch ange
24 0
ĠSaint s
ĠPe terborough
f e
er ra
Ġ01223353 888
1 00
7 3
Ġs p
Ġv ar
9 8
pe e
ĠR iver
ĠP lace
ĠF un
ven ue
1 49
M W
Ġt rinity
th ank
ĠW orth
ĠA f
Ġoffer s
Ġth in
ver ton
Ġquest ions
b oat
f ully
ĠW arkworth
ĠP rin
ĠPrin ce
9 1
Ġint o
or g
Ġh untingdon
ĠM o
gh na
Ġprefer red
Ġun it
ip pee
Ġ0122390 21
rass erie
A ll
E njoy
h al
Ġc urry
Ġ07 0
Ġ7 0
own ing
9 4
n ame
y mm
Ġc ross
Ġg astropub
Ġhe ad
ĠA valon
li ment
org ina
ymm oy
M y
ĠW hen
Ġra ted
ĠB roughton
ĠB ooked
Ġfe n
iet name
ietname se
ent y
Ġl ong
ĠM e
Ġent er
Ġsuccess fully
7 4
a e
ĠC afe
ĠC astle
Ġ5 6
Ġlook s
9 2
Ġs ite
it o
ĠP ostcode
Ġ5 2
ĠBed ouin
iqu ito
g he
z z
ĠW ok
ĠH all
Ġcost s
Ġc are
ing ham
ĠC inema
ation s
Ġe nd
ĠL et
ĠSt evenage
iz e
ĠNe wnham
ĠArt works
Ġcl os
liment um
p ing
Ġa c
Ġh igh
Ġd in
ĠN andos
irm ingham
a j
c ell
in oor
Ġp izzeria
and le
rit a
Ġper s
Ġapolog ize
ghe rita
cell ent
A nd
ĠC ountry
ĠS o
Ġpost al
ĠP arade
ur k
Ġ5 3
ĠF or
Ġhour s
Ġpl enty
ĠAf rican
zz o
Ġpers on
Ġa ct
Ġl a
ĠP ortuguese
Ġ10 5
Ġseve n
oh inoor
n ab
ĠC ould
Ġsaint s
Ġ012234 46
Ġri de
urk ish
nab as
iver pool
k y
Ġt en
ĠB ishops
Ġ3 8
ĠL iverpool
ĠRo sa
ch ange
um ping
Ġwant ing
ak k
Ġ16 3
andle bury
D C
Ġin n
Ġh oliday
ĠC ar
oom s
os a
oat s
ition al
Ġclos est
G oodbye
s h
Ġd ine
ĠC lub
Ġch rist
ĠH iston
ĠB roxbourne
ĠD owning
iss ing
oh ns
akk a
g ly
n atolia
t e
u ally
ĠHo bsons
W hen
Ġb istro
Ġc afe
ot e
Ġf riday
Ġs haddai
amb oats
Ġ012233 36
ane se
Ġpic ked
Ġthin k
5 66
6 2
f ect
t here
Ġli t
Ġe at
Ġas hley
w el
Ġa irport
ĠH oliday
al sa
uck ling
Ġlit tle
Ġare n
ĠSt ortford
Ġre gent
Ġle isure
b ill
h i
k ok
ne an
Ġ0 87
it erra
Ġhouse s
ĠCh an
Ġmar riott
ang kok
bill ies
iterra nean
g on
l n
l ooms
Ġp arade
Ġh ut
an h
ĠC orn
ĠA ylesbray
ĠB oth
ĠArch way
r ice
z billies
Ġc ountry
Ġme al
Ġsu ch
ol y
I f
p in
Ġb est
ĠI nn
ĠC lare
Ġo ld
ĠL ittle
ai gon
ĠSt ansted
ĠCh arlie
Ġseat s
ĠGraf ton
A re
C h
o d
in ce
Ġm ight
Ġadd itional
ĠS e
Ġbe fore
Ġta nd
8 2
d er
u ch
ra ina
Ġm uch
Ġd ate
ĠP hone
ai l
Ġ07 4
Ġminut e
ĠO r
ĠSh ould
looms bury
ra n
Ġc lifton
ot an
ĠCh op
27 9
ala ce
otan ic
w een
Ġsi x
Ġ01223334 900
ri m
Ġ012233 149
Ġtand oori
Ġ012233149 60
s j
y ou
Ġc or
Ġg raf
ĠH onda
ĠT esla
ĠSt ar
58 7
Ġcity roomz
ĠV ictoria
aller ia
Ġtheatre s
Ġbet ween
i le
or ld
Ġin ex
Ġd e
Ġf ut
ave ra
ss age
ĠW h
ĠD a
all are
Ġtrav ell
Ġsh all
Ġlocation s
rim avera
5 11
Ġdes c
Ġfut ure
i m
ura tion
Ġv inci
ran k
Ġinex pensive
9 3
n er
Ġb ridge
ĠK itchen
Ġfa v
rank ie
M ay
h ing
ra ry
ra id
Ġc astle
and ard
izz i
rip tion
Ġaf raid
Ġdesc ription
a el
d p
w hat
Ġd uration
ĠT oy
Ġco ld
ĠP izzeria
ĠF inches
Ġma g
us ion
Ġcertain ly
ott o
Ġ012234 52
ef in
Ġshow ing
ĠSp ice
ĠToy ota
a h
a ssage
m ing
re zzo
Ġnot hing
ĠSe oul
0 5
p le
Ġt r
in ling
Ġb roughton
it ely
as ca
Ġne ar
ĠL ucky
ur g
Ġgo lden
ĠLe xus
ĠLe verton
Ġrea ched
Ġ0122390 20
ĠGraf fiti
Ġ01223452 587
efin itely
e mp
o rary
Ġa ylesbray
ĠA ddenbrookes
Ġpl an
umping ton
emp orary
W hich
t ime
nt emporary
Ġn ine
ĠA natolia
ĠB MW
Ġco ming
Ġas k
ĠCar olina
Ġfav or
g in
Ġd itton
ĠS koda
us ine
Ġj esus
ĠY ard
0 2
a q
b il
Ġ01223 57
Ġ2 9
ĠF rench
50 6
ny s
Ġact ually
Ġ01223446 100
urg er
A ddenbrookes
C ambridge
W ell
f es
w orld
Ġ &
Ġneed ing
ine world
ma hal
Ġthank s
ore an
im osa
usine ss
a ma
d oor
23 6
ĠM ex
ĠV inci
Ġj ello
Ġac com
ĠMex ican
a mp
y ard
he ad
Ġis n
ri ental
Ġs chools
ss i
Ġst ill
ĠU gly
Ġpick ing
p rice
w here
Ġa head
ri es
ĠT hat
ĠO riental
Ġmar y
ra nge
me t
ĠR ice
Ġpo ssi
Ġfind ing
p us
st reet
23 3
Ġbe gin
ĠB inh
Ġroom s
ĠY ippee
Ġcomple te
ĠAndrew s
Ġdin ing
Ġtravell ing
0 4
9 7
Ġl ater
ĠM arket
Ġ012233 57
our met
et tle
ĠJ ello
ount y
ae ology
P lease
it ies
23 20
Ġar bury
Ġme d
ĠN irala
ĠMe ghna
price d
Ġ z
ic al
Ġin st
Ġw ok
ĠT en
ĠS c
Ġ012233 12
Ġother s
ĠMar gherita
Ġearli er
Ġfavor ite
7 5
8 3
G ood
k w
m an
m od
t t
Ġ0 19
ĠT r
ĠP er
ir kw
ĠTh anh
ĠChurch ill
Ġboat ing
ĠWh ite
irkw ood
d s
m ore
Ġ01223 4646
ĠD uckling
ĠV ietnamese
ĠAr bury
e ad
e ch
p t
nt h
Ġp as
23 7
ĠB irmingham
ĠK ohinoor
Ġconfirm ation
Ġinclu de
Ġaccom mod
Ġ019 54
ou s
or y
Ġpr ince
ĠM issing
Ġ012233 38
unt er
Ġdoes n
Ġinst ead
9 5
A A
h ow
u ca
er c
Ġl uck
Ġ1 00
ĠA udi
Ġtime s
Ġ3 2
um ford
Ġop en
ĠV olkswagen
ĠO ak
Ġnew market
nth rop
6 5
M G
c an
Ġn or
Ġp assage
Ġs c
ĠT rain
Ġe ven
ĠA l
ĠS alsa
ĠK ettle
ust ri
ĠSo ck
nthrop ology
M Y
Ġp op
Ġl ast
ar ry
Ġg alleries
ĠG e
ĠG lad
Ġlo ve
Ġth ings
Ġ012233 66
ĠDo jo
51 7
Ġr un
ĠTh ai
Ġ0122330 4
ech n
erc ers
H appy
T h
u c
ĠH akka
ĠT urkish
ill age
ĠK ymmoy
us ha
ĠV ue
ĠJ ohns
35 3
ab a
Ġpop ular
6 00
s it
Ġw orth
se ng
ĠP rezzo
Ġ5 17
Ġ012233 07
Ġ07 3
66 0
Ġ19 1
Ġbet ter
ĠGe orgina
W ill
f olk
p er
Ġa lpha
Ġc lub
Ġent ries
and hi
og y
ĠHo me
Ġlist ings
L et
Y H
a ke
d g
l ot
y ne
Ġh ill
Ġh amilton
ook house
Ġd efinitely
Ġwi sh
Ġ012233 24
ĠF it
Ġavaila bil
uc ina
e ting
r ot
z e
Ġw arkworth
ĠC ote
ĠB ooking
Ġme eting
Ġper fect
ĠPe king
ĠRiver boat
Ġmag dalene
Ġ012234646 46
echn ology
Ġavailabil ity
B U
K V
S O
b ert
d q
e ak
s ing
u el
Ġd a
ar ge
Ġof f
le ep
Ġhe sit
ĠA irport
ĠG alleries
ĠB ack
ĠB yard
Ġsu nday
11 0
Ġ8 2
il bert
ie nce
Ġgarden s
be y
eak house
Ġhesit ate
nd e
Ġg ra
Ġch op
Ġle icester
ĠE raina
Ġ15 2
ha le
Ġap pe
Ġconc ert
ĠFun ky
ĠPer haps
leep er
8 1
E Z
F L
c y
m as
o rey
r s
Ġb rasserie
an uel
Ġs lot
ĠS aigon
Ġ01223 27
Ġ01223 42
ur ches
Ġ7 4
Ġro yal
un ction
mm anuel
ĠFor d
leeper z
Y R
a way
x t
Ġb usiness
Ġguest s
Ġcheap er
57 25
ĠSp anish
Ġgraf ton
3 88
8 5
A G
B Z
C R
C U
F or
S U
X H
a x
l h
ye s
dd ress
ĠG alleria
ĠP alace
Ġfe el
ast ic
Ġdo jo
ant astic
ĠCh iquito
id s
Ġspecific ations
Ġcon si
ĠY u
Ġho ld
Ġhead ing
aj mahal
E x
I T
N O
O S
c um
p ot
re ct
it ch
ĠR az
ĠP rimavera
ĠF ree
ĠN usha
Ġbar nabas
Ġchoo sing
ca de
ĠTr umpington
ĠAl so
0 3
A L
B ooked
P A
a ch
st rot
er y
ne y
Ġd at
ion e
Ġch urches
Ġany time
ĠA limentum
Ġrecommend ation
Ġne xt
um mer
af fe
az ione
Ġandrew s
ids ummer
ĠRaz a
0 1223
I D
r h
re s
ra z
Ġm onday
ĠW ant
12 4
ĠB loomsbury
ad y
ĠGarden s
ĠTen pin
8 60
E S
P B
T Q
V D
Z C
d w
Ġ ven
Ġa utumn
Ġre f
Ġs aturday
ĠH igh
ĠH oly
ĠB rasserie
ur f
ĠRo se
ĠMar y
Ġboat s
ub ile
279 08
506 88
arry s
seng er
strot urf
Ġven ues
ubile e
D id
E N
d ing
op per
pe ct
Ġ0 1
Ġpo int
as ha
Ġ4 51
Ġth ough
ĠO ld
ip asha
ĠEx change
wel come
Ġeven ing
2 57
G M
W F
k in
w e
Ġb inh
ĠW andlebury
ĠS chools
Ġ01223 50
us kin
52 5
Ġart works
Ġcl ose
amp ton
0 353
A R
C ity
E D
G BP
b anese
Ġp ortuguese
me d
ar sity
ĠC amboats
Ġarea s
Ġch arge
Ġhe ar
Ġ6 8
ĠK orean
Ġdown ing
A T
B I
B N
E J
H U
O R
S L
S V
Y C
e ver
r on
Ġd et
Ġf ine
Ġtype s
ĠA DC
ĠR ajmahal
ĠB e
al on
ĠSt andard
Ġk itchen
51 6
66 8
90 6
Ġho me
Ġgreen s
E T
Ġ venue
er th
Ġl at
ĠI n
Ġli ver
ĠB angkok
Ġ4 1
ĠD e
Ġpe terborough
Ġav alon
ĠV arsity
Ġarch way
Ġconc erth
Ġcold ham
Ġliver pool
. .
1 12
B T
D N
O G
X C
l f
r uis
Ġa limentum
Ġn orwich
Ġb it
Ġy ard
at em
ar ner
Ġar cade
amb ourne
ĠA lpha
Ġmat ter
Ġ0122321 0353
ĠMo dern
Ġhead ed
Ġ01223336 233
Ġcor rect
237 37
Ġdet ail
Ġconcerth all
ruis ers
atem an
A F
e g
i raz
j s
Ġ est
ĠC otto
it ar
ĠT ra
ĠB otanic
la ss
ĠM an
Ġth rough
ir med
ist ory
Ġr out
Ġ20 2
Ġbed ouin
Ġaf rican
Ġconf irmed
Ġlist ing
ĠFit zbillies
Ġgra nde
A J
I R
M F
P P
Q G
W L
Ġm ercers
ot pot
Ġf inches
Ġprice range
ĠT asca
Ġ07 5
00 60
en joy
Ġ6 6
Ġr ow
ĠV olvo
27 4
ĠUn o
unting ton
Ġevery thing
26 5
ĠGarden ia
iet y
Ġvar iety
Ġmed iterranean
E F
L Q
U L
n ot
Ġc orn
Ġge orgina
Ġ01223 52
Ġfe es
Ġneed ed
if y
ĠF e
ĠNe ed
Ġplan ning
Ġ0122352 5725
2 23
6 1
7 41
D S
J S
V N
Y Z
Z Z
Ġn irala
Ġp ound
Ġ0 17
ĠW hale
Ġst ansted
12 240
ĠB allare
Ġex change
Ġ012233 00
Ġ15 1
40 2
ĠNorth ampton
Ġout door
fe e
Ġsp ice
Ġ012239020 91
12240 240
W H
f fee
i x
ou ble
ar s
ow ing
Ġcan not
ĠB urger
Ġlo vell
Ġ3 9
Ġ13 3
ĠBar nabas
Ġmay be
Ġ087 12240240
Ġlat est
Ġdetail s
Ġrout e
5 12
B H
D T
E Y
J E
J K
J M
L a
M ilton
N U
O O
V C
W C
b w
h ill
or pus
Ġc ine
Ġrequest ed
ĠT ake
amb ar
ĠA venue
ĠG reat
Ġco me
Ġth ursday
Ġun fortunately
ĠJ unction
39 7
ue en
ĠAs k
ĠZ izzi
o me
Ġt uesday
Ġl ynn
Ġo ak
ri ll
ed iterranean
Ġch an
ĠT ime
Ġ01223 8
ĠM editerranean
Ġex cellent
Ġby ard
Ġ6 4
ĠK irkwood
Ġr ice
Ġ01223334 860
ĠPool s
ĠMo on
Ex cellent
1 54
6 11
A H
B K
I G
J X
L R
P R
T U
V T
Ġ (
Ġm arket
Ġf rench
Ġs ounds
Ġg r
Ġe ight
Ġe ach
ĠA mer
ĠA ddress
ĠB en
Ġlo dg
ap anese
Ġ07 1
ĠIt s
Ġ6 3
08 5
af ood
Ġ012234 741
Ġhigh ly
517 07
Ġcine mas
Ġ012234741 44
O h
P L
a le
g reat
s r
u da
Ġw he
it s
Ġ3 1
ĠE fes
ĠTh ong
af f
ag ama
Ġriver side
Ġriver boat
uda more
agama ma
2 00
A C
A corn
B Q
B R
D Z
F F
H ere
I I
J N
M O
M S
V X
W K
W X
Y K
Z N
Z Q
z a
Ġ ,
el er
Ġ1 24
ĠG ourmet
ĠS even
Ġse afood
Ġ07 78
Ġone s
Ġent ry
20 8
Ġun a
27 0
38 7
Ġsee ms
Ġho bsons
Ġ012239021 68
ael ogy
Ġhill s
aff ron
7 08
A S
I C
N ot
N andos
a use
n o
Ġy es
Ġs chool
ĠT o
ĠG andhi
ĠM imosa
Ġ012233 15
Ġ15 6
Ġcar olina
Ġv ietnamese
Ġget s
Ġ0122333 2320
wel ve
B G
E G
I F
M U
V H
V M
X G
Y Q
m erton
n nys
v aila
ic k
Ġd ire
ar ly
Ġf antastic
Ġs leeperz
Ġst evenage
Ġar ound
Ġ01223 566
Ġbe nnys
Ġpark side
Ġ07 2
ĠE nt
Ġ7 8
Ġ10 8
07 7
ĠJ inling
59 8
Ġpas senger
Ġ01223307 402
ĠBack street
Ġ0122342 0060
Ġconsi der
ĠAmer ican
udamore s
ause way
vaila ble
C urry
O U
Ġc ounty
Ġd ri
ĠC ineworld
ĠC affe
Ġprice s
Ġel y
ĠP l
Ġth ai
ĠN or
Ġ8 0
17 0
Ġad c
Ġsp anish
Ġ01223357 708
Ġuna vailable
A D
D Y
E P
W N
X Q
Y U
n ne
Ġn andos
Ġb otanic
Ġw andlebury
Ġst eakhouse
Ġe arly
ĠA li
Ġco ntemporary
ro ver
her n
Ġex pect
ĠF yne
21 0
ich ael
29 9
ind ers
ĠCo ntemporary
38 2
ĠQ ueen
ĠHo merton
70 5
Ġchrist i
ĠCorn er
Ġbegin ning
Ġ01223312 112
D one
y nne
Ġ ve
Ġt urkish
Ġa me
Ġc ou
Ġl ucky
nd er
ĠC enter
Ġpr ic
ĠH untington
ĠT ree
ĠT aj
ĠS oul
Ġ01223 29
Ġco ffee
ĠF inders
Ġ8 3
Ġro sa
Ġv illage
50 10
08 72
Ġwe e
che l
Ġvisit ing
Ġpleas ant
Ġpossi ble
A U
B O
C J
C L
G H
M H
M R
N R
P U
S F
S Q
U R
V P
l ia
n cy
w ard
Ġre g
Ġb irmingham
Ġc ruisers
ge ncy
Ġh istory
ĠC ow
Ġg ilbert
23 2
Ġhe dge
ĠS chool
Ġ01223 51
Ġex act
Ġ5 29
Ġ012233 11
Ġ10 6
Ġ9 6
17 8
ha ms
60 966
Ġ20 5
Ġj ubilee
ip ple
Ġlet ting
ĠGreen s
Ġ0122321 7
lass ical
Ġ01223300 085
208 000
Ġpric ing
A s
A ny
A lexander
O n
V O
Y O
c ent
Ġi d
Ġt ree
Ġb roxbourne
ar ian
Ġs ched
Ġ0 0872
ĠS id
is on
Ġ012233 33
Ġ07 88
24 56
Ġfit ting
ĠArt s
Ch rist
Ġsc ience
Ġame n
Ġcou ple
Ġsched u
Ġ00872 208000
Ġ01223333 516
B oth
C T
E W
F P
G D
I J
I Q
L H
L K
M N
N K
S H
V F
u ce
v el
x ican
ge s
Ġw ednesday
Ġf olk
ĠC opper
ed ges
ĠW as
ĠH edges
ĠS ala
ĠB aba
Ġme xican
50 9
59 9
46 00
888 2
ĠArch aeology
Ġ01223336 265
Ġ01223366 611
Ġ01223304 705
res cent
274 10
ĠBen nys
Ġhedge s
I K
l ish
Ġre ally
Ġc ase
Ġthe ater
Ġhe ld
ĠP unter
ĠM umford
ai d
ĠF rankie
Ġ6 9
Ġall owing
Ġspecif y
Ġarch aeology
Ġcl ar
ĠChrist i
Ġfun ky
ĠMe ze
2 21
3 54
4 46
C Y
C ould
D A
I X
J A
M K
R est
S D
S o
U W
V B
W R
X F
d z
e w
f is
q f
t uce
y our
Ġa stroturf
ent ion
Ġc ambourne
Ġp itch
el ix
Ġm imosa
Ġm ention
ĠC rescent
ĠH K
Ġrange s
23 8
Ġ4 2
Ġ3 27908
Ġor der
Ġ012233 55
ir ton
Ġ7 1
lu g
orn ing
Ġv ictoria
ĠJ apanese
40 50
Ġget ting
42 8
Ġpl ay
Ġap p
vell ers
22 2
Ġmar gherita
thank s
Ġ012239021 12
566 4
668 00
fis her
Ġ01223355 397
E R
I B
W onderful
a ut
Ġc lare
Ġm orning
Ġrequest s
Ġmo on
ĠT echnology
ĠA d
own s
ĠCo ld
27 7
ĠLo ch
Ġj ohns
Ġgarden ia
Ġinclu ding
Ġvar sity
ustri an
Ġ012238 66800
Ġamen ities
Rest aurant
B L
C K
F T
I H
M Z
N H
O I
S J
S N
T Y
U F
V L
V R
X D
X T
Y F
Z A
Z H
Z T
b j
b bey
c b
e y
i ful
i king
p ri
w ill
Ġa nthropology
in ch
he ep
Ġre c
Ġc ucina
Ġl uca
ĠC ookhouse
ĠC orpus
ĠW ine
12 660
Ġbe aut
ĠL uca
Ġ012233 54
ĠF elix
Ġ6 2
Ġwant ed
10 18
59 6
qu ale
87 7
ĠSh op
78 1018
Ġ0122336 5664
ĠMill ers
70 2
Ġtake away
Ġ0122330 4050
71 4600
Ġ012239020 88
ĠWhite house
Ġ01954 781018
Ġ01954 714600
City roomz
Ġbeaut iful
4 51
D O
E L
P izza
V K
u ral
nt a
Ġb ishops
Ġs oul
Ġch arlie
Ġst ortford
Ġwith in
ĠA nthropology
ĠN ight
Ġ7 10
Ġk ymmoy
Ġr uskin
15 5010
Ġsh op
ĠSh iraz
Ġarchitect ural
Ġchurch ill
Ġ36 5
Ġdin ner
Ġclar ify
5 52
B D
B M
E Q
E X
G Q
I P
J ust
P er
R K
U Y
V Q
W D
X K
X O
Z K
n z
t ail
Ġ ket
Ġt asca
in brook
Ġb u
Ġp unter
Ġw or
Ġw ater
Ġm issing
an ah
ĠC ounty
Ġra ng
Ġle banese
ĠH ere
art on
12 41
Ġ01223 7
ime house
Ġ2 5
ĠP ipasha
ai us
00 170
ĠF ood
ĠRe tail
51 66
Ġ13 9
Ġso ck
Ġ9 9
Ġro se
Ġcould n
38 30
way s
64 12
Ġ0122330 257
Ġ40 428
Ġ0122335 1241
Ġthan h
Ġ087 155010
Ġnor folk
ustri al
124 30
Ġwee k
inch inbrook
Ġket tle
anah ar
A V
H K
R Q
W Y
k n
Ġp alace
Ġs ort
Ġst andard
Ġme t
ĠM ight
ĠM idsummer
Ġex p
Ġse em
ĠSt op
ĠE mmanuel
11 8
Ġhow ever
Ġsh ort
clu b
Ġswimming pool
Ġapolog ies
Ġaccommod ate
ĠTra vellers
Ġ01223315 702
Ġdri ver
ĠNight club
kn own
C N
E K
G N
J Q
P D
P ark
W A
b d
b er
h y
i ly
t z
ra me
Ġc ent
Ġc amboats
Ġm umford
Ġf rankie
an gh
Ġany where
Ġst yle
Ġst orey
ĠG ra
ĠS itar
Ġoffer ing
Ġ4 6
Ġ3 50688
Ġu nder
Ġ5 66
Ġpe king
Ġ07 30
Ġ6 19
Ġarch aelogy
42 22
Ġal ways
mm as
Ġtake s
Ġ0122357 6412
Ġnor man
Ġ01223324 600
Ġlodg ing
pri se
Ġ0122330257 9
Ġ087155010 10
angh ai
C A
L ittle
M A
O N
P H
d ed
p s
t een
Ġa cce
Ġre ady
Ġthe at
Ġs ay
Ġs alsa
Ġle verton
Ġe fes
ĠB ut
Ġ012233 23
Ġwas n
Ġ07 60
ĠF irst
Ġwh ile
Ġ16 9
qu are
Ġart s
14 80
Ġinclude s
Th is
ĠNor folk
Ġexpect ing
ĠAd mission
Ġacce pt
1 88
7 34
9 11
A M
C S
D Q
G S
G U
H D
H H
I L
I Y
J F
J U
L M
L Y
O T
P K
P N
U T
W W
X A
m ily
p x
s x
w ould
Ġb allare
Ġc ookhouse
Ġc auseway
Ġw ine
Ġh oly
ĠC ucina
Ġs afe
ĠW i
23 60
12 60
ĠS w
ĠS affron
Ġ01223 2
ĠP as
Ġne are
Ġ3 51707
ĠSt orey
ia m
Ġk ohinoor
24 8
58 0
51 59
Ġ13 8
il ver
88 0
29 6
10 4
Ġ14 4
Ġun known
87 45
Ġhour ly
ab ase
oh n
Ġ0122333 2360
Ġnew s
Ġcold hams
Ġz izzi
Ġ01223304 906
Ġ01223324 222
Ġdat abase
Ġ0778 221
ichael house
446 000
Per fect
Ġrang ing
Ġneare st
Ġ0778221 8745
A K
X S
i al
n w
w es
Ġ "
Ġ er
Ġt welve
Ġb aba
Ġf ar
de ed
Ġ0 1480
ut door
ĠL uck
ĠL imehouse
Ġcheap ly
Ġrating s
ĠF usion
20 2
ĠO utdoor
the ir
Ġinterest s
Ġgraf fiti
ama ican
ĠSid ney
Park side
Ġtheat ers
wes ome
Ġ01480 446000
2 51
8 51
A Z
B F
B ye
G L
I N
J C
L W
P O
P Q
R F
X Z
Z F
Z R
f f
i g
i ous
re nt
Ġt echnology
ra ham
Ġb ateman
Ġy ippee
Ġin qu
Ġin deed
el ber
Ġh a
ĠW ater
it es
Ġle arner
ĠT ang
ĠA ustrian
ĠA bbey
ĠG astropub
Ġ5 7
Ġse oul
Ġ07 58
Ġ07 79
11 1
51 880
ĠK ambar
30 6
07 4
Ġv ue
50 17
52 64
59 1
id elber
Ġfit zbillies
ĠUn it
87 86
ab raham
Ġ0122336 4222
Ġconf usion
Ġ08 451
Ġcheck ing
Ġ40 210
Ġ36 2456
96 2320
Ġdes k
Ġ012239021 58
Ġcor pus
Ġrun ning
Ġ017 99
ĠPl ay
Ġmention ed
Ġrose ford
idelber g
Ġ08451 962320
G raf
J W
J Y
b ly
z will
er o
Ġc otto
Ġp urch
Ġy u
ge t
Ġh ad
Ġd uckling
Ġf rame
ĠL ook
ur rent
ĠM a
ak ing
Ġ0122324 3830
ok ay
Ġinterest ing
iqu es
Ġten ison
Ġz ero
Ġaccommod ations
Ġrec or
Ġaccept able
zwill iam
Ġpurch ase
A Y
B W
B Y
C C
E O
F H
F Y
J D
J O
J T
J V
M C
M L
N I
O Q
S G
U H
X P
X R
X W
d ney
g lia
h g
Ġ ed
nt on
re ady
or nton
Ġc urrent
pe nd
Ġra ther
Ġan glia
23 30
ĠD on
Ġne wnham
Ġ3 54
Ġ3 60966
ur ton
Ġ5 4
Ġ5 9
Ġ012233 279
Ġ012233 23737
ĠSt urton
Ġpre tt
Ġ8 9
Ġ13 2
Ġab bey
Ġ11 0
20 10
50 4
Ġsi dney
ĠV illage
ĠCo cum
ort hern
ĠTh ree
56 5
55 5
18 591
Ġpl ough
68 1
Ġ40 270
Ġ35 5166
Ġ078 077
ĠSo me
hi b
ĠFe z
Ġ0122329 5264
509 14
Ġcent ral
Ġ566 388
Ġ012233279 78
Ġprett y
Ġ078077 18591
N F
P hone
c ked
m ost
nt iques
he s
Ġp unting
Ġh otpot
Ġm aking
Ġf are
Ġf usion
Ġg rill
ĠW agamama
Ġst azione
ĠM ost
50 15
ĠJ amaican
Ġj inling
Ġal ready
Ġ0122330 2330
Ġdes ire
Ġten pin
ĠSc ott
Ġappe ars
Ġest ab
ĠTake away
Ġgr ounds
ĠEnt rance
Ġreg ard
ĠCold ham
1 87
2 525
5 00
A Q
A r
C Q
D B
D X
F U
G V
H N
H T
I W
I Z
J H
J L
M T
N A
N Q
O Y
P E
P M
V G
W B
W M
W Q
Z Y
b y
d o
g x
o ll
r or
s elf
w ick
in fo
Ġb el
Ġb urger
Ġc ow
Ġh iston
Ġh akka
Ġm idsummer
Ġra za
Ġan atolia
Ġany more
12 299
Ġco cum
ut e
Ġ3 23737
Ġ012233 59
Ġ012233 50914
ĠSt rover
Ġ07 46
Ġ07 39
21 38
ĠN o
24 00
Ġtable s
ĠJ ohn
39 0
35 5
34 71
32 00
36 1
Ġwhite hill
77 900
Ġind ustrial
79 42
70 15
86 50
Ġ0122335 5159
erra ce
ĠRiver side
Ġ01223446 104
525 00
Ġest ate
Ġdire ct
ĠGra nta
Ġer ror
Ġrecor ds
Ġestab lish
I M
R osa
Z U
i v
u y
nt il
ĠC at
ri ot
Ġs ir
ĠH otpot
Ġ2 41
ro ke
Ġu ntil
Ġse c
Ġpre zzo
ĠF rom
Ġ7 2
Ġ17 2
53 14
ĠUn fortunately
Ġqu ery
Ġ012234 77900
Ġ01223334 200
Ġ0122357 5314
ĠSc udamores
Ġdat es
Ġexact ly
3 34
B B
B e
C B
C lare
E H
F K
I A
I V
O L
P Y
R oy
S M
T H
W Z
Z L
Z W
f l
h x
s ha
ra j
Ġre vi
Ġn orthern
Ġc ineworld
mb roke
Ġd one
Ġnu sha
Ġf ull
Ġg irton
ĠW ere
Ġwi de
Ġch iquito
ĠH ong
Ġcho se
es ame
ĠG ilbert
ĠB lue
ĠB ateman
Ġ2 44
ĠD arrys
ĠP ounds
Ġ3 56
ĠL ynne
Ġ012233 50688
ĠSt azione
Ġ07 07
Ġ07 54
Ġ07 08
Ġ07 27
Ġ8 12660
Ġwh ipple
Ġstation s
Ġsome where
ĠLe arner
77 66
Ġking fisher
Ġback street
Ġde pend
Ġtr umpington
Ġnear by
110 53
Ġ0122350 33
Ġwhe eler
Ġ01223566 388
Ġve get
Ġ01223311 6
Ġ01223217 118
Ġschedu le
ĠMa hal
Ġed ward
Roy al
Ġveget arian
F i
O D
S R
S T
j b
o c
Ġb loomsbury
Ġh ap
Ġd arrys
ay sian
Ġtra ns
Ġname d
ction s
ĠG rey
ĠR ed
ĠB oat
al aysian
Ġu gly
Ġche cked
Ġso on
Ġassist ing
ĠInt ernational
Ġ19 6
Ġun o
ĠJ ust
ĠTown info
ust ral
Ġ0122335 5017
Ġact iv
511 511
ew s
Ġcurrent ly
Ġdesire d
1 66
4 00
6 16
7 660
7 877
8 43
A N
B C
C E
C o
E U
H C
J P
L U
M P
M e
O W
R N
R T
S K
U Q
V Z
W V
n x
o mp
p q
r q
s ons
t c
t l
w bray
Ġb angkok
Ġw ent
me mber
Ġh inchinbrook
Ġnumber s
an y
ĠC all
Ġmo wbray
Ġg alleria
Ġg ourmet
ĠT otal
Ġe mer
Ġar range
dd ars
Ġhe rs
ĠS esame
Ġ2 51
Ġ2 90
Ġ4 00170
Ġ4 12430
Ġfe z
Ġ3 28
Ġex hib
Ġ012233 35
ĠSt eakhouse
Ġ07 24
Ġ07 56
Ġ07 77
Ġ07 99
00 89
Ġ8 6
17 63
ha raj
88 71
60 55
46 7
Ġwork s
Ġam az
41 3
urch ill
ĠTh omp
80 2
19 4
Ġqu een
49 17
79 77
Ġ0122336 8650
ĠPe as
Ġ0122333 2138
Ġdid n
Ġ40 4
92 24
Ġ01223338 000
Ġthrough out
Ġwor ked
ĠWi Fi
Ġrevi ews
Ġemer gency
Ġhers chel
Ġ01223335 511
haraj ah
Ġamaz ing
ĠThomp sons
A E
G X
G olden
K C
S ounds
Y T
Y u
l ogy
m in
w hich
in es
Ġh aving
ar ri
Ġtrain ID
ed b
Ġhe ard
Ġ01223 511511
Ġme ghna
Ġu se
Ġ07 26
ĠF olk
ter s
Ġr ing
Ġtry ing
ĠInd ia
ĠLe banese
Ġj ourne
ĠBar nw
Ġ0122324 7942
ug hes
Ġpossi bly
Ġappe al
no on
Be fore
Ġhap pen
Ġjourne y
ĠBarnw ell
4 66
5 34
6 79
7 55
9 01
A llenbell
A natolia
A wesome
C X
D P
E B
F G
F O
G C
H L
H Y
I S
I U
J Z
K Z
L G
M V
N G
O B
O E
R U
S C
S X
T P
V E
W G
Z P
b be
e j
h ar
i bbe
j f
l x
p j
p p
t a
u ng
u bs
Ġ !
Ġa venue
ou p
he eler
or tra
Ġb abraham
Ġc lassical
Ġp rimavera
Ġl ion
Ġd u
ot s
ay side
The n
ere d
Ġg andhi
ĠW heeler
23 72
Ġe tc
Ġel even
ĠA stroturf
ĠG rill
ĠS heep
Ġ01223 46
Ġta j
ĠP anahar
ĠL an
Ġth ong
Ġ5 8
Ġ012233 27908
ank an
Ġ07 49
Ġpart s
21 6
Ġ7 32
ia ms
Ġk irkwood
66 53
Ġ11 3
54 78
08 681
ĠV ere
52 6
27 25
Ġgo g
35 7
Ġ18 3
ĠTh is
ĠHow ever
Ġ0122324 7015
Ġ0122324 0089
44 8
ĠMay be
Ġ0122333 3200
Ġ0122333 7766
Ġ24 8882
astrop ubs
Ġperson ally
Ġmag og
512 2
Ġ0122351 9224
Ġ354 382
Ġ012235033 33
edb ur
ibbe an
ortra its
5 29
T ra
a xi
l owns
o bsons
Ġa ccess
el come
Ġf act
ct ually
ĠG r
ĠR uskin
ĠB lack
ĠP unting
Ġwill ing
Ġ012233 56
Ġ07 12
Ġ07 34
21 9
24 7
Ġ9 4
Ġtravel s
ĠO K
bs on
53 3
Ġ0122336 8786
ĠQ u
89 88
Ġafter noon
ub an
ĠHo bson
Ch iquito
Ġ0122357 5122
Th anh
Ġgr oup
ĠQueen s
Ġqueen s
1 46
1 80
3 00
4 07
7 50
8 07
8 111
9 77
A B
A ctually
D D
D G
D efinitely
E I
F E
F N
F Q
F R
G F
G T
K D
L A
L E
L N
L S
N C
N Z
O J
Q L
R J
R L
S Y
T I
V U
V V
X U
Y G
Z B
Z S
Z V
h ave
j j
r g
t ree
u f
u j
u p
x a
er man
Ġp ri
Ġp erne
Ġp aid
Ġd ouble
ĠC lassical
Ġs out
Ġs ilver
Ġmo ment
Ġg astropubs
ree k
ĠH ope
ĠH ilton
ĠH ughes
23 54
ĠT elephone
Ġst op
Ġhe idelberg
ĠS leeperz
ĠS lug
ĠS quare
Ġ01223 84
ĠR ow
Ġbe ing
ĠB usiness
ĠB arton
Ġme an
ĠP la
ĠP itch
Ġ3 15
ĠL and
ĠM y
Ġse ction
Ġ07 19
Ġ7 27410
58 1
Ġ9 0
Ġv iking
20 54
29 2
40 4
46 2
Ġsh anghai
Ġam er
32 565
90 3
53 355
Ġsearch ing
Ġ0122333 2400
ĠPol ar
ĠLet tuce
Ch urchill
Ġpas quale
Ġ0122327 6653
Ġ0122342 5478
Ġ0122350 6055
Ġ01223566 188
Ġ0122351 8111
Ġbu dge
Ġshort en
Ġregard ing
Ġ241 387
edbur gh
ĠGr ounds
ĠQu ayside
Ġ0122384 2725
ĠPla za
Ġ315 232
E l
G onville
K K
M M
R E
a corn
j mahal
p a
s orry
u ss
Ġi de
Ġc opper
Ġp ut
Ġp ast
Ġm ain
ne t
Ġd rop
Ġf in
ĠC uban
Ġs ites
Ġra jmahal
Ġyour self
Ġ2 6
Ġ3 4
Ġdo nt
ur ing
Ġloc ate
Ġ07 57
Ġsel e
ter n
Ġk orean
51 53
os her
Ġdeparture s
Ġaf ford
Ġnarrow s
Do es
Ġ0122336 7660
Ġ01223353 248
Ġinclu ded
Ġthin king
ĠMo derat
Ġ0122327 7977
Ġtrans port
Ġbudge t
0 30
2 12
3 58
3 30
3 17
3 60
B roughton
C H
C M
D H
F D
H Q
H X
J B
J J
K B
K P
K Q
K U
L C
M B
N W
O C
O F
O P
P T
R D
S B
S Z
S aigon
U P
V W
X Y
Z E
i ed
i vely
j y
q b
q y
Ġ ke
Ġc ate
Ġl and
Ġl ate
Ġd uring
ĠC row
ĠC aius
ĠC lowns
ri sh
Ġs aid
Ġs lug
ĠH ers
ĠH ung
Ġe mmanuel
ĠA ustral
ow bray
Ġta king
Ġ2 00
ĠM ercers
ĠM owbray
Ġ012233 48
Ġ012233 52500
Ġ07 21
Ġ07 11
Ġ07 17
Ġ07 59
Ġ07 01
Ġ07 36
Ġ07 38
Ġ07 06
Ġ07 89
Ġ07 69
00 59
51 8
and o
Ġ11 6
Ġma harajah
Ġv in
54 0
ĠJ ubilee
ĠO ff
27 6
Ġgo es
Ġal right
13 1
49 4
Ġlet tuce
18 4
Ġ012234 12299
Ġ0122336 3471
ĠLa mmas
Ġfa mily
Ġhall s
Ġsuit able
Ġenter prise
Ġ52 1260
Ġ01223357 851
ĠFe el
As hley
Ġ012237 27410
Graf fiti
Ġsec ond
Me ghna
Ġexhib ition
har ine
Ġamer ican
uss ian
Ġafford able
Ġcate g
ĠCrow ne
ĠHers chel
D a
F inches
H amilton
L o
O ld
Q U
R A
S aint
W I
W as
c ambridge
c il
q a
u nd
z en
Ġa ntiques
st and
Ġre member
Ġc ab
Ġp ipasha
Ġy et
Ġm ust
Ġis s
Ġd ue
se s
ed ish
one se
Ġwith out
Ġ4 8
Ġrecommend ed
ĠP ost
Ġdo zen
Ġth ir
ir ing
Ġ07 40
ant onese
Ġam ount
Ġ0122324 7877
ĠMar riot
Ġsee ing
Ġ0122330 2010
Ġfa cil
Ġ01223312 843
Any thing
Co ntact
net ian
ĠAustral ian
3 77
5 57
6 20
6 57
7 09
7 966
8 28
9 448
A t
B angkok
C I
D F
G E
G G
K F
K T
L F
L T
N N
O H
P C
P J
P Z
Q S
R H
R V
R oomz
S A
T B
T X
T Z
X I
X V
X X
Y I
Y e
Z D
a a
d ir
h t
j e
l ville
n l
p m
u mber
v ent
w y
x h
or s
or oc
Ġb ill
Ġc aius
Ġp ortraits
me house
ĠC ambourne
Ġs ince
Ġs itar
Ġrest ate
Ġli mehouse
23 1
23 9
Ġst rover
Ġe raina
12 598
Ġ01223 44
Ġ01223 512
Ġco lville
Ġ4 32565
ro logy
ĠD anish
ĠD ouble
ĠP ress
ĠP assage
Ġon ce
ĠM alaysian
Ġth ornton
Ġloc al
Ġ012233 51707
pensi vely
Ġse nd
Ġ07 00
Ġ07 51
Ġ07 50
Ġ07 15
Ġ07 16
Ġ07 09
Ġ7 6
24 5
58 3
ĠCity Roomz
66 66
50 1
Ġsi dg
60 60
Ġ14 1
Ġkn own
Ġsh iraz
Ġspecific ally
16 074
42 64
Ġal most
Ġal tern
77 1
77 86
48 100
78 6
rew ery
Ġcl owns
ex cellent
Ġ0122335 0059
erie nce
Ġvar y
Ġ012237 48100
Ġexp erience
ĠSw iss
ĠPas quale
Ġcentral ly
ĠCat harine
Ġtransport ation
Ġke ep
Ye ah
oroc can
ĠDouble tree
) .
. ,
3 21
8 26
C O
H A
H i
K O
M ight
O V
P e
S I
T o
e nd
f ic
i er
Ġ ver
Ġi mp
Ġa li
Ġb ro
Ġd el
Ġf if
Ġadd res
ĠA n
ĠS orry
Ġhelp ing
Ġme ze
Ġmin s
ĠF our
ĠN ando
88 42
ase d
qu e
Ġspec ial
Ġbar be
Ġfit zwilliam
Ġnarrow ed
Un iversity
itect ure
Ġ0122333 5153
Train s
Ġ01223353 110
Ġperson al
ĠCar ibbean
bil ities
Ġpossi bilities
Ġconcerthall s
ĠTra vel
Ġwhe ther
Ġschedu led
Ġswimmingpool s
Ġinqu iring
Ġdirect ly
Ġestablish ment
Tra vel
Ġ01223512 596
2 50
3 39
3 78
3 270
5 599
8 17
9 08
9 80
9 38
A I
C D
C G
C P
C Z
C afe
D V
D W
E M
F M
F irst
F antastic
G W
H ello
H obsons
J R
K E
K N
L L
L P
N E
N L
O Z
O ne
P ostcode
P rezzo
Q E
Q P
Q W
U E
W U
X B
Y P
Y W
Y X
Z M
a den
d ered
e e
e h
u al
er ri
Ġb arton
Ġp ress
Ġp umping
oo t
Ġd is
ar y
Ġf yne
Ġf oll
Ġs aigon
ce pt
ed ouin
Ġg ues
one sian
Ġhave n
Ġ01223 69
Ġhelp ed
as ian
Ġ3 51880
Ġ3 12598
Ġex pensively
Ġ012233 06
Ġ012233 51880
Ġ012233 11053
Ġ07 10
Ġ07 80
Ġ07 44
Ġ07 37
ĠE nd
ĠF a
11 7
Ġk ambar
58 5
51 54
66 2
Ġab s
30 71
20 9
20 94
50 2
88 00
29 3
29 87
It s
un fortunately
ĠV in
ĠV iking
Ġun sure
Ġj unction
19 9
Ġqu al
Ġ0122324 8882
28 6
ie ve
Ġ0122336 1763
Ġ0122336 2372
Ġ0122336 3270
Ġ0122336 5599
Ġ22 5
25 12
89 9
ca use
Ġfa ir
ĠWh ipple
Ġ01223357 187
ĠWhite hill
Ġsc udamores
ĠRose ford
Ġ01 462
ĠIn fo
Ġcome s
Ġ01223311 911
599 88
Ġ01223323 361
ĠSw edish
ĠPas senger
Ġbel ieve
Ġ01223359 750
Ġ356 555
min ute
526 07
Ġpri nt
Ġsout hern
Ġcateg ory
wy dir
Ġsidg wick
Ġbro aden
Ġgues house
Ġ0122369 4264
A utumn
C ote
E raina
F rankie
N D
N T
Q H
S ala
T C
U C
V ery
X L
a lexander
b all
c on
i ent
n j
o m
r ing
s ca
t y
Ġt ou
Ġl ow
Ġm is
Ġm ichaelhouse
ne d
Ġf an
Ġf all
ĠC ol
Ġs ala
Ġbooking s
it t
ĠT welve
ĠT axi
Ġe ver
ĠG erman
ĠS ri
ĠL ankan
ch rist
ĠM ichaelhouse
Ġex cept
gh an
ĠRe f
un ch
ĠO n
41 87
Ġspecific s
Ġup sca
56 8988
oth ing
Ġcon ven
ĠY ellow
Do jo
14 7
Ġtravell ers
Ġtr ouble
Ġconsi dered
Ġlodg ings
Ġdire ctions
Ġapp ro
Ġactiv ity
Ġfif teen
Ġupsca le
1 07
2 60
2 580
3 51
3 19
6 29
6 59
7 54
8 08
8 39
9 58
9 89
A h
A ddress
B A
B J
B edouin
C W
C ineworld
D L
D U
D owning
F W
F X
F rom
G J
G Y
H G
H P
I E
K R
K S
K X
L Z
M E
M J
N B
N S
Q B
Q C
Q D
Q T
R O
R R
S S
S W
S u
T D
T J
T V
U O
U X
W hale
Y L
Y ippee
Z O
d b
d h
h l
l j
n f
o j
o ver
o int
t w
t ely
v ian
re st
Ġt ang
Ġt errace
ic a
op ing
er prise
Ġb o
Ġb rewery
Ġc ote
Ġh ong
at ure
Ġm ood
Ġm us
Ġf ul
ĠC ruisers
ĠC auseway
Ġat te
Ġs w
le igh
Ġ0 124
Ġle ast
23 0
ĠT errace
tra in
12 6
ĠA ng
ĠG irton
ĠB ur
Ġ4 3
Ġ4 50
Ġ4 13
ĠP rice
Ġne u
Ġne ither
ĠL W
ap ier
ĠM U
Ġex amp
xi m
Ġ012233 240
Ġ012233 236
Ġ012233 60966
Ġ012233 16074
Ġ012233 52607
Ġche ddars
Ġ07 66
Ġ07 35
Ġ07 13
Ġ07 18
Ġ07 33
ĠF oot
21 8
ĠN ow
11 00
Ġ8 4
Ġ9 2
30 9
Ġma hal
88 60
us can
29 0
Ġ14 3
59 4
27 53
46 8
39 3
39 42
Ġspecif ied
41 49
57 67
56 1
56 4
36 3
ĠWill iams
ĠSh anghai
28 3
Ġcour t
Ġ0122336 4917
Ġ0122336 2054
ĠKing fisher
Ġcomple tely
89 8
OK ay
Ġ0122330 2580
Ġ0122333 8800
Ġ0122333 1100
ĠChrist mas
wi se
76 5
Ġ30 2
Ġ0122335 3071
Ġ0122335 3942
ĠArch aelogy
Ġ36 2525
Ġvar ious
74 23
Ġac ross
Ġla mmas
Ġ01223312 598
Ġ01223338 400
Ġ01223366 202
600 3
Ġ01223307 030
ĠFit zwilliam
Ġda le
Ġappe ar
Ġ0122350 5015
ĠEnt erprise
ĠPl ough
Ġ01223354 382
Ġ01223354 755
Ġunder stand
251 5
Ġ012233116 25
Ġide a
ĠHung arian
ĠFa mily
Ġappro xim
Ġ0124 54
ĠAng lia
ĠBur leigh
Ġ413 000
Ġexamp le
Ġ012233240 33
ĠFoot ball
5 219
C herry
E nt
H E
K ymmoy
L I
M I
M ost
Q I
W elcome
Y E
a w
a it
b our
g ood
i od
o f
r t
Ġ Yes
Ġt ri
Ġt our
ic ine
Ġb ased
Ġc at
Ġp m
Ġw on
Ġw agamama
Ġh oping
Ġl ynne
Ġm ist
ĠI S
th at
ave s
Ġs quare
Ġmo d
Ġ0 2
ĠH istory
Ġ01223 568988
Ġcan c
Ġbe cause
ĠN umber
24 1
ng lish
ĠU K
ĠChe st
Ġper iod
Ġcuis ines
Ġsuggest ion
Ġ0122336 2525
Ġri ding
ara nt
ĠPe mbroke
98 59
Ġ01223336 540
Ch arlie
Ġmed ical
Ġmed icine
Ex press
.. .
Ġ0122329 2094
Ġ01223323 178
Ġ012232 59988
Ġsele ction
Pe king
Ġver ify
Ġabs olutely
ĠCol ville
Su ccess
rest aurant
Ġapproxim ately
Ġtri ed
Ġmist ake
1 44
3 35
4 12
4 58
4 10
4 277
6 10
6 36
6 18
7 06
7 44
7 69
8 27
8 46
8 34
9 90
9 55
9 49
A O
A P
B X
B yard
C V
C astle
C lub
D E
E V
E mmanuel
F S
F Z
H S
H V
J inling
K G
K H
K W
L X
N J
N P
N X
O X
P F
P W
P X
Q A
R ice
T G
T L
T T
W O
W T
W orth
Y M
Y V
Y Y
Z I
Z X
c ity
e ar
h and
j u
j x
j ust
l o
m il
p d
r b
r j
s ame
u w
Ġc lu
Ġc affe
Ġp ara
Ġp ub
Ġp ull
Ġh k
at ology
Ġl an
Ġm ill
se x
Ġf ully
Ġs at
Ġs heep
ce ss
Ġ1 23
Ġg wydir
Ġ0 184
ĠH inchinbrook
ĠT D
12 9
ĠG PB
ĠG reek
ĠS ilver
Ġ01223 413
ĠB el
Ġta l
al an
ĠD K
ĠD u
ĠP D
ĠP erne
Ġ3 00
Ġ3 53
Ġ3 08681
ast on
Ġ5 53355
Ġ012233 30
Ġse same
Ġ07 43
Ġ07 90
Ġ07 48
Ġ07 70
Ġ07 86
00 5
if ic
use d
ĠRe gency
24 20
Ġ10 7
51 9
51 70
and ina
66 7
Ġop e
20 25
20 83
88 6
88 13
54 5
54 84
60 3
29 00
ĠU N
ĠU Q
ĠO Y
52 2
27 330
46 30
39 5
57 9
43 8
Ġj edburgh
Ġtrip s
ĠTh ornton
56 9
36 82
45 50
19 3
16 9
af ter
06 37
Ġ0122324 49
Ġ0122324 4149
Ġ0122324 4277
77 6
77 55
77 977
Ġind ia
26 1
Ġ012234 00170
Ġ012234 12430
Ġ0122336 3682
Ġconf used
99 00
Ġ0122333 2900
ex press
ĠPol ish
86 20
Ġ30 8871
ĠArch itecture
Ġprovi ded
Ġprovide s
47 48
Ġsuit s
Ġcross over
82 07
93 131
02 54
ĠTen ison
ĠSc ience
Ġ01223307 581
Ġ017 33
Ġ012238 12660
Ġ01223315 232
Ġ072 29
Ġreg ion
Ġexp and
Ġ46 4630
oll aston
Ġ244 277
Ġ012233116 87
Ġ0122346 2354
Ġthir teen
Ġ0122344 8620
Ġaddres ses
Ġfair ly
Ġconven ient
oj g
Ġ012233236 39
2753 771
Ġ012454 93131
846 4
hand i
Ġclu bs
Ġ0184 2753771
Ġ01223413 000
Ġ01223330 906
andina vian
Ġ012232449 55
1 387
4 32
7 19
B ridge
H ope
H akka
T ry
V A
b p
c urry
g ian
i ld
p hone
u arant
w r
Ġt on
Ġt erri
st ate
he nd
er vation
Ġc reat
Ġc lass
Ġy ear
el p
Ġw ait
Ġh und
at ive
Ġd ai
se d
ĠI rish
ar olina
Ġs affron
le sbray
Ġpr op
ĠT uscan
ĠA T
ĠR ing
ĠD es
Ġfe ature
ch way
ĠM ichael
Ġres p
Ġk osher
us ual
10 2
vi ous
ĠInd onesian
Ġwork ing
41 34
Ġal one
the y
ĠEx pensive
Ġ0122330 8871
Ġ0122321 73
Ġconc ern
05 52
Ġlast s
Ġwor ries
Ġha em
ĠSome thing
Ar bury
Ġestablish ments
Ġdepend ing
arri ve
Ġ01223356 354
Ġdozen s
Ġimp ort
Ġfoll owing
Ġgueshouse s
Ġfan cy
Ġmus ue
Ġsat is
Ġhund red
Ġdai ly
Ġfeature s
2 59
2 53
4 20
4 54
4 216
5 390
6 54
6 41
6 76
7 59
8 903
9 30
9 561
A W
A li
B loomsbury
C amboats
D K
E A
F I
F it
G A
G O
G Z
H B
H F
H I
H J
H R
H ome
I m
J I
K A
L D
N othing
O A
Q F
Q R
Q Y
R P
R S
R W
S E
S P
S h
T K
T N
T O
T W
U K
U V
U Z
V I
V J
V S
X E
Y B
Y N
Y S
a ed
b ridge
c ue
e idelberg
g ot
g wick
i at
i dd
l ist
r l
nt own
Ġt ons
ic ious
Ġre l
er on
Ġc le
Ġp anahar
me ters
ve ral
at ively
Ġd ow
ĠI G
ĠI H
Ġnu mer
ĠC antonese
Ġ1 12
Ġ0 3
ĠW O
ĠW S
Ġan sw
ĠH elp
ĠH eidelberg
Ġe ater
Ġe vent
12 1
es ervation
Ġthere after
ĠA t
ĠA ntiques
ĠS U
Ġ01223 59
as on
ĠB S
al al
Ġ2 64
Ġ2 77977
Ġco mm
Ġ4 14
ĠD epart
ĠP L
ĠP Y
Ġlo ch
Ġ3 11053
ĠL ion
ĠM T
Ġ5 77
Ġ012233 08681
Ġreser ving
Ġ07 23
Ġ07 20
Ġ07 52
Ġ07 64
Ġ07 76
Ġpre vious
Ġman age
if i
ĠE C
ĠE dw
ĠE state
Ġ15 0
ĠN apier
11 5
11 59
11 63
Ġeast ern
24 6
Ġ10 2
Ġ6 1
Ġ6 00
66 1
Ġ9 42
Ġ9 180
Ġ11 5
Ġ11 8
07 5
07 6
Ġr ussian
20 6
20 45
17 91
50 56
88 7
54 54
60 4
60 5
29 74
Ġ12 2
10 8
Ġ14 0
Ġun usual
Ġun list
ĠJ Z
52 8
52 25
52 1260
59 21
40 6
46 51
Ġ18 9
41 4
01 89
57 29
ĠChe ddars
43 19
Ġj apanese
56 7
80 3
80 6
16 7
16 81
53 1
87 0
06 35
Ġ01223358 899
Ġsuggest ions
28 00
Ġstart s
48 1
48 59
26 9
Ġcomp lex
Ġcomp any
ĠZ B
ĠZ K
Ġ0122336 7755
Ġ0122336 4319
25 34
ack street
ara unt
99 37
70 40
68 34
ĠMuseum s
Ġgive n
ĠPol yne
Ġ079 7
Ġkind s
Ġ01223334 898
Ġ0122335 6666
Ġ0122335 6060
47 4
Ġsp ot
Ġeat ing
Ġ087 1
ĠPer sian
Ġpas seng
Ġaccommod ation
Ġ01223338 901
Ġ01223338 300
ĠTrain s
Ġ01223366 552
85 30
Ġ01223300 552
ĠNor man
ĠSid gwick
ĠCold hams
Ġ01223354 679
Ġshort ly
Ġ01799 521260
Graf ton
ĠScott ish
Ġ01223359 506
Ġ244 955
166 1
616 3
534 8
Ġ01223356 555
807 0
ĠModerat ely
Ġ01223348 3
Ġiss ue
Ġfacil ity
Ġaltern ative
Ġdel icious
ĠAn other
Ġbarbe cue
Ġneu rology
bour n
Ġpara meters
Ġ353 110
ĠDes k
Ġimport ant
Fit zbillies
Ġdow ntown
Ġ577 786
ĠEdw ard
Ġunlist ed
ĠPolyne sian
Ġpasseng ers
0 24
3 12
3 38
4 23
8 33
9 78
9 26
C ong
C orpus
H untingdon
O ur
P rimavera
R iver
S t
W ere
W andlebury
d itional
g raf
l ic
n andos
p ed
r u
he d
Ġb ring
Ġc amp
Ġp ul
ay lesbray
ri ver
Ġtra ditional
Ġs ing
Ġrest urant
Ġg ast
Ġg bp
Ġ0 0
it u
Ġle ss
23 178
ĠT H
art ing
Ġe n
Ġel der
Ġelse where
ĠG handi
ĠR Q
as que
Ġme ant
ĠP I
ĠM oroccan
Ġres pect
Ġpe mbroke
icket s
en pin
Ġwest side
07 88
Ġr d
Ġas ked
Ġspe nd
35 77
ĠLe aves
Ġj o
ĠCollege s
Ġ0122324 1387
Ġentertainment s
Ġad ress
Ġad just
Ġ0122336 2456
Ġrequire ment
ex t
star s
Ġquest ion
Ġfavor ites
Ġ01223338 600
Ġsc ott
Ġve netian
As k
Ġapp oint
Ġ012232 27330
Ar chway
Ġactiv ities
ters borough
Ġdrop ped
ĠModerat e
321 1
Ġcanc el
Ġpub lic
Ġope rat
Ġhaem atology
Ġnumer ous
Ġmanage d
Ġpul led
Ġelder ly
Ġappoint ment
- -
0 49
1 34
1 502
2 07
2 56
2 292
3 11
3 59
4 765
5 58
5 59
5 36
6 77
6 110
6 357
7 57
7 87
7 802
8 494
8 199
9 87
A X
A DC
B S
B allare
B ackstreet
D M
E E
F A
F C
F J
F V
G P
H M
K I
K M
K Y
L J
M X
N usha
P G
P ost
Q J
Q M
Q V
Q Z
R C
R G
R X
R Z
T E
T F
T andoori
T enpin
U A
U D
U M
U N
V ue
W J
W P
W arkworth
X M
X N
Y D
a m
b g
d an
e v
e al
e netian
g oodbye
h u
p b
p lease
q e
r ic
r di
r ooms
s ion
t q
x u
re ci
Ġa wesome
ra unt
or dan
Ġre ason
Ġb us
Ġp aed
Ġy o
el sh
Ġw r
Ġw orld
at ing
Ġl arge
ĠI R
Ġf ro
an age
an asian
ĠC Y
ĠC our
Ġo we
Ġrest araunt
Ġ1 88
Ġg ave
Ġg reek
ĠW A
ĠW V
ĠW elcome
ĠW elsh
ĠH I
23 4
ĠT J
Ġany th
Ġst ick
amb rdi
ĠG o
ĠG og
Ġ01223 500
ĠR I
ĠR ussian
ĠB ook
ĠB abraham
Ġ2 26
Ġ4 12299
si ve
ĠP M
ĠP umping
Ġ3 11
Ġ3 66
Ġ3 23178
ĠL P
ch iquito
Ġ07 29
Ġ07 87
Ġ07 28
Ġ07 84
Ġ07 511
Ġsu ff
ĠF R
ĠF T
ĠF Z
21 30
21 53
ĠN T
11 4
11 9
Ġ7 7
Ġeast side
24 33
58 9
58 74
Ġ8 7
Ġ8 28
ĠK H
ĠK osher
66 9
66 88
30 7
30 43
07 1
07 2
20 21
20 61
50 8
88 24
54 3
54 6
54 01
Ġsi ze
29 39
ĠU C
ĠV H
ĠV J
ĠV enetian
ĠCo ffee
ĠJ N
ĠJ edburgh
ĠJ ordan
15 37
59 2
27 30
27 15
46 3
46 26
46 79
46 98
ĠInd ustrial
39 48
34 1
34 5
34 9
57 11
57 37
32 8
ĠChe ap
90 9
38 6
19 23
16 8
09 27
09 95
Ġper sian
87 92
Ġpro cess
ĠY Y
Ġ0122324 99
55 07
44 9
44 66
42 12
42 56
77 0
77 33
49 75
28 26
48 2
Ġlet s
18 28
26 21
79 2
79 31
ĠZ F
ĠZ N
ĠQ A
25 30
ĠX L
37 4
37 02
99 69
Ġmar riot
68 4
68 38
69 71
Ġ079 6
Ġ079 56
Ġ076 23
76 1
76 56
Ġ36 8786
Ġ36 3471
Ġ36 1763
Ġ36 4917
ĠMag og
31 38
63 34
Ġreach able
149 9
ĠAf ghan
Ġ012239021 16
Ġ070 4
Ġac ute
05 23
Ġaccom od
ĠSc andinavian
Ġ012234646 30
Ġ01223338 100
Ġopen ings
Th ose
600 9
Ġperfect ly
Ġgra nta
Ġ41 518
Ġ017 335
154 9
Ġapp reci
Ġinqu i
500 9
Ġ356 354
arri ving
901 6
ots pot
Lo vell
557 0
Ġ01223306 283
989 2
Ġful bourn
Ġatte nd
Ent rance
ĠChest eron
827 2
Ġresp on
iat ric
Ġrel atively
Cong rat
Ġcamp us
Ġrespect ively
ev anage
eal and
Ġpaed iatric
ĠCour t
ambrdi ge
Ġ01223500 005
Ġ311 911
Ġ366 668
ĠJordan s
Ġ012232499 55
Ġ017335 53355
! !
8 36
8 533
A d
A ylesbray
A valon
G ot
H O
I O
K ohinoor
P I
R eservation
U U
a ce
a pe
g olden
h ic
p izza
u ld
u nder
re an
Ġi rish
Ġa ustrian
or rect
Ġc antonese
Ġh ist
Ġh and
Ġl ankan
Ġm alaysian
Ġm oroccan
ĠC ors
ri val
Ġs m
Ġs ri
le ss
ke nd
Ġfor got
Ġprice y
fere d
Ġ0 4
ĠW ifi
Ġra te
Ġe as
Ġe nglish
ĠA M
ĠA yle
Ġco nt
Ġ4 5
ut er
ul ations
ap orean
ĠM I
Ġ07 42
Ġsu s
Ġmin e
ĠRo man
Ġcar di
Ġser ver
51 5
Ġass u
Ġ9 7
07 21
Ġwh ale
Ġsi mil
ĠV A
ĠO R
Ġas king
ĠRestaurant s
Ġfit z
Ġal ot
Ġal ong
ott en
ab ly
Ġcomp uter
ĠAre a
Ġmy self
ĠPe tersborough
Ġcl in
Ġtake n
76 10
Ġmost ly
Ġchange d
Ġsp ots
Ġac c
Ġde c
Ġde al
urger y
Ġz ip
Ġopen ing
01223 24
ĠBe fore
Ġve hic
Ġwee kend
Ġbu y
ĠCat alan
Ġchose n
Ġappeal s
Ġappeal ing
Ġiss ues
Ġfacil ities
Ġqual ity
Ġtou rist
Ġmis under
Ġtal king
Ġton ight
423 5
978 1
Ġappreci ate
Ġinqui ry
Congrat ulations
Ġhist or
ĠRoman ian
Ġcardi ology
Ġsimil ar
Ġvehic le
0 10
0 467
1 58
1 581
2 54
2 000
3 32
3 80
3 596
4 29
4 08
4 34
4 170
4 202
5 50
5 32
5 38
7 24
7 40
7 38
7 49
7 309
8 38
8 387
9 17
9 41
9 19
9 533
9 276
9 102
A gain
A bbey
C F
C all
D J
D R
D e
D arrys
G I
H Z
K J
K L
K ettle
L B
L O
L V
L e
N M
N V
N Y
O M
P S
P ipasha
Q ueen
R B
R ajmahal
S c
T M
T wo
T elephone
T aj
T axi
U B
U G
U I
U J
U S
W agamama
X J
Y A
Z J
b angkok
c ular
c amboats
d f
g onville
h r
i se
i ving
l ittle
m ous
o ld
p ounds
r f
t o
y u
Ġ QQ
re t
re ad
Ġt w
Ġint end
st ood
Ġre gency
er vice
Ġb unch
Ġc ut
Ġc ool
Ġp anasian
Ġin c
Ġh alal
Ġl unch
Ġm idd
ne ver
Ġd anish
se ss
ĠI A
ĠI J
ĠC W
ĠC Z
ri end
Ġs itu
Ġrest raunt
Ġmo vi
Ġ1 20
Ġg otten
Ġg iving
ĠW F
ĠW U
ĠW ell
ĠW ollaston
Ġwi s
Ġli king
ĠH H
ĠH J
ĠH appy
ĠH otspot
23 79
23 25
ĠT F
ĠT G
ĠT P
Ġst ated
Ġe m
12 5
Ġfood s
ĠA O
ĠA V
ĠG I
ĠG S
ĠG W
ĠG DP
ĠS D
ĠS G
ĠS Q
ĠS Y
ĠS us
ĠS ystem
ĠS ervice
Ġ01223 25
ĠB A
ĠB Q
ĠB T
ĠB elf
Ġ4 00
Ġ4 20
Ġ4 80
Ġ4 48
ro y
ro sa
ĠD G
ĠD P
ĠD arry
ĠP C
ĠP G
ĠP J
ĠP Q
Ġ3 52500
ĠL K
ĠL X
Ġdo ing
Ġu rology
Ġex ist
rat e
Ġ5 5
Ġ5 18
Ġ5 25
Ġ07 47
Ġ07 598
00 9
00 32
Ġnorth ampton
ĠE H
ĠE L
ĠE O
ĠE ach
ĠF D
ĠF F
ĠF K
ĠF N
21 3
ĠN K
Ġwest ern
24 9
Ġ8 1
51 08
ĠK Q
ĠK U
66 6
07 9
07 43
07 18
07 98
07 97
20 58
17 56
17 55
17 04
17 61
50 5
Ġav ai
54 2
54 13
54 65
60 1
60 2
60 6
60 66
29 8
29 50
29 29
29 85
29 180
Ġ12 233
10 27
08 6
08 7
ĠU G
ĠCo st
Ġsome one
ĠAr cade
ĠO O
ĠO ther
52 12
59 09
59 65
40 15
27 5
27 8
27 04
46 9
46 80
46 25
39 2
39 4
39 8
Ġas sess
35 6
34 12
34 56
41 9
01 88
57 2
57 3
57 4
57 20
32 25
43 79
90 20
56 77
56 86
56 94
80 9
80 17
80 42
36 9
36 00
36 85
38 1
38 44
19 8
19 97
16 88
16 10
09 19
09 22
09 96
53 7
87 3
87 30
Ġcon st
Ġqu ick
Ġplease d
ĠY E
ĠY OU
44 94
42 84
Ġvisit ors
13 7
13 16
49 6
48 49
48 28
ers on
26 2
26 8
79 3
79 28
33 71
ĠZ J
ĠZ Z
Ġ0122336 50
Ġ0122336 5454
Ġ0122336 2433
Ġpick up
ĠQ F
ĠX X
37 3
37 20
89 13
Ġrequire d
22 57
99 8
99 33
ag on
70 47
68 5
68 11
Ġgive s
Ġ0122330 2800
olksw agon
69 6
69 39
Ġ079 3
Ġ079 24
Ġ079 15
86 10
86 36
ci de
Ġ076 29
Ġ076 57
Ġ076 18
Ġ30 2010
Ġ0122335 5166
Ġ077 2
Ġ077 27
Ġ36 2372
96 29
96 35
Ġfa mous
fit zbillies
31 12
31 58
31 30
67 45
Ġ0122321 77
Ġ0122321 6811
149 2
Ġ070 17
Ġten sion
566 2
Ġ087 194
82 24
Ġ074 21
Ġ074 79
Ġde ar
Ġde cide
05 32
02 12
83 14
95 57
Ġ0122327 618
AG G
ES P
Ġcharge s
Ġ075 58
ĠBen ny
Ġwhe never
EP N
Ġsteakhouse s
ward s
Ġ46 2354
Ġ46 4550
734 9
251 4
Ġ354 755
Ġbel fast
334 2
334 3
616 7
466 4
Ġ0122346 1661
529 8
300 5
Ġsele ctions
212 5
360 2
657 8
709 4
Ġaltern ate
Ġvary ing
908 2
Ġdis c
Ġ01223306 306
Ġtou ch
659 5
808 0
Ġbo ast
636 8
744 7
990 4
ĠBel gian
ific ations
Ġprop ert
Ġsatis f
Sh all
Ġcle ar
Ġansw er
Ġeater ies
River boat
graf ton
Ġjo in
Ġassu me
Ġfitz roy
ĠSus sex
ĠService s
Ġ0122325 66
Ġ448 620
Ġ518 111
ĠOther wise
Ġassess ment
Ġ087194 29180
Ġ0122327618 2
) ,
3 29
3 36
6 247
A lpha
C otto
C affe
C arolina
E ach
G ourmet
H mm
I nde
K irkwood
O OK
Z izzi
b ably
c c
c ing
c ated
d ers
e el
h obsons
l ine
l ight
s ica
t i
w ell
w hen
Ġ form
Ġa ustral
ent ial
ra int
in ion
Ġre p
Ġre t
Ġre al
Ġc ame
Ġp at
Ġw al
Ġh untington
Ġh ig
Ġm one
Ġm iss
ĠC Q
ĠC ent
ĠC uis
ĠC are
ĠC ambrdige
Ġs ur
Ġrest uarant
co logy
Ġg erman
Ġfor ward
pe king
Ġwi fe
Ġli ght
Ġe s
ĠThe n
Ġadd ition
ĠA dden
ĠR D
Ġcan ape
come nd
Ġhelp ful
ro s
ro yal
ĠP R
ad ly
Ġon cology
ut es
la nt
Ġdestination s
ĠSt arting
Ġcheap est
en cy
en sive
Ġcar ibbean
lu s
Ġop inion
il ian
Ġ12 23
15 6
ĠO P
ort hend
ĠLo cated
Ġenjoy ed
19 6
19 58
16 12
53 31
Ġlook out
Ġcon ne
06 74
ĠY T
77 13
49 69
78 46
33 30
Ġri ders
Ġreach ing
Ġsp ace
Ġvar ies
Ġend ing
ĠLet s
Ġcor sica
Ġplan s
03 15
raz ilian
Ġdri ving
Ġexp l
Ġinqu ire
Ġsec ure
Ġdepend s
Co cum
any thing
Ġarrange d
Ġfin al
Ġfin ish
Lo ch
Ġbarbe que
Ġqual ifications
Ġlow er
Ġsw iss
719 5
Ġterri fic
Ġcreat ive
Ġwait ing
Ġ012232173 14
Ġmusue m
ĠWO uld
Ġevent s
833 1
Ġsing le
Ġen ough
Ġwr ong
Ġfro nt
Ġsuff ice
Ġattend ing
Ġrespon se
ĠCors ica
Ġeas y
ĠAyle s
Le verton
Ġmidd le
Ġconst raint
Ġboast s
Inde ed
Ġhig her
Ġmone y
Ġcanape s
) ?
. "
0 357
0 363
0 545
0 115
1 23
1 38
1 395
2 88
2 28
2 286
3 23
3 66
3 52
3 16
3 000
3 194
3 404
4 59
4 56
4 87
5 24
5 30
5 60
5 077
5 504
5 567
6 24
6 51
6 40
6 43
6 517
6 387
6 585
6 193
7 58
7 43
7 245
7 075
7 604
7 803
8 30
8 49
8 48
8 18
8 265
8 306
8 585
8 662
8 126
8 290
8 241
8 685
9 20
9 15
9 35
9 299
9 178
9 580
9 802
9 886
A YR
A EJ
B V
B est
B MG
D I
D PB
E OG
E BG
F B
F eel
G B
G K
G alleria
G YC
G BQ
G OB
H otel
H oly
H CU
H EW
I BP
I IT
I WL
J QG
J OU
K ings
K ambar
L ook
L ynne
M D
M Q
M ag
M AA
M DB
N one
P V
Q O
Q WF
Q PH
Q FY
R M
R Y
R ef
R SO
R FL
R JS
S AJ
S adly
T S
T ickets
U ES
U VD
U JK
V PA
V YT
W i
W AD
X MY
X YH
X WH
Y MG
Y PD
Z G
Z BN
a can
b al
c in
c arolina
d l
d t
d ated
f t
f irm
f inches
f rankie
h untingdon
i de
l ook
m ain
o id
p art
p ostcode
s aint
s brookes
u xu
Ġ '
Ġt ext
Ġa nt
Ġa way
ic as
op tion
ra ble
ou rit
Ġint er
Ġre fer
Ġn igh
Ġb ell
Ġb asque
Ġc ities
ing ling
Ġw an
Ġw ollaston
me di
Ġh ote
ve s
at in
Ġl bs
Ġl uxu
Ġbook s
Ġm ix
ne sian
ĠI E
ĠI O
ĠI U
ĠI V
ĠI X
ĠI d
ĠI an
ot ally
Ġf as
th ough
an atolia
ĠC A
ĠC H
ĠC L
ĠC M
ĠC P
ĠC U
ĠC ab
ri nt
ri ate
Ġs urgery
le cular
Ġrest a
Ġmo ve
Ġmo lecular
Ġg ray
Ġfor ty
Ġname s
de part
Ġ0 12
ĠW B
ĠW J
ĠW K
ĠW T
ĠW Z
ĠW IF
Ġli e
ye sbray
ĠH C
ĠH L
ĠH Q
ĠH R
ĠH W
ĠH Z
ĠH DT
23 11
23 78
ĠT X
art s
Ġst ate
Ġst evanage
12 27
ĠThe ater
ĠA A
ĠA C
ĠA H
ĠA Y
ĠA Z
ĠA llenb
ĠG C
ĠG E
ĠG F
ĠG K
ĠG L
ĠG Q
ĠS P
ĠS V
ow s
Ġ01223 257
ĠR K
ĠR T
ĠR U
ĠR W
ĠR X
Ġpo ly
ĠB B
ĠB L
ĠB M
ĠB X
ĠB Y
Ġarrive d
Ġta st
Ġno on
Ġ2 11
Ġguest rooms
Ġrecommend ations
ĠD B
ĠD D
ĠD L
ĠP E
ĠP F
ĠP P
ĠP W
ĠP Z
ĠP izz
ĠP ortraits
ĠP rint
Ġon line
is hed
Ġne ver
Ġwill iams
Ġ3 06
ĠL A
ĠL G
ĠL N
ĠL Q
ĠL U
ĠL NK
ĠL MA
ĠL atin
ĠM C
ĠM D
ĠM H
ĠM L
ĠM N
ĠM O
ĠM P
ĠM Q
ĠM X
Ġex c
Ġex tra
Ġ5 00
Ġmoderat ly
Ġ012233 5010
Ġ012233 3948
Ġres ol
Ġ07 32
Ġ07 45
Ġ07 55
Ġ07 68
Ġ07 71
Ġ07 248
Ġ07 4134
Ġsu per
Ġsu pp
00 1
00 44
00 31
00 94
ĠE Q
ĠE T
ĠE V
ĠE W
ĠE Z
ĠE very
ĠE nglish
ĠF O
ĠF ive
ĠF RE
21 7
21 66
21 45
21 78
21 64
ĠN R
11 6
11 56
11 80
11 62
Ġ7 3
ĠRe member
24 4
58 66
58 06
58 31
58 67
Ġcontact ed
51 07
Ġ6 5
ĠK O
ĠK Y
ĠK Z
66 07
66 28
66 92
66 97
Ġ9 1
Ġab o
30 3
30 57
30 87
30 62
07 17
07 13
07 76
07 74
Ġwh y
Ġwh ose
Ġv olkswagon
Ġv acan
20 3
20 5
20 29
20 52
20 42
17 1
17 3
17 50
17 09
17 70
50 12
50 34
50 42
50 89
Ġav oid
Ġdif fic
88 2
54 73
Ġ16 5
60 34
60 53
29 7
29 12
10 9
ase s
08 2
08 13
08 62
un ky
ĠU E
ĠU F
ĠU M
ĠU R
ĠU Z
ĠV B
ĠV M
ĠV Q
ĠV R
ĠV T
ĠV W
ĠV X
ĠV Y
ĠCo mm
ĠAr che
ĠJ B
ĠJ C
ĠJ M
ĠJ Q
ĠJ U
ĠJ W
ĠJ ingling
15 3
15 7
15 26
15 67
15 75
ĠO ur
52 66
52 56
59 7
59 10
59 01
59 53
59 49
59 28
59 18
59 79
59 72
59 98
40 16
40 31
27 88
27 64
27 71
27 75
46 38
46 89
46 73
39 6
Ġserve d
34 50
34 70
34 76
41 8
41 94
01 41
57 0
57 6
57 54
57 13
57 47
32 07
32 57
Ġparticular ly
43 29
43 34
90 4
90 5
90 66
90 39
90 25
90 63
80 56
80 26
36 2
36 7
36 77
36 37
Ġ23 1
38 3
38 54
38 10
38 39
38 43
38 47
16 99
16 72
09 8
09 45
09 53
53 58
87 6
87 14
87 05
Ġpol ar
Ġpol ish
06 80
06 25
06 86
06 84
Ġpro bably
ĠY B
ĠY G
ĠY V
44 47
42 2
42 88
42 26
42 83
77 21
77 34
77 69
49 87
49 28
ĠSunday s
28 54
28 60
28 63
28 95
48 4
48 24
48 63
78 4
78 50
78 22
18 00
18 54
18 27
18 98
18 92
26 3
26 17
26 35
26 94
79 5
79 6
79 7
Ġcomp liment
Ġad vent
33 7
ĠZ C
ĠZ M
ĠZ T
ĠZ W
ĠZ ealand
Ġ0122336 9299
ĠQ D
ĠQ G
ĠQ K
25 57
ĠX D
ĠX J
ĠX M
ĠX V
ĠX Y
rop riate
37 2
37 6
37 32
89 32
ĠEast side
ĠEx hib
64 77
ĠPe ople
99 6
99 9
99 56
70 4
70 20
70 57
OK T
68 3
68 6
68 33
Ġ0122330 1761
69 3
69 7
69 46
Ġ079 37
Ġ- -
86 7
86 00
86 76
86 31
71 87
Ġ076 7
Ġ076 21
Ġ076 11
Ġ076 50
Ġ076 48
888 5
76 2
76 3
76 78
Ġ0122335 5012
Ġ01223353 88
84 10
Ġ077 49
Ġ37 5
ĠGuesthouse s
67 42
Ġ50 5015
Ġ078 2
Ġ078 23
Ġ078 54
Ġ0122321 629
100 6
73 24
73 60
98 1
98 23
98 39
Ġ070 60
Ġ070 59
94 52
Ġlong er
74 30
74 50
74 60
Ġ56 8988
566 9
62 26
fect ious
ĠSe veral
Ġ074 11
Ġ074 30
Ġ074 17
Ġde ter
93 60
Ġfav ourit
05 59
Ġtr ust
Ġ0122357 7786
83 35
65 24
ĠAl most
MY L
Ġ01223366 668
Ġrun s
Th ree
Ġ073 30
Ġ073 14
81 51
EZ T
Ġ0122327 4680
Ġ0122327 4284
BZ A
CR N
OS M
AL F
PA I
01223 33
01223 358
AT C
YC W
ron om
Ġlat in
DN B
Ġbit es
AF S
AF T
ĠMan y
Ġ075 54
EF S
223 2
WH G
JX X
LR A
Ġ071 38
200 1
200 6
ZQ E
AS G
EP K
Ġ01223217 231
Ġ01223217 261
Any time
VO L
VF A
VF V
354 4
VB B
Ġapp ropriate
IB Y
CK Q
SJ Z
VL U
VR V
Ġkettle s
AV A
ĠGra nde
Ġ012232 56
251 9
ig n
XW O
504 20
187 9
Ar rival
WM D
ZW P
Ġdepend ency
ST N
Ġsoon est
166 2
400 3
Ġarrange ments
Ġexhib its
Ġ0799 89
466 9
534 3
146 5
146 9
807 8
977 5
Ġsout hend
Ġide as
212 9
317 7
ĠHung ting
Ġ01223348 144
Ġthir ty
709 2
250 3
378 2
817 6
Ġfall s
itt i
107 9
260 2
754 8
839 9
958 9
Ġatte mp
126 194
Ġcat ch
610 5
706 2
city roomz
lo bal
Ġpull ing
432 2
Ġterri bly
Ġclass ic
Ġmusue ms
930 3
Ġ0122359 6066
Ġcomm on
Ġprevious ly
Ġcomplex es
Ġ012233483 13
Ġ012233483 14
St azione
river side
Ġgast ronom
Ġoperat ion
134 2
207 8
787 8
Post al
Ġsus sex
Ġclin ic
Ġdec is
Ġmisunder stood
ise ases
riend ly
Ġmovi e
Ġem ail
erson ally
Ġ012233650 68
Ġ07479 126194
Ġsatisf y
Ġjoin ing
Ġaustral asian
Ġpat ience
ĠCuis ine
Ġconstraint s
818 5
Mag dalene
QWF WX
Wi th
cin ating
firm ation
Ġfas cinating
ĠWIF I
Ġpoly nesian
Ġ306 306
Ġ0122335010 6
Ġ0122333948 5
ĠFRE E
Ġdiffic ult
ĠComm on
ĠArche ology
Ġcompliment ary
ĠExhib ition
Ġ0122321629 7
Ġfavourit e
01223358 966
Ġgastronom y
3 24
3 15
4 80
A m
A dden
D on
E fes
H untington
I d
L OL
M arket
N e
P rice
Q N
S itar
T r
T ang
T erri
W hy
b ook
b ooking
b roughton
b yard
c ertain
c lare
c orpus
d arrys
f ill
f rame
g ret
h ome
i dge
j inling
m ine
m itt
n u
n umber
p o
p ite
p lant
r oom
s ful
t hen
u ge
w arts
Ġ /
Ġi m
Ġt ook
Ġt ur
Ġt echn
Ġt otally
Ġa mb
Ġa ri
ou ght
st azione
Ġre pe
Ġn ic
Ġb l
on ary
on firmation
Ġc ant
Ġp ot
Ġp izz
Ġp lus
Ġin con
Ġin ju
Ġin fectious
ing ton
ing aporean
Ġw ou
Ġw et
me ghna
Ġh ang
form ation
Ġis cb
Ġd iver
Ġd iseases
ĠI T
ĠI KC
ar n
Ġf ix
ĠC onfirmation
Ġo cc
le ct
Ġg l
Ġg one
Ġg uy
pe ople
Ġ0 00
ĠW Y
ĠW ed
Ġli m
it rean
Ġle ft
ĠH ote
ĠT able
Ġe con
amb ri
Ġhe r
ĠA R
ĠS T
ĠS ure
ĠS ingaporean
Ġwel sh
ĠR oom
Ġhelp s
Ġtime frame
ĠB y
ĠB ish
ĠB asque
Ġta x
Ġme nu
ĠD itt
ure d
ĠL E
ĠL ots
ĠM G
Ġ012233 29
ound ing
Ġse ar
Ġ07 14
lle d
Ġpre fe
Ġpre fered
Ġpart ial
cce sful
ist y
58 59
66 5
Ġassist ed
07 34
Ġv ice
Ġnot e
ĠPark ing
Ġsi mp
fi ed
un iversity
15 96
int o
Ġmat ched
Ġam ong
id ent
Ġspecific ation
32 62
43 3
Ġj ohn
Ġup dated
og warts
ven ience
Ġfew er
ĠY R
Ġ0122324 515
Ġal though
Ġnarrow ing
Ġind onesian
18 3
18 19
rew ell
Ġcomp are
ĠQ H
Ġsee king
ĠEx pect
64 88
Train ID
Ġout side
ĠGraf itti
Ġshow s
Ġ0122335 5711
Re gret
Ġprovi ding
iqu e
4646 46
47 24
Ġ# :
Ġsp read
149 3
Ġclos er
Ġact ual
Ġcor onary
ĠTrain ID
Ġdat a
01223 21
01223 30
Ġpoint s
Ġclose d
PL E
Ġdire ction
ĠEnt ertainment
Ġconsider ing
Ġspecify ing
Ġbu ild
Ġer itrean
JW E
ĠMa harajah
do jo
Ġbel gian
SR Y
oc ated
Tra vellers
Ġpast a
Ġfin ished
stand ing
Ġimp ress
Ġspecial iz
Ġful fill
Ġcat alan
Ġmod ify
Ġmistake n
ific ation
Ġcreat e
Ġprop er
Ġsatis fied
Ġhundred s
ĠDepart s
river boat
Ġgast ro
ĠTH AT
Ġscott ish
Ad mission
Ġsm all
Ġcont in
Ġacc ident
Ġhistor ic
Queen s
Sc udamores
Ġintend ed
Ġcut ting
Ġret ur
Ġconne ct
Ġexpl ore
ĠAyles bury
Ġresol ve
Ġadvent ure
Ġdeter mine
Ne ither
Terri fic
mitt ance
Ġtur ns
Ġtechn ical
Ġrepe at
Ġpot ential
Ġincon venience
Ġinju ry
Ġdiver se
Ġguy s
Ġecon om
ĠBish op
Ġ01223329 432
Ġsimp ly
Ġcompare d
Regret fully
" .
0 20
0 59
0 27
0 32
0 45
0 517
0 516
0 117
0 209
0 121
0 481
0 269
0 328
0 601
0 394
0 217
1 41
1 90
1 42
1 233
1 428
1 309
2 24
2 58
2 66
2 29
2 80
2 25
2 583
3 46
3 888
3 353
3 387
3 390
3 293
3 661
4 17
4 88
4 52
4 40
4 27
4 39
4 43
4 45
4 79
4 506
4 404
4 117
4 594
4 115
4 887
4 604
5 21
5 07
5 54
5 517
5 234
6 23
6 30
6 52
6 46
6 49
6 28
6 210
6 583
6 870
6 386
6 809
6 998
7 51
7 07
7 17
7 32
7 90
7 45
7 28
7 18
7 299
7 222
7 355
7 276
7 239
7 583
7 293
7 147
7 468
7 667
7 169
7 307
7 213
7 278
7 683
8 23
8 21
8 11
8 58
8 01
8 90
8 44
8 42
8 149
8 509
8 504
8 361
8 292
8 363
8 522
8 406
8 167
9 12
9 07
9 50
9 88
9 39
9 53
9 28
9 33
9 517
9 382
9 202
9 219
9 209
9 286
9 545
9 522
9 605
9 531
9 345
9 792
9 704
? ?
A MS
A EG
A YU
A YF
B QQ
B EN
B JS
B CY
B CC
B ased
C he
C LQ
C NU
C VP
C VK
C HK
C orrect
D epart
D arry
D YH
D JM
D JX
D PU
D UF
D IW
D KT
E MW
E BN
E ET
E EL
E MA
F KV
F ZC
F IR
F WH
F TU
F BO
F SF
F GD
F MN
F EQ
F unky
G R
G FL
G OS
G ED
G AH
G AC
G CL
G FP
G ZH
G RK
G CN
G WV
H W
H VT
H XG
H RQ
I h
I y
I nd
I KV
I OS
I BT
I OG
I YU
I WW
J JG
J MG
J OS
J AL
J VD
J ED
J DN
J DS
J BQ
J II
J PQ
J JL
K BZ
K AR
K YZ
K JK
K FP
K TY
L DN
L WL
L AC
L imehouse
L OX
M inton
M BU
M NO
M IR
M NU
M PL
M AC
M BW
M IA
N ice
N GM
N JX
N AC
N JN
N SD
N NG
N VW
O ZC
O WL
O DS
O WR
O VK
O PO
O HL
O ZV
P EN
P EY
P MU
P SD
P FT
P GQ
P anahar
P XR
P EFS
P ersonally
Q K
Q IT
Q MU
Q JD
Q YP
R AA
R XH
R YC
R ET
R OG
R XQ
R XZ
R ZR
S oul
S ince
S SO
S YR
S PA
S ID
S TQ
S SL
S XC
S AF
S PL
S MO
S WX
S MH
S IJ
S IQ
S ZT
S ZK
S EO
S SY
T A
T able
T ake
T FL
T ES
T ZC
T YZ
T PR
T EP
T PU
T ZH
T WA
T LW
T AQ
T LC
T AI
U CU
U HU
U OR
U DS
U VX
U VZ
V Y
V OK
V AA
V SO
V EZ
V ES
V GM
V VP
V LK
V VF
V ER
V SR
V JP
W E
W S
W KV
W BN
W IG
W PR
W ZQ
W EK
X AA
X AG
X EN
X ED
X EJ
X BY
X IW
X EU
Y J
Y YH
Y XH
Y WC
Y PR
Y XA
Y AY
Y VG
Y LN
Z VM
Z SF
Z LY
Z UT
Z AFT
b et
b loomsbury
c ould
c entre
c afe
c lect
e ep
f riendly
g n
g alleria
g ourmet
h o
h oly
i ere
i ester
j or
k ymmoy
n one
o mer
p ound
t re
t ure
t aj
u dd
x x
z izzi
re f
Ġt op
Ġt er
Ġt el
Ġt at
Ġt een
Ġa w
ic he
ic ally
he ly
or ies
Ġre se
Ġre ce
Ġre main
Ġn apier
Ġb ad
Ġb ank
Ġb out
Ġb uis
Ġb elf
Ġb rass
Ġb razilian
Ġc a
Ġc et
Ġc ust
Ġp ar
Ġy ip
Ġy ello
Ġw orry
Ġh u
Ġh andle
Ġh ung
ve red
Ġl ine
Ġm ut
Ġm int
ne ss
ĠI C
ĠI K
ĠI VX
ĠI IL
ĠI FH
ĠI FX
ar ia
Ġto w
Ġto wards
Ġnu m
Ġf i
Ġf le
Ġf ab
Ġf ig
th ree
th anh
an other
an cy
ĠC E
ĠC J
ĠC O
ĠC V
ĠC UL
ĠC IG
ĠC CT
ĠC XZ
ĠC OB
ri an
Ġof fered
Ġtra um
Ġs ol
Ġs light
ce ed
ura n
le s
le t
Ġ1 11
ct a
Ġg lobal
Ġ0 11
ĠW D
ĠW Q
ĠW R
ĠW X
ĠW WW
Ġra n
Ġch ance
Ġch ild
it ir
Ġle vel
ĠH B
ĠH E
ĠH G
ĠH S
ĠH U
ĠH Y
ĠH a
ĠH AG
ĠH NO
ĠH XG
ĠH LD
ĠH alal
23 29
23 34
23 57
23 19
23 92
ĠT A
ĠT B
ĠT E
ĠT Q
ĠT Z
ĠT ech
ĠT VF
ĠT ickets
Ġany one
Ġe clect
12 0
12 20
12 87
12 42
dd le
ĠA B
ĠA D
ĠA L
ĠA Q
ĠA S
ĠA llen
ĠA EN
ĠA BK
ĠA NH
ĠA JT
ĠA EB
ĠA LE
ĠA ND
ĠG D
ĠG J
ĠG M
ĠG R
ĠG Z
ĠG AF
ĠG VN
ĠG PU
ĠG XT
ĠG JP
ĠG wydir
ĠG HP
ĠG UES
ĠS E
ĠS M
ĠS ED
Ġoffer ings
ĠR C
ĠR F
ĠR G
ĠR H
ĠR J
ĠR O
ĠR P
ĠR V
ĠR es
Ġwould n
Ġbe g
as hley
ĠB D
ĠB E
ĠB U
ĠB V
ĠB W
ĠB VD
ĠB VC
ĠB WX
ĠB IB
ĠB SJ
ĠB NF
ĠB VU
ĠB rewery
ĠB TT
ĠB ZX
ĠB udd
al f
al ble
al right
Ġme ssage
Ġno ddle
Ġ2 23
Ġ2 66
Ġ2 78
Ġguest h
Ġtown s
Ġ4 39
ĠD A
ĠD E
ĠD F
ĠD N
ĠD O
ĠD Q
ĠD T
ĠD X
ĠD Y
ĠD ay
ĠD KV
ĠD JF
ĠD WZ
ĠD CI
ĠD KE
ĠP A
ĠP N
ĠP V
ĠP ara
ĠP rot
ĠP EY
ĠP UX
ad a
Ġne igh
ul ous
Ġit ine
Ġ3 07
ĠL I
ĠL J
ĠL R
ĠL S
ĠL T
ĠL Z
ĠL n
ĠL GM
ĠL XZ
ĠL QS
ch urchill
ĠM B
ĠM F
ĠM M
ĠM R
ĠM Y
ĠM Z
ĠM il
ĠM us
ĠM NO
ĠM NK
ĠM RQ
ĠM CS
ĠM QR
Ġth ous
Ġth ought
Ġ5 36
Ġ5 44
xi ble
Ġmoderat ley
Ġ012233 60
Ġ012233 49
Ġ012233 50420
Ġse en
ĠSt evanage
Ġ07 41
Ġ07 53
Ġ07 22
Ġ07 31
Ġ07 149
Ġ07 566
Ġ07 237
Ġ07 906
Ġ07 299
Ġ07 2054
ver s
00 4
00 6
00 35
00 33
00 085
ĠE K
ĠE M
ĠE P
ĠE R
ĠE rit
ĠE NO
ĠE OP
ĠF C
ĠF P
ĠF U
ĠF W
ĠF KV
ĠF VN
ĠF GO
21 1
21 41
21 06
21 48
21 18
21 92
ĠN A
ĠN D
ĠN H
ĠN L
ĠN M
ĠN S
ĠN Y
ĠN Z
ĠN EZ
ĠN GH
ĠN orthern
ĠN orthend
Ġselect ed
ill s
11 88
11 60
11 10
11 08
11 52
11 44
11 49
11 93
11 97
11 65
Ġ7 38
Ġ7 18
ĠHouse s
24 17
24 08
24 52
24 36
24 45
24 44
24 42
24 78
24 71
24 73
24 62
24 75
24 32565
58 15
58 49
58 69
58 84
58 63
ĠCh urches
ĠCh ines
Ġ8 00
51 0
51 00
51 67
51 63
51 603
Ġ6 7
Ġ6 23
ĠK A
ĠK D
ĠK E
ĠK J
ĠK K
ĠK S
ĠK W
ĠK X
ĠK OO
ĠK SF
ĠK SH
ĠK VV
ĠK CI
66 33
66 68
66 73
66 98
66 62
Ġ9 3
30 1
30 4
30 8
30 66
30 52
30 78
Ġ11 4
07 0
07 3
07 57
07 55
07 68
07 67
Ġhas n
Ġwh o
Ġma jor
Ġv ie
20 16
20 69
20 98
17 4
17 5
17 6
17 64
17 84
50 60
50 57
50 32
50 505
Ġdif fer
88 1
88 4
88 99
88 63
88 73
88 93
88 05
54 4
54 7
54 12
54 10
54 08
54 36
54 33
54 96
Ġ16 8
Ġ16 30
Ġ16 10
60 9
60 11
60 24
60 88
60 27
60 16
60 37
60 96
29 58
29 52
29 41
29 19
29 13
29 99
29 69
Ġ12 5
10 1
10 3
10 30
10 88
10 39
10 44
10 37
10 86
10 47
10 62
08 9
08 23
08 22
Ġ14 14
ĠU D
ĠU H
ĠU O
ĠU S
ĠU X
ĠU Y
ĠU ZF
ĠV C
ĠV O
ĠV U
ĠV ON
ĠV ZF
iz i
Ġun less
Ġun ique
ĠAr ri
ĠJ A
ĠJ D
ĠJ I
ĠJ P
ĠJ GN
ĠJ AK
ĠJ JW
15 9
15 21
15 50
15 34
15 90
15 28
15 62
ĠO E
ĠO I
ĠO L
ĠO M
ĠO Q
ĠO S
ĠO Z
ĠO ES
ĠO TQ
ĠO WA
ĠO JF
52 87
52 73
52 85
59 36
59 06
59 71
Ġother wise
40 9
40 17
40 68
40 96
27 59
27 09
27 55
27 13
27 76
46 15
46 3830
46 2432565
Ġmake s
39 9
39 40
39 22
39 99
39 69
39 73
39 04
enter ology
35 66
35 64
34 51
34 66
34 20
34 33
34 47
34 356
Ġ18 0
41 6
41 44
41 61
01 3
01 39
01 68
01 92
urch hill
57 17
57 49
57 62
57 93
57 97
32 12
32 59
Ġ20 6
ĠLe iester
43 7
43 00
43 51
43 46
43 87
43 89
43 76
Ġj amaican
Ġenjoy able
90 2
90 24
90 30
90 33
90 257
56 11
56 88
56 13
56 49
56 48
56 78
56 26
56 70
56 91
80 4
80 54
80 36
80 44
36 8
36 24
36 34
36 2974
li ple
45 53
45 339
38 73
19 2
19 11
19 55
19 78
16 3
16 4
16 5
16 56
09 16
09 98
09 92
09 147
clu bs
53 12
53 70
ma g
87 9
87 24
87 62
Ġlook up
06 3
06 15
06 38
06 44
06 77
06 78
06 72
Ġpro ceed
ĠY J
ĠY N
ĠY O
ĠY Q
ĠY U
ĠY SV
ĠY FF
ĠY WN
55 11
55 58
55 38
42 66
42 50
42 80
77 4
77 59
77 27
77 06
77 44
77 68
77 76
77 63
77 47
77 85
13 39
13 36
13 8056
49 2
49 77
49 92
JG D
JG H
JG O
JG HN
Ġ01223358 399
28 1
28 2
28 51
28 50
28 15
28 40
28 33
28 31
ĠAs hely
48 5
48 00
48 29
48 40
48 36
48 13
48 99
48 61
78 5
78 9
78 52
78 34
78 64
uck ing
18 30
18 17
18 42
18 49
18 64
18 620
rew s
26 7
26 34
26 56
26 36
26 87
26 77
26 25
26 73
26 339
79 40
79 35
79 43
79 78
79 79
Ġad mittance
33 39
ĠChurch hill
ĠNew ham
ĠNew Market
Ġtell ing
ĠZ E
ĠZ G
ĠZ I
ĠZ Q
ĠZ S
ĠZ X
ĠZ MG
ĠZ CR
ĠZ DT
ĠZ LR
ĠZ VF
ĠZ SD
ĠZ PD
Ġ33 1
ĠQ B
ĠQ L
ĠQ W
ĠQ X
ĠQ MY
ĠQ IT
ĠQ MH
ĠQ LK
ĠQ SN
Al so
Al most
25 21
ĠX B
ĠX F
ĠX Z
ĠX DY
ĠX MC
ĠX PE
ĠX FD
ĠX GBQ
37 30
37 35
37 80
37 36
37 87
37 65
37 03
89 7
89 54
89 35
vell er
64 57
64 56
99 11
99 42
99 99
99 97
14 12
14 00
14 90
14 77
14 72
14 75
70 43
70 3476
OK FF
68 23
68 321
ĠChrist s
69 58
69 08
69 80
69 19
69 13
Ġ24 7877
Ġ079 12
Ġ079 51
Ġ079 08
Ġ079 57
Ġ079 80
Ġ079 16
Ġ079 87
Ġ079 76
Ġ079 410
Ġ079 449
Ġ079 394
Ġ079 18620
86 59
86 27
86 53
86 99
86 74
71 51
Ġkind a
Ġ076 34
Ġ076 43
Ġ076 25
Ġ076 99
Ġ076 74
Ġ076 199
Ġ076 468
Ġ076 359
Ġ076 362974
76 34
76 53
76 71
Ġ0122335 5909
84 66
84 20
Ġ077 5
Ġ077 00
Ġ077 30
Ġ077 60
Ġ077 40
Ġ077 36
Ġ077 38
Ġ077 33
Ġ077 466
Ġ077 378
Ġ077 1027
Ġ36 7660
96 1
96 11
96 88
96 41
96 80
96 16
96 44
96 78
Glad ly
Ġdes pite
Ġfun k
72 23
72 57
itche d
31 90
31 87
67 3
67 41
67 25
Ġ28 00
Ġ28 28
Ġ35 6666
Ġ35 6060
Ġ078 35
Ġ078 57
Ġ078 558
Ġ0122321 7450
Ġ0122321 7671
63 10
63 13
47 3
47 58
47 08
47 57
240 2
73 10
98 35
98 31
MW P
91 87
Ġ070 21
Ġ070 58
Ġ070 29
Ġ070 15
Ġ070 552
Ġ070 4379
94 24
94 60
94 27
94 45
94 87
74 20
Ġ56 36
92 26
92 25
zz a
Ġclos ely
Ġpostal code
DC A
Ġchrist mas
62 24
Ch urchhill
Ġtand oor
82 60
82 55
Ġ074 51
Ġ074 07
Ġ074 39
Ġ074 247
Ġ074 2054
Ġ074 218
ran ia
ĠDa le
93 32
Ġnear ly
time s
Ġnine teen
gin ning
Ġ29 29
236 1
233 3057
04 66
04 15
04 40
04 71
97 24
97 32
Ġz ealand
AA O
Ġtimes lot
Ġsc andinavian
MY G
MY X
Ġ01223366 61
Ġ073 23
Ġ073 21
Ġ073 59
Ġ073 46
Ġ073 34
Ġ073 599
YH S
Ġ01223324 351
BU D
KV N
KV JV
SO F
SO R
SO W
sing ly
81 35
EZ L
EZ P
EZ ZN
Ġ0122327 4222
YR U
388 9
AG N
CR CL
CU P
SU H
SU AGG
XH A
IT D
OS D
03 78
AL A
AL L
PA R
01223 353
01223 334
860 4
PB D
ZC C
ZC F
ZC L
Ġ01 233
Ġ01 462432565
257 5401
GM A
WF U
AR U
AR ZY
ED A
BI O
BI Q
BI JU
BI FD
BN K
BN BR
EJ F
EJ Q
EJ Z
HU XEU
OR N
SL F
SL K
SL Y
SV F
ĠBe ginning
ET N
ET Y
.. ..
112 0
BT N
DN K
DN S
OG BR
OG UR
XC D
XC H
XC O
XC W
AF E
AF P
ĠTra veller
ĠBotanic al
Ġrout es
AJ A
MF D
MF RZ
PP D
QG D
WL A
WL V
WL Y
Ġ075 20
EF U
EF X
LQ Z
UL I
ĠFe e
JS P
JS Q
YZ B
YZ I
YZ UY
ZZ GL
BH K
DT L
DT O
DT Z
JE V
JK M
JM TO
VC V
WC E
WC F
WC O
WC X
397 58
154 2
154 6
BK F
IG K
JX N
VT HJ
Ġeight een
ĠAmer icas
Ġ071 23
Ġ071 30
Ġ071 40
Ġ071 46
PL Z
AC G
BR M
BR FT
DZ W
DZ GMA
FF R
FF T
II V
JN N
JN AC
MO F
MO HD
WK A
WK I
WX ESP
ZN F
ZN JH
ZQ N
ZQ V
AS S
IC P
IF K
VH A
VH J
VH N
VH W
VM A
VM J
VM T
VM X
YQ N
YQ S
Ġ072 12
Ġ072 07
OU T
OU CJ
OU SE
DY J
DY T
EP I
WN H
WN X
BO H
CJ I
CJ Z
MH R
MH T
MR I
MR K
MR Q
NR CE
PU Q
SQ R
UR Z
VO QPH
YO T
Ġ0788 0
CT F
CT S
CT TG
EW G
EW Q
FP Q
FP Z
GD IBP
GD BZA
IJ B
IJ P
LH M
LH O
MN B
SH C
IK D
Ġclar ification
221 1
354 7
IX J
MK W
WR E
WR S
XF Y
BL JGHN
FT K
FT T
NH D
OI WKI
XT P
pri singly
Ġrec comend
DO D
DO V
EL U
552 25
EQ K
IP F
Per haps
UY V
VQ L
WD RAA
XK H
ZK Z
HK C
HK R
WY T
CN L
CN X
JQ M
Ġstyle s
Ġ566 188
Ġ0730 6
Ġ0730 458
PH IR
Ġsay ing
CS A
DQ Z
HD V
HH C
HH S
IL V
IY E
LY L
PN YHS
UT C
UT T
ĠWi se
1260 3
Ġ012232 564
851 9
GL JED
RF JQ
ZR J
Ġ0758 52
JY N
ĠLook out
BW G
EO W
ML X
SG FH
UH G
XR Z
NF N
Ġregard less
187 3
CQ W
FU I
FU X
GV Y
NA MG
ZY J
Ġ0746 915
Ġ0746 2575401
IV U
PY B
Ġ0754 07
Ġ0708 09
Ġ012235033 3
Ġtrans plant
616 2
843 1
HC W
Me ze
SK IC
Ġ0756 247
KC VTHJ
arri val
Ġ0726 3703
679 9
901 2325
CX B
FO DS
HY L
OE IK
Ġ0712 1756
180 9
407 6
407 8
AB QG
DD I
EI O
FQ Y
FR X
NC V
VV A
Ġpri or
903 66
Ġ0757 463830
330 4
317 3
HQ VD
KP V
SZ J
Ġ0738 9012325
Ġ0706 42
Ġ0789 839
ĠPost al
Ġ0740 40
620 3
657 2
828 5
GG R
NN N
RV Y
OV A
Ġver sa
Ġdel ay
817 7
908 3
980 5
938 3
938 4
938 6
WU N
Ġfoll ows
Ġ0710 13
351 5
319 7
754 2
808 9
958 8
989 1
TD BIJU
TV YR
Ġbo ard
Ġneu ros
Ġ0766 9
Ġ0713 7
Ġtour s
Ġmod rate
Ġcanc er
410 6
769 2
949 5
ĠBel fast
Ġ0786 2333057
261 51603
Ġ07229 8
Ġconcern s
420 4
454 9
654 9
641 9
676 3
Sh ould
TO YZUY
idd ing
Ġeater y
Ġ0122359 6055
ĠDepart ure
Ġ0764 00
5454 56
2800 7
ĠZK OGBR
312 8
Ġsing aporean
Ġresturant s
049 7
536 5
757 8
UD DOV
Ġreason able
Ġanyth ign
Ġ0728 9
Ġ0784 5910
ĠFT VOQPH
ĠKH BLJGHN
341 36
Ġaccomod ate
836 4
Reservation s
Ġhand ful
Ġserver s
0122324 5151
Ġhistor ical
158 4
434 4
538 9
740 9
917 9
Ġtw ice
Ġtw enty
Ġinc re
Ġinc orrect
Ġsitu ation
Ġsitu ated
Ġwis hes
Ġwis hed
ĠBelf y
ĠBelf rey
ĠLX MFRZ
Ġexist s
Ġavai alble
Ġ12233 16074
Ġ07924 138056
Ġ0772 26339
Ġ012232177 12
Ġpropert y
Ġpropert ies
Ġ012232566 50
Ġ012232566 45
Ġwal let
ĠCent ral
ĠAdden brook
849 5
BMG NI
Look s
VYT SIJ
ZBN KZ
option al
Ġnigh clubs
medi ately
Ġluxu ry
ĠIX EZZN
ĠCab ridge
ĠAllenb all
ĠGL BNK
Ġ01223257 168
ĠPizz aria
ĠLMA BMGNI
ĠMX MOHD
Ġ0755 54
ĠEvery thing
5866 09
Ġabo ard
Ġvacan cy
Ġ07621 703476
Ġ07648 586609
Ġ07411 90257
Ġ07330 545456
Ġ01223256 166
Ġ079989 34356
ĠHungting ton
Ġattemp t
Adden sbrookes
uge se
Ġim mediately
ĠWed s
Ġlim it
Ġprefe rable
ĠYR IP
Ġbuild ings
Ġcontin ue
717 7
Depart ure
EEL PU
FGD RE
IKV Z
ODS GJ
QYP SGFH
ROG D
SYR ZN
SPL T
SSY P
VVP V
YXA W
Ġter ms
Ġteen age
Ġbuis ness
Ġbrass iere
Ġcust omer
Ġmut liple
Ġmint ues
ĠIFH SYRZN
ĠIFX PNYHS
Ġfle xible
Ġfab ulous
ĠCIG YXAW
Ġtraum a
Ġsol id
Ġslight ly
Ġchild ren
itir oomz
Ġeclect ic
ĠABK FF
ĠAJT E
ĠAEB KVJV
ĠBTT S
ĠBudd ha
ĠPara ce
Ġitine rary
ĠMNK WT
ĠMQR GDBZA
Ġthous and
Ġ01223360 409
Ġ01223349 00
ĠErit rean
ĠEOP OKFF
ĠFGO M
ĠNGH D
ĠKSF SKIC
ĠKCI WXESP
Ġmajor ity
Ġvie w
ĠUZF W
ĠJJW EO
ĠOJF UL
ĠYSV SLY
ĠYFF SHC
ĠZVF TQ
ĠQSN SUAGG
ĠXDY JMTO
ĠXMC HT
ĠXGBQ HC
Ġ07918620 184
Ġ076199 68321
Ġ076362974 54
Ġ077378 28007
Ġ0771027 5649
Ġ078558 55225
Ġ0704379 5737
Ġ0742054 2713
ARZY TLC
HUXEU Z
OUCJ V
Ġ0730458 5611
Ġ012232564 59
GLJED PZ
Ġ0746915 6027
Ġ0756247 2408
Ġ07263703 306
Ġ07121756 826
Ġ0757463830 7
Ġ0789839 5762
ĠZKOGBR MR
Ġ07845910 981
ĠFTVOQPH P
ĠLXMFRZ LR
Ġ077226339 12
ĠIXEZZN YL
ĠMXMOHD J
Ġ0741190257 2
! )
! .
0 277
2 87
3 279
8 202
9 236
A n
B E
B ut
C BZ
C lowns
E very
F ound
F our
G CA
H ey
H ughes
H old
H ills
J esus
L NF
M ichaelhouse
N ame
N ow
S e
S id
S ome
S affron
T ell
T TR
V AK
W ow
a lpha
b o
b ut
b ell
b lue
b ooked
b allare
c all
c astle
c ience
e ra
f ly
f antastic
g lad
h otel
h ood
i est
i ar
i ke
i en
i ghe
i ses
j esus
j ured
l in
l ocated
m y
m ation
m osp
n i
n ow
n bell
o derat
p ark
p lace
p ost
p rezzo
r ict
r ounding
s y
s ala
t en
u ate
v w
v est
w are
Ġ $
Ġ +
Ġ ot
Ġ entre
Ġ Okay
Ġi ve
Ġt uscan
Ġa g
Ġa y
Ġa ut
ic s
ic ation
ic ient
ra ving
ou x
Ġint ensive
st ent
in ity
Ġre comend
Ġre now
Ġn orthend
er i
Ġb b
Ġb ra
Ġb ound
Ġb ase
Ġc e
Ġc n
Ġc hat
Ġc ap
Ġc ru
Ġc ambrdige
Ġc ambri
Ġc raving
Ġp ort
Ġp into
Ġin jured
el e
Ġh ot
Ġh untingd
Ġh ogwarts
Ġh ighe
at her
at ch
Ġl co
Ġl ab
Ġl ines
mb e
nd ed
Ġm otel
ne w
ne ce
Ġis C
Ġd an
Ġd ep
se e
ar l
ar bury
Ġto ward
Ġnu mbe
Ġf lu
Ġf il
Ġf ond
ĠC or
ĠC EN
Ġo dd
ri ke
Ġof ten
Ġat t
Ġat mosp
Ġtra n
