{"<|endoftext|>":0,"!":1,"\"":2,"#":3,"$":4,"%":5,"&":6,"'":7,"(":8,")":9,"*":10,"+":11,",":12,"-":13,".":14,"/":15,"0":16,"1":17,"2":18,"3":19,"4":20,"5":21,"6":22,"7":23,"8":24,"9":25,":":26,";":27,"<":28,"=":29,">":30,"?":31,"@":32,"A":33,"B":34,"C":35,"D":36,"E":37,"F":38,"G":39,"H":40,"I":41,"J":42,"K":43,"L":44,"M":45,"N":46,"O":47,"P":48,"Q":49,"R":50,"S":51,"T":52,"U":53,"V":54,"W":55,"X":56,"Y":57,"Z":58,"[":59,"\\":60,"]":61,"^":62,"_":63,"`":64,"a":65,"b":66,"c":67,"d":68,"e":69,"f":70,"g":71,"h":72,"i":73,"j":74,"k":75,"l":76,"m":77,"n":78,"o":79,"p":80,"q":81,"r":82,"s":83,"t":84,"u":85,"v":86,"w":87,"x":88,"y":89,"z":90,"{":91,"|":92,"}":93,"~":94,"¡":95,"¢":96,"£":97,"¤":98,"¥":99,"¦":100,"§":101,"¨":102,"©":103,"ª":104,"«":105,"¬":106,"®":107,"¯":108,"°":109,"±":110,"²":111,"³":112,"´":113,"µ":114,"¶":115,"·":116,"¸":117,"¹":118,"º":119,"»":120,"¼":121,"½":122,"¾":123,"¿":124,"À":125,"Á":126,"Â":127,"Ã":128,"Ä":129,"Å":130,"Æ":131,"Ç":132,"È":133,"É":134,"Ê":135,"Ë":136,"Ì":137,"Í":138,"Î":139,"Ï":140,"Ð":141,"Ñ":142,"Ò":143,"Ó":144,"Ô":145,"Õ":146,"Ö":147,"×":148,"Ø":149,"Ù":150,"Ú":151,"Û":152,"Ü":153,"Ý":154,"Þ":155,"ß":156,"à":157,"á":158,"â":159,"ã":160,"ä":161,"å":162,"æ":163,"ç":164,"è":165,"é":166,"ê":167,"ë":168,"ì":169,"í":170,"î":171,"ï":172,"ð":173,"ñ":174,"ò":175,"ó":176,"ô":177,"õ":178,"ö":179,"÷":180,"ø":181,"ù":182,"ú":183,"û":184,"ü":185,"ý":186,"þ":187,"ÿ":188,"Ā":189,"ā":190,"Ă":191,"ă":192,"Ą":193,"ą":194,"Ć":195,"ć":196,"Ĉ":197,"ĉ":198,"Ċ":199,"ċ":200,"Č":201,"č":202,"Ď":203,"ď":204,"Đ":205,"đ":206,"Ē":207,"ē":208,"Ĕ":209,"ĕ":210,"Ė":211,"ė":212,"Ę":213,"ę":214,"Ě":215,"ě":216,"Ĝ":217,"ĝ":218,"Ğ":219,"ğ":220,"Ġ":221,"ġ":222,"Ģ":223,"ģ":224,"Ĥ":225,"ĥ":226,"Ħ":227,"ħ":228,"Ĩ":229,"ĩ":230,"Ī":231,"ī":232,"Ĭ":233,"ĭ":234,"Į":235,"į":236,"İ":237,"ı":238,"Ĳ":239,"ĳ":240,"Ĵ":241,"ĵ":242,"Ķ":243,"ķ":244,"ĸ":245,"Ĺ":246,"ĺ":247,"Ļ":248,"ļ":249,"Ľ":250,"ľ":251,"Ŀ":252,"ŀ":253,"Ł":254,"ł":255,"Ń":256,"Ġ=":257,"in":258,"er":259,"Ġ|":260,"Ġp":261,"Ġa":262,"en":263,"re":264,"at":265,"on":266,"Ġt":267,"or":268,"Ġs":269,"la":270,"am":271,"Ġg":272,"as":273,"ent":274,"ame":275,"le":276,"Ġth":277,"lay":278,"Ġn":279,"Ġm":280,"Ġi":281,"ing":282,"for":283,"ti":284,"Ġre":285,"Ġy":286,"Ġr":287,"ve":288,"int":289,"st":290,"ers":291,"ed":292,"ou":293,"Ġh":294,"Ġd":295,"Ġpers":296,"Ġplay":297,"Ġgame":298,"intent":299,"Ġe":300,"form":301,"Ġin":302,"cti":303,"Ġrat":304,"Ġw":305,"leas":306,"ion":307,"Ġreleas":308,"ir":309,"Ġb":310,"Ġname":311,"Ġan":312,"Ġ2":313,"Ġthe":314,"Ġis":315,"Ġc":316,"Ġrating":317,"Ġf":318,"Ġo":319,"ar":320,"Ġye":321,"ation":322,"Ġyou":323,"play":324,"Ġrelease":325,"pe":326,"oo":327,"res":328,"ul":329,"ure":330,"Ġhas":331,"Ġgen":332,"Ġst":333,"Ġ20":334,"ll":335,"Ġgenres":336,"Ġon":337,"Ġl":338,"Ġit":339,"an":340,"Ġperson":341,"ver":342,"ac":343,"Ġand":344,"dv":345,"ird":346,"dvent":347,"dventure":348,"Ġof":349,"player":350,"lat":351,"latform":352,"Ġplatform":353,"Ġno":354,"ri":355,"ctive":356,"ge":357,"Ġpc":358,"Ġperspe":359,"Ġperspective":360,"Ġinform":361,"ulti":362,"Ġmulti":363,"Ġmultiplayer":364,"lo":365,"it":366,"ie":367,"Ġ201":368,"Ġde":369,"om":370,"station":371,"Ġplaystation":372,"ai":373,"lop":374,"velop":375,"Ġdevelop":376,"Ġgames":377,"ction":378,"Ġv":379,"Ġplatforms":380,"'s":381,"Ġyes":382,"al":383,"Ġthird":384,"Ġaction":385,"Ġplayer":386,"Ġsh":387,"bo":388,"Ġthat":389,"Ġfor":390,"Ġyear":391,"ble":392,"ter":393,"xbo":394,"Ġxbo":395,"Ġxbox":396,"eam":397,"ce":398,"Ġsi":399,"Ġav":400,"Ġdeveloper":401,"Ġex":402,"aila":403,"Ġavaila":404,"Ġavailable":405,"Ġsteam":406,"Ġshoo":407,"Ġlin":408,"adventure":409,"Ġmac":410,"if":411,"Ġ(":412,"ut":413,"end":414,"Ġshooter":415,"ux":416,"Ġlinux":417,"age":418,"ood":419,"Ġgood":420,"Ġwas":421,"iew":422,"ate":423,"ort":424,"ld":425,"ic":426,"Ġro":427,"Ġaver":428,"Ġaverage":429,"Ġadventure":430,"Ġstr":431,"Ġ1":432,"Ġview":433,"ke":434,"Ġfir":435,"gh":436,"Ġfirst":437,"Ġsim":438,"is":439,"un":440,"port":441,"de":442,"out":443,"ateg":444,"Ġreleased":445,"Ġwit":446,"ro":447,"Ġstrateg":448,"all":449,"Ġes":450,"Ġstrategy":451,"rb":452,"Ġesrb":453,"Ġpo":454,"Ġrole":455,"playing":456,"riv":457,"Ġby":458,"Ġsimul":459,"th":460,"qu":461,"Ġto":462,"Ġdo":463,"Ġwith":464,"tt":465,"Ġsu":466,"Ġbe":467,"Ġ200":468,"Ġexce":469,"Ġexcell":470,"Ġexcellent":471,"Ġspe":472,"Ġha":473,"ive":474,"es":475,"ght":476,"est":477,"Ġli":478,"ly":479,"Ġsport":480,"acing":481,"us":482,"Ġte":483,"Ġbird":484,"Ġfr":485,"os":486,"Ġdriv":487,"Ġdriving":488,"ft":489,"Ġind":490,"intend":491,"Ġma":492,"intendo":493,"Ġnintendo":494,"Ġsimulation":495,"Ġrequ":496,"Ġrequest":497,"Ġpoor":498,"Ġlike":499,"ay":500,"zz":501,"Ġfrom":502,"Ġrated":503,"Ġindie":504,"Ġpu":505,"99":506,"one":507,"Ġatt":508,"and":509,"ch":510,"ute":511,"me":512,"racing":513,"Ġop":514,"ature":515,"Ġnot":516,"ight":517,"rib":518,"der":519,"Ġhave":520,"ribute":521,"Ġattribute":522,"Ġever":523,"ow":524,"Ġmature":525,"Ġbut":526,"Ġpuzz":527,"ta":528,"Ġpuzzle":529,"Ġplayed":530,"inion":531,"Ġopinion":532,"Ġor":533,"Ġme":534,"Ġver":535,"lan":536,"Ġii":537,"Ġcan":538,"Ġout":539,"Ġgive":540,"ier":541,"Ġmo":542,"Ġso":543,"Ġne":544,"omb":545,"ify":546,"Ġverify":547,"Ġ3":548,"id":549,"Ġcon":550,"Ġ199":551,"Ġen":552,"Ġwor":553,"Ġplatformer":554,"ry":555,"are":556,"ard":557,"Ġevery":558,"ios":559,"Ġas":560,"wh":561,"ia":562,"Ġeveryone":563,"ad":564,"omm":565,"ally":566,"Ġteen":567,"ment":568,"Ġk":569,"ud":570,"Ġun":571,"Ġ2014":572,"ted":573,"Ġab":574,"cal":575,"Ġspeed":576,"Ġdeveloped":577,"Ġabout":578,"ur":579,"Ġrec":580,"Ġsup":581,"ero":582,"ig":583,"the":584,"Ġexp":585,"'t":586,"ack":587,"Ġent":588,"ck":589,"Ġspec":590,"Ġfe":591,"Ġstud":592,"tain":593,"ind":594,"ertain":595,"pg":596,"Ġentertain":597,"Ġ2015":598,"jo":599,"Ġentertainment":600,"ommend":601,"Ġrecommend":602,"ra":603,"Ġwh":604,"Ġta":605,"joy":606,"Ġare":607,"Ġenjoy":608,"Ġspecif":609,"Ġch":610,"li":611,"you":612,"Ġneed":613,"Ġspecifier":614,"ctical":615,"so":616,"Ġal":617,"ass":618,"Ġtactical":619,"Ġworld":620,"what":621,"gest":622,"Ġconf":623,"ere":624,"irm":625,"cl":626,"Ġstudios":627,"lder":628,"lanation":629,"Ġexplanation":630,"ore":631,"Ġsug":632,"Ġconfirm":633,").":634,"Ġsuggest":635,"Ġsk":636,"Ġside":637,"king":638,"Ġus":639,"Ġhero":640,"em":641,"Ġla":642,"Ġany":643,"Ġthis":644,"tle":645,"Ġ10":646,"Ġ4":647,"Ġreal":648,"ust":649,"Ġwar":650,"iv":651,"Ġcry":652,"Ġmost":653,"Ġtur":654,"Ġcame":655,"time":656,"Ġrai":657,"do":658,"Ġraider":659,"mp":660,"ick":661,"Ġwi":662,"sh":663,"ball":664,"Ġsc":665,"Ġdoes":666,"Ġ2016":667,"co":668,"Ġam":669,"ho":670,"Ġj":671,"ber":672,"ol":673,"se":674,"cra":675,"Ġpoint":676,"craft":677,"ould":678,"Ġ2011":679,"Ġage":680,"ag":681,"Ġthin":682,"mor":683,"inter":684,"Ġsuper":685,"click":686,"lar":687,"oom":688,"Ġthink":689,"Ġtomb":690,"Ġsm":691,"Ġmmor":692,"Ġ2018":693,"Ġmmorpg":694,"tro":695,"Ġvi":696,"ased":697,"ell":698,"Ġturn":699,"ittle":700,"Ġwon":701,"Ġratings":702,"roll":703,"Ġ2017":704,"Ġle":705,"Ġsports":706,"based":707,"now":708,"Ġty":709,"Ġsing":710,"Ġsingle":711,"Ġjust":712,"ough":713,"Ġsoft":714,"Ġpre":715,"Ġpro":716,"Ġthere":717,"ther":718,"Ġwan":719,"Ġknow":720,"io":721,"Ġhack":722,"sla":723,"Ġfore":724,"aid":725,"slash":726,"Ġforest":727,"ct":728,"Ġsaid":729,"Ġreally":730,"ine":731,"uit":732,"Ġpay":733,"ne":734,"ular":735,"Ġonly":736,"Ġsimulat":737,"Ġtr":738,"Ġsimulator":739,"gic":740,"Ġmight":741,"lanc":742,"Ġrev":743,"ba":744,"Ġall":745,"ater":746,"Ġlo":747,"tale":748,"Ġcre":749,"load":750,"Ġmagic":751,"line":752,"Ġge":753,"Ġyour":754,"'re":755,"Ġev":756,"Ġfun":757,"Ġlittle":758,"Ġscroll":759,"Ġse":760,"Ġelder":761,"Ġcor":762,"Ġcomb":763,"Ġone":764,"Ġscrolls":765,"ention":766,"Ġracing":767,"Ġsky":768,"Ġ2005":769,"man":770,"ms":771,"Ġar":772,"Ġclanc":773,"Ġmetro":774,"Ġsoftw":775,"Ġclancy":776,"Ġrun":777,"Ġother":778,"loaded":779,"Ġman":780,"Ġtriv":781,"pec":782,"wit":783,"Ġ15":784,"ill":785,"inball":786,"Ġreloaded":787,"river":788,"Ġpinball":789,"Ġswit":790,"Ġbig":791,"Ġ2010":792,"Ġmade":793,"Ġheroes":794,"Ġswitch":795,"Ġtry":796,"ite":797,"el":798,"oration":799,"Ġsupport":800,"Ġlast":801,"coon":802,"Ġtycoon":803,"Ġrece":804,"Ġfan":805,"Ġ1999":806,"ron":807,"ance":808,"hic":809,"up":810,"Ġplaying":811,"Ġcombat":812,"tion":813,"Ġmode":814,"ife":815,"Ġz":816,"Ġve":817,"tty":818,"Ġalso":819,"Ġvehic":820,"Ġmention":821,"Ġmean":822,"Ġwanted":823,"ong":824,"Ġwarcraft":825,"Ġvehicular":826,"iosho":827,"Ġreceive":828,"ioshock":829,"ade":830,"Ġreceived":831,"oft":832,"pected":833,"Ġexpected":834,"Ġthr":835,"Ġdriver":836,"Ġ2013":837,"ma":838,"Ġmy":839,"Ġonline":840,"ue":841,"Ġnba":842,"Ġbl":843,"dertale":844,"Ġpretty":845,"yst":846,"Ġqu":847,"Ġhit":848,"Ġti":849,"Ġ2009":850,"Ġinter":851,"Ġworms":852,"pt":853,"Ġnight":854,"Ġmentioned":855,"ory":856,"Ġhe":857,"Ġfight":858,"Ġwonder":859,"aos":860,"ated":861,"Ġroll":862,"Ġchaos":863,"ome":864,"Ġrpg":865,"Ġsuch":866,"Ġfighting":867,"16":868,"il":869,"Ġend":870,"Ġbeen":871,"Ġbo":872,"Ġgener":873,"Ġfind":874,"assin":875,"Ġcreed":876,"Ġolder":877,"ich":878,"Ġsoftware":879,"Ġea":880,"ket":881,"ess":882,"Ġlove":883,"fer":884,"Ġmake":885,"Ġamong":886,"ash":887,"Ġhill":888,"Ġbioshock":889,"arted":890,"ris":891,"Ġfeel":892,"Ġsmash":893,"uitar":894,"cket":895,"wk":896,"Ġmus":897,"ague":898,"Ġleague":899,"Ġmusic":900,"ony":901,"Ġthie":902,"Ġdid":903,"Ġhawk":904,"charted":905,"Ġiii":906,"Ġskater":907,"Ġhits":908,"Ġthief":909,"ror":910,"Ġtom":911,"xt":912,"orm":913,"Ġele":914,"Ġcat":915,"Ġfa":916,"rim":917,"Ġheard":918,"Ġed":919,"Ġedge":920,"Ġwol":921,"irror":922,"Ġ2012":923,"alyst":924,"Ġtrivia":925,"Ġcatalyst":926,"Ġwolf":927,"'m":928,"oun":929,"Ġtext":930,"Ġreview":931,"Ġget":932,"ili":933,"Ġdance":934,"Ġwhich":935,"board":936,"ire":937,"Ġsay":938,"les":939,"Ġmar":940,"Ġroom":941,"Ġshoot":942,"po":943,"Ġteam":944,"Ġsol":945,"Ġundertale":946,"od":947,"Ġ&":948,"Ġdoom":949,"Ġemp":950,"Ġmario":951,"ave":952,"ked":953,"Ġdate":954,"ish":955,"led":956,"Ġtime":957,"ings":958,"Ġdar":959,"Ġdark":960,"zzard":961,"cher":962,"ign":963,"lizzard":964,"Ġwild":965,"ake":966,"ness":967,"Ġloo":968,"cade":969,"forge":970,"Ġhun":971,"Ġange":972,"Ġwitcher":973,"Ġ2004":974,"Ġ1994":975,"Ġarcade":976,"Ġdarkness":977,"Ġhunt":978,"Ġangel":979,"ap":980,"Ġtal":981,"Ġrocket":982,"Ġ2001":983,"lent":984,"Ġtony":985,"Ġdis":986,"Ġover":987,"au":988,"have":989,"ice":990,"Ġguitar":991,"Ġsilent":992,"Ġmad":993,"ires":994,"mber":995,"ange":996,"Ġdoesn":997,"Ġreviews":998,"Ġmon":999,"Ġwould":1000,"Ġblizzard":1001,"Ġstrange":1002,"Ġmakes":1003,"sis":1004,"vor":1005,"Ġpri":1006,"Ġtheory":1007,"Ġkings":1008,"Ġuncharted":1009,"Ġempires":1010,"Ġprime":1011,"ot":1012,"Ġdig":1013,"Ġass":1014,"Ġfavor":1015,"te":1016,"Ġmass":1017,"Ġfire":1018,"pl":1019,"Ġthough":1020,"Ġcar":1021,"Ġcom":1022,"Ġenjoyed":1023,"'ve":1024,"old":1025,"wn":1026,"Ġmirror":1027,"ital":1028,"ishing":1029,"Ġdigital":1030,"33":1031,"erman":1032,"last":1033,"aster":1034,"Ġeth":1035,"Ġbomb":1036,"Ġcro":1037,"Ġok":1038,"Ġos":1039,"Ġ2033":1040,"anishing":1041,"Ġvanishing":1042,"Ġ2002":1043,"why":1044,"Ġsmall":1045,"ronic":1046,"ound":1047,"Ġcarter":1048,"Ġethan":1049,"Ġbomberman":1050,"Ġdon":1051,"Ġsolid":1052,"Ġtalking":1053,"lier":1054,"ami":1055,"Ġcomm":1056,"arlier":1057,"need":1058,"fe":1059,"ial":1060,"sid":1061,"ince":1062,"oot":1063,"ays":1064,"Ġenem":1065,"Ġmanag":1066,"Ġlooking":1067,"Ġassassin":1068,"den":1069,"poration":1070,"Ġnf":1071,"Ġdiv":1072,"ision":1073,"Ġdog":1074,"Ġcorporation":1075,"Ġskyrim":1076,"Ġfavorite":1077,"Ġdivision":1078,"hind":1079,"ox":1080,"rand":1081,"tris":1082,"erco":1083,"ought":1084,"iris":1085,"Ġlines":1086,"ately":1087,"ghold":1088,"Ġbehind":1089,"ghty":1090,"Ġtemp":1091,"andos":1092,"hot":1093,"Ġblind":1094,"aughty":1095,"Ġcroft":1096,"Ġosiris":1097,"ootball":1098,"Ġenemy":1099,"Ġmanager":1100,"Ġnfl":1101,"ercoaster":1102,"Ġtemple":1103,"Ġsome":1104,"Ġ1998":1105,"Ġalone":1106,"ced":1107,"Ġtoo":1108,"Ġthought":1109,"Ġway":1110,"arcraft":1111,"Ġshow":1112,"Ġskyforge":1113,"ple":1114,"um":1115,"Ġnaughty":1116,"Ġred":1117,"use":1118,"cage":1119,"Ġport":1120,"ence":1121,"Ġliked":1122,"Ġrest":1123,"Ġevil":1124,"blo":1125,"dow":1126,"pse":1127,"ution":1128,"ypse":1129,"zation":1130,"Ġadv":1131,"Ġapo":1132,"orst":1133,"Ġspl":1134,"layers":1135,"Ġill":1136,"irt":1137,"Ġciv":1138,"Ġcell":1139,"ant":1140,"Ġshif":1141,"ifa":1142,"Ġ12":1143,"Ġ2007":1144,"usion":1145,"Ġmeier":1146,"iablo":1147,"calypse":1148,"Ġfear":1149,"olution":1150,"ilization":1151,"Ġshowdow":1152,"Ġapocalypse":1153,"orstorm":1154,"Ġsplinter":1155,"Ġillusion":1156,"Ġcivilization":1157,"Ġshift":1158,"Ġshowdown":1159,"her":1160,"rated":1161,"ye":1162,"Ġu":1163,"ori":1164,"Ġef":1165,"Ġfar":1166,"by":1167,"day":1168,"ts":1169,"ous":1170,"Ġnever":1171,"fect":1172,"Ġreme":1173,"Ġhow":1174,"Ġeye":1175,"Ġpur":1176,"Ġboth":1177,"ual":1178,"anced":1179,"deo":1180,"Ġcrysis":1181,"Ġvideo":1182,"Ġelement":1183,"Ġokay":1184,"Ġportal":1185,"Ġremember":1186,"hl":1187,"uck":1188,"Ġlife":1189,"Ġdes":1190,"Ġshould":1191,"Ġpayne":1192,"bis":1193,"ders":1194,"fare":1195,"ham":1196,"life":1197,"sa":1198,"sport":1199,"zard":1200,"onami":1201,"ently":1202,"Ġif":1203,"Ġdut":1204,"Ġfound":1205,"tto":1206,"ember":1207,"Ġwarfare":1208,"Ġwizard":1209,"Ġwonders":1210,"Ġsept":1211,"Ġcorsa":1212,"Ġthrone":1213,"Ġdidn":1214,"Ġmont":1215,"Ġadvanced":1216,"Ġeffect":1217,"bisoft":1218,"Ġduty":1219,"Ġseptember":1220,"vers":1221,"Ġgre":1222,"orth":1223,"Ġ2000":1224,"Ġmetroid":1225,"Ġelements":1226,"sup":1227,"Ġwell":1228,"Ġkonami":1229,"Ġubisoft":1230,"Ġgreat":1231,"super":1232,"ience":1233,"ath":1234,"Ġval":1235,"Ġleg":1236,"Ġeven":1237,"Ġshooters":1238,"Ġdisli":1239,"Ġtri":1240,"Ġoc":1241,"Ġstron":1242,"back":1243,"eld":1244,"ina":1245,"arina":1246,"Ġmax":1247,"Ġche":1248,"Ġzeld":1249,"Ġcommandos":1250,"Ġvalve":1251,"Ġlegend":1252,"Ġocarina":1253,"Ġstronghold":1254,"Ġzelda":1255,"fia":1256,"suit":1257,"uro":1258,"Ġer":1259,"force":1260,"Ġead":1261,"llforce":1262,"ansport":1263,"Ġoff":1264,"Ġsims":1265,"Ġnevers":1266,"Ġ1993":1267,"Ġpayback":1268,"Ġtruck":1269,"mares":1270,"Ġnightmares":1271,"Ġrestoration":1272,"Ġpursuit":1273,"athia":1274,"Ġerathia":1275,"Ġneversoft":1276,"ak":1277,"Ġearlier":1278,"Ġthem":1279,"Ġtetris":1280,"Ġwill":1281,"med":1282,"vel":1283,"Ġthey":1284,"Ġfri":1285,"Ġoutlast":1286,"Ġthrough":1287,"Ġrollcage":1288,"ky":1289,"Ġup":1290,"Ġresid":1291,"Ġresident":1292,"able":1293,"reak":1294,"Ġfootball":1295,"Ġori":1296,"Ġrollercoaster":1297,"Ġremed":1298,"Ġbreak":1299,"Ġuniv":1300,"Ġgenerally":1301,"Ġremedy":1302,"Ġunivers":1303,"active":1304,"Ġnorth":1305,"Ġrevel":1306,"Ġcall":1307,"Ġpoorly":1308,"Ġrevolution":1309,"Ġinteractive":1310,"Ġgeneral":1311,"antum":1312,"Ġuniverse":1313,"Ġrevelation":1314,"torstorm":1315,"Ġint":1316,"Ġlayers":1317,"Ġexam":1318,"Ġhad":1319,"Ġmotorstorm":1320,"Ġwhat":1321,"Ġlara":1322,"Ġsuperhot":1323,"Ġtried":1324,"Ġmu":1325,"Ġho":1326,"Ġbus":1327,"Ġinto":1328,"Ġexample":1329,"com":1330,"spe":1331,"tal":1332,"Ġmadden":1333,"Ġmuch":1334,"ties":1335,"Ġdiablo":1336,"Ġwere":1337,"ither":1338,"thing":1339,"bla":1340,"nam":1341,"ynam":1342,"real":1343,"Ġsen":1344,"Ġdynam":1345,"rif":1346,"Ġvis":1347,"oriz":1348,"Ġdynamic":1349,"awn":1350,"nake":1351,"ua":1352,"wor":1353,"Ġaut":1354,"Ġsac":1355,"Ġsnake":1356,"Ġdawn":1357,"Ġeater":1358,"Ġtheft":1359,"Ġdec":1360,"Ġsid":1361,"ellbla":1362,"Ġgear":1363,"Ġzero":1364,"max":1365,"Ġmontreal":1366,"Ġoffers":1367,"Ġsenua":1368,"rifice":1369,"orizon":1370,"Ġauto":1371,"Ġsacrifice":1372,"ellblade":1373,"since":1374,"stron":1375,"Ġdirt":1376,"ank":1377,"ity":1378,"Ġtit":1379,"Ġcal":1380,"Ġfifa":1381,"Ġmafia":1382,"Ġexper":1383,"Ġfeat":1384,"Ġstudio":1385,"Ġfriend":1386,"Ġnhl":1387,"Ġbet":1388,"Ġwondering":1389,"Ġexperience":1390,"ider":1391,"fort":1392,"Ġright":1393,"stal":1394,"Ġtell":1395,"Ġasse":1396,"Ġdesign":1397,"Ġassetto":1398,"17":1399,"ci":1400,"uri":1401,"ond":1402,"Ġfond":1403,"Ġgenre":1404,"Ġits":1405,"alf":1406,"unately":1407,"rop":1408,"Ġcomp":1409,"td":1410,"ures":1411,"attle":1412,"Ġthen":1413,"Ġreign":1414,"Ġcuri":1415,"Ġltd":1416,"cept":1417,"Ġindia":1418,"Ġconcept":1419,"Ġ1990":1420,"Ġchronic":1421,"Ġscs":1422,"Ġtransport":1423,"Ġvisual":1424,"Ġdecent":1425,"Ġcurious":1426,"Ġconcepts":1427,"Ġchronicles":1428,"aking":1429,"lt":1430,"tr":1431,"ually":1432,"tic":1433,"Ġoption":1434,"Ġfelt":1435,"Ġwhy":1436,"Ġwant":1437,"Ġseem":1438,"Ġeither":1439,"Ġcalled":1440,"Ġfriends":1441,"ever":1442,"ks":1443,"Ġat":1444,"Ġgot":1445,"Ġeuro":1446,"Ġunfort":1447,"Ġunfortunately":1448,"tom":1449,"Ġcore":1450,"Ġfrank":1451,"Ġtrivial":1452,"Ġsupported":1453,"az":1454,"Ġtin":1455,"Ġdays":1456,"urt":1457,"Ġamaz":1458,"Ġruns":1459,"Ġamazing":1460,"19":1461,"fox":1462,"furt":1463,"ix":1464,"ities":1465,"mare":1466,"eric":1467,"Ġmic":1468,"Ġwake":1469,"Ġbad":1470,"Ġcities":1471,"ary":1472,"oof":1473,"oober":1474,"Ġ2019":1475,"Ġ14":1476,"rose":1477,"Ġtoby":1478,"metro":1479,"Ġcanad":1480,"them":1481,"Ġcryte":1482,"Ġameric":1483,"Ġpayday":1484,"Ġnightmare":1485,"Ġdynamics":1486,"cient":1487,"roprose":1488,"Ġfrankfurt":1489,"Ġmicroprose":1490,"Ġtobyfox":1491,"Ġcanada":1492,"Ġcrytek":1493,"Ġamerican":1494,"),":1495,"pic":1496,"asy":1497,"Ġbattle":1498,"ress":1499,"Ġ2008":1500,"Ġcrystal":1501,"Ġquantum":1502,"Ġoverall":1503,"ful":1504,"Ġback":1505,"Ġperspectives":1506,"Ġspellforce":1507,"Ġwhen":1508,"Ġprefer":1509,"Ġbloober":1510,"light":1511,"uter":1512,"Ġgrand":1513,"Ġfuse":1514,"Ġbest":1515,"Ġmassive":1516,"Ġfeatures":1517,"erri":1518,"Ġhorizon":1519,"Ġcould":1520,"Ġcap":1521,"Ġstarcraft":1522,"mpress":1523,"Ġdislike":1524,"Ġcomputer":1525,"aut":1526,"ways":1527,"ast":1528,"ston":1529,"Ġancient":1530,"Ġisn":1531,"usive":1532,"Ġmetal":1533,"clusive":1534,"86":1535,"986":1536,"mer":1537,"pr":1538,"sy":1539,"sier":1540,"Ġastron":1541,"onix":1542,"orks":1543,"Ġslight":1544,"Ġplayers":1545,"Ġanthem":1546,"Ġce":1547,"arre":1548,"arsier":1549,"geham":1550,"Ġexclusive":1551,"Ġ1986":1552,"Ġbeing":1553,"adow":1554,"ackman":1555,"Ġalways":1556,"Ġturbo":1557,"ctronic":1558,"Ġarts":1559,"Ġsoftworks":1560,"Ġfant":1561,"Ġquite":1562,"Ġboston":1563,"ledgeham":1564,"Ġillusions":1565,"Ġcheck":1566,"Ġhole":1567,"auts":1568,"proof":1569,"syonix":1570,"Ġastronauts":1571,"Ġslightly":1572,"ackmania":1573,"ledgehammer":1574,"Ġpsyonix":1575,"Ġtarsier":1576,"Ġsledgehammer":1577,"lack":1578,"Ġgam":1579,"Ġhellblade":1580,"Ġbi":1581,"Ġblack":1582,"Ġbeenox":1583,"Ġelectronic":1584,"Ġshooting":1585,"Ġtitle":1586,"Ġtelltale":1587,"little":1588,"Ġsame":1589,"ase":1590,"Ġreleases":1591,"ality":1592,"assassin":1593,"Ġinterest":1594,"Ġrpgs":1595,"Ġfireproof":1596,"Ġhowever":1597,"ving":1598,"Ġcons":1599,"Ġconso":1600,"Ġtypic":1601,"Ġlot":1602,"cre":1603,"du":1604,"ss":1605,"Ġade":1606,"Ġtend":1607,"Ġnorm":1608,"Ġincl":1609,"Ġpuzzles":1610,"ause":1611,"tomb":1612,"Ġad":1613,"Ġgu":1614,"Ġcur":1615,"Ġoffer":1616,"Ġnow":1617,"Ġprodu":1618,"Ġsimulators":1619,"Ġconsider":1620,"Ġcurr":1621,"fore":1622,"je":1623,"kill":1624,"mast":1625,"nation":1626,"nba":1627,"son":1628,"sem":1629,"yro":1630,"Ġpyro":1631,"Ġhud":1632,"Ġco":1633,"Ġ11":1634,"demast":1635,"Ġtow":1636,"Ġtoky":1637,"Ġ2003":1638,"Ġensem":1639,"Ġlack":1640,"Ġinternation":1641,"speaking":1642,"Ġtypically":1643,"Ġadeline":1644,"Ġnormally":1645,"Ġcurrently":1646,"Ġhudson":1647,"demasters":1648,"Ġtokyo":1649,"Ġensemble":1650,"Ġinternational":1651,"Ġpar":1652,"Ġloved":1653,"Ġsince":1654,"Ġgo":1655,"Ġwe":1656,"lore":1657,"Ġbec":1658,"Ġmore":1659,"Ġcodemasters":1660,"ile":1661,"Ġcase":1662,"Ġplatformers":1663,"Ġshadow":1664,"ise":1665,"Ġbefore":1666,"Ġvery":1667,"Ġquality":1668,"Ġoverkill":1669,"'d":1670,"ilar":1671,"ls":1672,"tent":1673,"inal":1674,"Ġmed":1675,"ersion":1676,"Ġhalf":1677,"Ġlately":1678,"ield":1679,"Ġdown":1680,"iocre":1681,"world":1682,"Ġbetter":1683,"mpressed":1684,"Ġmediocre":1685,"fly":1686,"oh":1687,"pay":1688,"Ġsa":1689,"Ġnice":1690,"Ġversion":1691,"Ġnew":1692,"Ġvii":1693,"Ġfantasy":1694,"Ġgaming":1695,"Ġbecause":1696,"ax":1697,"bur":1698,"brand":1699,"field":1700,"ug":1701,"Ġalan":1702,"eni":1703,"Ġsout":1704,"Ġgrim":1705,"Ġrise":1706,"Ġbarre":1707,"Ġtheir":1708,"Ġfirax":1709,"undertale":1710,"oware":1711,"Ġusually":1712,"shade":1713,"Ġcrew":1714,"Ġtibur":1715,"Ġfirefly":1716,"Ġfirebrand":1717,"Ġconsoles":1718,"Ġproduction":1719,"payday":1720,"Ġsoutham":1721,"Ġgrimlore":1722,"Ġbarrels":1723,"Ġfiraxis":1724,"Ġtiburon":1725,"Ġgod":1726,"Ġtold":1727,"Ġcapcom":1728,"Ġbioware":1729,"ring":1730,"Ġmind":1731,"ail":1732,"Ġrecently":1733,"point":1734,"appoint":1735,"Ġdisappoint":1736,"Ġinterested":1737,"Ġadd":1738,"mad":1739,"Ġaw":1740,"lection":1741,"Ġsomething":1742,"worms":1743,"madden":1744,"bus":1745,"far":1746,"fifa":1747,"might":1748,"not":1749,"ru":1750,"tail":1751,"ula":1752,"vi":1753,"ating":1754,"Ġthan":1755,"Ġrefer":1756,"Ġgameplay":1757,"Ġsimilar":1758,"ows":1759,"Ġcannot":1760,"Ġfeature":1761,"ularly":1762,"Ġtrackmania":1763,"spellforce":1764,"Ġpartic":1765,"dirt":1766,"kt":1767,"lara":1768,"Ġhate":1769,"Ġdetail":1770,"though":1771,"Ġsur":1772,"Ġattention":1773,"Ġenjoyable":1774,"Ġmostly":1775,"superhot":1776,"metroid":1777,"Ġreferring":1778,"bioshock":1779,"bru":1780,"een":1781,"lla":1782,"mass":1783,"nod":1784,"pp":1785,"tnod":1786,"vol":1787,"zion":1788,"zero":1789,"Ġag":1790,"Ġazero":1791,"Ġsan":1792,"Ġsyst":1793,"Ġbit":1794,"Ġ22":1795,"Ġ29":1796,"Ġcd":1797,"Ġcli":1798,"Ġcome":1799,"Ġshort":1800,"Ġexod":1801,"ica":1802,"Ġsimula":1803,"une":1804,"unos":1805,"uncharted":1806,"Ġwithout":1807,"Ġcontent":1808,"Ġkunos":1809,"Ġfebru":1810,"Ġwhile":1811,"Ġjune":1812,"Ġproje":1813,"Ġallod":1814,"Ġmonica":1815,"Ġdontnod":1816,"ously":1817,"errilla":1818,"Ġguerrilla":1819,"Ġconsidered":1820,"enimax":1821,"zioni":1822,"Ġazeroth":1823,"Ġsanta":1824,"Ġsystem":1825,"Ġclimax":1826,"Ġexodus":1827,"Ġsimulazioni":1828,"Ġfebruary":1829,"Ġprojekt":1830,"Ġallods":1831,"ab":1832,"cry":1833,"earlier":1834,"guitar":1835,"half":1836,"mirror":1837,"sil":1838,"ween":1839,"Ġnor":1840,"Ġinvol":1841,"Ġnothing":1842,"Ġwasn":1843,"Ġzenimax":1844,"Ġdisliked":1845,"coming":1846,"Ġbetween":1847,"Ġbattlefield":1848,"Ġexclusively":1849,"Ġaddi":1850,"viously":1851,"silent":1852,"diablo":1853,"etto":1854,"football":1855,"nhl":1856,"ten":1857,"triv":1858,"warcraft":1859,"yle":1860,"Ġaug":1861,"Ġsie":1862,"lass":1863,"Ġmere":1864,"Ġim":1865,"starcraft":1866,"Ġinc":1867,"pect":1868,"ull":1869,"Ġoften":1870,"Ġplatforming":1871,"portal":1872,"Ġmoon":1873,"assetto":1874,"rollercoaster":1875,"Ġcreated":1876,"Ġmany":1877,"Ġupcoming":1878,"crysis":1879,"trivial":1880,"Ġaugust":1881,"Ġmerely":1882,"alan":1883,"euro":1884,"how":1885,"Ġrts":1886,"Ġrather":1887,"Ġclass":1888,"Ġfam":1889,"Ġfinal":1890,"Ġyet":1891,"Ġrock":1892,"Ġuni":1893,"Ġunder":1894,"never":1895,"Ġfair":1896,"Ġsaw":1897,"Ġsurp":1898,"driver":1899,"hero":1900,"ially":1901,"mall":1902,"ores":1903,"sky":1904,"small":1905,"tony":1906,"ude":1907,"Ġterri":1908,"Ġsti":1909,"Ġref":1910,"our":1911,"uly":1912,"outlast":1913,"rocket":1914,"Ġespec":1915,"Ġtruly":1916,"Ġallows":1917,"iliar":1918,"Ġsaying":1919,"Ġcommon":1920,"Ġdisappointing":1921,"Ġclassic":1922,"Ġfamiliar":1923,"Ġsurpris":1924,"heroes":1925,"skyforge":1926,"Ġterrible":1927,"Ġespecially":1928,"hellblade":1929,"mot":1930,"rateg":1931,"strateg":1932,"arn":1933,"Ġstyle":1934,"rise":1935,"itable":1936,"iffer":1937,"quantum":1938,"Ġsuitable":1939,"Ġkind":1940,"Ġset":1941,"tetris":1942,"Ġcheap":1943,"Ġinclud":1944,"Ġparticularly":1945,"motorstorm":1946,"strategy":1947,"alanc":1948,"ja":1949,"ober":1950,"pite":1951,"pider":1952,"rÃ":1953,"vory":1954,"wood":1955,"yer":1956,"zel":1957,"©al":1958,"Ġ7":1959,"inja":1960,"Ġninja":1961,"Ġivory":1962,"star":1963,"Ġeid":1964,"Ġbalanc":1965,"Ġoct":1966,"loby":1967,"iest":1968,"Ġshores":1969,"Ġ16":1970,"Ġhazel":1971,"metal":1972,"Ġrecall":1973,"Ġspectr":1974,"Ġtake":1975,"sol":1976,"Ġalthough":1977,"Ġscary":1978,"Ġevolution":1979,"Ġnightshade":1980,"Ġredwood":1981,"Ġdespite":1982,"ĠmontrÃ":1983,"Ġholoby":1984,"transport":1985,"Ġinclude":1986,"Ġtower":1987,"Ġtoward":1988,"lections":1989,"Ġaddictive":1990,"Ġimm":1991,"Ġrockstar":1992,"Ġsawyer":1993,"Ġstill":1994,"Ġreflections":1995,"ifferent":1996,"Ġeidos":1997,"Ġbalanced":1998,"Ġoctober":1999,"Ġhazelight":2000,"Ġspectrum":2001,"ĠmontrÃ©al":2002,"Ġholobyte":2003,"comm":2004,"did":2005,"fin":2006,"other":2007,"Ġimpressed":2008,"ersive":2009,"Ġstand":2010,"unch":2011,"when":2012,"Ġabsol":2013,"Ġwho":2014,"Ġchris":2015,"ility":2016,"Ġsolving":2017,"stronghold":2018,"Ġago":2019,"Ġsystems":2020,"Ġimmersive":2021,"commandos":2022,"Ġabsolute":2023,"horizon":2024,"ply":2025,"Ġeasy":2026,"Ġfami":2027,"resid":2028,"Ġdevelopers":2029,"Ġsimply":2030,"esome":2031,"acked":2032,"Ġspecial":2033,"rollcage":2034,"Ġtitles":2035,"trackmania":2036,"Ġawesome":2037,"Ġinvolve":2038,"Ġincluding":2039,"Ġfamily":2040,"resident":2041,"'ll":2042,")?":2043,"20":2044,"can":2045,"dance":2046,"grand":2047,"ps":2048,"si":2049,"to":2050,"Ġaud":2051,"Ġapp":2052,"Ġsad":2053,"Ġgiv":2054,"Ġmom":2055,"Ġplays":2056,"Ġplayable":2057,"Ġfull":2058,"Ġold":2059,"ooter":2060,"act":2061,"Ġvia":2062,"Ġstrategic":2063,"allen":2064,"Ġspeaking":2065,"ose":2066,"Ġchallen":2067,"shooter":2068,"Ġcapab":2069,"Ġunimpressed":2070,"Ġtowards":2071,"Ġabsolutely":2072,"Ġaudience":2073,"bing":2074,"call":2075,"da":2076,"ep":2077,"he":2078,"no":2079,"would":2080,"inally":2081,"ering":2082,"Ġpick":2083,"Ġact":2084,"Ġinst":2085,"right":2086,"ies":2087,"icated":2088,"Ġliking":2089,"Ġmay":2090,"Ġorig":2091,"which":2092,"Ġlaunch":2093,"Ġfunction":2094,"Ġcombin":2095,"mafia":2096,"ilities":2097,"Ġlook":2098,"Ġdownload":2099,"Ġgiven":2100,"Ġmoment":2101,"Ġcapabilities":2102,"Ġactually":2103,"Ġoriginally":2104,"be":2105,"cas":2106,"god":2107,"sor":2108,"Ġjo":2109,"ening":2110,"releas":2111,"oring":2112,"ented":2113,"Ġmust":2114,"tiful":2115,"Ġwish":2116,"Ġfo":2117,"Ġdefin":2118,"thes":2119,"Ġbeau":2120,"Ġgives":2121,"Ġkid":2122,"Ġunus":2123,"uring":2124,"Ġuses":2125,"Ġtype":2126,"Ġquick":2127,"ount":2128,"Ġreviewed":2129,"less":2130,"plicated":2131,"Ġfeaturing":2132,"Ġnewest":2133,"Ġsurprising":2134,"Ġaudiences":2135,"Ġinstance":2136,"thesda":2137,"Ġbeautiful":2138,"bje":2139,"ging":2140,"jer":2141,"mit":2142,"night":2143,"oice":2144,"pre":2145,"ting":2146,"tally":2147,"ying":2148,"zarre":2149,"Ġleas":2150,"Ġke":2151,"erful":2152,"Ġac":2153,"Ġsqu":2154,"Ġgri":2155,"ason":2156,"astic":2157,"learn":2158,"Ġthing":2159,"Ġthose":2160,"Ġnade":2161,"tive":2162,"Ġreason":2163,"vember":2164,"Ġboring":2165,"Ġcri":2166,"arjer":2167,"Ġnovember":2168,"Ġdece":2169,"Ġ13":2170,"Ġtotally":2171,"ghtening":2172,"Ġlimit":2173,"Ġtearjer":2174,"Ġindifferent":2175,"owering":2176,"Ġ1997":2177,"Ġuncas":2178,"Ġabsor":2179,"Ġchance":2180,"Ġchoice":2181,"Ġusers":2182,"Ġamount":2183,"Ġaren":2184,"itely":2185,"Ġempowering":2186,"Ġoverrated":2187,"Ġcomes":2188,"Ġcheerful":2189,"Ġfrightening":2190,"Ġseems":2191,"Ġbizarre":2192,"Ġsimilarly":2193,"Ġshortest":2194,"Ġunderrated":2195,"Ġincludes":2196,"Ġinvolves":2197,"Ġoldest":2198,"Ġchallenging":2199,"released":2200,"Ġdefinitely":2201,"Ġunusual":2202,"nightshade":2203,"previously":2204,"Ġleast":2205,"Ġsquare":2206,"Ġnadeo":2207,"Ġdecember":2208,"Ġtearjerking":2209,"Ġuncasual":2210,"Ġabsorbing":2211,"Ġper":2212,"red":2213,"rect":2214,"Ġspider":2215,"Ġgho":2216,"Ġimpress":2217,"Ġreg":2218,"Ġhu":2219,"Ġworth":2220,"Ġbu":2221,"Ġfre":2222,"ool":2223,"Ġstory":2224,"ieve":2225,"Ġline":2226,"Ġstrong":2227,"Ġbethesda":2228,"Ġhaving":2229,"Ġaspect":2230,"Ġwhere":2231,"Ġenjoying":2232,"Ġuse":2233,"ival":2234,"agers":2235,"Ġpreviously":2236,"Ġknows":2237,"Ġtrue":2238,"Ġsee":2239,"Ġcorrect":2240,"Ġmeans":2241,"Ġcoming":2242,"Ġfantastic":2243,"Ġgott":2244,"hey":2245,"Ġkids":2246,"Ġgritty":2247,"Ġghost":2248,"bly":2249,"cus":2250,"final":2251,"igh":2252,"platform":2253,"ption":2254,"ven":2255,"ward":2256,"Ġpla":2257,"Ġable":2258,"ative":2259,"onest":2260,"orate":2261,"Ġgra":2262,"Ġhated":2263,"Ġhigh":2264,"Ġanother":2265,"Ġcour":2266,"Ġcool":2267,"Ġfps":2268,"rive":2269,"Ġexc":2270,"Ġexpect":2271,"Ġsubje":2272,"Ġneither":2273,"Ġworst":2274,"Ġteenagers":2275,"Ġtrying":2276,"Ġfeeling":2277,"ounter":2278,"Ġoptions":2279,"Ġinteresting":2280,"Ġguess":2281,"Ġsafe":2282,"Ġversions":2283,"Ġcommonly":2284,"Ġjob":2285,"Ġfocus":2286,"Ġhuge":2287,"Ġfrequ":2288,"Ġlineup":2289,"Ġcourse":2290,"Ġsubject":2291,"counter":2292,"eo":2293,"lus":2294,"lieve":2295,"ning":2296,"oid":2297,"per":2298,"rating":2299,"tac":2300,"uke":2301,"ume":2302,"war":2303,"Ġpeo":2304,"Ġplus":2305,"Ġadvent":2306,"Ġthri":2307,"Ġmat":2308,"Ġmess":2309,"Ġhel":2310,"Ġeas":2311,"Ġbro":2312,"Ġanno":2313,"Ġcare":2314,"Ġluke":2315,"gether":2316,"ites":2317,"Ġavoid":2318,"Ġviews":2319,"Ġposi":2320,"Ġdoing":2321,"Ġbelieve":2322,"Ġenough":2323,"Ġencounter":2324,"ared":2325,"while":2326,"Ġentire":2327,"Ġspectac":2328,"Ġuser":2329,"shadow":2330,"Ġmmorpgs":2331,"Ġaround":2332,"Ġsupports":2333,"Ġmodes":2334,"Ġhitman":2335,"Ġfavorites":2336,"Ġpurch":2337,"Ġthemes":2338,"Ġconsole":2339,"Ġlaunched":2340,"Ġfrequently":2341,"warm":2342,"Ġpeople":2343,"Ġadventures":2344,"Ġannoying":2345,"Ġlukewarm":2346,"Ġpositive":2347,"Ġencountered":2348,"Ġspectacular":2349,"ea":2350,"ible":2351,"ler":2352,"mes":2353,"packed":2354,"Ġpres":2355,"Ġput":2356,"orough":2357,"Ġthank":2358,"Ġthorough":2359,"Ġmis":2360,"Ġmid":2361,"Ġdrive":2362,"Ġfact":2363,"Ġstun":2364,"lling":2365,"istic":2366,"thers":2367,"there":2368,"Ġtogether":2369,"Ġfrust":2370,"tactical":2371,"Ġwork":2372,"Ġasking":2373,"Ġspecific":2374,"Ġanything":2375,"Ġproba":2376,"Ġselection":2377,"Ġreception":2378,"Ġmeant":2379,"Ġblend":2380,"Ġassume":2381,"Ġcompe":2382,"Ġdisliking":2383,"Ġpreference":2384,"Ġlacking":2385,"Ġkeep":2386,"Ġlimiting":2387,"ivalent":2388,"onestly":2389,"Ġthrilling":2390,"Ġthoroughly":2391,"Ġmidd":2392,"Ġfrustrating":2393,"Ġprobably":2394,"10":2395,"blizzard":2396,"battle":2397,"bility":2398,"bivalent":2399,"gative":2400,"jor":2401,"lust":2402,"ming":2403,"pth":2404,"spider":2405,"ump":2406,"Ġpacked":2407,"ens":2408,"ord":2409,"lax":2410,"Ġimp":2411,"times":2412,"Ġrelax":2413,"Ġhor":2414,"Ġhold":2415,"Ġday":2416,"Ġdull":2417,"irky":2418,"Ġcol":2419,"another":2420,"Ġnostal":2421,"Ġmultiple":2422,"cess":2423,"Ġhapp":2424,"using":2425,"Ġmajor":2426,"Ġpuzzler":2427,"Ġnegative":2428,"Ġconv":2429,"Ġentry":2430,"Ġalright":2431,"Ġconfusing":2432,"Ġused":2433,"Ġrealistic":2434,"Ġambivalent":2435,"sel":2436,"Ġcombine":2437,"Ġfans":2438,"Ġquirky":2439,"Ġcomplicated":2440,"Ġsomewhat":2441,"Ġpreferred":2442,"Ġoffering":2443,"Ġlacklust":2444,"Ġweird":2445,"Ġdownright":2446,"Ġmindless":2447,"Ġparticular":2448,"ability":2449,"Ġinvolving":2450,"Ġfairly":2451,"Ġsurprised":2452,"Ġsadly":2453,"Ġpicked":2454,"Ġfunctionality":2455,"Ġsurprisingly":2456,"Ġcritic":2457,"Ġregularly":2458,"Ġbuy":2459,"Ġgotten":2460,"Ġhelp":2461,"Ġstunning":2462,"battlefield":2463,"Ġlackluster":2464,"ain":2465,"air":2466,"borate":2467,"ether":2468,"ff":2469,"fair":2470,"gl":2471,"hus":2472,"hap":2473,"hilar":2474,"ist":2475,"iac":2476,"iment":2477,"just":2478,"ki":2479,"ken":2480,"ny":2481,"niac":2482,"put":2483,"pos":2484,"som":2485,"try":2486,"was":2487,"reci":2488,"ongest":2489,"Ġton":2490,"orful":2491,"Ġsent":2492,"laborate":2493,"Ġgory":2494,"Ġgoof":2495,"asts":2496,"Ġnause":2497,"Ġmaster":2498,"Ġio":2499,"ingham":2500,"Ġreward":2501,"Ġdone":2502,"Ġdifferent":2503,"Ġepic":2504,"Ġelaborate":2505,"Ġincre":2506,"Ġbirm":2507,"Ġbased":2508,"Ġblast":2509,"Ġothers":2510,"oose":2511,"lliest":2512,"Ġones":2513,"Ġlive":2514,"Ġlow":2515,"Ġlong":2516,"Ġlongest":2517,"anthem":2518,"lated":2519,"Ġsilliest":2520,"Ġext":2521,"Ġexhilar":2522,"Ġavailability":2523,"depth":2524,"que":2525,"esting":2526,"Ġuninter":2527,"Ġunfair":2528,"Ġexpens":2529,"Ġwhether":2530,"Ġchoose":2531,"does":2532,"Ġjap":2533,"olting":2534,"Ġrevolting":2535,"Ġloki":2536,"Ġfunky":2537,"Ġfunny":2538,"Ġboard":2539,"Ġtalented":2540,"Ġsometimes":2541,"Ġadvant":2542,"Ġugl":2543,"Ġtriump":2544,"Ġmaxis":2545,"Ġupper":2546,"complicated":2547,"Ġvisually":2548,"Ġcalming":2549,"Ġgamer":2550,"Ġpart":2551,"enient":2552,"Ġwhole":2553,"Ġappreci":2554,"Ġacc":2555,"Ġimpressive":2556,"Ġplain":2557,"Ġeasiest":2558,"Ġbroken":2559,"Ġthanks":2560,"Ġmiss":2561,"Ġmiddle":2562,"Ġrelaxing":2563,"Ġcolorful":2564,"Ġnostalgic":2565,"Ġconvenient":2566,"Ġweirdest":2567,"somniac":2568,"Ġsentiment":2569,"Ġgoofy":2570,"Ġnauseating":2571,"Ġrewarding":2572,"Ġbirmingham":2573,"Ġexhilarating":2574,"Ġuninteresting":2575,"Ġexpensive":2576,"Ġjapan":2577,"Ġadvantage":2578,"Ġugliest":2579,"Ġtriumph":2580,"ah":2581,"core":2582,"gn":2583,"gle":2584,"ily":2585,"mo":2586,"of":2587,"op":2588,"ped":2589,"pleas":2590,"ty":2591,"uff":2592,"way":2593,"eren":2594,"Ġter":2595,"Ġsure":2596,"Ġslated":2597,"Ġthings":2598,"Ġmix":2599,"Ġide":2600,"tical":2601,"Ġrare":2602,"Ġhard":2603,"Ġhonestly":2604,"Ġdug":2605,"Ġearn":2606,"Ġinsomniac":2607,"Ġwind":2608,"Ġwron":2609,"Ġweren":2610,"Ġbas":2611,"Ġcam":2612,"Ġyoun":2613,"Ġluck":2614,"ancient":2615,"ace":2616,"although":2617,"blem":2618,"uted":2619,"this":2620,"tting":2621,"Ġsimulations":2622,"Ġmemor":2623,"Ġsoon":2624,"Ġworks":2625,"Ġrecent":2626,"Ġsuppos":2627,"Ġentertaining":2628,"Ġanyone":2629,"Ġanyway":2630,"Ġthinking":2631,"Ġlet":2632,"Ġproblem":2633,"Ġmentioning":2634,"Ġhear":2635,"Ġheld":2636,"illed":2637,"Ġcomple":2638,"Ġeffort":2639,"Ġfriendly":2640,"Ġcompared":2641,"Ġchecked":2642,"Ġadore":2643,"Ġlacks":2644,"Ġgoing":2645,"Ġdisappointed":2646,"Ġaware":2647,"Ġaddition":2648,"Ġunique":2649,"Ġtakes":2650,"Ġstandard":2651,"200":2652,"201":2653,"Ġmaybe":2654,"Ġcombined":2655,"Ġcritical":2656,"Ġcorrectly":2657,"platformer":2658,"Ġgrab":2659,"Ġexcit":2660,"Ġentirely":2661,"Ġpurchase":2662,"Ġpresented":2663,"ording":2664,"Ġhorror":2665,"self":2666,"husi":2667,"Ġearned":2668,"Ġwindows":2669,"Ġwrong":2670,"Ġsupposed":2671,"+.":2672,"bl":2673,"bel":2674,"cted":2675,"dd":2676,"dible":2677,"fter":2678,"ger":2679,"gag":2680,"ition":2681,"pai":2682,"porate":2683,"tin":2684,"tunately":2685,"Ġour":2686,"inary":2687,"Ġap":2688,"onent":2689,"only":2690,"Ġtw":2691,"orporate":2692,"Ġser":2693,"Ġsort":2694,"lain":2695,"Ġthus":2696,"Ġrede":2697,"Ġhome":2698,"Ġdue":2699,"Ġangle":2700,"Ġcle":2701,"Ġcertain":2702,"Ġcup":2703,"Ġfla":2704,"Ġown":2705,"art":2706,"around":2707,"peal":2708,"Ġstore":2709,"Ġstuff":2710,"riate":2711,"Ġdeal":2712,"Ġvar":2713,"Ġshot":2714,"Ġfortunately":2715,"ically":2716,"portant":2717,"des":2718,"role":2719,"Ġstrategies":2720,"Ġpotent":2721,"that":2722,"Ġhaven":2723,"ush":2724,"Ġtea":2725,"Ġmaking":2726,"Ġlikeability":2727,"ched":2728,"owing":2729,"Ġcontro":2730,"Ġengag":2731,"Ġworse":2732,"Ġeverything":2733,"Ġask":2734,"who":2735,"whel":2736,"ady":2737,"adition":2738,"Ġunpleas":2739,"Ġexplore":2740,"Ġexplain":2741,"Ġenthusi":2742,"Ġfew":2743,"Ġchar":2744,"Ġalong":2745,"Ġusing":2746,"Ġlabel":2747,"Ġleave":2748,"Ġlets":2749,"Ġtradition":2750,"Ġgetting":2751,"Ġseen":2752,"Ġended":2753,"Ġthoughts":2754,"Ġtelling":2755,"ropriate":2756,"Ġcomponent":2757,"Ġgamers":2758,"Ġadul":2759,"Ġconsidering":2760,"Ġdownloaded":2761,"Ġaway":2762,"Ġagain":2763,"Ġimportant":2764,"Ġincorporate":2765,"Ġunderwhel":2766,"Ġappropriate":2767,"Ġcombines":2768,"Ġlimited":2769,"Ġperfect":2770,"Ġperhap":2771,"Ġaspects":2772,"Ġgotta":2773,"Ġhighly":2774,"Ġfocused":2775,"Ġmatter":2776,"Ġcompetent":2777,"Ġhappy":2778,"Ġcritics":2779,"putting":2780,"Ġincredible":2781,"Ġappreciate":2782,"Ġaccording":2783,"Ġterms":2784,"Ġidea":2785,"Ġbasically":2786,"Ġcampai":2787,"Ġexcited":2788,"Ġredefin":2789,"Ġpotential":2790,"Ġengaging":2791,"Ġunpleasant":2792,"Ġenthusiasts":2793,"Ġincorporates":2794,"Ġperhaps":2795,"Ġcampaign":2796,")-":2797,"+,":2798,".,":2799,"aus":2800,"aven":2801,"ccess":2802,"fr":2803,"fri":2804,"fuse":2805,"game":2806,"has":2807,"hit":2808,"honestly":2809,"ip":2810,"ied":2811,"ild":2812,"iant":2813,"lick":2814,"lse":2815,"may":2816,"more":2817,"mately":2818,"na":2819,"ned":2820,"naughty":2821,"over":2822,"py":2823,"pie":2824,"phic":2825,"rpg":2826,"sw":2827,"uled":2828,"vival":2829,"wd":2830,"were":2831,"zed":2832,"Ġpleas":2833,"Ġplan":2834,"Ġpast":2835,"Ġafter":2836,"ready":2837,"atis":2838,"onus":2839,"onna":2840,"Ġsong":2841,"Ġsound":2842,"Ġgr":2843,"Ġgonna":2844,"ley":2845,"Ġnon":2846,"Ġmone":2847,"Ġmine":2848,"titive":2849,"Ġrave":2850,"Ġrace":2851,"stand":2852,"style":2853,"Ġhy":2854,"Ġhand":2855,"Ġhour":2856,"Ġdated":2857,"Ġdrop":2858,"Ġelse":2859,"Ġincom":2860,"Ġrate":2861,"Ġreleasing":2862,"Ġboo":2863,"Ġbare":2864,"Ġbalan":2865,"Ġbunch":2866,"Ġbonus":2867,"Ġansw":2868,"Ġclo":2869,"Ġcateg":2870,"Ġcaus":2871,"Ġclick":2872,"Ġfall":2873,"Ġfig":2874,"Ġfine":2875,"Ġfilled":2876,"Ġoh":2877,"Ġodd":2878,"ations":2879,"ured":2880,"ach":2881,"log":2882,"iety":2883,"Ġdev":2884,"Ġdelight":2885,"Ġforward":2886,"Ġyears":2887,"endly":2888,"Ġwaste":2889,"Ġroad":2890,"rove":2891,"ross":2892,"quate":2893,"Ġtoday":2894,"Ġsuccess":2895,"Ġmain":2896,"Ġattem":2897,"Ġoper":2898,"Ġmeh":2899,"Ġsold":2900,"Ġconst":2901,"Ġconven":2902,"Ġenh":2903,"Ġteens":2904,"Ġunless":2905,"Ġwhose":2906,"Ġchild":2907,"Ġalmo":2908,"Ġalready":2909,"Ġlapt":2910,"Ġanymore":2911,"Ġturns":2912,"Ġturned":2913,"Ġprovi":2914,"Ġknown":2915,"Ġlots":2916,"Ġlovers":2917,"Ġevent":2918,"Ġscrolling":2919,"with":2920,"Ġvehicle":2921,"Ġheaven":2922,"Ġfeels":2923,"Ġgets":2924,"Ġsolve":2925,"Ġtalk":2926,"Ġtalked":2927,"Ġwouldn":2928,"Ġcrowd":2929,"Ġenemies":2930,"Ġmanaged":2931,"Ġshows":2932,"sports":2933,"Ġtrick":2934,"Ġthroughout":2935,"Ġmassively":2936,"Ġcouldn":2937,"Ġtypical":2938,"Ġsurvival":2939,"Ġunderstand":2940,"Ġincluded":2941,"Ġchallenge":2942,"Ġlaunching":2943,"Ġcombination":2944,"Ġjoin":2945,"Ġfoll":2946,"Ġkept":2947,"Ġacross":2948,"Ġstrongly":2949,"Ġgraphic":2950,"Ġexpectations":2951,"Ġmatch":2952,"Ġeasily":2953,"Ġimpact":2954,"Ġimprove":2955,"Ġtons":2956,"Ġmasterpie":2957,"Ġextra":2958,"Ġmixed":2959,"Ġyounger":2960,"Ġcomplete":2961,"Ġappeal":2962,"Ġtwo":2963,"Ġclear":2964,"Ġflaw":2965,"Ġvariety":2966,"ushed":2967,"Ġcontrol":2968,"Ġtraditional":2969,"Ġadult":2970,"Ġunderwhelmed":2971,"Ġredefined":2972,"friendly":2973,"hitman":2974,"maybe":2975,"overkill":2976,"atisf":2977,"Ġmoney":2978,"Ġhours":2979,"Ġbarely":2980,"Ġbalance":2981,"Ġclose":2982,"Ġfigured":2983,"Ġattempt":2984,"Ġconvenience":2985,"Ġalmost":2986,"Ġlaptop":2987,"Ġprovides":2988,"Ġgraphics":2989,"Ġmasterpiece":2990,"199":2991,"av":2992,"ait":2993,"alog":2994,"bt":2995,"bed":2996,"but":2997,"cy":2998,"cer":2999,"crib":3000,"cuted":3001,"don":3002,"dic":3003,"dinary":3004,"ex":3005,"eye":3006,"ecuted":3007,"fire":3008,"filled":3009,"ged":3010,"gust":3011,"ior":3012,"ide":3013,"ker":3014,"kay":3015,"know":3016,"konami":3017,"kability":3018,"ling":3019,"lled":3020,"my":3021,"multi":3022,"mis":3023,"nintendo":3024,"okay":3025,"pc":3026,"pers":3027,"par":3028,"pend":3029,"ren":3030,"rative":3031,"sed":3032,"sion":3033,"sie":3034,"sic":3035,"say":3036,"some":3037,"team":3038,"tell":3039,"uine":3040,"ubisoft":3041,"vated":3042,"vented":3043,"wap":3044,"wise":3045,"yled":3046,"Ġ-":3047,"Ġform":3048,"Ġulti":3049,"Ġintend":3050,"ins":3051,"ered":3052,"enjoy":3053,"ree":3054,"ret":3055,"reme":3056,"atch":3057,"atur":3058,"atible":3059,"Ġtame":3060,"orge":3061,"Ġsle":3062,"Ġsal":3063,"Ġspo":3064,"Ġsour":3065,"Ġsched":3066,"Ġsatisf":3067,"Ġswap":3068,"Ġgarn":3069,"Ġgorge":3070,"asing":3071,"aste":3072,"Ġnar":3073,"Ġnatur":3074,"til":3075,"tial":3076,"Ġreput":3077,"ves":3078,"vey":3079,"stro":3080,"step":3081,"oubt":3082,"Ġhating":3083,"Ġhonest":3084,"Ġdil":3085,"Ġdist":3086,"Ġdoubt":3087,"Ġequ":3088,"ctic":3089,"Ġwatch":3090,"Ġbri":3091,"Ġblo":3092,"Ġboot":3093,"Ġbought":3094,"Ġbug":3095,"Ġbring":3096,"Ġfit":3097,"Ġfut":3098,"Ġfur":3099,"Ġfol":3100,"Ġfield":3101,"Ġobje":3102,"Ġomis":3103,"arently":3104,"playstation":3105,"pes":3106,"ooth":3107,"Ġhasn":3108,"Ġgenuine":3109,"Ġstarted":3110,"Ġstart":3111,"Ġlate":3112,"Ġitself":3113,"anic":3114,"acter":3115,"acts":3116,"Ġnovel":3117,"rid":3118,"rible":3119,"ricted":3120,"get":3121,"lot":3122,"iting":3123,"veloped":3124,"Ġsight":3125,"Ġexact":3126,"ified":3127,"ates":3128,"atever":3129,"Ġviewed":3130,"key":3131,"uncher":3132,"developed":3133,"row":3134,"road":3135,"roach":3136,"Ġpop":3137,"Ġtop":3138,"Ġtopic":3139,"Ġexception":3140,"Ġlist":3141,"Ġlikability":3142,"Ġmaker":3143,"Ġrequires":3144,"Ġlikely":3145,"Ġattra":3146,"anding":3147,"che":3148,"chanic":3149,"dern":3150,"owed":3151,"tably":3152,"Ġordinary":3153,"Ġmechanic":3154,"Ġoutdid":3155,"Ġmodern":3156,"Ġnear":3157,"Ġnext":3158,"Ġcont":3159,"Ġconvers":3160,"Ġcontin":3161,"aded":3162,"Ġunent":3163,"Ġunhap":3164,"Ġunenjoy":3165,"Ġuntil":3166,"Ġability":3167,"Ġexpl":3168,"Ġexpanding":3169,"Ġentertained":3170,"Ġwhatever":3171,"Ġtaking":3172,"Ġtactic":3173,"like":3174,"your":3175,"Ġneeded":3176,"Ġalley":3177,"Ġusual":3178,"Ġlame":3179,"Ġlauncher":3180,"Ġreali":3181,"iving":3182,"Ġwide":3183,"codemasters":3184,"Ġages":3185,"Ġsmooth":3186,"Ġlevel":3187,"Ġless":3188,"Ġpredic":3189,"Ġprevented":3190,"Ġproper":3191,"Ġtrend":3192,"Ġtrust":3193,"Ġallowing":3194,"Ġallowed":3195,"Ġloaded":3196,"Ġgeared":3197,"Ġyourself":3198,"Ġsees":3199,"Ġarrive":3200,"Ġotherwise":3201,"Ġmanage":3202,"Ġswitched":3203,"Ġreceiving":3204,"Ġfancy":3205,"tions":3206,"Ġhey":3207,"ils":3208,"Ġboast":3209,"Ġboasts":3210,"Ġloves":3211,"Ġfeelings":3212,"Ġelevated":3213,"Ġcatalog":3214,"Ġreviewers":3215,"ired":3216,"Ġmarket":3217,"august":3218,"Ġcross":3219,"Ġsometime":3220,"umer":3221,"Ġported":3222,"Ġrestricted":3223,"Ġdescrib":3224,"Ġgreatly":3225,"Ġvalue":3226,"Ġthemsel":3227,"Ġhopes":3228,"Ġdecently":3229,"Ġdecide":3230,"Ġcompatible":3231,"Ġtiny":3232,"Ġamazingly":3233,"fully":3234,"Ġchecking":3235,"Ġadequate":3236,"Ġtends":3237,"Ġnormal":3238,"Ġguy":3239,"Ġoffered":3240,"Ġproduce":3241,"Ġproduct":3242,"Ġproduced":3243,"Ġpartial":3244,"Ġgoes":3245,"Ġweak":3246,"Ġbecome":3247,"Ġnicely":3248,"Ġnewer":3249,"Ġdisappointment":3250,"Ġadding":3251,"Ġawful":3252,"ructed":3253,"Ġfeatured":3254,"pped":3255,"Ġagree":3256,"Ġstick":3257,"Ġkinda":3258,"Ġstands":3259,"Ġstanding":3260,"2016":3261,"2010":3262,"side":3263,"Ġapparently":3264,"Ġapproach":3265,"acters":3266,"Ġcombining":3267,"before":3268,"bethesda":3269,"Ġaccess":3270,"Ġreasons":3271,"Ġimpression":3272,"Ġregret":3273,"Ġstoryline":3274,"ieved":3275,"platforming":3276,"Ġplace":3277,"Ġplaced":3278,"Ġexcuse":3279,"Ġmessed":3280,"Ġhelps":3281,"Ġbrothers":3282,"Ġpurchased":3283,"Ġpurchasing":3284,"Ġpresent":3285,"Ġthankfully":3286,"Ġmisstep":3287,"Ġspecifically":3288,"Ġblends":3289,"Ġcompete":3290,"Ġcompetitive":3291,"Ġmiddling":3292,"ordinary":3293,"Ġhorrible":3294,"Ġholds":3295,"Ġhappen":3296,"Ġextreme":3297,"Ġappreciated":3298,"moon":3299,"Ġrarely":3300,"Ġmemory":3301,"Ġmemories":3302,"Ġhearing":3303,"Ġadored":3304,"2005":3305,"2013":3306,"Ġgrabbing":3307,"bloober":3308,"Ġseries":3309,"Ġcharacter":3310,"Ġcharacters":3311,"Ġleaves":3312,"games":3313,"Ġplease":3314,"Ġplanning":3315,"Ġsongs":3316,"Ġgrou":3317,"Ġhype":3318,"Ġdropped":3319,"Ġbook":3320,"Ġanswer":3321,"Ġcategory":3322,"Ġcauses":3323,"Ġdelightful":3324,"Ġconstructed":3325,"Ġenhanced":3326,"Ġchildren":3327,"Ġeventually":3328,"Ġfollowing":3329,"Ġextraordinary":3330,"Ġappealing":3331,"Ġflawless":3332,"availa":3333,"fireproof":3334,"multiplayer":3335,"person":3336,"Ġultimately":3337,"Ġspoils":3338,"Ġscheduled":3339,"Ġswaps":3340,"Ġgarnered":3341,"Ġgorgeous":3342,"asteful":3343,"Ġnarrative":3344,"Ġnaturally":3345,"Ġreputation":3346,"Ġdiluted":3347,"Ġdistasteful":3348,"Ġfuture":3349,"Ġfurther":3350,"Ġfolks":3351,"Ġomission":3352,"Ġgenuinely":3353,"Ġattractive":3354,"Ġmechanics":3355,"Ġconversation":3356,"Ġunhappy":3357,"Ġunenjoyable":3358,"Ġpredictably":3359,"Ġproperly":3360,"Ġarrived":3361,"Ġdescribe":3362,"Ġthemselves":3363}