{"<|endoftext|>":0,"!":1,"\"":2,"#":3,"$":4,"%":5,"&":6,"'":7,"(":8,")":9,"*":10,"+":11,",":12,"-":13,".":14,"/":15,"0":16,"1":17,"2":18,"3":19,"4":20,"5":21,"6":22,"7":23,"8":24,"9":25,":":26,";":27,"<":28,"=":29,">":30,"?":31,"@":32,"A":33,"B":34,"C":35,"D":36,"E":37,"F":38,"G":39,"H":40,"I":41,"J":42,"K":43,"L":44,"M":45,"N":46,"O":47,"P":48,"Q":49,"R":50,"S":51,"T":52,"U":53,"V":54,"W":55,"X":56,"Y":57,"Z":58,"[":59,"\\":60,"]":61,"^":62,"_":63,"`":64,"a":65,"b":66,"c":67,"d":68,"e":69,"f":70,"g":71,"h":72,"i":73,"j":74,"k":75,"l":76,"m":77,"n":78,"o":79,"p":80,"q":81,"r":82,"s":83,"t":84,"u":85,"v":86,"w":87,"x":88,"y":89,"z":90,"{":91,"|":92,"}":93,"~":94,"¡":95,"¢":96,"£":97,"¤":98,"¥":99,"¦":100,"§":101,"¨":102,"©":103,"ª":104,"«":105,"¬":106,"®":107,"¯":108,"°":109,"±":110,"²":111,"³":112,"´":113,"µ":114,"¶":115,"·":116,"¸":117,"¹":118,"º":119,"»":120,"¼":121,"½":122,"¾":123,"¿":124,"À":125,"Á":126,"Â":127,"Ã":128,"Ä":129,"Å":130,"Æ":131,"Ç":132,"È":133,"É":134,"Ê":135,"Ë":136,"Ì":137,"Í":138,"Î":139,"Ï":140,"Ð":141,"Ñ":142,"Ò":143,"Ó":144,"Ô":145,"Õ":146,"Ö":147,"×":148,"Ø":149,"Ù":150,"Ú":151,"Û":152,"Ü":153,"Ý":154,"Þ":155,"ß":156,"à":157,"á":158,"â":159,"ã":160,"ä":161,"å":162,"æ":163,"ç":164,"è":165,"é":166,"ê":167,"ë":168,"ì":169,"í":170,"î":171,"ï":172,"ð":173,"ñ":174,"ò":175,"ó":176,"ô":177,"õ":178,"ö":179,"÷":180,"ø":181,"ù":182,"ú":183,"û":184,"ü":185,"ý":186,"þ":187,"ÿ":188,"Ā":189,"ā":190,"Ă":191,"ă":192,"Ą":193,"ą":194,"Ć":195,"ć":196,"Ĉ":197,"ĉ":198,"Ċ":199,"ċ":200,"Č":201,"č":202,"Ď":203,"ď":204,"Đ":205,"đ":206,"Ē":207,"ē":208,"Ĕ":209,"ĕ":210,"Ė":211,"ė":212,"Ę":213,"ę":214,"Ě":215,"ě":216,"Ĝ":217,"ĝ":218,"Ğ":219,"ğ":220,"Ġ":221,"ġ":222,"Ģ":223,"ģ":224,"Ĥ":225,"ĥ":226,"Ħ":227,"ħ":228,"Ĩ":229,"ĩ":230,"Ī":231,"ī":232,"Ĭ":233,"ĭ":234,"Į":235,"į":236,"İ":237,"ı":238,"Ĳ":239,"ĳ":240,"Ĵ":241,"ĵ":242,"Ķ":243,"ķ":244,"ĸ":245,"Ĺ":246,"ĺ":247,"Ļ":248,"ļ":249,"Ľ":250,"ľ":251,"Ŀ":252,"ŀ":253,"Ł":254,"ł":255,"Ń":256,"Ġ=":257,"Ġ|":258,"nt":259,"re":260,"Ġi":261,"Ġt":262,"Ġa":263,"ic":264,"ent":265,"op":266,"ra":267,"ou":268,"Ġint":269,"opic":270,"Ġintent":271,"st":272,"in":273,"he":274,"or":275,"Ġre":276,"Ġn":277,"topic":278,"er":279,"Ġb":280,"on":281,"Ġc":282,"Ġp":283,"Ġy":284,"oo":285,"Ġyou":286,"for":287,"Ġin":288,"ge":289,"el":290,"ing":291,"Ġw":292,"me":293,"est":294,"Ġh":295,"ve":296,"at":297,"Ġthe":298,"ook":299,"form":300,"Ġinform":301,"Ġl":302,"mb":303,"uest":304,"Ġbook":305,"Ġtopic":306,"nd":307,"Ġm":308,"ne":309,"Ġis":310,"Ġd":311,"se":312,"ĠI":313,"ice":314,"ot":315,"Ġare":316,"ar":317,"Ġreq":318,"Ġrequest":319,"ral":320,"Ġto":321,"ay":322,"Ġge":323,"mber":324,"Ġnu":325,"Ġnumber":326,"Ġf":327,"neral":328,"Ġgeneral":329,"th":330,"an":331,"ion":332,"ave":333,"ĠC":334,"Ġo":335,"ri":336,"Ġof":337,"Ġat":338,"Ġtra":339,"Ġs":340,"ce":341,"otel":342,"The":343,"ura":344,"urant":345,"aurant":346,"le":347,"Ġtrain":348,"ke":349,"Ġrest":350,"Ġhotel":351,"Ġrestaurant":352,"co":353,"Ġand":354,"Ġmo":355,"ld":356,"Ġ1":357,"ed":358,"ere":359,"hat":360,"Ġarea":361,"Ġpr":362,"ct":363,"ame":364,"Ġg":365,"ould":366,"Ġfor":367,"one":368,"Ġname":369,"Ġprice":370,"fere":371,"nce":372,"de":373,"ss":374,"Ġbooking":375,"pe":376,"Ġ0":377,"ĠW":378,"Ġra":379,"Ġwi":380,"Ġli":381,"ference":382,"Ġmore":383,"ll":384,"Ġlike":385,"Ġan":386,"Ġch":387,"it":388,"ood":389,"Ġhave":390,"Ġle":391,"ation":392,"ree":393,"Ġday":394,"nge":395,"ye":396,"ĠH":397,"Ġrange":398,"23":399,"ction":400,"ĠT":401,"tra":402,"Ġcho":403,"Ġchoice":404,"traction":405,"Ġattraction":406,"Ġreference":407,"dge":408,"Ġany":409,"Ġthat":410,"art":411,"Ġst":412,"hone":413,"ouse":414,"Ġty":415,"Ġtype":416,"thing":417,"Ġe":418,"12":419,"Ġphone":420,"Ġel":421,"Ġar":422,"dd":423,"fer":424,"entre":425,"ress":426,"ridge":427,"Ġelse":428,"ĠThe":429,"Ġleave":430,"amb":431,"Ġadd":432,"Ġaddress":433,"Ġbye":434,"es":435,"ambridge":436,"Ġwith":437,"Ġfood":438,"Ġthere":439,"Ġhe":440,"ĠA":441,"ĠG":442,"ĠS":443,"Ġarri":444,"You":445,"1223":446,"ow":447,"Ġanything":448,"Ġ01223":449,"Ġoffer":450,"Ġwel":451,"Ġyour":452,"lp":453,"ĠWould":454,"ĠR":455,"Ġcan":456,"come":457,"Ġhelp":458,"Ġwelcome":459,"Ġpo":460,"ime":461,"Ġwould":462,"Ġbe":463,"Ġtime":464,"as":465,"ep":466,"Ġcentre":467,"ĠB":468,"Ġarrive":469,"Ġta":470,"ry":471,"ĠCambridge":472,"day":473,"al":474,"Ġpost":475,"epart":476,"Ġdepart":477,"ble":478,"code":479,"Ġme":480,"ark":481,"Ġno":482,"Ġpostcode":483,"Ġ2":484,"wn":485,"Ġguest":486,"com":487,"Ġco":488,"ĠTR":489,"reet":490,"Ġtown":491,"Ġ4":492,"comme":493,"commend":494,"Ġrecommend":495,"ro":496,"si":497,"Ġcb":498,"ĠD":499,"ĠP":500,"There":501,"ad":502,"ity":503,"Ġon":504,"Ġlo":505,"Ġfe":506,"ut":507,"is":508,"ure":509,"Ġne":510,"Ġwill":511,"house":512,"ul":513,"Ġit":514,"Ġ3":515,"ĠL":516,"ast":517,"Ġbooked":518,"Ġdo":519,"ĠIs":520,"ur":521,"her":522,"ton":523,"ch":524,"ap":525,"ket":526,"la":527,"ĠM":528,"Ġu":529,"'s":530,"Ġth":531,"ination":532,"estination":533,"Ġdestination":534,"Ġex":535,"rat":536,"Ġneed":537,"Ġ5":538,"xi":539,"Ġloc":540,"Ġpark":541,"derat":542,"Ġor":543,"Ġguesthouse":544,"Ġmoderat":545,"Ġtaxi":546,"Ġfree":547,"orth":548,"Ġ012233":549,"Ġres":550,"Ġfee":551,"ir":552,"Ġpe":553,"Ġche":554,"ound":555,"Ġwas":556,"pen":557,"pensi":558,"reat":559,"ople":560,"Ġstay":561,"Ġpeople":562,"pensive":563,"icket":564,"Ġreser":565,"Ġticket":566,"ai":567,"ank":568,"gh":569,"Your":570,"Ġse":571,"Ġexpensive":572,"ĠSt":573,"Ġ07":574,"lle":575,"ĠDo":576,"ated":577,"Ġone":578,"Ġlocated":579,"ely":580,"Ġsu":581,"ĠID":582,"ver":583,"ting":584,"our":585,"Ġmin":586,"all":587,"ĠIt":588,"Ġcheap":589,"ful":590,"Ġpre":591,"Ġparking":592,"Ġman":593,"ooking":594,"ine":595,"ect":596,"00":597,"um":598,"Ġmany":599,"hank":600,"Ġnone":601,"Ġnorth":602,"if":603,"Ġrating":604,"Ġtoday":605,"Ġpart":606,"Ġgreat":607,"ĠCan":608,"cce":609,"'re":610,"ĠE":611,"ĠRo":612,"ĠF":613,"Ok":614,"ccess":615,"en":616,"ian":617,"ol":618,"rom":619,"Ġhouse":620,"Ġ15":621,"21":622,"ounds":623,"Ġfrom":624,"ell":625,"ĠN":626,"Ġsel":627,"Ġselect":628,"ill":629,"erne":630,"Ġwhat":631,"ccessful":632,"Ġminut":633,"ernet":634,"Thank":635,"other":636,"11":637,"ĠCentre":638,"vation":639,"Ġpounds":640,"ist":641,"Ġ7":642,"Ġreservation":643,"Yes":644,"act":645,"ĠYour":646,"Ġminutes":647,"use":648,"Ġwest":649,"ĠStreet":650,"ght":651,"ĠRoad":652,"ĠHouse":653,"ĠRe":654,"ia":655,"ntact":656,"wo":657,"ter":658,"Ġsuccessful":659,"useum":660,"Ġk":661,"Ġrestaurants":662,"llege":663,"Ġeast":664,"ĠWhat":665,"Ġus":666,"Ġpriced":667,"here":668,"24":669,"Ġcar":670,"Ġ:":671,"ving":672,"Ġmoderately":673,"Ġstar":674,"58":675,"BP":676,"ĠCity":677,"ant":678,"out":679,"Sure":680,"Ġby":681,"outh":682,"ly":683,"ĠHave":684,"Ġent":685,"Ġser":686,"ĠCh":687,"Ġtable":688,"ĠGBP":689,"Ġtwo":690,"bye":691,"orry":692,"Ġ10":693,"Ġ8":694,"Ġcontact":695,"Ġhotels":696,"51":697,"Ġmoderate":698,"Okay":699,"Ġsouth":700,"ain":701,"Ġmuseum":702,"oy":703,"Ġ6":704,"oodbye":705,"and":706,"'m":707,"Ġwant":708,"ck":709,"Ġcambridge":710,"Ġ13":711,"ĠK":712,"Ġinformation":713,"Ġseve":714,"66":715,"ich":716,"Ġass":717,"Ġso":718,"Ġ9":719,"Ġab":720,"Ġgreet":721,"Ġassist":722,"Ġro":723,"ert":724,"ĠInt":725,"oom":726,"ight":727,"30":728,"Ġ11":729,"ĠReference":730,"Ġ17":731,"ak":732,"ĠInternet":733,"Ġabout":734,"Ġtrav":735,"Ġsorry":736,"tion":737,"own":738,"Ġseveral":739,"os":740,"What":741,"lace":742,"07":743,"Booking":744,"Ġall":745,"joy":746,"et":747,"Ġr":748,"lu":749,"Ġhas":750,"orn":751,"Ġtravel":752,"Ġwh":753,"Ġma":754,"Ġroad":755,"Ġv":756,"ertain":757,"Ġop":758,"Ġpreference":759,"ng":760,"20":761,"njoy":762,"Ġnot":763,"ish":764,"il":765,"ond":766,"Ġprefer":767,"Ġtry":768,"Ġguesthouses":769,"17":770,"Ġleaves":771,"ĠHotel":772,"ite":773,"Ġcollege":774,"Ġplace":775,"50":776,"Ġcity":777,"Ġav":778,"ha":779,"Ġdif":780,"ferent":781,"Ġdifferent":782,"aila":783,"Ġlooking":784,"ĠPark":785,"Ġoption":786,"88":787,"Ġtrains":788,"Ġstreet":789,"54":790,"Ġnight":791,"Ġavaila":792,"ment":793,"ool":794,"Ġ16":795,"Ġsi":796,"Ġarrives":797,"rance":798,"us":799,"'t":800,"Ġleng":801,"Ġlength":802,"inese":803,"ny":804,"ĠCB":805,"corn":806,"Ġanother":807,"aint":808,"ĠGoodbye":809,"Ġreserve":810,"Ġstation":811,"Ġentrance":812,"60":813,"29":814,"It":815,"sted":816,"Ġavailable":817,"Ġtheir":818,"Ġ12":819,"10":820,"Ġoptions":821,"fi":822,"Ġbut":823,"ase":824,"fast":825,"Ġthis":826,"reak":827,"very":828,"Ġif":829,"reakfast":830,"ork":831,"Ġusing":832,"08":833,"Ġ19":834,"ind":835,"un":836,"Ġcri":837,"teria":838,"Ġcriteria":839,"Ġ14":840,"ĠU":841,"ope":842,"ĠV":843,"erton":844,"ĠCo":845,"Ġsome":846,"fo":847,"able":848,"iz":849,"Ġroom":850,"Ġun":851,"aving":852,"ilton":853,"iver":854,"ĠAr":855,"Ġkn":856,"ĠJ":857,"15":858,"Ġnice":859,"ĠO":860,"Ġleaving":861,"Ġknow":862,"52":863,"sterton":864,"59":865,"Ġgood":866,"ĠAny":867,"Ġwe":868,"Ġother":869,"We":870,"40":871,"27":872,"Ġhow":873,"Ġside":874,"vi":875,"46":876,"lease":877,"side":878,"aller":879,"Ġgo":880,"Ġmake":881,"ĠInd":882,"39":883,"enter":884,"ĠGuest":885,"ort":886,"'d":887,"Ġas":888,"rit":889,"osp":890,"otal":891,"ital":892,"How":893,"ospital":894,"alian":895,"qu":896,"int":897,"izz":898,"ĠIndian":899,"da":900,"Ġwork":901,"Ġintere":902,"Ġserve":903,"Ġcenter":904,"Ġtotal":905,"che":906,"Ġspe":907,"den":908,"ĠRest":909,"Ġmat":910,"Ġsh":911,"ular":912,"35":913,"Ġam":914,"ings":915,"sday":916,"34":917,"Ġspec":918,"Ġable":919,"Ġget":920,"id":921,"Ġour":922,"sity":923,"Ġ18":924,"Ġreserved":925,"Ġspecif":926,"ĠLo":927,"ĠAnything":928,"bs":929,"rip":930,"Ġ21":931,"41":932,"Ġpay":933,"01":934,"Ġdeparting":935,"ĠRestaurant":936,"ane":937,"Ġcould":938,"urch":939,"57":940,"Ġfind":941,"inton":942,"herry":943,"Ġwhich":944,"Ġtickets":945,"Ġspecific":946,"32":947,"icular":948,"Ġparticular":949,"ritish":950,"TR":951,"Ġ20":952,"ĠTheir":953,"Ġmeet":954,"ĠLe":955,"vice":956,"Ġfound":957,"Ġthree":958,"Ġservice":959,"ĠChinese":960,"ĠChe":961,"ville":962,"Ġpayable":963,"43":964,"Ġj":965,"In":966,"Ġenjoy":967,"iversity":968,"Ġwhere":969,"90":970,"ive":971,"ms":972,"Ġup":973,"Ġtrip":974,"Ġstars":975,"ĠTh":976,"ough":977,"Ġthem":978,"Ġdeparture":979,"56":980,"Ġhospital":981,"Ġfour":982,"Ġvery":983,"ĠParkside":984,"Ġmuseums":985,"Ġcall":986,"riday":987,"80":988,"onville":989,"36":990,"ĠChesterton":991,"Ġ23":992,"lex":993,"oth":994,"Ġthey":995,"unt":996,"Ġinternet":997,"allery":998,"ander":999,"oat":1000,"ĠHill":1001,"lexander":1002,"age":1003,"Ġbed":1004,"li":1005,"ose":1006,"45":1007,"Ġinterested":1008,"38":1009,"ĠTown":1010,"Have":1011,"Great":1012,"mp":1013,"19":1014,"Ġmind":1015,"uis":1016,"app":1017,"ĠThey":1018,"appy":1019,"16":1020,"09":1021,"ĠBed":1022,"clu":1023,"Ġbar":1024,"Ġdon":1025,"ĠCollege":1026,"arden":1027,"ĠHow":1028,"ĠThere":1029,"Ġwifi":1030,"Ġsomething":1031,"lad":1032,"Ġ05":1033,"af":1034,"ue":1035,"hen":1036,"Ġper":1037,"ĠItalian":1038,"Ġbreakfast":1039,"Ġarriving":1040,"Info":1041,"ĠAcorn":1042,"ĠTownInfo":1043,"53":1044,"og":1045,"Ġfit":1046,"ven":1047,"ma":1048,"'ve":1049,"ther":1050,"ĠHills":1051,"urope":1052,"Ġmatch":1053,"uropean":1054,"Ġcertain":1055,"ĠNe":1056,"ĠLodge":1057,"Ġfew":1058,"ĠUn":1059,"87":1060,"bu":1061,"Ġlook":1062,"Ġpol":1063,"Ġcon":1064,"06":1065,"gent":1066,"Ġpro":1067,"Ġthose":1068,"Ġcuis":1069,"Ġqu":1070,"Ġplaces":1071,"Ġplease":1072,"ard":1073,"unting":1074,"Ġdoes":1075,"ĠY":1076,"Ġnights":1077,"Ġpolice":1078,"ĠFriday":1079,"Ġserves":1080,"urry":1081,"Ġsaint":1082,"ĠSaint":1083,"val":1084,"ĠThank":1085,"Ġcuisine":1086,"rey":1087,"Is":1088,"ĠBar":1089,"Ġcode":1090,"nday":1091,"Ġ0122324":1092,"Ġhappy":1093,"Ġarch":1094,"Ġlocation":1095,"ately":1096,"966":1097,"oor":1098,"Ġfur":1099,"Ġfurther":1100,"55":1101,"QQ":1102,"44":1103,"atre":1104,"Ġdown":1105,"arket":1106,"onder":1107,"ina":1108,"onderful":1109,"ĠMay":1110,"izza":1111,"42":1112,"row":1113,"fort":1114,"hich":1115,"fortun":1116,"ĠCherry":1117,"isit":1118,"rin":1119,"Ġal":1120,"fortunately":1121,"Ġvisit":1122,"No":1123,"ley":1124,"ust":1125,"ĠBritish":1126,"mm":1127,"ĠHinton":1128,"right":1129,"ues":1130,"ĠRd":1131,"hley":1132,"Where":1133,"Ġaf":1134,"atur":1135,"aturday":1136,"iss":1137,"Ġnar":1138,"ott":1139,"Ġ09":1140,"Ġnarrow":1141,"em":1142,"Ġpool":1143,"ĠNorth":1144,"Ġwhite":1145,"77":1146,"Ġboth":1147,"elf":1148,"13":1149,"ern":1150,"ellow":1151,"Ġpic":1152,"ĠBreakfast":1153,"Ġbeen":1154,"Ġwonderful":1155,"lack":1156,"ĠEnjoy":1157,"Ġquite":1158,"Ġcolleges":1159,"49":1160,"Do":1161,"itton":1162,"llen":1163,"olog":1164,"ip":1165,"ĠWhere":1166,"ance":1167,"Ġyellow":1168,"ĠWill":1169,"ĠSu":1170,"Ġcost":1171,"llenb":1172,"JG":1173,"sfi":1174,"onday":1175,"eld":1176,"Ġhour":1177,"Ġlodge":1178,"ĠSunday":1179,"sfield":1180,"Ġ01223358":1181,"Ġacorn":1182,"Ġchoo":1183,"ches":1184,"Ġattractions":1185,"gge":1186,"Ġsugge":1187,"llenbell":1188,"rist":1189,"Ġsuggest":1190,"ĠYou":1191,"ican":1192,"bury":1193,"Ġblack":1194,"ult":1195,"Ġassistance":1196,"Ġind":1197,"lue":1198,"ham":1199,"ĠUniversity":1200,"Ġ01223358966":1201,"ies":1202,"ondon":1203,"elfry":1204,"ĠSh":1205,"28":1206,"ok":1207,"Ġstart":1208,"ĠRegent":1209,"Ġneeds":1210,"untingd":1211,"Ġgrey":1212,"sian":1213,"Ġcontacting":1214,"oodle":1215,"ĠAs":1216,"untingdon":1217,"Ġonly":1218,"48":1219,"ĠSaturday":1220,"Un":1221,"Ġred":1222,"Ġnightclu":1223,"arli":1224,"ab":1225,"ursday":1226,"Ġtraveling":1227,"tle":1228,"so":1229,"ĠGood":1230,"Ġblue":1231,"Ġchinese":1232,"Ġhope":1233,"nesday":1234,"ednesday":1235,"ĠGonville":1236,"Ġlet":1237,"ertainment":1238,"78":1239,"ire":1240,"olk":1241,"ate":1242,"Unfortunately":1243,"itect":1244,"uck":1245,"Ġentertainment":1246,"ĠKings":1247,"port":1248,"ers":1249,"18":1250,"rew":1251,"uesday":1252,"Ġfive":1253,"Would":1254,"lif":1255,"isure":1256,"lifton":1257,"Ġgoodbye":1258,"Ġevery":1259,"ĠMar":1260,"Ġindian":1261,"26":1262,"79":1263,"ĠFen":1264,"ĠMonday":1265,"Ġcour":1266,"ĠWhich":1267,"Ġcomp":1268,"Ġarchitect":1269,"Ġchoose":1270,"ĠAnd":1271,"ĠAlexander":1272,"Ġarrival":1273,"milton":1274,"Ġlot":1275,"ĠLane":1276,"raf":1277,"press":1278,"Ġad":1279,"ie":1280,"way":1281,"arch":1282,"33":1283,"are":1284,"ĠChurch":1285,"ĠNew":1286,"ted":1287,"yst":1288,"Ġtell":1289,"Ġ012234":1290,"Ġset":1291,"market":1292,"Ġcourse":1293,"ystem":1294,"Ġ.":1295,"ĠZ":1296,"Ġtheatre":1297,"Ġ0122336":1298,"Ġsearch":1299,"ĠArms":1300,"ĠDitton":1301,"ĠBridge":1302,"ĠWednesday":1303,"ount":1304,"Ġsystem":1305,"ĠThursday":1306,"leas":1307,"reen":1308,"ĠGarden":1309,"Ġ22":1310,"Ġpleas":1311,"rinity":1312,"Ġboat":1313,"lden":1314,"Ġproble":1315,"Ġpick":1316,"Ġ33":1317,"ĠWay":1318,"Ġproblem":1319,"ĠAshley":1320,"Ġri":1321,"Their":1322,"Ġgallery":1323,"irst":1324,"Ġmay":1325,"Ġarchitecture":1326,"Ġ?":1327,"ĠTuesday":1328,"ĠKing":1329,"Certain":1330,"nn":1331,"ĠCurry":1332,"Ġchurch":1333,"ĠEuropean":1334,"Ġcomple":1335,"Certainly":1336,"Ġglad":1337,"Ġalso":1338,"rain":1339,"miss":1340,"ĠQ":1341,"oomz":1342,"Ġstaying":1343,"mission":1344,"Al":1345,"riott":1346,"25":1347,"rough":1348,"inema":1349,"ĠArt":1350,"Ġdeparts":1351,"Ġstarting":1352,"irm":1353,"ford":1354,"afe":1355,"Ġwhen":1356,"ĠAre":1357,"Ġgoing":1358,"That":1359,"ĠX":1360,"5151":1361,"onda":1362,"Alright":1363,"'ll":1364,"ĠMilton":1365,"led":1366,"Ġdays":1367,"ĠGallery":1368,"sa":1369,"Ġthank":1370,"Ġ01223245151":1371,"Of":1372,"rop":1373,"37":1374,"ko":1375,"Ġpl":1376,"roomz":1377,"Ġway":1378,"ross":1379,"Ġpleasure":1380,"the":1381,"Ġrequ":1382,"Ġsee":1383,"koda":1384,"89":1385,"ĠLen":1386,"Ġrequire":1387,"ray":1388,"xus":1389,"ĠEast":1390,"ĠLensfield":1391,"Ġap":1392,"hadd":1393,"Ġcalling":1394,"Ġafter":1395,"esla":1396,"ĠPizza":1397,"Ġconf":1398,"Ġchesterton":1399,"ack":1400,"Ġ08":1401,"Ġdepartment":1402,"bray":1403,"ong":1404,"haddai":1405,"ara":1406,"oh":1407,"vell":1408,"ĠIf":1409,"Ġsure":1410,"Ġwell":1411,"ca":1412,"Ġart":1413,"ĠEx":1414,"22":1415,"ota":1416,"They":1417,"oori":1418,"ĠPlease":1419,"ĠMill":1420,"64":1421,"Ġmy":1422,"istro":1423,"gain":1424,"Ġthing":1425,"Ġfirst":1426,"ĠPe":1427,"ology":1428,"Ġadmission":1429,"Ġseat":1430,"Ġpreferences":1431,"ĠNewmarket":1432,"99":1433,"ub":1434,"Ġcal":1435,"ĠHo":1436,"Ġcalled":1437,"ange":1438,"ĠClifton":1439,"Ġcl":1440,"Ġlane":1441,"14":1442,"ag":1443,"70":1444,"amilton":1445,"Ġagain":1446,"Ġjust":1447,"di":1448,"Ġitalian":1449,"Ġcheck":1450,"OK":1451,"yle":1452,"esus":1453,"ĠLeisure":1454,"ĠLondon":1455,"Ġmatching":1456,"ost":1457,"Ġlisted":1458,"Ġreservations":1459,"ĠHuntingdon":1460,"even":1461,"Ġmar":1462,"ĠLa":1463,"roughton":1464,"68":1465,"Ġmade":1466,"ither":1467,"Ġtake":1468,"ester":1469,"Ġhinton":1470,"ĠMuseum":1471,"ourne":1472,"sw":1473,"chool":1474,"dern":1475,"Ġgive":1476,"ĠBelfry":1477,"astle":1478,"icester":1479,"Ġrea":1480,"Ġ0122330":1481,"lene":1482,"ĠAllenbell":1483,"Can":1484,"olden":1485,"rook":1486,"Ġ0122333":1487,"dalene":1488,"olut":1489,"brook":1490,"king":1491,"ental":1492,"Ġresult":1493,"ex":1494,"olutely":1495,"Train":1496,"udi":1497,"Ġwere":1498,"Ġthese":1499,"olksw":1500,"ĠPol":1501,"ĠChrist":1502,"ments":1503,"69":1504,"iday":1505,"Ġgarden":1506,"arade":1507,"ountry":1508,"Ġ0122390":1509,"umn":1510,"oliday":1511,"andos":1512,"Ġmeets":1513,"hap":1514,"sbray":1515,"Ġnow":1516,"Ġ24":1517,"haps":1518,"Ġearli":1519,"utumn":1520,"Ġcherry":1521,"ĠDoes":1522,"Ġ079":1523,"agen":1524,"olkswagen":1525,"su":1526,"Ġeuropean":1527,"ons":1528,"ĠAll":1529,"ĠDid":1530,"Ġking":1531,"Ġ-":1532,"Ġeither":1533,"ĠStation":1534,"86":1535,"Ġsound":1536,"Ġ79":1537,"Ġshould":1538,"ally":1539,"Ġresults":1540,"eria":1541,"ĠContact":1542,"Ġuniversity":1543,"bsolutely":1544,"star":1545,"Ġchoices":1546,"izzeria":1547,"ug":1548,"wi":1549,"Ġbritish":1550,"Absolutely":1551,"pool":1552,"worth":1553,"yal":1554,"Ġnightclub":1555,"oul":1556,"Ġgot":1557,"arkworth":1558,"Ġgonville":1559,"Ġhere":1560,"ci":1561,"Ġ154":1562,"Ġrequirements":1563,"ling":1564,"Ġout":1565,"az":1566,"ater":1567,"igh":1568,"Ġcompleted":1569,"bor":1570,"71":1571,"ĠOne":1572,"ylesbray":1573,"wich":1574,"Ġkind":1575,"Ġkings":1576,"ĠNoodle":1577,"ĠShall":1578,"borough":1579,"orwich":1580,"Ġmilton":1581,"ĠGraf":1582,"vely":1583,"Sorry":1584,"ynn":1585,"Ġinfo":1586,"ĠGolden":1587,"Ġparty":1588,"Ġswi":1589,"Ġnew":1590,"lub":1591,"Ġ076":1592,"ouin":1593,"vo":1594,"ooked":1595,"Ġbet":1596,"olvo":1597,"Thanks":1598,"mming":1599,"Ġdid":1600,"Ġ40":1601,"terborough":1602,"Ġswimming":1603,"Ġalexander":1604,"Ġhonda":1605,"888":1606,"76":1607,"be":1608,"Ġ01223334":1609,"ĠMarriott":1610,"Ġ30":1611,"dden":1612,"Ġskoda":1613,"ello":1614,"ĠTrinity":1615,"Ġpools":1616,"inci":1617,"Ġserving":1618,"Ġback":1619,"Ġinterest":1620,"brookes":1621,"ef":1622,"Ġford":1623,"Ġunsu":1624,"Ġservices":1625,"uese":1626,"work":1627,"bsons":1628,"ĠPolice":1629,"uguese":1630,"works":1631,"iet":1632,"ull":1633,"Ġnoodle":1634,"Ġlexus":1635,"Ġunsuccessful":1636,"astrop":1637,"Ġok":1638,"ĠTwo":1639,"ked":1640,"Ġmodern":1641,"ĠHospital":1642,"irport":1643,"ortuguese":1644,"Ġshow":1645,"ĠExpress":1646,"ddenbrookes":1647,"Ġho":1648,"rican":1649,"Ġ0122335":1650,"Ġ06":1651,"ĠBye":1652,"ala":1653,"Ġ51":1654,"Ġ01223353":1655,"ore":1656,"Ġcinema":1657,"ĠArch":1658,"Ġriver":1659,"ĠWe":1660,"Ġlist":1661,"Ġover":1662,"Ġandrew":1663,"lare":1664,"inches":1665,"Ġunable":1666,"84":1667,"Ġtesla":1668,"Ġ077":1669,"ĠAsian":1670,"een":1671,"yota":1672,"Ġthen":1673,"Ġtoyota":1674,"evenage":1675,"Re":1676,"Ġ36":1677,"Ġprovi":1678,"Ġnightclubs":1679,"Ġmult":1680,"Ġmatches":1681,"Ġconfirm":1682,"ĠGreen":1683,"96":1684,"Glad":1685,"na":1686,"elep":1687,"ational":1688,"elephone":1689,"Ġarms":1690,"ĠEly":1691,"ĠLeicester":1692,"ernational":1693,"ang":1694,"iple":1695,"Ġmultiple":1696,"Ġbelfry":1697,"Ġ37":1698,"ĠMag":1699,"andoori":1700,"Ġdes":1701,"ĠSp":1702,"Ġfun":1703,"ĠHut":1704,"ĠHamilton":1705,"ĠGuesthouse":1706,"Ġfa":1707,"Reference":1708,"72":1709,"jo":1710,"mw":1711,"Ġsport":1712,"Ġlovely":1713,"Ġparks":1714,"ĠAndrew":1715,"iqu":1716,"Ġgreen":1717,"itche":1718,"ĠLovell":1719,"astropub":1720,"bourne":1721,"xbourne":1722,"ops":1723,"Ġbmw":1724,"ansted":1725,"4646":1726,"arlie":1727,"Ġapolog":1728,"fit":1729,"ĠShaddai":1730,"roxbourne":1731,"Ġ47":1732,"000":1733,"Ġ75":1734,"itchen":1735,"ĠTandoori":1736,"Ġhall":1737,"ishops":1738,"ĠJesus":1739,"Ġlots":1740,"mer":1741,"Ġallenbell":1742,"ĠWest":1743,"ĠMagdalene":1744,"Ġsports":1745,"wnham":1746,"31":1747,"67":1748,"Ġaudi":1749,"Ġ28":1750,"ĠEl":1751,"Ġprovide":1752,"ions":1753,"Ġ35":1754,"Ġperhaps":1755,"ĠBistro":1756,"ĠLynn":1757,"Ġ50":1758,"olina":1759,"Ġ98":1760,"ĠPool":1761,"ns":1762,"red":1763,"erie":1764,"Ġpizza":1765,"Ġlondon":1766,"Ġ44":1767,"Ġ49":1768,"Ġori":1769,"Ġ078":1770,"olia":1771,"Ġ60":1772,"fiti":1773,"dy":1774,"chools":1775,"quest":1776,"Ġtoo":1777,"atolia":1778,"Ġsame":1779,"Ġsuccess":1780,"ortford":1781,"Ġquest":1782,"ition":1783,"ittle":1784,"Ġ0122321":1785,"Ġits":1786,"ĠNorwich":1787,"ostcode":1788,"inh":1789,"ĠAutumn":1790,"Ġthan":1791,"Ġvolkswagen":1792,"alleries":1793,"Ġfits":1794,"ully":1795,"Ġoriental":1796,"ren":1797,"Ġasian":1798,"63":1799,"sure":1800,"ict":1801,"iston":1802,"Ġearliest":1803,"47":1804,"ched":1805,"Ġreach":1806,"ning":1807,"Ġinternational":1808,"Ġmost":1809,"ĠTheatre":1810,"Ġvolvo":1811,"Ġconc":1812,"nsfield":1813,"Ġ#":1814,"oria":1815,"orter":1816,"Ġlensfield":1817,"ĠSouth":1818,"Ġsuit":1819,"ĠRoyal":1820,"Ġshorter":1821,"rench":1822,"ictoria":1823,"Ġtelephone":1824,"lpha":1825,"ĠThanks":1826,"ucky":1827,"900":1828,"Ġinclu":1829,"anish":1830,"Ġokay":1831,"iral":1832,"Ġright":1833,"Ġexpress":1834,"ĠCityroomz":1835,"Ġ88":1836,"fore":1837,"valon":1838,"irala":1839,"rass":1840,"ĠCross":1841,"Ġchange":1842,"240":1843,"ĠSaints":1844,"ĠPeterborough":1845,"fe":1846,"erra":1847,"Ġ01223353888":1848,"100":1849,"73":1850,"Ġsp":1851,"Ġvar":1852,"98":1853,"pee":1854,"ĠRiver":1855,"ĠPlace":1856,"ĠFun":1857,"venue":1858,"149":1859,"MW":1860,"Ġtrinity":1861,"thank":1862,"ĠWorth":1863,"ĠAf":1864,"Ġoffers":1865,"Ġthin":1866,"verton":1867,"Ġquestions":1868,"boat":1869,"fully":1870,"ĠWarkworth":1871,"ĠPrin":1872,"ĠPrince":1873,"91":1874,"Ġinto":1875,"org":1876,"Ġhuntingdon":1877,"ĠMo":1878,"ghna":1879,"Ġpreferred":1880,"Ġunit":1881,"ippee":1882,"Ġ012239021":1883,"rasserie":1884,"All":1885,"Enjoy":1886,"hal":1887,"Ġcurry":1888,"Ġ070":1889,"Ġ70":1890,"owning":1891,"94":1892,"name":1893,"ymm":1894,"Ġcross":1895,"Ġgastropub":1896,"Ġhead":1897,"ĠAvalon":1898,"liment":1899,"orgina":1900,"ymmoy":1901,"My":1902,"ĠWhen":1903,"Ġrated":1904,"ĠBroughton":1905,"ĠBooked":1906,"Ġfen":1907,"ietname":1908,"ietnamese":1909,"enty":1910,"Ġlong":1911,"ĠMe":1912,"Ġenter":1913,"Ġsuccessfully":1914,"74":1915,"ae":1916,"ĠCafe":1917,"ĠCastle":1918,"Ġ56":1919,"Ġlooks":1920,"92":1921,"Ġsite":1922,"ito":1923,"ĠPostcode":1924,"Ġ52":1925,"ĠBedouin":1926,"iquito":1927,"ghe":1928,"zz":1929,"ĠWok":1930,"ĠHall":1931,"Ġcosts":1932,"Ġcare":1933,"ingham":1934,"ĠCinema":1935,"ations":1936,"Ġend":1937,"ĠLet":1938,"ĠStevenage":1939,"ize":1940,"ĠNewnham":1941,"ĠArtworks":1942,"Ġclos":1943,"limentum":1944,"ping":1945,"Ġac":1946,"Ġhigh":1947,"Ġdin":1948,"ĠNandos":1949,"irmingham":1950,"aj":1951,"cell":1952,"inoor":1953,"Ġpizzeria":1954,"andle":1955,"rita":1956,"Ġpers":1957,"Ġapologize":1958,"gherita":1959,"cellent":1960,"And":1961,"ĠCountry":1962,"ĠSo":1963,"Ġpostal":1964,"ĠParade":1965,"urk":1966,"Ġ53":1967,"ĠFor":1968,"Ġhours":1969,"Ġplenty":1970,"ĠAfrican":1971,"zzo":1972,"Ġperson":1973,"Ġact":1974,"Ġla":1975,"ĠPortuguese":1976,"Ġ105":1977,"Ġseven":1978,"ohinoor":1979,"nab":1980,"ĠCould":1981,"Ġsaints":1982,"Ġ01223446":1983,"Ġride":1984,"urkish":1985,"nabas":1986,"iverpool":1987,"ky":1988,"Ġten":1989,"ĠBishops":1990,"Ġ38":1991,"ĠLiverpool":1992,"ĠRosa":1993,"change":1994,"umping":1995,"Ġwanting":1996,"akk":1997,"Ġ163":1998,"andlebury":1999,"DC":2000,"Ġinn":2001,"Ġholiday":2002,"ĠCar":2003,"ooms":2004,"osa":2005,"oats":2006,"itional":2007,"Ġclosest":2008,"Goodbye":2009,"sh":2010,"Ġdine":2011,"ĠClub":2012,"Ġchrist":2013,"ĠHiston":2014,"ĠBroxbourne":2015,"ĠDowning":2016,"issing":2017,"ohns":2018,"akka":2019,"gly":2020,"natolia":2021,"te":2022,"ually":2023,"ĠHobsons":2024,"When":2025,"Ġbistro":2026,"Ġcafe":2027,"ote":2028,"Ġfriday":2029,"Ġshaddai":2030,"amboats":2031,"Ġ01223336":2032,"anese":2033,"Ġpicked":2034,"Ġthink":2035,"566":2036,"62":2037,"fect":2038,"there":2039,"Ġlit":2040,"Ġeat":2041,"Ġashley":2042,"wel":2043,"Ġairport":2044,"ĠHoliday":2045,"alsa":2046,"uckling":2047,"Ġlittle":2048,"Ġaren":2049,"ĠStortford":2050,"Ġregent":2051,"Ġleisure":2052,"bill":2053,"hi":2054,"kok":2055,"nean":2056,"Ġ087":2057,"iterra":2058,"Ġhouses":2059,"ĠChan":2060,"Ġmarriott":2061,"angkok":2062,"billies":2063,"iterranean":2064,"gon":2065,"ln":2066,"looms":2067,"Ġparade":2068,"Ġhut":2069,"anh":2070,"ĠCorn":2071,"ĠAylesbray":2072,"ĠBoth":2073,"ĠArchway":2074,"rice":2075,"zbillies":2076,"Ġcountry":2077,"Ġmeal":2078,"Ġsuch":2079,"oly":2080,"If":2081,"pin":2082,"Ġbest":2083,"ĠInn":2084,"ĠClare":2085,"Ġold":2086,"ĠLittle":2087,"aigon":2088,"ĠStansted":2089,"ĠCharlie":2090,"Ġseats":2091,"ĠGrafton":2092,"Are":2093,"Ch":2094,"od":2095,"ince":2096,"Ġmight":2097,"Ġadditional":2098,"ĠSe":2099,"Ġbefore":2100,"Ġtand":2101,"82":2102,"der":2103,"uch":2104,"raina":2105,"Ġmuch":2106,"Ġdate":2107,"ĠPhone":2108,"ail":2109,"Ġ074":2110,"Ġminute":2111,"ĠOr":2112,"ĠShould":2113,"loomsbury":2114,"ran":2115,"Ġclifton":2116,"otan":2117,"ĠChop":2118,"279":2119,"alace":2120,"otanic":2121,"ween":2122,"Ġsix":2123,"Ġ01223334900":2124,"rim":2125,"Ġ012233149":2126,"Ġtandoori":2127,"Ġ01223314960":2128,"sj":2129,"you":2130,"Ġcor":2131,"Ġgraf":2132,"ĠHonda":2133,"ĠTesla":2134,"ĠStar":2135,"587":2136,"Ġcityroomz":2137,"ĠVictoria":2138,"alleria":2139,"Ġtheatres":2140,"Ġbetween":2141,"ile":2142,"orld":2143,"Ġinex":2144,"Ġde":2145,"Ġfut":2146,"avera":2147,"ssage":2148,"ĠWh":2149,"ĠDa":2150,"allare":2151,"Ġtravell":2152,"Ġshall":2153,"Ġlocations":2154,"rimavera":2155,"511":2156,"Ġdesc":2157,"Ġfuture":2158,"im":2159,"uration":2160,"Ġvinci":2161,"rank":2162,"Ġinexpensive":2163,"93":2164,"ner":2165,"Ġbridge":2166,"ĠKitchen":2167,"Ġfav":2168,"rankie":2169,"May":2170,"hing":2171,"rary":2172,"raid":2173,"Ġcastle":2174,"andard":2175,"izzi":2176,"ription":2177,"Ġafraid":2178,"Ġdescription":2179,"ael":2180,"dp":2181,"what":2182,"Ġduration":2183,"ĠToy":2184,"Ġcold":2185,"ĠPizzeria":2186,"ĠFinches":2187,"Ġmag":2188,"usion":2189,"Ġcertainly":2190,"otto":2191,"Ġ01223452":2192,"efin":2193,"Ġshowing":2194,"ĠSpice":2195,"ĠToyota":2196,"ah":2197,"assage":2198,"ming":2199,"rezzo":2200,"Ġnothing":2201,"ĠSeoul":2202,"05":2203,"ple":2204,"Ġtr":2205,"inling":2206,"Ġbroughton":2207,"itely":2208,"asca":2209,"Ġnear":2210,"ĠLucky":2211,"urg":2212,"Ġgolden":2213,"ĠLexus":2214,"ĠLeverton":2215,"Ġreached":2216,"Ġ012239020":2217,"ĠGraffiti":2218,"Ġ01223452587":2219,"efinitely":2220,"emp":2221,"orary":2222,"Ġaylesbray":2223,"ĠAddenbrookes":2224,"Ġplan":2225,"umpington":2226,"emporary":2227,"Which":2228,"time":2229,"ntemporary":2230,"Ġnine":2231,"ĠAnatolia":2232,"ĠBMW":2233,"Ġcoming":2234,"Ġask":2235,"ĠCarolina":2236,"Ġfavor":2237,"gin":2238,"Ġditton":2239,"ĠSkoda":2240,"usine":2241,"Ġjesus":2242,"ĠYard":2243,"02":2244,"aq":2245,"bil":2246,"Ġ0122357":2247,"Ġ29":2248,"ĠFrench":2249,"506":2250,"nys":2251,"Ġactually":2252,"Ġ01223446100":2253,"urger":2254,"Addenbrookes":2255,"Cambridge":2256,"Well":2257,"fes":2258,"world":2259,"Ġ&":2260,"Ġneeding":2261,"ineworld":2262,"mahal":2263,"Ġthanks":2264,"orean":2265,"imosa":2266,"usiness":2267,"ama":2268,"door":2269,"236":2270,"ĠMex":2271,"ĠVinci":2272,"Ġjello":2273,"Ġaccom":2274,"ĠMexican":2275,"amp":2276,"yard":2277,"head":2278,"Ġisn":2279,"riental":2280,"Ġschools":2281,"ssi":2282,"Ġstill":2283,"ĠUgly":2284,"Ġpicking":2285,"price":2286,"where":2287,"Ġahead":2288,"ries":2289,"ĠThat":2290,"ĠOriental":2291,"Ġmary":2292,"range":2293,"met":2294,"ĠRice":2295,"Ġpossi":2296,"Ġfinding":2297,"pus":2298,"street":2299,"233":2300,"Ġbegin":2301,"ĠBinh":2302,"Ġrooms":2303,"ĠYippee":2304,"Ġcomplete":2305,"ĠAndrews":2306,"Ġdining":2307,"Ġtravelling":2308,"04":2309,"97":2310,"Ġlater":2311,"ĠMarket":2312,"Ġ01223357":2313,"ourmet":2314,"ettle":2315,"ĠJello":2316,"ounty":2317,"aeology":2318,"Please":2319,"ities":2320,"2320":2321,"Ġarbury":2322,"Ġmed":2323,"ĠNirala":2324,"ĠMeghna":2325,"priced":2326,"Ġz":2327,"ical":2328,"Ġinst":2329,"Ġwok":2330,"ĠTen":2331,"ĠSc":2332,"Ġ01223312":2333,"Ġothers":2334,"ĠMargherita":2335,"Ġearlier":2336,"Ġfavorite":2337,"75":2338,"83":2339,"Good":2340,"kw":2341,"man":2342,"mod":2343,"tt":2344,"Ġ019":2345,"ĠTr":2346,"ĠPer":2347,"irkw":2348,"ĠThanh":2349,"ĠChurchill":2350,"Ġboating":2351,"ĠWhite":2352,"irkwood":2353,"ds":2354,"more":2355,"Ġ012234646":2356,"ĠDuckling":2357,"ĠVietnamese":2358,"ĠArbury":2359,"ead":2360,"ech":2361,"pt":2362,"nth":2363,"Ġpas":2364,"237":2365,"ĠBirmingham":2366,"ĠKohinoor":2367,"Ġconfirmation":2368,"Ġinclude":2369,"Ġaccommod":2370,"Ġ01954":2371,"ous":2372,"ory":2373,"Ġprince":2374,"ĠMissing":2375,"Ġ01223338":2376,"unter":2377,"Ġdoesn":2378,"Ġinstead":2379,"95":2380,"AA":2381,"how":2382,"uca":2383,"erc":2384,"Ġluck":2385,"Ġ100":2386,"ĠAudi":2387,"Ġtimes":2388,"Ġ32":2389,"umford":2390,"Ġopen":2391,"ĠVolkswagen":2392,"ĠOak":2393,"Ġnewmarket":2394,"nthrop":2395,"65":2396,"MG":2397,"can":2398,"Ġnor":2399,"Ġpassage":2400,"Ġsc":2401,"ĠTrain":2402,"Ġeven":2403,"ĠAl":2404,"ĠSalsa":2405,"ĠKettle":2406,"ustri":2407,"ĠSock":2408,"nthropology":2409,"MY":2410,"Ġpop":2411,"Ġlast":2412,"arry":2413,"Ġgalleries":2414,"ĠGe":2415,"ĠGlad":2416,"Ġlove":2417,"Ġthings":2418,"Ġ01223366":2419,"ĠDojo":2420,"517":2421,"Ġrun":2422,"ĠThai":2423,"Ġ01223304":2424,"echn":2425,"ercers":2426,"Happy":2427,"Th":2428,"uc":2429,"ĠHakka":2430,"ĠTurkish":2431,"illage":2432,"ĠKymmoy":2433,"usha":2434,"ĠVue":2435,"ĠJohns":2436,"353":2437,"aba":2438,"Ġpopular":2439,"600":2440,"sit":2441,"Ġworth":2442,"seng":2443,"ĠPrezzo":2444,"Ġ517":2445,"Ġ01223307":2446,"Ġ073":2447,"660":2448,"Ġ191":2449,"Ġbetter":2450,"ĠGeorgina":2451,"Will":2452,"folk":2453,"per":2454,"Ġalpha":2455,"Ġclub":2456,"Ġentries":2457,"andhi":2458,"ogy":2459,"ĠHome":2460,"Ġlistings":2461,"Let":2462,"YH":2463,"ake":2464,"dg":2465,"lot":2466,"yne":2467,"Ġhill":2468,"Ġhamilton":2469,"ookhouse":2470,"Ġdefinitely":2471,"Ġwish":2472,"Ġ01223324":2473,"ĠFit":2474,"Ġavailabil":2475,"ucina":2476,"eting":2477,"rot":2478,"ze":2479,"Ġwarkworth":2480,"ĠCote":2481,"ĠBooking":2482,"Ġmeeting":2483,"Ġperfect":2484,"ĠPeking":2485,"ĠRiverboat":2486,"Ġmagdalene":2487,"Ġ01223464646":2488,"echnology":2489,"Ġavailability":2490,"BU":2491,"KV":2492,"SO":2493,"bert":2494,"dq":2495,"eak":2496,"sing":2497,"uel":2498,"Ġda":2499,"arge":2500,"Ġoff":2501,"leep":2502,"Ġhesit":2503,"ĠAirport":2504,"ĠGalleries":2505,"ĠBack":2506,"ĠByard":2507,"Ġsunday":2508,"110":2509,"Ġ82":2510,"ilbert":2511,"ience":2512,"Ġgardens":2513,"bey":2514,"eakhouse":2515,"Ġhesitate":2516,"nde":2517,"Ġgra":2518,"Ġchop":2519,"Ġleicester":2520,"ĠEraina":2521,"Ġ152":2522,"hale":2523,"Ġappe":2524,"Ġconcert":2525,"ĠFunky":2526,"ĠPerhaps":2527,"leeper":2528,"81":2529,"EZ":2530,"FL":2531,"cy":2532,"mas":2533,"orey":2534,"rs":2535,"Ġbrasserie":2536,"anuel":2537,"Ġslot":2538,"ĠSaigon":2539,"Ġ0122327":2540,"Ġ0122342":2541,"urches":2542,"Ġ74":2543,"Ġroyal":2544,"unction":2545,"mmanuel":2546,"ĠFord":2547,"leeperz":2548,"YR":2549,"away":2550,"xt":2551,"Ġbusiness":2552,"Ġguests":2553,"Ġcheaper":2554,"5725":2555,"ĠSpanish":2556,"Ġgrafton":2557,"388":2558,"85":2559,"AG":2560,"BZ":2561,"CR":2562,"CU":2563,"For":2564,"SU":2565,"XH":2566,"ax":2567,"lh":2568,"yes":2569,"ddress":2570,"ĠGalleria":2571,"ĠPalace":2572,"Ġfeel":2573,"astic":2574,"Ġdojo":2575,"antastic":2576,"ĠChiquito":2577,"ids":2578,"Ġspecifications":2579,"Ġconsi":2580,"ĠYu":2581,"Ġhold":2582,"Ġheading":2583,"ajmahal":2584,"Ex":2585,"IT":2586,"NO":2587,"OS":2588,"cum":2589,"pot":2590,"rect":2591,"itch":2592,"ĠRaz":2593,"ĠPrimavera":2594,"ĠFree":2595,"ĠNusha":2596,"Ġbarnabas":2597,"Ġchoosing":2598,"cade":2599,"ĠTrumpington":2600,"ĠAlso":2601,"03":2602,"AL":2603,"Booked":2604,"PA":2605,"ach":2606,"strot":2607,"ery":2608,"ney":2609,"Ġdat":2610,"ione":2611,"Ġchurches":2612,"Ġanytime":2613,"ĠAlimentum":2614,"Ġrecommendation":2615,"Ġnext":2616,"ummer":2617,"affe":2618,"azione":2619,"Ġandrews":2620,"idsummer":2621,"ĠRaza":2622,"01223":2623,"ID":2624,"rh":2625,"res":2626,"raz":2627,"Ġmonday":2628,"ĠWant":2629,"124":2630,"ĠBloomsbury":2631,"ady":2632,"ĠGardens":2633,"ĠTenpin":2634,"860":2635,"ES":2636,"PB":2637,"TQ":2638,"VD":2639,"ZC":2640,"dw":2641,"Ġven":2642,"Ġautumn":2643,"Ġref":2644,"Ġsaturday":2645,"ĠHigh":2646,"ĠHoly":2647,"ĠBrasserie":2648,"urf":2649,"ĠRose":2650,"ĠMary":2651,"Ġboats":2652,"ubile":2653,"27908":2654,"50688":2655,"arrys":2656,"senger":2657,"stroturf":2658,"Ġvenues":2659,"ubilee":2660,"Did":2661,"EN":2662,"ding":2663,"opper":2664,"pect":2665,"Ġ01":2666,"Ġpoint":2667,"asha":2668,"Ġ451":2669,"Ġthough":2670,"ĠOld":2671,"ipasha":2672,"ĠExchange":2673,"welcome":2674,"Ġevening":2675,"257":2676,"GM":2677,"WF":2678,"kin":2679,"we":2680,"Ġbinh":2681,"ĠWandlebury":2682,"ĠSchools":2683,"Ġ0122350":2684,"uskin":2685,"525":2686,"Ġartworks":2687,"Ġclose":2688,"ampton":2689,"0353":2690,"AR":2691,"City":2692,"ED":2693,"GBP":2694,"banese":2695,"Ġportuguese":2696,"med":2697,"arsity":2698,"ĠCamboats":2699,"Ġareas":2700,"Ġcharge":2701,"Ġhear":2702,"Ġ68":2703,"ĠKorean":2704,"Ġdowning":2705,"AT":2706,"BI":2707,"BN":2708,"EJ":2709,"HU":2710,"OR":2711,"SL":2712,"SV":2713,"YC":2714,"ever":2715,"ron":2716,"Ġdet":2717,"Ġfine":2718,"Ġtypes":2719,"ĠADC":2720,"ĠRajmahal":2721,"ĠBe":2722,"alon":2723,"ĠStandard":2724,"Ġkitchen":2725,"516":2726,"668":2727,"906":2728,"Ġhome":2729,"Ġgreens":2730,"ET":2731,"Ġvenue":2732,"erth":2733,"Ġlat":2734,"ĠIn":2735,"Ġliver":2736,"ĠBangkok":2737,"Ġ41":2738,"ĠDe":2739,"Ġpeterborough":2740,"Ġavalon":2741,"ĠVarsity":2742,"Ġarchway":2743,"Ġconcerth":2744,"Ġcoldham":2745,"Ġliverpool":2746,"..":2747,"112":2748,"BT":2749,"DN":2750,"OG":2751,"XC":2752,"lf":2753,"ruis":2754,"Ġalimentum":2755,"Ġnorwich":2756,"Ġbit":2757,"Ġyard":2758,"atem":2759,"arner":2760,"Ġarcade":2761,"ambourne":2762,"ĠAlpha":2763,"Ġmatter":2764,"Ġ01223210353":2765,"ĠModern":2766,"Ġheaded":2767,"Ġ01223336233":2768,"Ġcorrect":2769,"23737":2770,"Ġdetail":2771,"Ġconcerthall":2772,"ruisers":2773,"ateman":2774,"AF":2775,"eg":2776,"iraz":2777,"js":2778,"Ġest":2779,"ĠCotto":2780,"itar":2781,"ĠTra":2782,"ĠBotanic":2783,"lass":2784,"ĠMan":2785,"Ġthrough":2786,"irmed":2787,"istory":2788,"Ġrout":2789,"Ġ202":2790,"Ġbedouin":2791,"Ġafrican":2792,"Ġconfirmed":2793,"Ġlisting":2794,"ĠFitzbillies":2795,"Ġgrande":2796,"AJ":2797,"IR":2798,"MF":2799,"PP":2800,"QG":2801,"WL":2802,"Ġmercers":2803,"otpot":2804,"Ġfinches":2805,"Ġpricerange":2806,"ĠTasca":2807,"Ġ075":2808,"0060":2809,"enjoy":2810,"Ġ66":2811,"Ġrow":2812,"ĠVolvo":2813,"274":2814,"ĠUno":2815,"untington":2816,"Ġeverything":2817,"265":2818,"ĠGardenia":2819,"iety":2820,"Ġvariety":2821,"Ġmediterranean":2822,"EF":2823,"LQ":2824,"UL":2825,"not":2826,"Ġcorn":2827,"Ġgeorgina":2828,"Ġ0122352":2829,"Ġfees":2830,"Ġneeded":2831,"ify":2832,"ĠFe":2833,"ĠNeed":2834,"Ġplanning":2835,"Ġ01223525725":2836,"223":2837,"61":2838,"741":2839,"DS":2840,"JS":2841,"VN":2842,"YZ":2843,"ZZ":2844,"Ġnirala":2845,"Ġpound":2846,"Ġ017":2847,"ĠWhale":2848,"Ġstansted":2849,"12240":2850,"ĠBallare":2851,"Ġexchange":2852,"Ġ01223300":2853,"Ġ151":2854,"402":2855,"ĠNorthampton":2856,"Ġoutdoor":2857,"fee":2858,"Ġspice":2859,"Ġ01223902091":2860,"12240240":2861,"WH":2862,"ffee":2863,"ix":2864,"ouble":2865,"ars":2866,"owing":2867,"Ġcannot":2868,"ĠBurger":2869,"Ġlovell":2870,"Ġ39":2871,"Ġ133":2872,"ĠBarnabas":2873,"Ġmaybe":2874,"Ġ08712240240":2875,"Ġlatest":2876,"Ġdetails":2877,"Ġroute":2878,"512":2879,"BH":2880,"DT":2881,"EY":2882,"JE":2883,"JK":2884,"JM":2885,"La":2886,"Milton":2887,"NU":2888,"OO":2889,"VC":2890,"WC":2891,"bw":2892,"hill":2893,"orpus":2894,"Ġcine":2895,"Ġrequested":2896,"ĠTake":2897,"ambar":2898,"ĠAvenue":2899,"ĠGreat":2900,"Ġcome":2901,"Ġthursday":2902,"Ġunfortunately":2903,"ĠJunction":2904,"397":2905,"ueen":2906,"ĠAsk":2907,"ĠZizzi":2908,"ome":2909,"Ġtuesday":2910,"Ġlynn":2911,"Ġoak":2912,"rill":2913,"editerranean":2914,"Ġchan":2915,"ĠTime":2916,"Ġ012238":2917,"ĠMediterranean":2918,"Ġexcellent":2919,"Ġbyard":2920,"Ġ64":2921,"ĠKirkwood":2922,"Ġrice":2923,"Ġ01223334860":2924,"ĠPools":2925,"ĠMoon":2926,"Excellent":2927,"154":2928,"611":2929,"AH":2930,"BK":2931,"IG":2932,"JX":2933,"LR":2934,"PR":2935,"TU":2936,"VT":2937,"Ġ(":2938,"Ġmarket":2939,"Ġfrench":2940,"Ġsounds":2941,"Ġgr":2942,"Ġeight":2943,"Ġeach":2944,"ĠAmer":2945,"ĠAddress":2946,"ĠBen":2947,"Ġlodg":2948,"apanese":2949,"Ġ071":2950,"ĠIts":2951,"Ġ63":2952,"085":2953,"afood":2954,"Ġ012234741":2955,"Ġhighly":2956,"51707":2957,"Ġcinemas":2958,"Ġ01223474144":2959,"Oh":2960,"PL":2961,"ale":2962,"great":2963,"sr":2964,"uda":2965,"Ġwhe":2966,"its":2967,"Ġ31":2968,"ĠEfes":2969,"ĠThong":2970,"aff":2971,"agama":2972,"Ġriverside":2973,"Ġriverboat":2974,"udamore":2975,"agamama":2976,"200":2977,"AC":2978,"Acorn":2979,"BQ":2980,"BR":2981,"DZ":2982,"FF":2983,"Here":2984,"II":2985,"JN":2986,"MO":2987,"MS":2988,"VX":2989,"WK":2990,"WX":2991,"YK":2992,"ZN":2993,"ZQ":2994,"za":2995,"Ġ,":2996,"eler":2997,"Ġ124":2998,"ĠGourmet":2999,"ĠSeven":3000,"Ġseafood":3001,"Ġ0778":3002,"Ġones":3003,"Ġentry":3004,"208":3005,"Ġuna":3006,"270":3007,"387":3008,"Ġseems":3009,"Ġhobsons":3010,"Ġ01223902168":3011,"aelogy":3012,"Ġhills":3013,"affron":3014,"708":3015,"AS":3016,"IC":3017,"Not":3018,"Nandos":3019,"ause":3020,"no":3021,"Ġyes":3022,"Ġschool":3023,"ĠTo":3024,"ĠGandhi":3025,"ĠMimosa":3026,"Ġ01223315":3027,"Ġ156":3028,"Ġcarolina":3029,"Ġvietnamese":3030,"Ġgets":3031,"Ġ01223332320":3032,"welve":3033,"BG":3034,"EG":3035,"IF":3036,"MU":3037,"VH":3038,"VM":3039,"XG":3040,"YQ":3041,"merton":3042,"nnys":3043,"vaila":3044,"ick":3045,"Ġdire":3046,"arly":3047,"Ġfantastic":3048,"Ġsleeperz":3049,"Ġstevenage":3050,"Ġaround":3051,"Ġ01223566":3052,"Ġbennys":3053,"Ġparkside":3054,"Ġ072":3055,"ĠEnt":3056,"Ġ78":3057,"Ġ108":3058,"077":3059,"ĠJinling":3060,"598":3061,"Ġpassenger":3062,"Ġ01223307402":3063,"ĠBackstreet":3064,"Ġ01223420060":3065,"Ġconsider":3066,"ĠAmerican":3067,"udamores":3068,"auseway":3069,"vailable":3070,"Curry":3071,"OU":3072,"Ġcounty":3073,"Ġdri":3074,"ĠCineworld":3075,"ĠCaffe":3076,"Ġprices":3077,"Ġely":3078,"ĠPl":3079,"Ġthai":3080,"ĠNor":3081,"Ġ80":3082,"170":3083,"Ġadc":3084,"Ġspanish":3085,"Ġ01223357708":3086,"Ġunavailable":3087,"AD":3088,"DY":3089,"EP":3090,"WN":3091,"XQ":3092,"YU":3093,"nne":3094,"Ġnandos":3095,"Ġbotanic":3096,"Ġwandlebury":3097,"Ġsteakhouse":3098,"Ġearly":3099,"ĠAli":3100,"Ġcontemporary":3101,"rover":3102,"hern":3103,"Ġexpect":3104,"ĠFyne":3105,"210":3106,"ichael":3107,"299":3108,"inders":3109,"ĠContemporary":3110,"382":3111,"ĠQueen":3112,"ĠHomerton":3113,"705":3114,"Ġchristi":3115,"ĠCorner":3116,"Ġbeginning":3117,"Ġ01223312112":3118,"Done":3119,"ynne":3120,"Ġve":3121,"Ġturkish":3122,"Ġame":3123,"Ġcou":3124,"Ġlucky":3125,"nder":3126,"ĠCenter":3127,"Ġpric":3128,"ĠHuntington":3129,"ĠTree":3130,"ĠTaj":3131,"ĠSoul":3132,"Ġ0122329":3133,"Ġcoffee":3134,"ĠFinders":3135,"Ġ83":3136,"Ġrosa":3137,"Ġvillage":3138,"5010":3139,"0872":3140,"Ġwee":3141,"chel":3142,"Ġvisiting":3143,"Ġpleasant":3144,"Ġpossible":3145,"AU":3146,"BO":3147,"CJ":3148,"CL":3149,"GH":3150,"MH":3151,"MR":3152,"NR":3153,"PU":3154,"SF":3155,"SQ":3156,"UR":3157,"VP":3158,"lia":3159,"ncy":3160,"ward":3161,"Ġreg":3162,"Ġbirmingham":3163,"Ġcruisers":3164,"gency":3165,"Ġhistory":3166,"ĠCow":3167,"Ġgilbert":3168,"232":3169,"Ġhedge":3170,"ĠSchool":3171,"Ġ0122351":3172,"Ġexact":3173,"Ġ529":3174,"Ġ01223311":3175,"Ġ106":3176,"Ġ96":3177,"178":3178,"hams":3179,"60966":3180,"Ġ205":3181,"Ġjubilee":3182,"ipple":3183,"Ġletting":3184,"ĠGreens":3185,"Ġ01223217":3186,"lassical":3187,"Ġ01223300085":3188,"208000":3189,"Ġpricing":3190,"As":3191,"Any":3192,"Alexander":3193,"On":3194,"VO":3195,"YO":3196,"cent":3197,"Ġid":3198,"Ġtree":3199,"Ġbroxbourne":3200,"arian":3201,"Ġsched":3202,"Ġ00872":3203,"ĠSid":3204,"ison":3205,"Ġ01223333":3206,"Ġ0788":3207,"2456":3208,"Ġfitting":3209,"ĠArts":3210,"Christ":3211,"Ġscience":3212,"Ġamen":3213,"Ġcouple":3214,"Ġschedu":3215,"Ġ00872208000":3216,"Ġ01223333516":3217,"Both":3218,"CT":3219,"EW":3220,"FP":3221,"GD":3222,"IJ":3223,"IQ":3224,"LH":3225,"LK":3226,"MN":3227,"NK":3228,"SH":3229,"VF":3230,"uce":3231,"vel":3232,"xican":3233,"ges":3234,"Ġwednesday":3235,"Ġfolk":3236,"ĠCopper":3237,"edges":3238,"ĠWas":3239,"ĠHedges":3240,"ĠSala":3241,"ĠBaba":3242,"Ġmexican":3243,"509":3244,"599":3245,"4600":3246,"8882":3247,"ĠArchaeology":3248,"Ġ01223336265":3249,"Ġ01223366611":3250,"Ġ01223304705":3251,"rescent":3252,"27410":3253,"ĠBennys":3254,"Ġhedges":3255,"IK":3256,"lish":3257,"Ġreally":3258,"Ġcase":3259,"Ġtheater":3260,"Ġheld":3261,"ĠPunter":3262,"ĠMumford":3263,"aid":3264,"ĠFrankie":3265,"Ġ69":3266,"Ġallowing":3267,"Ġspecify":3268,"Ġarchaeology":3269,"Ġclar":3270,"ĠChristi":3271,"Ġfunky":3272,"ĠMeze":3273,"221":3274,"354":3275,"446":3276,"CY":3277,"Could":3278,"DA":3279,"IX":3280,"JA":3281,"MK":3282,"Rest":3283,"SD":3284,"So":3285,"UW":3286,"VB":3287,"WR":3288,"XF":3289,"dz":3290,"ew":3291,"fis":3292,"qf":3293,"tuce":3294,"your":3295,"Ġastroturf":3296,"ention":3297,"Ġcambourne":3298,"Ġpitch":3299,"elix":3300,"Ġmimosa":3301,"Ġmention":3302,"ĠCrescent":3303,"ĠHK":3304,"Ġranges":3305,"238":3306,"Ġ42":3307,"Ġ327908":3308,"Ġorder":3309,"Ġ01223355":3310,"irton":3311,"Ġ71":3312,"lug":3313,"orning":3314,"Ġvictoria":3315,"ĠJapanese":3316,"4050":3317,"Ġgetting":3318,"428":3319,"Ġplay":3320,"Ġapp":3321,"vellers":3322,"222":3323,"Ġmargherita":3324,"thanks":3325,"Ġ01223902112":3326,"5664":3327,"66800":3328,"fisher":3329,"Ġ01223355397":3330,"ER":3331,"IB":3332,"Wonderful":3333,"aut":3334,"Ġclare":3335,"Ġmorning":3336,"Ġrequests":3337,"Ġmoon":3338,"ĠTechnology":3339,"ĠAd":3340,"owns":3341,"ĠCold":3342,"277":3343,"ĠLoch":3344,"Ġjohns":3345,"Ġgardenia":3346,"Ġincluding":3347,"Ġvarsity":3348,"ustrian":3349,"Ġ01223866800":3350,"Ġamenities":3351,"Restaurant":3352,"BL":3353,"CK":3354,"FT":3355,"IH":3356,"MZ":3357,"NH":3358,"OI":3359,"SJ":3360,"SN":3361,"TY":3362,"UF":3363,"VL":3364,"VR":3365,"XD":3366,"XT":3367,"YF":3368,"ZA":3369,"ZH":3370,"ZT":3371,"bj":3372,"bbey":3373,"cb":3374,"ey":3375,"iful":3376,"iking":3377,"pri":3378,"will":3379,"Ġanthropology":3380,"inch":3381,"heep":3382,"Ġrec":3383,"Ġcucina":3384,"Ġluca":3385,"ĠCookhouse":3386,"ĠCorpus":3387,"ĠWine":3388,"12660":3389,"Ġbeaut":3390,"ĠLuca":3391,"Ġ01223354":3392,"ĠFelix":3393,"Ġ62":3394,"Ġwanted":3395,"1018":3396,"596":3397,"quale":3398,"877":3399,"ĠShop":3400,"781018":3401,"Ġ01223365664":3402,"ĠMillers":3403,"702":3404,"Ġtakeaway":3405,"Ġ01223304050":3406,"714600":3407,"Ġ01223902088":3408,"ĠWhitehouse":3409,"Ġ01954781018":3410,"Ġ01954714600":3411,"Cityroomz":3412,"Ġbeautiful":3413,"451":3414,"DO":3415,"EL":3416,"Pizza":3417,"VK":3418,"ural":3419,"nta":3420,"Ġbishops":3421,"Ġsoul":3422,"Ġcharlie":3423,"Ġstortford":3424,"Ġwithin":3425,"ĠAnthropology":3426,"ĠNight":3427,"Ġ710":3428,"Ġkymmoy":3429,"Ġruskin":3430,"155010":3431,"Ġshop":3432,"ĠShiraz":3433,"Ġarchitectural":3434,"Ġchurchill":3435,"Ġ365":3436,"Ġdinner":3437,"Ġclarify":3438,"552":3439,"BD":3440,"BM":3441,"EQ":3442,"EX":3443,"GQ":3444,"IP":3445,"Just":3446,"Per":3447,"RK":3448,"UY":3449,"VQ":3450,"WD":3451,"XK":3452,"XO":3453,"ZK":3454,"nz":3455,"tail":3456,"Ġket":3457,"Ġtasca":3458,"inbrook":3459,"Ġbu":3460,"Ġpunter":3461,"Ġwor":3462,"Ġwater":3463,"Ġmissing":3464,"anah":3465,"ĠCounty":3466,"Ġrang":3467,"Ġlebanese":3468,"ĠHere":3469,"arton":3470,"1241":3471,"Ġ012237":3472,"imehouse":3473,"Ġ25":3474,"ĠPipasha":3475,"aius":3476,"00170":3477,"ĠFood":3478,"ĠRetail":3479,"5166":3480,"Ġ139":3481,"Ġsock":3482,"Ġ99":3483,"Ġrose":3484,"Ġcouldn":3485,"3830":3486,"ways":3487,"6412":3488,"Ġ0122330257":3489,"Ġ40428":3490,"Ġ01223351241":3491,"Ġthanh":3492,"Ġ087155010":3493,"Ġnorfolk":3494,"ustrial":3495,"12430":3496,"Ġweek":3497,"inchinbrook":3498,"Ġkettle":3499,"anahar":3500,"AV":3501,"HK":3502,"RQ":3503,"WY":3504,"kn":3505,"Ġpalace":3506,"Ġsort":3507,"Ġstandard":3508,"Ġmet":3509,"ĠMight":3510,"ĠMidsummer":3511,"Ġexp":3512,"Ġseem":3513,"ĠStop":3514,"ĠEmmanuel":3515,"118":3516,"Ġhowever":3517,"Ġshort":3518,"club":3519,"Ġswimmingpool":3520,"Ġapologies":3521,"Ġaccommodate":3522,"ĠTravellers":3523,"Ġ01223315702":3524,"Ġdriver":3525,"ĠNightclub":3526,"known":3527,"CN":3528,"EK":3529,"GN":3530,"JQ":3531,"PD":3532,"Park":3533,"WA":3534,"bd":3535,"ber":3536,"hy":3537,"ily":3538,"tz":3539,"rame":3540,"Ġcent":3541,"Ġcamboats":3542,"Ġmumford":3543,"Ġfrankie":3544,"angh":3545,"Ġanywhere":3546,"Ġstyle":3547,"Ġstorey":3548,"ĠGra":3549,"ĠSitar":3550,"Ġoffering":3551,"Ġ46":3552,"Ġ350688":3553,"Ġunder":3554,"Ġ566":3555,"Ġpeking":3556,"Ġ0730":3557,"Ġ619":3558,"Ġarchaelogy":3559,"4222":3560,"Ġalways":3561,"mmas":3562,"Ġtakes":3563,"Ġ01223576412":3564,"Ġnorman":3565,"Ġ01223324600":3566,"Ġlodging":3567,"prise":3568,"Ġ01223302579":3569,"Ġ08715501010":3570,"anghai":3571,"CA":3572,"Little":3573,"MA":3574,"ON":3575,"PH":3576,"ded":3577,"ps":3578,"teen":3579,"Ġacce":3580,"Ġready":3581,"Ġtheat":3582,"Ġsay":3583,"Ġsalsa":3584,"Ġleverton":3585,"Ġefes":3586,"ĠBut":3587,"Ġ01223323":3588,"Ġwasn":3589,"Ġ0760":3590,"ĠFirst":3591,"Ġwhile":3592,"Ġ169":3593,"quare":3594,"Ġarts":3595,"1480":3596,"Ġincludes":3597,"This":3598,"ĠNorfolk":3599,"Ġexpecting":3600,"ĠAdmission":3601,"Ġaccept":3602,"188":3603,"734":3604,"911":3605,"AM":3606,"CS":3607,"DQ":3608,"GS":3609,"GU":3610,"HD":3611,"HH":3612,"IL":3613,"IY":3614,"JF":3615,"JU":3616,"LM":3617,"LY":3618,"OT":3619,"PK":3620,"PN":3621,"UT":3622,"WW":3623,"XA":3624,"mily":3625,"px":3626,"sx":3627,"would":3628,"Ġballare":3629,"Ġcookhouse":3630,"Ġcauseway":3631,"Ġwine":3632,"Ġholy":3633,"ĠCucina":3634,"Ġsafe":3635,"ĠWi":3636,"2360":3637,"1260":3638,"ĠSw":3639,"ĠSaffron":3640,"Ġ012232":3641,"ĠPas":3642,"Ġneare":3643,"Ġ351707":3644,"ĠStorey":3645,"iam":3646,"Ġkohinoor":3647,"248":3648,"580":3649,"5159":3650,"Ġ138":3651,"ilver":3652,"880":3653,"296":3654,"104":3655,"Ġ144":3656,"Ġunknown":3657,"8745":3658,"Ġhourly":3659,"abase":3660,"ohn":3661,"Ġ01223332360":3662,"Ġnews":3663,"Ġcoldhams":3664,"Ġzizzi":3665,"Ġ01223304906":3666,"Ġ01223324222":3667,"Ġdatabase":3668,"Ġ0778221":3669,"ichaelhouse":3670,"446000":3671,"Perfect":3672,"Ġranging":3673,"Ġnearest":3674,"Ġ07782218745":3675,"AK":3676,"XS":3677,"ial":3678,"nw":3679,"wes":3680,"Ġ\"":3681,"Ġer":3682,"Ġtwelve":3683,"Ġbaba":3684,"Ġfar":3685,"deed":3686,"Ġ01480":3687,"utdoor":3688,"ĠLuck":3689,"ĠLimehouse":3690,"Ġcheaply":3691,"Ġratings":3692,"ĠFusion":3693,"202":3694,"ĠOutdoor":3695,"their":3696,"Ġinterests":3697,"Ġgraffiti":3698,"amaican":3699,"ĠSidney":3700,"Parkside":3701,"Ġtheaters":3702,"wesome":3703,"Ġ01480446000":3704,"251":3705,"851":3706,"AZ":3707,"BF":3708,"Bye":3709,"GL":3710,"IN":3711,"JC":3712,"LW":3713,"PO":3714,"PQ":3715,"RF":3716,"XZ":3717,"ZF":3718,"ZR":3719,"ff":3720,"ig":3721,"ious":3722,"rent":3723,"Ġtechnology":3724,"raham":3725,"Ġbateman":3726,"Ġyippee":3727,"Ġinqu":3728,"Ġindeed":3729,"elber":3730,"Ġha":3731,"ĠWater":3732,"ites":3733,"Ġlearner":3734,"ĠTang":3735,"ĠAustrian":3736,"ĠAbbey":3737,"ĠGastropub":3738,"Ġ57":3739,"Ġseoul":3740,"Ġ0758":3741,"Ġ0779":3742,"111":3743,"51880":3744,"ĠKambar":3745,"306":3746,"074":3747,"Ġvue":3748,"5017":3749,"5264":3750,"591":3751,"idelber":3752,"Ġfitzbillies":3753,"ĠUnit":3754,"8786":3755,"abraham":3756,"Ġ01223364222":3757,"Ġconfusion":3758,"Ġ08451":3759,"Ġchecking":3760,"Ġ40210":3761,"Ġ362456":3762,"962320":3763,"Ġdesk":3764,"Ġ01223902158":3765,"Ġcorpus":3766,"Ġrunning":3767,"Ġ01799":3768,"ĠPlay":3769,"Ġmentioned":3770,"Ġroseford":3771,"idelberg":3772,"Ġ08451962320":3773,"Graf":3774,"JW":3775,"JY":3776,"bly":3777,"zwill":3778,"ero":3779,"Ġcotto":3780,"Ġpurch":3781,"Ġyu":3782,"get":3783,"Ġhad":3784,"Ġduckling":3785,"Ġframe":3786,"ĠLook":3787,"urrent":3788,"ĠMa":3789,"aking":3790,"Ġ01223243830":3791,"okay":3792,"Ġinteresting":3793,"iques":3794,"Ġtenison":3795,"Ġzero":3796,"Ġaccommodations":3797,"Ġrecor":3798,"Ġacceptable":3799,"zwilliam":3800,"Ġpurchase":3801,"AY":3802,"BW":3803,"BY":3804,"CC":3805,"EO":3806,"FH":3807,"FY":3808,"JD":3809,"JO":3810,"JT":3811,"JV":3812,"MC":3813,"ML":3814,"NI":3815,"OQ":3816,"SG":3817,"UH":3818,"XP":3819,"XR":3820,"XW":3821,"dney":3822,"glia":3823,"hg":3824,"Ġed":3825,"nton":3826,"ready":3827,"ornton":3828,"Ġcurrent":3829,"pend":3830,"Ġrather":3831,"Ġanglia":3832,"2330":3833,"ĠDon":3834,"Ġnewnham":3835,"Ġ354":3836,"Ġ360966":3837,"urton":3838,"Ġ54":3839,"Ġ59":3840,"Ġ012233279":3841,"Ġ01223323737":3842,"ĠSturton":3843,"Ġprett":3844,"Ġ89":3845,"Ġ132":3846,"Ġabbey":3847,"Ġ110":3848,"2010":3849,"504":3850,"Ġsidney":3851,"ĠVillage":3852,"ĠCocum":3853,"orthern":3854,"ĠThree":3855,"565":3856,"555":3857,"18591":3858,"Ġplough":3859,"681":3860,"Ġ40270":3861,"Ġ355166":3862,"Ġ078077":3863,"ĠSome":3864,"hib":3865,"ĠFez":3866,"Ġ01223295264":3867,"50914":3868,"Ġcentral":3869,"Ġ566388":3870,"Ġ01223327978":3871,"Ġpretty":3872,"Ġ07807718591":3873,"NF":3874,"Phone":3875,"cked":3876,"most":3877,"ntiques":3878,"hes":3879,"Ġpunting":3880,"Ġhotpot":3881,"Ġmaking":3882,"Ġfare":3883,"Ġfusion":3884,"Ġgrill":3885,"ĠWagamama":3886,"Ġstazione":3887,"ĠMost":3888,"5015":3889,"ĠJamaican":3890,"Ġjinling":3891,"Ġalready":3892,"Ġ01223302330":3893,"Ġdesire":3894,"Ġtenpin":3895,"ĠScott":3896,"Ġappears":3897,"Ġestab":3898,"ĠTakeaway":3899,"Ġgrounds":3900,"ĠEntrance":3901,"Ġregard":3902,"ĠColdham":3903,"187":3904,"2525":3905,"500":3906,"AQ":3907,"Ar":3908,"CQ":3909,"DB":3910,"DX":3911,"FU":3912,"GV":3913,"HN":3914,"HT":3915,"IW":3916,"IZ":3917,"JH":3918,"JL":3919,"MT":3920,"NA":3921,"NQ":3922,"OY":3923,"PE":3924,"PM":3925,"VG":3926,"WB":3927,"WM":3928,"WQ":3929,"ZY":3930,"by":3931,"do":3932,"gx":3933,"oll":3934,"ror":3935,"self":3936,"wick":3937,"info":3938,"Ġbel":3939,"Ġburger":3940,"Ġcow":3941,"Ġhiston":3942,"Ġhakka":3943,"Ġmidsummer":3944,"Ġraza":3945,"Ġanatolia":3946,"Ġanymore":3947,"12299":3948,"Ġcocum":3949,"ute":3950,"Ġ323737":3951,"Ġ01223359":3952,"Ġ01223350914":3953,"ĠStrover":3954,"Ġ0746":3955,"Ġ0739":3956,"2138":3957,"ĠNo":3958,"2400":3959,"Ġtables":3960,"ĠJohn":3961,"390":3962,"355":3963,"3471":3964,"3200":3965,"361":3966,"Ġwhitehill":3967,"77900":3968,"Ġindustrial":3969,"7942":3970,"7015":3971,"8650":3972,"Ġ01223355159":3973,"errace":3974,"ĠRiverside":3975,"Ġ01223446104":3976,"52500":3977,"Ġestate":3978,"Ġdirect":3979,"ĠGranta":3980,"Ġerror":3981,"Ġrecords":3982,"Ġestablish":3983,"IM":3984,"Rosa":3985,"ZU":3986,"iv":3987,"uy":3988,"ntil":3989,"ĠCat":3990,"riot":3991,"Ġsir":3992,"ĠHotpot":3993,"Ġ241":3994,"roke":3995,"Ġuntil":3996,"Ġsec":3997,"Ġprezzo":3998,"ĠFrom":3999,"Ġ72":4000,"Ġ172":4001,"5314":4002,"ĠUnfortunately":4003,"Ġquery":4004,"Ġ01223477900":4005,"Ġ01223334200":4006,"Ġ01223575314":4007,"ĠScudamores":4008,"Ġdates":4009,"Ġexactly":4010,"334":4011,"BB":4012,"Be":4013,"CB":4014,"Clare":4015,"EH":4016,"FK":4017,"IA":4018,"IV":4019,"OL":4020,"PY":4021,"Roy":4022,"SM":4023,"TH":4024,"WZ":4025,"ZL":4026,"ZW":4027,"fl":4028,"hx":4029,"sha":4030,"raj":4031,"Ġrevi":4032,"Ġnorthern":4033,"Ġcineworld":4034,"mbroke":4035,"Ġdone":4036,"Ġnusha":4037,"Ġfull":4038,"Ġgirton":4039,"ĠWere":4040,"Ġwide":4041,"Ġchiquito":4042,"ĠHong":4043,"Ġchose":4044,"esame":4045,"ĠGilbert":4046,"ĠBlue":4047,"ĠBateman":4048,"Ġ244":4049,"ĠDarrys":4050,"ĠPounds":4051,"Ġ356":4052,"ĠLynne":4053,"Ġ01223350688":4054,"ĠStazione":4055,"Ġ0707":4056,"Ġ0754":4057,"Ġ0708":4058,"Ġ0727":4059,"Ġ812660":4060,"Ġwhipple":4061,"Ġstations":4062,"Ġsomewhere":4063,"ĠLearner":4064,"7766":4065,"Ġkingfisher":4066,"Ġbackstreet":4067,"Ġdepend":4068,"Ġtrumpington":4069,"Ġnearby":4070,"11053":4071,"Ġ012235033":4072,"Ġwheeler":4073,"Ġ01223566388":4074,"Ġveget":4075,"Ġ012233116":4076,"Ġ01223217118":4077,"Ġschedule":4078,"ĠMahal":4079,"Ġedward":4080,"Royal":4081,"Ġvegetarian":4082,"Fi":4083,"OD":4084,"SR":4085,"ST":4086,"jb":4087,"oc":4088,"Ġbloomsbury":4089,"Ġhap":4090,"Ġdarrys":4091,"aysian":4092,"Ġtrans":4093,"Ġnamed":4094,"ctions":4095,"ĠGrey":4096,"ĠRed":4097,"ĠBoat":4098,"alaysian":4099,"Ġugly":4100,"Ġchecked":4101,"Ġsoon":4102,"Ġassisting":4103,"ĠInternational":4104,"Ġ196":4105,"Ġuno":4106,"ĠJust":4107,"ĠTowninfo":4108,"ustral":4109,"Ġ01223355017":4110,"Ġactiv":4111,"511511":4112,"ews":4113,"Ġcurrently":4114,"Ġdesired":4115,"166":4116,"400":4117,"616":4118,"7660":4119,"7877":4120,"843":4121,"AN":4122,"BC":4123,"CE":4124,"Co":4125,"EU":4126,"HC":4127,"JP":4128,"LU":4129,"MP":4130,"Me":4131,"OW":4132,"RN":4133,"RT":4134,"SK":4135,"UQ":4136,"VZ":4137,"WV":4138,"nx":4139,"omp":4140,"pq":4141,"rq":4142,"sons":4143,"tc":4144,"tl":4145,"wbray":4146,"Ġbangkok":4147,"Ġwent":4148,"member":4149,"Ġhinchinbrook":4150,"Ġnumbers":4151,"any":4152,"ĠCall":4153,"Ġmowbray":4154,"Ġgalleria":4155,"Ġgourmet":4156,"ĠTotal":4157,"Ġemer":4158,"Ġarrange":4159,"ddars":4160,"Ġhers":4161,"ĠSesame":4162,"Ġ251":4163,"Ġ290":4164,"Ġ400170":4165,"Ġ412430":4166,"Ġfez":4167,"Ġ328":4168,"Ġexhib":4169,"Ġ01223335":4170,"ĠSteakhouse":4171,"Ġ0724":4172,"Ġ0756":4173,"Ġ0777":4174,"Ġ0799":4175,"0089":4176,"Ġ86":4177,"1763":4178,"haraj":4179,"8871":4180,"6055":4181,"467":4182,"Ġworks":4183,"Ġamaz":4184,"413":4185,"urchill":4186,"ĠThomp":4187,"802":4188,"194":4189,"Ġqueen":4190,"4917":4191,"7977":4192,"Ġ01223368650":4193,"ĠPeas":4194,"Ġ01223332138":4195,"Ġdidn":4196,"Ġ404":4197,"9224":4198,"Ġ01223338000":4199,"Ġthroughout":4200,"Ġworked":4201,"ĠWiFi":4202,"Ġreviews":4203,"Ġemergency":4204,"Ġherschel":4205,"Ġ01223335511":4206,"harajah":4207,"Ġamazing":4208,"ĠThompsons":4209,"AE":4210,"GX":4211,"Golden":4212,"KC":4213,"Sounds":4214,"YT":4215,"Yu":4216,"logy":4217,"min":4218,"which":4219,"ines":4220,"Ġhaving":4221,"arri":4222,"ĠtrainID":4223,"edb":4224,"Ġheard":4225,"Ġ01223511511":4226,"Ġmeghna":4227,"Ġuse":4228,"Ġ0726":4229,"ĠFolk":4230,"ters":4231,"Ġring":4232,"Ġtrying":4233,"ĠIndia":4234,"ĠLebanese":4235,"Ġjourne":4236,"ĠBarnw":4237,"Ġ01223247942":4238,"ughes":4239,"Ġpossibly":4240,"Ġappeal":4241,"noon":4242,"Before":4243,"Ġhappen":4244,"Ġjourney":4245,"ĠBarnwell":4246,"466":4247,"534":4248,"679":4249,"755":4250,"901":4251,"Allenbell":4252,"Anatolia":4253,"Awesome":4254,"CX":4255,"DP":4256,"EB":4257,"FG":4258,"FO":4259,"GC":4260,"HL":4261,"HY":4262,"IS":4263,"IU":4264,"JZ":4265,"KZ":4266,"LG":4267,"MV":4268,"NG":4269,"OB":4270,"OE":4271,"RU":4272,"SC":4273,"SX":4274,"TP":4275,"VE":4276,"WG":4277,"ZP":4278,"bbe":4279,"ej":4280,"har":4281,"ibbe":4282,"jf":4283,"lx":4284,"pj":4285,"pp":4286,"ta":4287,"ung":4288,"ubs":4289,"Ġ!":4290,"Ġavenue":4291,"oup":4292,"heeler":4293,"ortra":4294,"Ġbabraham":4295,"Ġclassical":4296,"Ġprimavera":4297,"Ġlion":4298,"Ġdu":4299,"ots":4300,"ayside":4301,"Then":4302,"ered":4303,"Ġgandhi":4304,"ĠWheeler":4305,"2372":4306,"Ġetc":4307,"Ġeleven":4308,"ĠAstroturf":4309,"ĠGrill":4310,"ĠSheep":4311,"Ġ0122346":4312,"Ġtaj":4313,"ĠPanahar":4314,"ĠLan":4315,"Ġthong":4316,"Ġ58":4317,"Ġ01223327908":4318,"ankan":4319,"Ġ0749":4320,"Ġparts":4321,"216":4322,"Ġ732":4323,"iams":4324,"Ġkirkwood":4325,"6653":4326,"Ġ113":4327,"5478":4328,"08681":4329,"ĠVere":4330,"526":4331,"2725":4332,"Ġgog":4333,"357":4334,"Ġ183":4335,"ĠThis":4336,"ĠHowever":4337,"Ġ01223247015":4338,"Ġ01223240089":4339,"448":4340,"ĠMaybe":4341,"Ġ01223333200":4342,"Ġ01223337766":4343,"Ġ248882":4344,"astropubs":4345,"Ġpersonally":4346,"Ġmagog":4347,"5122":4348,"Ġ01223519224":4349,"Ġ354382":4350,"Ġ01223503333":4351,"edbur":4352,"ibbean":4353,"ortraits":4354,"529":4355,"Tra":4356,"axi":4357,"lowns":4358,"obsons":4359,"Ġaccess":4360,"elcome":4361,"Ġfact":4362,"ctually":4363,"ĠGr":4364,"ĠRuskin":4365,"ĠBlack":4366,"ĠPunting":4367,"Ġwilling":4368,"Ġ01223356":4369,"Ġ0712":4370,"Ġ0734":4371,"219":4372,"247":4373,"Ġ94":4374,"Ġtravels":4375,"ĠOK":4376,"bson":4377,"533":4378,"Ġ01223368786":4379,"ĠQu":4380,"8988":4381,"Ġafternoon":4382,"uban":4383,"ĠHobson":4384,"Chiquito":4385,"Ġ01223575122":4386,"Thanh":4387,"Ġgroup":4388,"ĠQueens":4389,"Ġqueens":4390,"146":4391,"180":4392,"300":4393,"407":4394,"750":4395,"807":4396,"8111":4397,"977":4398,"AB":4399,"Actually":4400,"DD":4401,"DG":4402,"Definitely":4403,"EI":4404,"FE":4405,"FN":4406,"FQ":4407,"FR":4408,"GF":4409,"GT":4410,"KD":4411,"LA":4412,"LE":4413,"LN":4414,"LS":4415,"NC":4416,"NZ":4417,"OJ":4418,"QL":4419,"RJ":4420,"RL":4421,"SY":4422,"TI":4423,"VU":4424,"VV":4425,"XU":4426,"YG":4427,"ZB":4428,"ZS":4429,"ZV":4430,"have":4431,"jj":4432,"rg":4433,"tree":4434,"uf":4435,"uj":4436,"up":4437,"xa":4438,"erman":4439,"Ġpri":4440,"Ġperne":4441,"Ġpaid":4442,"Ġdouble":4443,"ĠClassical":4444,"Ġsout":4445,"Ġsilver":4446,"Ġmoment":4447,"Ġgastropubs":4448,"reek":4449,"ĠHope":4450,"ĠHilton":4451,"ĠHughes":4452,"2354":4453,"ĠTelephone":4454,"Ġstop":4455,"Ġheidelberg":4456,"ĠSleeperz":4457,"ĠSlug":4458,"ĠSquare":4459,"Ġ0122384":4460,"ĠRow":4461,"Ġbeing":4462,"ĠBusiness":4463,"ĠBarton":4464,"Ġmean":4465,"ĠPla":4466,"ĠPitch":4467,"Ġ315":4468,"ĠLand":4469,"ĠMy":4470,"Ġsection":4471,"Ġ0719":4472,"Ġ727410":4473,"581":4474,"Ġ90":4475,"Ġviking":4476,"2054":4477,"292":4478,"404":4479,"462":4480,"Ġshanghai":4481,"Ġamer":4482,"32565":4483,"903":4484,"53355":4485,"Ġsearching":4486,"Ġ01223332400":4487,"ĠPolar":4488,"ĠLettuce":4489,"Churchill":4490,"Ġpasquale":4491,"Ġ01223276653":4492,"Ġ01223425478":4493,"Ġ01223506055":4494,"Ġ01223566188":4495,"Ġ01223518111":4496,"Ġbudge":4497,"Ġshorten":4498,"Ġregarding":4499,"Ġ241387":4500,"edburgh":4501,"ĠGrounds":4502,"ĠQuayside":4503,"Ġ01223842725":4504,"ĠPlaza":4505,"Ġ315232":4506,"El":4507,"Gonville":4508,"KK":4509,"MM":4510,"RE":4511,"acorn":4512,"jmahal":4513,"pa":4514,"sorry":4515,"uss":4516,"Ġide":4517,"Ġcopper":4518,"Ġput":4519,"Ġpast":4520,"Ġmain":4521,"net":4522,"Ġdrop":4523,"Ġfin":4524,"ĠCuban":4525,"Ġsites":4526,"Ġrajmahal":4527,"Ġyourself":4528,"Ġ26":4529,"Ġ34":4530,"Ġdont":4531,"uring":4532,"Ġlocate":4533,"Ġ0757":4534,"Ġsele":4535,"tern":4536,"Ġkorean":4537,"5153":4538,"osher":4539,"Ġdepartures":4540,"Ġafford":4541,"Ġnarrows":4542,"Does":4543,"Ġ01223367660":4544,"Ġ01223353248":4545,"Ġincluded":4546,"Ġthinking":4547,"ĠModerat":4548,"Ġ01223277977":4549,"Ġtransport":4550,"Ġbudget":4551,"030":4552,"212":4553,"358":4554,"330":4555,"317":4556,"360":4557,"Broughton":4558,"CH":4559,"CM":4560,"DH":4561,"FD":4562,"HQ":4563,"HX":4564,"JB":4565,"JJ":4566,"KB":4567,"KP":4568,"KQ":4569,"KU":4570,"LC":4571,"MB":4572,"NW":4573,"OC":4574,"OF":4575,"OP":4576,"PT":4577,"RD":4578,"SB":4579,"SZ":4580,"Saigon":4581,"UP":4582,"VW":4583,"XY":4584,"ZE":4585,"ied":4586,"ively":4587,"jy":4588,"qb":4589,"qy":4590,"Ġke":4591,"Ġcate":4592,"Ġland":4593,"Ġlate":4594,"Ġduring":4595,"ĠCrow":4596,"ĠCaius":4597,"ĠClowns":4598,"rish":4599,"Ġsaid":4600,"Ġslug":4601,"ĠHers":4602,"ĠHung":4603,"Ġemmanuel":4604,"ĠAustral":4605,"owbray":4606,"Ġtaking":4607,"Ġ200":4608,"ĠMercers":4609,"ĠMowbray":4610,"Ġ01223348":4611,"Ġ01223352500":4612,"Ġ0721":4613,"Ġ0711":4614,"Ġ0717":4615,"Ġ0759":4616,"Ġ0701":4617,"Ġ0736":4618,"Ġ0738":4619,"Ġ0706":4620,"Ġ0789":4621,"Ġ0769":4622,"0059":4623,"518":4624,"ando":4625,"Ġ116":4626,"Ġmaharajah":4627,"Ġvin":4628,"540":4629,"ĠJubilee":4630,"ĠOff":4631,"276":4632,"Ġgoes":4633,"Ġalright":4634,"131":4635,"494":4636,"Ġlettuce":4637,"184":4638,"Ġ01223412299":4639,"Ġ01223363471":4640,"ĠLammas":4641,"Ġfamily":4642,"Ġhalls":4643,"Ġsuitable":4644,"Ġenterprise":4645,"Ġ521260":4646,"Ġ01223357851":4647,"ĠFeel":4648,"Ashley":4649,"Ġ01223727410":4650,"Graffiti":4651,"Ġsecond":4652,"Meghna":4653,"Ġexhibition":4654,"harine":4655,"Ġamerican":4656,"ussian":4657,"Ġaffordable":4658,"Ġcateg":4659,"ĠCrowne":4660,"ĠHerschel":4661,"Da":4662,"Finches":4663,"Hamilton":4664,"Lo":4665,"Old":4666,"QU":4667,"RA":4668,"Saint":4669,"WI":4670,"Was":4671,"cambridge":4672,"cil":4673,"qa":4674,"und":4675,"zen":4676,"Ġantiques":4677,"stand":4678,"Ġremember":4679,"Ġcab":4680,"Ġpipasha":4681,"Ġyet":4682,"Ġmust":4683,"Ġiss":4684,"Ġdue":4685,"ses":4686,"edish":4687,"onese":4688,"Ġwithout":4689,"Ġ48":4690,"Ġrecommended":4691,"ĠPost":4692,"Ġdozen":4693,"Ġthir":4694,"iring":4695,"Ġ0740":4696,"antonese":4697,"Ġamount":4698,"Ġ01223247877":4699,"ĠMarriot":4700,"Ġseeing":4701,"Ġ01223302010":4702,"Ġfacil":4703,"Ġ01223312843":4704,"Anything":4705,"Contact":4706,"netian":4707,"ĠAustralian":4708,"377":4709,"557":4710,"620":4711,"657":4712,"709":4713,"7966":4714,"828":4715,"9448":4716,"At":4717,"Bangkok":4718,"CI":4719,"DF":4720,"GE":4721,"GG":4722,"KF":4723,"KT":4724,"LF":4725,"LT":4726,"NN":4727,"OH":4728,"PC":4729,"PJ":4730,"PZ":4731,"QS":4732,"RH":4733,"RV":4734,"Roomz":4735,"SA":4736,"TB":4737,"TX":4738,"TZ":4739,"XI":4740,"XV":4741,"XX":4742,"YI":4743,"Ye":4744,"ZD":4745,"aa":4746,"dir":4747,"ht":4748,"je":4749,"lville":4750,"nl":4751,"pm":4752,"umber":4753,"vent":4754,"wy":4755,"xh":4756,"ors":4757,"oroc":4758,"Ġbill":4759,"Ġcaius":4760,"Ġportraits":4761,"mehouse":4762,"ĠCambourne":4763,"Ġsince":4764,"Ġsitar":4765,"Ġrestate":4766,"Ġlimehouse":4767,"231":4768,"239":4769,"Ġstrover":4770,"Ġeraina":4771,"12598":4772,"Ġ0122344":4773,"Ġ01223512":4774,"Ġcolville":4775,"Ġ432565":4776,"rology":4777,"ĠDanish":4778,"ĠDouble":4779,"ĠPress":4780,"ĠPassage":4781,"Ġonce":4782,"ĠMalaysian":4783,"Ġthornton":4784,"Ġlocal":4785,"Ġ01223351707":4786,"pensively":4787,"Ġsend":4788,"Ġ0700":4789,"Ġ0751":4790,"Ġ0750":4791,"Ġ0715":4792,"Ġ0716":4793,"Ġ0709":4794,"Ġ76":4795,"245":4796,"583":4797,"ĠCityRoomz":4798,"6666":4799,"501":4800,"Ġsidg":4801,"6060":4802,"Ġ141":4803,"Ġknown":4804,"Ġshiraz":4805,"Ġspecifically":4806,"16074":4807,"4264":4808,"Ġalmost":4809,"Ġaltern":4810,"771":4811,"7786":4812,"48100":4813,"786":4814,"rewery":4815,"Ġclowns":4816,"excellent":4817,"Ġ01223350059":4818,"erience":4819,"Ġvary":4820,"Ġ01223748100":4821,"Ġexperience":4822,"ĠSwiss":4823,"ĠPasquale":4824,"Ġcentrally":4825,"ĠCatharine":4826,"Ġtransportation":4827,"Ġkeep":4828,"Yeah":4829,"oroccan":4830,"ĠDoubletree":4831,").":4832,".,":4833,"321":4834,"826":4835,"CO":4836,"HA":4837,"Hi":4838,"KO":4839,"Might":4840,"OV":4841,"Pe":4842,"SI":4843,"To":4844,"end":4845,"fic":4846,"ier":4847,"Ġver":4848,"Ġimp":4849,"Ġali":4850,"Ġbro":4851,"Ġdel":4852,"Ġfif":4853,"Ġaddres":4854,"ĠAn":4855,"ĠSorry":4856,"Ġhelping":4857,"Ġmeze":4858,"Ġmins":4859,"ĠFour":4860,"ĠNando":4861,"8842":4862,"ased":4863,"que":4864,"Ġspecial":4865,"Ġbarbe":4866,"Ġfitzwilliam":4867,"Ġnarrowed":4868,"University":4869,"itecture":4870,"Ġ01223335153":4871,"Trains":4872,"Ġ01223353110":4873,"Ġpersonal":4874,"ĠCaribbean":4875,"bilities":4876,"Ġpossibilities":4877,"Ġconcerthalls":4878,"ĠTravel":4879,"Ġwhether":4880,"Ġscheduled":4881,"Ġswimmingpools":4882,"Ġinquiring":4883,"Ġdirectly":4884,"Ġestablishment":4885,"Travel":4886,"Ġ01223512596":4887,"250":4888,"339":4889,"378":4890,"3270":4891,"5599":4892,"817":4893,"908":4894,"980":4895,"938":4896,"AI":4897,"CD":4898,"CG":4899,"CP":4900,"CZ":4901,"Cafe":4902,"DV":4903,"DW":4904,"EM":4905,"FM":4906,"First":4907,"Fantastic":4908,"GW":4909,"Hello":4910,"Hobsons":4911,"JR":4912,"KE":4913,"KN":4914,"LL":4915,"LP":4916,"NE":4917,"NL":4918,"OZ":4919,"One":4920,"Postcode":4921,"Prezzo":4922,"QE":4923,"QP":4924,"QW":4925,"UE":4926,"WU":4927,"XB":4928,"YP":4929,"YW":4930,"YX":4931,"ZM":4932,"aden":4933,"dered":4934,"ee":4935,"eh":4936,"ual":4937,"erri":4938,"Ġbarton":4939,"Ġpress":4940,"Ġpumping":4941,"oot":4942,"Ġdis":4943,"ary":4944,"Ġfyne":4945,"Ġfoll":4946,"Ġsaigon":4947,"cept":4948,"edouin":4949,"Ġgues":4950,"onesian":4951,"Ġhaven":4952,"Ġ0122369":4953,"Ġhelped":4954,"asian":4955,"Ġ351880":4956,"Ġ312598":4957,"Ġexpensively":4958,"Ġ01223306":4959,"Ġ01223351880":4960,"Ġ01223311053":4961,"Ġ0710":4962,"Ġ0780":4963,"Ġ0744":4964,"Ġ0737":4965,"ĠEnd":4966,"ĠFa":4967,"117":4968,"Ġkambar":4969,"585":4970,"5154":4971,"662":4972,"Ġabs":4973,"3071":4974,"209":4975,"2094":4976,"502":4977,"8800":4978,"293":4979,"2987":4980,"Its":4981,"unfortunately":4982,"ĠVin":4983,"ĠViking":4984,"Ġunsure":4985,"Ġjunction":4986,"199":4987,"Ġqual":4988,"Ġ01223248882":4989,"286":4990,"ieve":4991,"Ġ01223361763":4992,"Ġ01223362372":4993,"Ġ01223363270":4994,"Ġ01223365599":4995,"Ġ225":4996,"2512":4997,"899":4998,"cause":4999,"Ġfair":5000,"ĠWhipple":5001,"Ġ01223357187":5002,"ĠWhitehill":5003,"Ġscudamores":5004,"ĠRoseford":5005,"Ġ01462":5006,"ĠInfo":5007,"Ġcomes":5008,"Ġ01223311911":5009,"59988":5010,"Ġ01223323361":5011,"ĠSwedish":5012,"ĠPassenger":5013,"Ġbelieve":5014,"Ġ01223359750":5015,"Ġ356555":5016,"minute":5017,"52607":5018,"Ġprint":5019,"Ġsouthern":5020,"Ġcategory":5021,"wydir":5022,"Ġsidgwick":5023,"Ġbroaden":5024,"Ġgueshouse":5025,"Ġ01223694264":5026,"Autumn":5027,"Cote":5028,"Eraina":5029,"Frankie":5030,"ND":5031,"NT":5032,"QH":5033,"Sala":5034,"TC":5035,"UC":5036,"Very":5037,"XL":5038,"alexander":5039,"ball":5040,"con":5041,"ient":5042,"nj":5043,"om":5044,"ring":5045,"sca":5046,"ty":5047,"Ġtou":5048,"Ġlow":5049,"Ġmis":5050,"Ġmichaelhouse":5051,"ned":5052,"Ġfan":5053,"Ġfall":5054,"ĠCol":5055,"Ġsala":5056,"Ġbookings":5057,"itt":5058,"ĠTwelve":5059,"ĠTaxi":5060,"Ġever":5061,"ĠGerman":5062,"ĠSri":5063,"ĠLankan":5064,"christ":5065,"ĠMichaelhouse":5066,"Ġexcept":5067,"ghan":5068,"ĠRef":5069,"unch":5070,"ĠOn":5071,"4187":5072,"Ġspecifics":5073,"Ġupsca":5074,"568988":5075,"othing":5076,"Ġconven":5077,"ĠYellow":5078,"Dojo":5079,"147":5080,"Ġtravellers":5081,"Ġtrouble":5082,"Ġconsidered":5083,"Ġlodgings":5084,"Ġdirections":5085,"Ġappro":5086,"Ġactivity":5087,"Ġfifteen":5088,"Ġupscale":5089,"107":5090,"260":5091,"2580":5092,"351":5093,"319":5094,"629":5095,"659":5096,"754":5097,"808":5098,"839":5099,"958":5100,"989":5101,"Ah":5102,"Address":5103,"BA":5104,"BJ":5105,"Bedouin":5106,"CW":5107,"Cineworld":5108,"DL":5109,"DU":5110,"Downing":5111,"FW":5112,"FX":5113,"From":5114,"GJ":5115,"GY":5116,"HG":5117,"HP":5118,"IE":5119,"KR":5120,"KS":5121,"KX":5122,"LZ":5123,"ME":5124,"MJ":5125,"NB":5126,"NS":5127,"QB":5128,"QC":5129,"QD":5130,"QT":5131,"RO":5132,"RR":5133,"SS":5134,"SW":5135,"Su":5136,"TD":5137,"TJ":5138,"TV":5139,"UO":5140,"UX":5141,"Whale":5142,"YL":5143,"Yippee":5144,"ZO":5145,"db":5146,"dh":5147,"hl":5148,"lj":5149,"nf":5150,"oj":5151,"over":5152,"oint":5153,"tw":5154,"tely":5155,"vian":5156,"rest":5157,"Ġtang":5158,"Ġterrace":5159,"ica":5160,"oping":5161,"erprise":5162,"Ġbo":5163,"Ġbrewery":5164,"Ġcote":5165,"Ġhong":5166,"ature":5167,"Ġmood":5168,"Ġmus":5169,"Ġful":5170,"ĠCruisers":5171,"ĠCauseway":5172,"Ġatte":5173,"Ġsw":5174,"leigh":5175,"Ġ0124":5176,"Ġleast":5177,"230":5178,"ĠTerrace":5179,"train":5180,"126":5181,"ĠAng":5182,"ĠGirton":5183,"ĠBur":5184,"Ġ43":5185,"Ġ450":5186,"Ġ413":5187,"ĠPrice":5188,"Ġneu":5189,"Ġneither":5190,"ĠLW":5191,"apier":5192,"ĠMU":5193,"Ġexamp":5194,"xim":5195,"Ġ012233240":5196,"Ġ012233236":5197,"Ġ01223360966":5198,"Ġ01223316074":5199,"Ġ01223352607":5200,"Ġcheddars":5201,"Ġ0766":5202,"Ġ0735":5203,"Ġ0713":5204,"Ġ0718":5205,"Ġ0733":5206,"ĠFoot":5207,"218":5208,"ĠNow":5209,"1100":5210,"Ġ84":5211,"Ġ92":5212,"309":5213,"Ġmahal":5214,"8860":5215,"uscan":5216,"290":5217,"Ġ143":5218,"594":5219,"2753":5220,"468":5221,"393":5222,"3942":5223,"Ġspecified":5224,"4149":5225,"5767":5226,"561":5227,"564":5228,"363":5229,"ĠWilliams":5230,"ĠShanghai":5231,"283":5232,"Ġcourt":5233,"Ġ01223364917":5234,"Ġ01223362054":5235,"ĠKingfisher":5236,"Ġcompletely":5237,"898":5238,"OKay":5239,"Ġ01223302580":5240,"Ġ01223338800":5241,"Ġ01223331100":5242,"ĠChristmas":5243,"wise":5244,"765":5245,"Ġ302":5246,"Ġ01223353071":5247,"Ġ01223353942":5248,"ĠArchaelogy":5249,"Ġ362525":5250,"Ġvarious":5251,"7423":5252,"Ġacross":5253,"Ġlammas":5254,"Ġ01223312598":5255,"Ġ01223338400":5256,"Ġ01223366202":5257,"6003":5258,"Ġ01223307030":5259,"ĠFitzwilliam":5260,"Ġdale":5261,"Ġappear":5262,"Ġ01223505015":5263,"ĠEnterprise":5264,"ĠPlough":5265,"Ġ01223354382":5266,"Ġ01223354755":5267,"Ġunderstand":5268,"2515":5269,"Ġ01223311625":5270,"Ġidea":5271,"ĠHungarian":5272,"ĠFamily":5273,"Ġapproxim":5274,"Ġ012454":5275,"ĠAnglia":5276,"ĠBurleigh":5277,"Ġ413000":5278,"Ġexample":5279,"Ġ01223324033":5280,"ĠFootball":5281,"5219":5282,"Cherry":5283,"Ent":5284,"HE":5285,"Kymmoy":5286,"LI":5287,"MI":5288,"Most":5289,"QI":5290,"Welcome":5291,"YE":5292,"aw":5293,"ait":5294,"bour":5295,"good":5296,"iod":5297,"of":5298,"rt":5299,"ĠYes":5300,"Ġtri":5301,"Ġtour":5302,"icine":5303,"Ġbased":5304,"Ġcat":5305,"Ġpm":5306,"Ġwon":5307,"Ġwagamama":5308,"Ġhoping":5309,"Ġlynne":5310,"Ġmist":5311,"ĠIS":5312,"that":5313,"aves":5314,"Ġsquare":5315,"Ġmod":5316,"Ġ02":5317,"ĠHistory":5318,"Ġ01223568988":5319,"Ġcanc":5320,"Ġbecause":5321,"ĠNumber":5322,"241":5323,"nglish":5324,"ĠUK":5325,"ĠChest":5326,"Ġperiod":5327,"Ġcuisines":5328,"Ġsuggestion":5329,"Ġ01223362525":5330,"Ġriding":5331,"arant":5332,"ĠPembroke":5333,"9859":5334,"Ġ01223336540":5335,"Charlie":5336,"Ġmedical":5337,"Ġmedicine":5338,"Express":5339,"...":5340,"Ġ01223292094":5341,"Ġ01223323178":5342,"Ġ01223259988":5343,"Ġselection":5344,"Peking":5345,"Ġverify":5346,"Ġabsolutely":5347,"ĠColville":5348,"Success":5349,"restaurant":5350,"Ġapproximately":5351,"Ġtried":5352,"Ġmistake":5353,"144":5354,"335":5355,"412":5356,"458":5357,"410":5358,"4277":5359,"610":5360,"636":5361,"618":5362,"706":5363,"744":5364,"769":5365,"827":5366,"846":5367,"834":5368,"990":5369,"955":5370,"949":5371,"AO":5372,"AP":5373,"BX":5374,"Byard":5375,"CV":5376,"Castle":5377,"Club":5378,"DE":5379,"EV":5380,"Emmanuel":5381,"FS":5382,"FZ":5383,"HS":5384,"HV":5385,"Jinling":5386,"KG":5387,"KH":5388,"KW":5389,"LX":5390,"NJ":5391,"NP":5392,"NX":5393,"OX":5394,"PF":5395,"PW":5396,"PX":5397,"QA":5398,"Rice":5399,"TG":5400,"TL":5401,"TT":5402,"WO":5403,"WT":5404,"Worth":5405,"YM":5406,"YV":5407,"YY":5408,"ZI":5409,"ZX":5410,"city":5411,"ear":5412,"hand":5413,"ju":5414,"jx":5415,"just":5416,"lo":5417,"mil":5418,"pd":5419,"rb":5420,"rj":5421,"same":5422,"uw":5423,"Ġclu":5424,"Ġcaffe":5425,"Ġpara":5426,"Ġpub":5427,"Ġpull":5428,"Ġhk":5429,"atology":5430,"Ġlan":5431,"Ġmill":5432,"sex":5433,"Ġfully":5434,"Ġsat":5435,"Ġsheep":5436,"cess":5437,"Ġ123":5438,"Ġgwydir":5439,"Ġ0184":5440,"ĠHinchinbrook":5441,"ĠTD":5442,"129":5443,"ĠGPB":5444,"ĠGreek":5445,"ĠSilver":5446,"Ġ01223413":5447,"ĠBel":5448,"Ġtal":5449,"alan":5450,"ĠDK":5451,"ĠDu":5452,"ĠPD":5453,"ĠPerne":5454,"Ġ300":5455,"Ġ353":5456,"Ġ308681":5457,"aston":5458,"Ġ553355":5459,"Ġ01223330":5460,"Ġsesame":5461,"Ġ0743":5462,"Ġ0790":5463,"Ġ0748":5464,"Ġ0770":5465,"Ġ0786":5466,"005":5467,"ific":5468,"used":5469,"ĠRegency":5470,"2420":5471,"Ġ107":5472,"519":5473,"5170":5474,"andina":5475,"667":5476,"Ġope":5477,"2025":5478,"2083":5479,"886":5480,"8813":5481,"545":5482,"5484":5483,"603":5484,"2900":5485,"ĠUN":5486,"ĠUQ":5487,"ĠOY":5488,"522":5489,"27330":5490,"4630":5491,"395":5492,"579":5493,"438":5494,"Ġjedburgh":5495,"Ġtrips":5496,"ĠThornton":5497,"569":5498,"3682":5499,"4550":5500,"193":5501,"169":5502,"after":5503,"0637":5504,"Ġ012232449":5505,"Ġ01223244149":5506,"Ġ01223244277":5507,"776":5508,"7755":5509,"77977":5510,"Ġindia":5511,"261":5512,"Ġ01223400170":5513,"Ġ01223412430":5514,"Ġ01223363682":5515,"Ġconfused":5516,"9900":5517,"Ġ01223332900":5518,"express":5519,"ĠPolish":5520,"8620":5521,"Ġ308871":5522,"ĠArchitecture":5523,"Ġprovided":5524,"Ġprovides":5525,"4748":5526,"Ġsuits":5527,"Ġcrossover":5528,"8207":5529,"93131":5530,"0254":5531,"ĠTenison":5532,"ĠScience":5533,"Ġ01223307581":5534,"Ġ01733":5535,"Ġ01223812660":5536,"Ġ01223315232":5537,"Ġ07229":5538,"Ġregion":5539,"Ġexpand":5540,"Ġ464630":5541,"ollaston":5542,"Ġ244277":5543,"Ġ01223311687":5544,"Ġ01223462354":5545,"Ġthirteen":5546,"Ġ01223448620":5547,"Ġaddresses":5548,"Ġfairly":5549,"Ġconvenient":5550,"ojg":5551,"Ġ01223323639":5552,"2753771":5553,"Ġ01245493131":5554,"8464":5555,"handi":5556,"Ġclubs":5557,"Ġ01842753771":5558,"Ġ01223413000":5559,"Ġ01223330906":5560,"andinavian":5561,"Ġ01223244955":5562,"1387":5563,"432":5564,"719":5565,"Bridge":5566,"Hope":5567,"Hakka":5568,"Try":5569,"VA":5570,"bp":5571,"curry":5572,"gian":5573,"ild":5574,"phone":5575,"uarant":5576,"wr":5577,"Ġton":5578,"Ġterri":5579,"state":5580,"hend":5581,"ervation":5582,"Ġcreat":5583,"Ġclass":5584,"Ġyear":5585,"elp":5586,"Ġwait":5587,"Ġhund":5588,"ative":5589,"Ġdai":5590,"sed":5591,"ĠIrish":5592,"arolina":5593,"Ġsaffron":5594,"lesbray":5595,"Ġprop":5596,"ĠTuscan":5597,"ĠAT":5598,"ĠRing":5599,"ĠDes":5600,"Ġfeature":5601,"chway":5602,"ĠMichael":5603,"Ġresp":5604,"Ġkosher":5605,"usual":5606,"102":5607,"vious":5608,"ĠIndonesian":5609,"Ġworking":5610,"4134":5611,"Ġalone":5612,"they":5613,"ĠExpensive":5614,"Ġ01223308871":5615,"Ġ012232173":5616,"Ġconcern":5617,"0552":5618,"Ġlasts":5619,"Ġworries":5620,"Ġhaem":5621,"ĠSomething":5622,"Arbury":5623,"Ġestablishments":5624,"Ġdepending":5625,"arrive":5626,"Ġ01223356354":5627,"Ġdozens":5628,"Ġimport":5629,"Ġfollowing":5630,"Ġgueshouses":5631,"Ġfancy":5632,"Ġmusue":5633,"Ġsatis":5634,"Ġhundred":5635,"Ġdaily":5636,"Ġfeatures":5637,"259":5638,"253":5639,"420":5640,"454":5641,"4216":5642,"5390":5643,"654":5644,"641":5645,"676":5646,"759":5647,"8903":5648,"930":5649,"9561":5650,"AW":5651,"Ali":5652,"Bloomsbury":5653,"Camboats":5654,"DK":5655,"EA":5656,"FI":5657,"Fit":5658,"GA":5659,"GO":5660,"GZ":5661,"HB":5662,"HF":5663,"HI":5664,"HJ":5665,"HR":5666,"Home":5667,"Im":5668,"JI":5669,"KA":5670,"LD":5671,"Nothing":5672,"OA":5673,"QF":5674,"QR":5675,"QY":5676,"RP":5677,"RS":5678,"RW":5679,"SE":5680,"SP":5681,"Sh":5682,"TK":5683,"TN":5684,"TO":5685,"TW":5686,"UK":5687,"UV":5688,"UZ":5689,"VI":5690,"VJ":5691,"VS":5692,"XE":5693,"YB":5694,"YN":5695,"YS":5696,"aed":5697,"bridge":5698,"cue":5699,"eidelberg":5700,"got":5701,"gwick":5702,"iat":5703,"idd":5704,"list":5705,"rl":5706,"ntown":5707,"Ġtons":5708,"icious":5709,"Ġrel":5710,"eron":5711,"Ġcle":5712,"Ġpanahar":5713,"meters":5714,"veral":5715,"atively":5716,"Ġdow":5717,"ĠIG":5718,"ĠIH":5719,"Ġnumer":5720,"ĠCantonese":5721,"Ġ112":5722,"Ġ03":5723,"ĠWO":5724,"ĠWS":5725,"Ġansw":5726,"ĠHelp":5727,"ĠHeidelberg":5728,"Ġeater":5729,"Ġevent":5730,"121":5731,"eservation":5732,"Ġthereafter":5733,"ĠAt":5734,"ĠAntiques":5735,"ĠSU":5736,"Ġ0122359":5737,"ason":5738,"ĠBS":5739,"alal":5740,"Ġ264":5741,"Ġ277977":5742,"Ġcomm":5743,"Ġ414":5744,"ĠDepart":5745,"ĠPL":5746,"ĠPY":5747,"Ġloch":5748,"Ġ311053":5749,"ĠLion":5750,"ĠMT":5751,"Ġ577":5752,"Ġ01223308681":5753,"Ġreserving":5754,"Ġ0723":5755,"Ġ0720":5756,"Ġ0752":5757,"Ġ0764":5758,"Ġ0776":5759,"Ġprevious":5760,"Ġmanage":5761,"ifi":5762,"ĠEC":5763,"ĠEdw":5764,"ĠEstate":5765,"Ġ150":5766,"ĠNapier":5767,"115":5768,"1159":5769,"1163":5770,"Ġeastern":5771,"246":5772,"Ġ102":5773,"Ġ61":5774,"Ġ600":5775,"661":5776,"Ġ942":5777,"Ġ9180":5778,"Ġ115":5779,"Ġ118":5780,"075":5781,"076":5782,"Ġrussian":5783,"206":5784,"2045":5785,"1791":5786,"5056":5787,"887":5788,"5454":5789,"604":5790,"605":5791,"2974":5792,"Ġ122":5793,"108":5794,"Ġ140":5795,"Ġunusual":5796,"Ġunlist":5797,"ĠJZ":5798,"528":5799,"5225":5800,"521260":5801,"5921":5802,"406":5803,"4651":5804,"Ġ189":5805,"414":5806,"0189":5807,"5729":5808,"ĠCheddars":5809,"4319":5810,"Ġjapanese":5811,"567":5812,"803":5813,"806":5814,"167":5815,"1681":5816,"531":5817,"870":5818,"0635":5819,"Ġ01223358899":5820,"Ġsuggestions":5821,"2800":5822,"Ġstarts":5823,"481":5824,"4859":5825,"269":5826,"Ġcomplex":5827,"Ġcompany":5828,"ĠZB":5829,"ĠZK":5830,"Ġ01223367755":5831,"Ġ01223364319":5832,"2534":5833,"ackstreet":5834,"araunt":5835,"9937":5836,"7040":5837,"6834":5838,"ĠMuseums":5839,"Ġgiven":5840,"ĠPolyne":5841,"Ġ0797":5842,"Ġkinds":5843,"Ġ01223334898":5844,"Ġ01223356666":5845,"Ġ01223356060":5846,"474":5847,"Ġspot":5848,"Ġeating":5849,"Ġ0871":5850,"ĠPersian":5851,"Ġpasseng":5852,"Ġaccommodation":5853,"Ġ01223338901":5854,"Ġ01223338300":5855,"ĠTrains":5856,"Ġ01223366552":5857,"8530":5858,"Ġ01223300552":5859,"ĠNorman":5860,"ĠSidgwick":5861,"ĠColdhams":5862,"Ġ01223354679":5863,"Ġshortly":5864,"Ġ01799521260":5865,"Grafton":5866,"ĠScottish":5867,"Ġ01223359506":5868,"Ġ244955":5869,"1661":5870,"6163":5871,"5348":5872,"Ġ01223356555":5873,"8070":5874,"ĠModerately":5875,"Ġ012233483":5876,"Ġissue":5877,"Ġfacility":5878,"Ġalternative":5879,"Ġdelicious":5880,"ĠAnother":5881,"Ġbarbecue":5882,"Ġneurology":5883,"bourn":5884,"Ġparameters":5885,"Ġ353110":5886,"ĠDesk":5887,"Ġimportant":5888,"Fitzbillies":5889,"Ġdowntown":5890,"Ġ577786":5891,"ĠEdward":5892,"Ġunlisted":5893,"ĠPolynesian":5894,"Ġpassengers":5895,"024":5896,"312":5897,"338":5898,"423":5899,"833":5900,"978":5901,"926":5902,"Cong":5903,"Corpus":5904,"Huntingdon":5905,"Our":5906,"Primavera":5907,"River":5908,"St":5909,"Were":5910,"Wandlebury":5911,"ditional":5912,"graf":5913,"lic":5914,"nandos":5915,"ped":5916,"ru":5917,"hed":5918,"Ġbring":5919,"Ġcamp":5920,"Ġpul":5921,"aylesbray":5922,"river":5923,"Ġtraditional":5924,"Ġsing":5925,"Ġresturant":5926,"Ġgast":5927,"Ġgbp":5928,"Ġ00":5929,"itu":5930,"Ġless":5931,"23178":5932,"ĠTH":5933,"arting":5934,"Ġen":5935,"Ġelder":5936,"Ġelsewhere":5937,"ĠGhandi":5938,"ĠRQ":5939,"asque":5940,"Ġmeant":5941,"ĠPI":5942,"ĠMoroccan":5943,"Ġrespect":5944,"Ġpembroke":5945,"ickets":5946,"enpin":5947,"Ġwestside":5948,"0788":5949,"Ġrd":5950,"Ġasked":5951,"Ġspend":5952,"3577":5953,"ĠLeaves":5954,"Ġjo":5955,"ĠColleges":5956,"Ġ01223241387":5957,"Ġentertainments":5958,"Ġadress":5959,"Ġadjust":5960,"Ġ01223362456":5961,"Ġrequirement":5962,"ext":5963,"stars":5964,"Ġquestion":5965,"Ġfavorites":5966,"Ġ01223338600":5967,"Ġscott":5968,"Ġvenetian":5969,"Ask":5970,"Ġappoint":5971,"Ġ01223227330":5972,"Archway":5973,"Ġactivities":5974,"tersborough":5975,"Ġdropped":5976,"ĠModerate":5977,"3211":5978,"Ġcancel":5979,"Ġpublic":5980,"Ġoperat":5981,"Ġhaematology":5982,"Ġnumerous":5983,"Ġmanaged":5984,"Ġpulled":5985,"Ġelderly":5986,"Ġappointment":5987,"--":5988,"049":5989,"134":5990,"1502":5991,"207":5992,"256":5993,"2292":5994,"311":5995,"359":5996,"4765":5997,"558":5998,"559":5999,"536":6000,"677":6001,"6110":6002,"6357":6003,"757":6004,"787":6005,"7802":6006,"8494":6007,"8199":6008,"987":6009,"AX":6010,"ADC":6011,"BS":6012,"Ballare":6013,"Backstreet":6014,"DM":6015,"EE":6016,"FA":6017,"FC":6018,"FJ":6019,"FV":6020,"GP":6021,"HM":6022,"KI":6023,"KM":6024,"KY":6025,"LJ":6026,"MX":6027,"Nusha":6028,"PG":6029,"Post":6030,"QJ":6031,"QM":6032,"QV":6033,"QZ":6034,"RC":6035,"RG":6036,"RX":6037,"RZ":6038,"TE":6039,"TF":6040,"Tandoori":6041,"Tenpin":6042,"UA":6043,"UD":6044,"UM":6045,"UN":6046,"Vue":6047,"WJ":6048,"WP":6049,"Warkworth":6050,"XM":6051,"XN":6052,"YD":6053,"am":6054,"bg":6055,"dan":6056,"ev":6057,"eal":6058,"enetian":6059,"goodbye":6060,"hu":6061,"pb":6062,"please":6063,"qe":6064,"ric":6065,"rdi":6066,"rooms":6067,"sion":6068,"tq":6069,"xu":6070,"reci":6071,"Ġawesome":6072,"raunt":6073,"ordan":6074,"Ġreason":6075,"Ġbus":6076,"Ġpaed":6077,"Ġyo":6078,"elsh":6079,"Ġwr":6080,"Ġworld":6081,"ating":6082,"Ġlarge":6083,"ĠIR":6084,"Ġfro":6085,"anage":6086,"anasian":6087,"ĠCY":6088,"ĠCour":6089,"Ġowe":6090,"Ġrestaraunt":6091,"Ġ188":6092,"Ġgave":6093,"Ġgreek":6094,"ĠWA":6095,"ĠWV":6096,"ĠWelcome":6097,"ĠWelsh":6098,"ĠHI":6099,"234":6100,"ĠTJ":6101,"Ġanyth":6102,"Ġstick":6103,"ambrdi":6104,"ĠGo":6105,"ĠGog":6106,"Ġ01223500":6107,"ĠRI":6108,"ĠRussian":6109,"ĠBook":6110,"ĠBabraham":6111,"Ġ226":6112,"Ġ412299":6113,"sive":6114,"ĠPM":6115,"ĠPumping":6116,"Ġ311":6117,"Ġ366":6118,"Ġ323178":6119,"ĠLP":6120,"chiquito":6121,"Ġ0729":6122,"Ġ0787":6123,"Ġ0728":6124,"Ġ0784":6125,"Ġ07511":6126,"Ġsuff":6127,"ĠFR":6128,"ĠFT":6129,"ĠFZ":6130,"2130":6131,"2153":6132,"ĠNT":6133,"114":6134,"119":6135,"Ġ77":6136,"Ġeastside":6137,"2433":6138,"589":6139,"5874":6140,"Ġ87":6141,"Ġ828":6142,"ĠKH":6143,"ĠKosher":6144,"669":6145,"6688":6146,"307":6147,"3043":6148,"071":6149,"072":6150,"2021":6151,"2061":6152,"508":6153,"8824":6154,"543":6155,"546":6156,"5401":6157,"Ġsize":6158,"2939":6159,"ĠUC":6160,"ĠVH":6161,"ĠVJ":6162,"ĠVenetian":6163,"ĠCoffee":6164,"ĠJN":6165,"ĠJedburgh":6166,"ĠJordan":6167,"1537":6168,"592":6169,"2730":6170,"2715":6171,"463":6172,"4626":6173,"4679":6174,"4698":6175,"ĠIndustrial":6176,"3948":6177,"341":6178,"345":6179,"349":6180,"5711":6181,"5737":6182,"328":6183,"ĠCheap":6184,"909":6185,"386":6186,"1923":6187,"168":6188,"0927":6189,"0995":6190,"Ġpersian":6191,"8792":6192,"Ġprocess":6193,"ĠYY":6194,"Ġ012232499":6195,"5507":6196,"449":6197,"4466":6198,"4212":6199,"4256":6200,"770":6201,"7733":6202,"4975":6203,"2826":6204,"482":6205,"Ġlets":6206,"1828":6207,"2621":6208,"792":6209,"7931":6210,"ĠZF":6211,"ĠZN":6212,"ĠQA":6213,"2530":6214,"ĠXL":6215,"374":6216,"3702":6217,"9969":6218,"Ġmarriot":6219,"684":6220,"6838":6221,"6971":6222,"Ġ0796":6223,"Ġ07956":6224,"Ġ07623":6225,"761":6226,"7656":6227,"Ġ368786":6228,"Ġ363471":6229,"Ġ361763":6230,"Ġ364917":6231,"ĠMagog":6232,"3138":6233,"6334":6234,"Ġreachable":6235,"1499":6236,"ĠAfghan":6237,"Ġ01223902116":6238,"Ġ0704":6239,"Ġacute":6240,"0523":6241,"Ġaccomod":6242,"ĠScandinavian":6243,"Ġ01223464630":6244,"Ġ01223338100":6245,"Ġopenings":6246,"Those":6247,"6009":6248,"Ġperfectly":6249,"Ġgranta":6250,"Ġ41518":6251,"Ġ017335":6252,"1549":6253,"Ġappreci":6254,"Ġinqui":6255,"5009":6256,"Ġ356354":6257,"arriving":6258,"9016":6259,"otspot":6260,"Lovell":6261,"5570":6262,"Ġ01223306283":6263,"9892":6264,"Ġfulbourn":6265,"Ġattend":6266,"Entrance":6267,"ĠChesteron":6268,"8272":6269,"Ġrespon":6270,"iatric":6271,"Ġrelatively":6272,"Congrat":6273,"Ġcampus":6274,"Ġrespectively":6275,"evanage":6276,"ealand":6277,"Ġpaediatric":6278,"ĠCourt":6279,"ambrdige":6280,"Ġ01223500005":6281,"Ġ311911":6282,"Ġ366668":6283,"ĠJordans":6284,"Ġ01223249955":6285,"Ġ01733553355":6286,"!!":6287,"836":6288,"8533":6289,"Ad":6290,"Aylesbray":6291,"Avalon":6292,"Got":6293,"HO":6294,"IO":6295,"Kohinoor":6296,"PI":6297,"Reservation":6298,"UU":6299,"ace":6300,"ape":6301,"golden":6302,"hic":6303,"pizza":6304,"uld":6305,"under":6306,"rean":6307,"Ġirish":6308,"Ġaustrian":6309,"orrect":6310,"Ġcantonese":6311,"Ġhist":6312,"Ġhand":6313,"Ġlankan":6314,"Ġmalaysian":6315,"Ġmoroccan":6316,"ĠCors":6317,"rival":6318,"Ġsm":6319,"Ġsri":6320,"less":6321,"kend":6322,"Ġforgot":6323,"Ġpricey":6324,"fered":6325,"Ġ04":6326,"ĠWifi":6327,"Ġrate":6328,"Ġeas":6329,"Ġenglish":6330,"ĠAM":6331,"ĠAyle":6332,"Ġcont":6333,"Ġ45":6334,"uter":6335,"ulations":6336,"aporean":6337,"ĠMI":6338,"Ġ0742":6339,"Ġsus":6340,"Ġmine":6341,"ĠRoman":6342,"Ġcardi":6343,"Ġserver":6344,"515":6345,"Ġassu":6346,"Ġ97":6347,"0721":6348,"Ġwhale":6349,"Ġsimil":6350,"ĠVA":6351,"ĠOR":6352,"Ġasking":6353,"ĠRestaurants":6354,"Ġfitz":6355,"Ġalot":6356,"Ġalong":6357,"otten":6358,"ably":6359,"Ġcomputer":6360,"ĠArea":6361,"Ġmyself":6362,"ĠPetersborough":6363,"Ġclin":6364,"Ġtaken":6365,"7610":6366,"Ġmostly":6367,"Ġchanged":6368,"Ġspots":6369,"Ġacc":6370,"Ġdec":6371,"Ġdeal":6372,"urgery":6373,"Ġzip":6374,"Ġopening":6375,"0122324":6376,"ĠBefore":6377,"Ġvehic":6378,"Ġweekend":6379,"Ġbuy":6380,"ĠCatalan":6381,"Ġchosen":6382,"Ġappeals":6383,"Ġappealing":6384,"Ġissues":6385,"Ġfacilities":6386,"Ġquality":6387,"Ġtourist":6388,"Ġmisunder":6389,"Ġtalking":6390,"Ġtonight":6391,"4235":6392,"9781":6393,"Ġappreciate":6394,"Ġinquiry":6395,"Congratulations":6396,"Ġhistor":6397,"ĠRomanian":6398,"Ġcardiology":6399,"Ġsimilar":6400,"Ġvehicle":6401,"010":6402,"0467":6403,"158":6404,"1581":6405,"254":6406,"2000":6407,"332":6408,"380":6409,"3596":6410,"429":6411,"408":6412,"434":6413,"4170":6414,"4202":6415,"550":6416,"532":6417,"538":6418,"724":6419,"740":6420,"738":6421,"749":6422,"7309":6423,"838":6424,"8387":6425,"917":6426,"941":6427,"919":6428,"9533":6429,"9276":6430,"9102":6431,"Again":6432,"Abbey":6433,"CF":6434,"Call":6435,"DJ":6436,"DR":6437,"De":6438,"Darrys":6439,"GI":6440,"HZ":6441,"KJ":6442,"KL":6443,"Kettle":6444,"LB":6445,"LO":6446,"LV":6447,"Le":6448,"NM":6449,"NV":6450,"NY":6451,"OM":6452,"PS":6453,"Pipasha":6454,"Queen":6455,"RB":6456,"Rajmahal":6457,"Sc":6458,"TM":6459,"Two":6460,"Telephone":6461,"Taj":6462,"Taxi":6463,"UB":6464,"UG":6465,"UI":6466,"UJ":6467,"US":6468,"Wagamama":6469,"XJ":6470,"YA":6471,"ZJ":6472,"bangkok":6473,"cular":6474,"camboats":6475,"df":6476,"gonville":6477,"hr":6478,"ise":6479,"iving":6480,"little":6481,"mous":6482,"old":6483,"pounds":6484,"rf":6485,"to":6486,"yu":6487,"ĠQQ":6488,"ret":6489,"read":6490,"Ġtw":6491,"Ġintend":6492,"stood":6493,"Ġregency":6494,"ervice":6495,"Ġbunch":6496,"Ġcut":6497,"Ġcool":6498,"Ġpanasian":6499,"Ġinc":6500,"Ġhalal":6501,"Ġlunch":6502,"Ġmidd":6503,"never":6504,"Ġdanish":6505,"sess":6506,"ĠIA":6507,"ĠIJ":6508,"ĠCW":6509,"ĠCZ":6510,"riend":6511,"Ġsitu":6512,"Ġrestraunt":6513,"Ġmovi":6514,"Ġ120":6515,"Ġgotten":6516,"Ġgiving":6517,"ĠWF":6518,"ĠWU":6519,"ĠWell":6520,"ĠWollaston":6521,"Ġwis":6522,"Ġliking":6523,"ĠHH":6524,"ĠHJ":6525,"ĠHappy":6526,"ĠHotspot":6527,"2379":6528,"2325":6529,"ĠTF":6530,"ĠTG":6531,"ĠTP":6532,"Ġstated":6533,"Ġem":6534,"125":6535,"Ġfoods":6536,"ĠAO":6537,"ĠAV":6538,"ĠGI":6539,"ĠGS":6540,"ĠGW":6541,"ĠGDP":6542,"ĠSD":6543,"ĠSG":6544,"ĠSQ":6545,"ĠSY":6546,"ĠSus":6547,"ĠSystem":6548,"ĠService":6549,"Ġ0122325":6550,"ĠBA":6551,"ĠBQ":6552,"ĠBT":6553,"ĠBelf":6554,"Ġ400":6555,"Ġ420":6556,"Ġ480":6557,"Ġ448":6558,"roy":6559,"rosa":6560,"ĠDG":6561,"ĠDP":6562,"ĠDarry":6563,"ĠPC":6564,"ĠPG":6565,"ĠPJ":6566,"ĠPQ":6567,"Ġ352500":6568,"ĠLK":6569,"ĠLX":6570,"Ġdoing":6571,"Ġurology":6572,"Ġexist":6573,"rate":6574,"Ġ55":6575,"Ġ518":6576,"Ġ525":6577,"Ġ0747":6578,"Ġ07598":6579,"009":6580,"0032":6581,"Ġnorthampton":6582,"ĠEH":6583,"ĠEL":6584,"ĠEO":6585,"ĠEach":6586,"ĠFD":6587,"ĠFF":6588,"ĠFK":6589,"ĠFN":6590,"213":6591,"ĠNK":6592,"Ġwestern":6593,"249":6594,"Ġ81":6595,"5108":6596,"ĠKQ":6597,"ĠKU":6598,"666":6599,"079":6600,"0743":6601,"0718":6602,"0798":6603,"0797":6604,"2058":6605,"1756":6606,"1755":6607,"1704":6608,"1761":6609,"505":6610,"Ġavai":6611,"542":6612,"5413":6613,"5465":6614,"601":6615,"602":6616,"606":6617,"6066":6618,"298":6619,"2950":6620,"2929":6621,"2985":6622,"29180":6623,"Ġ12233":6624,"1027":6625,"086":6626,"087":6627,"ĠUG":6628,"ĠCost":6629,"Ġsomeone":6630,"ĠArcade":6631,"ĠOO":6632,"ĠOther":6633,"5212":6634,"5909":6635,"5965":6636,"4015":6637,"275":6638,"278":6639,"2704":6640,"469":6641,"4680":6642,"4625":6643,"392":6644,"394":6645,"398":6646,"Ġassess":6647,"356":6648,"3412":6649,"3456":6650,"419":6651,"0188":6652,"572":6653,"573":6654,"574":6655,"5720":6656,"3225":6657,"4379":6658,"9020":6659,"5677":6660,"5686":6661,"5694":6662,"809":6663,"8017":6664,"8042":6665,"369":6666,"3600":6667,"3685":6668,"381":6669,"3844":6670,"198":6671,"1997":6672,"1688":6673,"1610":6674,"0919":6675,"0922":6676,"0996":6677,"537":6678,"873":6679,"8730":6680,"Ġconst":6681,"Ġquick":6682,"Ġpleased":6683,"ĠYE":6684,"ĠYOU":6685,"4494":6686,"4284":6687,"Ġvisitors":6688,"137":6689,"1316":6690,"496":6691,"4849":6692,"4828":6693,"erson":6694,"262":6695,"268":6696,"793":6697,"7928":6698,"3371":6699,"ĠZJ":6700,"ĠZZ":6701,"Ġ012233650":6702,"Ġ01223365454":6703,"Ġ01223362433":6704,"Ġpickup":6705,"ĠQF":6706,"ĠXX":6707,"373":6708,"3720":6709,"8913":6710,"Ġrequired":6711,"2257":6712,"998":6713,"9933":6714,"agon":6715,"7047":6716,"685":6717,"6811":6718,"Ġgives":6719,"Ġ01223302800":6720,"olkswagon":6721,"696":6722,"6939":6723,"Ġ0793":6724,"Ġ07924":6725,"Ġ07915":6726,"8610":6727,"8636":6728,"cide":6729,"Ġ07629":6730,"Ġ07657":6731,"Ġ07618":6732,"Ġ302010":6733,"Ġ01223355166":6734,"Ġ0772":6735,"Ġ07727":6736,"Ġ362372":6737,"9629":6738,"9635":6739,"Ġfamous":6740,"fitzbillies":6741,"3112":6742,"3158":6743,"3130":6744,"6745":6745,"Ġ012232177":6746,"Ġ01223216811":6747,"1492":6748,"Ġ07017":6749,"Ġtension":6750,"5662":6751,"Ġ087194":6752,"8224":6753,"Ġ07421":6754,"Ġ07479":6755,"Ġdear":6756,"Ġdecide":6757,"0532":6758,"0212":6759,"8314":6760,"9557":6761,"Ġ0122327618":6762,"AGG":6763,"ESP":6764,"Ġcharges":6765,"Ġ07558":6766,"ĠBenny":6767,"Ġwhenever":6768,"EPN":6769,"Ġsteakhouses":6770,"wards":6771,"Ġ462354":6772,"Ġ464550":6773,"7349":6774,"2514":6775,"Ġ354755":6776,"Ġbelfast":6777,"3342":6778,"3343":6779,"6167":6780,"4664":6781,"Ġ01223461661":6782,"5298":6783,"3005":6784,"Ġselections":6785,"2125":6786,"3602":6787,"6578":6788,"7094":6789,"Ġalternate":6790,"Ġvarying":6791,"9082":6792,"Ġdisc":6793,"Ġ01223306306":6794,"Ġtouch":6795,"6595":6796,"8080":6797,"Ġboast":6798,"6368":6799,"7447":6800,"9904":6801,"ĠBelgian":6802,"ifications":6803,"Ġpropert":6804,"Ġsatisf":6805,"Shall":6806,"Ġclear":6807,"Ġanswer":6808,"Ġeateries":6809,"Riverboat":6810,"grafton":6811,"Ġjoin":6812,"Ġassume":6813,"Ġfitzroy":6814,"ĠSussex":6815,"ĠServices":6816,"Ġ012232566":6817,"Ġ448620":6818,"Ġ518111":6819,"ĠOtherwise":6820,"Ġassessment":6821,"Ġ08719429180":6822,"Ġ01223276182":6823,"),":6824,"329":6825,"336":6826,"6247":6827,"Alpha":6828,"Cotto":6829,"Caffe":6830,"Carolina":6831,"Each":6832,"Gourmet":6833,"Hmm":6834,"Inde":6835,"Kirkwood":6836,"OOK":6837,"Zizzi":6838,"bably":6839,"cc":6840,"cing":6841,"cated":6842,"ders":6843,"eel":6844,"hobsons":6845,"line":6846,"light":6847,"sica":6848,"ti":6849,"well":6850,"when":6851,"Ġform":6852,"Ġaustral":6853,"ential":6854,"raint":6855,"inion":6856,"Ġrep":6857,"Ġret":6858,"Ġreal":6859,"Ġcame":6860,"Ġpat":6861,"Ġwal":6862,"Ġhuntington":6863,"Ġhig":6864,"Ġmone":6865,"Ġmiss":6866,"ĠCQ":6867,"ĠCent":6868,"ĠCuis":6869,"ĠCare":6870,"ĠCambrdige":6871,"Ġsur":6872,"Ġrestuarant":6873,"cology":6874,"Ġgerman":6875,"Ġforward":6876,"peking":6877,"Ġwife":6878,"Ġlight":6879,"Ġes":6880,"ĠThen":6881,"Ġaddition":6882,"ĠAdden":6883,"ĠRD":6884,"Ġcanape":6885,"comend":6886,"Ġhelpful":6887,"ros":6888,"royal":6889,"ĠPR":6890,"adly":6891,"Ġoncology":6892,"utes":6893,"lant":6894,"Ġdestinations":6895,"ĠStarting":6896,"Ġcheapest":6897,"ency":6898,"ensive":6899,"Ġcaribbean":6900,"lus":6901,"Ġopinion":6902,"ilian":6903,"Ġ1223":6904,"156":6905,"ĠOP":6906,"orthend":6907,"ĠLocated":6908,"Ġenjoyed":6909,"196":6910,"1958":6911,"1612":6912,"5331":6913,"Ġlookout":6914,"Ġconne":6915,"0674":6916,"ĠYT":6917,"7713":6918,"4969":6919,"7846":6920,"3330":6921,"Ġriders":6922,"Ġreaching":6923,"Ġspace":6924,"Ġvaries":6925,"Ġending":6926,"ĠLets":6927,"Ġcorsica":6928,"Ġplans":6929,"0315":6930,"razilian":6931,"Ġdriving":6932,"Ġexpl":6933,"Ġinquire":6934,"Ġsecure":6935,"Ġdepends":6936,"Cocum":6937,"anything":6938,"Ġarranged":6939,"Ġfinal":6940,"Ġfinish":6941,"Loch":6942,"Ġbarbeque":6943,"Ġqualifications":6944,"Ġlower":6945,"Ġswiss":6946,"7195":6947,"Ġterrific":6948,"Ġcreative":6949,"Ġwaiting":6950,"Ġ01223217314":6951,"Ġmusuem":6952,"ĠWOuld":6953,"Ġevents":6954,"8331":6955,"Ġsingle":6956,"Ġenough":6957,"Ġwrong":6958,"Ġfront":6959,"Ġsuffice":6960,"Ġattending":6961,"Ġresponse":6962,"ĠCorsica":6963,"Ġeasy":6964,"ĠAyles":6965,"Leverton":6966,"Ġmiddle":6967,"Ġconstraint":6968,"Ġboasts":6969,"Indeed":6970,"Ġhigher":6971,"Ġmoney":6972,"Ġcanapes":6973,")?":6974,".\"":6975,"0357":6976,"0363":6977,"0545":6978,"0115":6979,"123":6980,"138":6981,"1395":6982,"288":6983,"228":6984,"2286":6985,"323":6986,"366":6987,"352":6988,"316":6989,"3000":6990,"3194":6991,"3404":6992,"459":6993,"456":6994,"487":6995,"524":6996,"530":6997,"560":6998,"5077":6999,"5504":7000,"5567":7001,"624":7002,"651":7003,"640":7004,"643":7005,"6517":7006,"6387":7007,"6585":7008,"6193":7009,"758":7010,"743":7011,"7245":7012,"7075":7013,"7604":7014,"7803":7015,"830":7016,"849":7017,"848":7018,"818":7019,"8265":7020,"8306":7021,"8585":7022,"8662":7023,"8126":7024,"8290":7025,"8241":7026,"8685":7027,"920":7028,"915":7029,"935":7030,"9299":7031,"9178":7032,"9580":7033,"9802":7034,"9886":7035,"AYR":7036,"AEJ":7037,"BV":7038,"Best":7039,"BMG":7040,"DI":7041,"DPB":7042,"EOG":7043,"EBG":7044,"FB":7045,"Feel":7046,"GB":7047,"GK":7048,"Galleria":7049,"GYC":7050,"GBQ":7051,"GOB":7052,"Hotel":7053,"Holy":7054,"HCU":7055,"HEW":7056,"IBP":7057,"IIT":7058,"IWL":7059,"JQG":7060,"JOU":7061,"Kings":7062,"Kambar":7063,"Look":7064,"Lynne":7065,"MD":7066,"MQ":7067,"Mag":7068,"MAA":7069,"MDB":7070,"None":7071,"PV":7072,"QO":7073,"QWF":7074,"QPH":7075,"QFY":7076,"RM":7077,"RY":7078,"Ref":7079,"RSO":7080,"RFL":7081,"RJS":7082,"SAJ":7083,"Sadly":7084,"TS":7085,"Tickets":7086,"UES":7087,"UVD":7088,"UJK":7089,"VPA":7090,"VYT":7091,"Wi":7092,"WAD":7093,"XMY":7094,"XYH":7095,"XWH":7096,"YMG":7097,"YPD":7098,"ZG":7099,"ZBN":7100,"acan":7101,"bal":7102,"cin":7103,"carolina":7104,"dl":7105,"dt":7106,"dated":7107,"ft":7108,"firm":7109,"finches":7110,"frankie":7111,"huntingdon":7112,"ide":7113,"look":7114,"main":7115,"oid":7116,"part":7117,"postcode":7118,"saint":7119,"sbrookes":7120,"uxu":7121,"Ġ'":7122,"Ġtext":7123,"Ġant":7124,"Ġaway":7125,"icas":7126,"option":7127,"rable":7128,"ourit":7129,"Ġinter":7130,"Ġrefer":7131,"Ġnigh":7132,"Ġbell":7133,"Ġbasque":7134,"Ġcities":7135,"ingling":7136,"Ġwan":7137,"Ġwollaston":7138,"medi":7139,"Ġhote":7140,"ves":7141,"atin":7142,"Ġlbs":7143,"Ġluxu":7144,"Ġbooks":7145,"Ġmix":7146,"nesian":7147,"ĠIE":7148,"ĠIO":7149,"ĠIU":7150,"ĠIV":7151,"ĠIX":7152,"ĠId":7153,"ĠIan":7154,"otally":7155,"Ġfas":7156,"though":7157,"anatolia":7158,"ĠCA":7159,"ĠCH":7160,"ĠCL":7161,"ĠCM":7162,"ĠCP":7163,"ĠCU":7164,"ĠCab":7165,"rint":7166,"riate":7167,"Ġsurgery":7168,"lecular":7169,"Ġresta":7170,"Ġmove":7171,"Ġmolecular":7172,"Ġgray":7173,"Ġforty":7174,"Ġnames":7175,"depart":7176,"Ġ012":7177,"ĠWB":7178,"ĠWJ":7179,"ĠWK":7180,"ĠWT":7181,"ĠWZ":7182,"ĠWIF":7183,"Ġlie":7184,"yesbray":7185,"ĠHC":7186,"ĠHL":7187,"ĠHQ":7188,"ĠHR":7189,"ĠHW":7190,"ĠHZ":7191,"ĠHDT":7192,"2311":7193,"2378":7194,"ĠTX":7195,"arts":7196,"Ġstate":7197,"Ġstevanage":7198,"1227":7199,"ĠTheater":7200,"ĠAA":7201,"ĠAC":7202,"ĠAH":7203,"ĠAY":7204,"ĠAZ":7205,"ĠAllenb":7206,"ĠGC":7207,"ĠGE":7208,"ĠGF":7209,"ĠGK":7210,"ĠGL":7211,"ĠGQ":7212,"ĠSP":7213,"ĠSV":7214,"ows":7215,"Ġ01223257":7216,"ĠRK":7217,"ĠRT":7218,"ĠRU":7219,"ĠRW":7220,"ĠRX":7221,"Ġpoly":7222,"ĠBB":7223,"ĠBL":7224,"ĠBM":7225,"ĠBX":7226,"ĠBY":7227,"Ġarrived":7228,"Ġtast":7229,"Ġnoon":7230,"Ġ211":7231,"Ġguestrooms":7232,"Ġrecommendations":7233,"ĠDB":7234,"ĠDD":7235,"ĠDL":7236,"ĠPE":7237,"ĠPF":7238,"ĠPP":7239,"ĠPW":7240,"ĠPZ":7241,"ĠPizz":7242,"ĠPortraits":7243,"ĠPrint":7244,"Ġonline":7245,"ished":7246,"Ġnever":7247,"Ġwilliams":7248,"Ġ306":7249,"ĠLA":7250,"ĠLG":7251,"ĠLN":7252,"ĠLQ":7253,"ĠLU":7254,"ĠLNK":7255,"ĠLMA":7256,"ĠLatin":7257,"ĠMC":7258,"ĠMD":7259,"ĠMH":7260,"ĠML":7261,"ĠMN":7262,"ĠMO":7263,"ĠMP":7264,"ĠMQ":7265,"ĠMX":7266,"Ġexc":7267,"Ġextra":7268,"Ġ500":7269,"Ġmoderatly":7270,"Ġ0122335010":7271,"Ġ0122333948":7272,"Ġresol":7273,"Ġ0732":7274,"Ġ0745":7275,"Ġ0755":7276,"Ġ0768":7277,"Ġ0771":7278,"Ġ07248":7279,"Ġ074134":7280,"Ġsuper":7281,"Ġsupp":7282,"001":7283,"0044":7284,"0031":7285,"0094":7286,"ĠEQ":7287,"ĠET":7288,"ĠEV":7289,"ĠEW":7290,"ĠEZ":7291,"ĠEvery":7292,"ĠEnglish":7293,"ĠFO":7294,"ĠFive":7295,"ĠFRE":7296,"217":7297,"2166":7298,"2145":7299,"2178":7300,"2164":7301,"ĠNR":7302,"116":7303,"1156":7304,"1180":7305,"1162":7306,"Ġ73":7307,"ĠRemember":7308,"244":7309,"5866":7310,"5806":7311,"5831":7312,"5867":7313,"Ġcontacted":7314,"5107":7315,"Ġ65":7316,"ĠKO":7317,"ĠKY":7318,"ĠKZ":7319,"6607":7320,"6628":7321,"6692":7322,"6697":7323,"Ġ91":7324,"Ġabo":7325,"303":7326,"3057":7327,"3087":7328,"3062":7329,"0717":7330,"0713":7331,"0776":7332,"0774":7333,"Ġwhy":7334,"Ġwhose":7335,"Ġvolkswagon":7336,"Ġvacan":7337,"203":7338,"205":7339,"2029":7340,"2052":7341,"2042":7342,"171":7343,"173":7344,"1750":7345,"1709":7346,"1770":7347,"5012":7348,"5034":7349,"5042":7350,"5089":7351,"Ġavoid":7352,"Ġdiffic":7353,"882":7354,"5473":7355,"Ġ165":7356,"6034":7357,"6053":7358,"297":7359,"2912":7360,"109":7361,"ases":7362,"082":7363,"0813":7364,"0862":7365,"unky":7366,"ĠUE":7367,"ĠUF":7368,"ĠUM":7369,"ĠUR":7370,"ĠUZ":7371,"ĠVB":7372,"ĠVM":7373,"ĠVQ":7374,"ĠVR":7375,"ĠVT":7376,"ĠVW":7377,"ĠVX":7378,"ĠVY":7379,"ĠComm":7380,"ĠArche":7381,"ĠJB":7382,"ĠJC":7383,"ĠJM":7384,"ĠJQ":7385,"ĠJU":7386,"ĠJW":7387,"ĠJingling":7388,"153":7389,"157":7390,"1526":7391,"1567":7392,"1575":7393,"ĠOur":7394,"5266":7395,"5256":7396,"597":7397,"5910":7398,"5901":7399,"5953":7400,"5949":7401,"5928":7402,"5918":7403,"5979":7404,"5972":7405,"5998":7406,"4016":7407,"4031":7408,"2788":7409,"2764":7410,"2771":7411,"2775":7412,"4638":7413,"4689":7414,"4673":7415,"396":7416,"Ġserved":7417,"3450":7418,"3470":7419,"3476":7420,"418":7421,"4194":7422,"0141":7423,"570":7424,"576":7425,"5754":7426,"5713":7427,"5747":7428,"3207":7429,"3257":7430,"Ġparticularly":7431,"4329":7432,"4334":7433,"904":7434,"905":7435,"9066":7436,"9039":7437,"9025":7438,"9063":7439,"8056":7440,"8026":7441,"362":7442,"367":7443,"3677":7444,"3637":7445,"Ġ231":7446,"383":7447,"3854":7448,"3810":7449,"3839":7450,"3843":7451,"3847":7452,"1699":7453,"1672":7454,"098":7455,"0945":7456,"0953":7457,"5358":7458,"876":7459,"8714":7460,"8705":7461,"Ġpolar":7462,"Ġpolish":7463,"0680":7464,"0625":7465,"0686":7466,"0684":7467,"Ġprobably":7468,"ĠYB":7469,"ĠYG":7470,"ĠYV":7471,"4447":7472,"422":7473,"4288":7474,"4226":7475,"4283":7476,"7721":7477,"7734":7478,"7769":7479,"4987":7480,"4928":7481,"ĠSundays":7482,"2854":7483,"2860":7484,"2863":7485,"2895":7486,"484":7487,"4824":7488,"4863":7489,"784":7490,"7850":7491,"7822":7492,"1800":7493,"1854":7494,"1827":7495,"1898":7496,"1892":7497,"263":7498,"2617":7499,"2635":7500,"2694":7501,"795":7502,"796":7503,"797":7504,"Ġcompliment":7505,"Ġadvent":7506,"337":7507,"ĠZC":7508,"ĠZM":7509,"ĠZT":7510,"ĠZW":7511,"ĠZealand":7512,"Ġ01223369299":7513,"ĠQD":7514,"ĠQG":7515,"ĠQK":7516,"2557":7517,"ĠXD":7518,"ĠXJ":7519,"ĠXM":7520,"ĠXV":7521,"ĠXY":7522,"ropriate":7523,"372":7524,"376":7525,"3732":7526,"8932":7527,"ĠEastside":7528,"ĠExhib":7529,"6477":7530,"ĠPeople":7531,"996":7532,"999":7533,"9956":7534,"704":7535,"7020":7536,"7057":7537,"OKT":7538,"683":7539,"686":7540,"6833":7541,"Ġ01223301761":7542,"693":7543,"697":7544,"6946":7545,"Ġ07937":7546,"Ġ--":7547,"867":7548,"8600":7549,"8676":7550,"8631":7551,"7187":7552,"Ġ0767":7553,"Ġ07621":7554,"Ġ07611":7555,"Ġ07650":7556,"Ġ07648":7557,"8885":7558,"762":7559,"763":7560,"7678":7561,"Ġ01223355012":7562,"Ġ0122335388":7563,"8410":7564,"Ġ07749":7565,"Ġ375":7566,"ĠGuesthouses":7567,"6742":7568,"Ġ505015":7569,"Ġ0782":7570,"Ġ07823":7571,"Ġ07854":7572,"Ġ0122321629":7573,"1006":7574,"7324":7575,"7360":7576,"981":7577,"9823":7578,"9839":7579,"Ġ07060":7580,"Ġ07059":7581,"9452":7582,"Ġlonger":7583,"7430":7584,"7450":7585,"7460":7586,"Ġ568988":7587,"5669":7588,"6226":7589,"fectious":7590,"ĠSeveral":7591,"Ġ07411":7592,"Ġ07430":7593,"Ġ07417":7594,"Ġdeter":7595,"9360":7596,"Ġfavourit":7597,"0559":7598,"Ġtrust":7599,"Ġ01223577786":7600,"8335":7601,"6524":7602,"ĠAlmost":7603,"MYL":7604,"Ġ01223366668":7605,"Ġruns":7606,"Three":7607,"Ġ07330":7608,"Ġ07314":7609,"8151":7610,"EZT":7611,"Ġ01223274680":7612,"Ġ01223274284":7613,"BZA":7614,"CRN":7615,"OSM":7616,"ALF":7617,"PAI":7618,"0122333":7619,"01223358":7620,"ATC":7621,"YCW":7622,"ronom":7623,"Ġlatin":7624,"DNB":7625,"Ġbites":7626,"AFS":7627,"AFT":7628,"ĠMany":7629,"Ġ07554":7630,"EFS":7631,"2232":7632,"WHG":7633,"JXX":7634,"LRA":7635,"Ġ07138":7636,"2001":7637,"2006":7638,"ZQE":7639,"ASG":7640,"EPK":7641,"Ġ01223217231":7642,"Ġ01223217261":7643,"Anytime":7644,"VOL":7645,"VFA":7646,"VFV":7647,"3544":7648,"VBB":7649,"Ġappropriate":7650,"IBY":7651,"CKQ":7652,"SJZ":7653,"VLU":7654,"VRV":7655,"Ġkettles":7656,"AVA":7657,"ĠGrande":7658,"Ġ01223256":7659,"2519":7660,"ign":7661,"XWO":7662,"50420":7663,"1879":7664,"Arrival":7665,"WMD":7666,"ZWP":7667,"Ġdependency":7668,"STN":7669,"Ġsoonest":7670,"1662":7671,"4003":7672,"Ġarrangements":7673,"Ġexhibits":7674,"Ġ079989":7675,"4669":7676,"5343":7677,"1465":7678,"1469":7679,"8078":7680,"9775":7681,"Ġsouthend":7682,"Ġideas":7683,"2129":7684,"3177":7685,"ĠHungting":7686,"Ġ01223348144":7687,"Ġthirty":7688,"7092":7689,"2503":7690,"3782":7691,"8176":7692,"Ġfalls":7693,"itti":7694,"1079":7695,"2602":7696,"7548":7697,"8399":7698,"9589":7699,"Ġattemp":7700,"126194":7701,"Ġcatch":7702,"6105":7703,"7062":7704,"cityroomz":7705,"lobal":7706,"Ġpulling":7707,"4322":7708,"Ġterribly":7709,"Ġclassic":7710,"Ġmusuems":7711,"9303":7712,"Ġ01223596066":7713,"Ġcommon":7714,"Ġpreviously":7715,"Ġcomplexes":7716,"Ġ01223348313":7717,"Ġ01223348314":7718,"Stazione":7719,"riverside":7720,"Ġgastronom":7721,"Ġoperation":7722,"1342":7723,"2078":7724,"7878":7725,"Postal":7726,"Ġsussex":7727,"Ġclinic":7728,"Ġdecis":7729,"Ġmisunderstood":7730,"iseases":7731,"riendly":7732,"Ġmovie":7733,"Ġemail":7734,"ersonally":7735,"Ġ01223365068":7736,"Ġ07479126194":7737,"Ġsatisfy":7738,"Ġjoining":7739,"Ġaustralasian":7740,"Ġpatience":7741,"ĠCuisine":7742,"Ġconstraints":7743,"8185":7744,"Magdalene":7745,"QWFWX":7746,"With":7747,"cinating":7748,"firmation":7749,"Ġfascinating":7750,"ĠWIFI":7751,"Ġpolynesian":7752,"Ġ306306":7753,"Ġ01223350106":7754,"Ġ01223339485":7755,"ĠFREE":7756,"Ġdifficult":7757,"ĠCommon":7758,"ĠArcheology":7759,"Ġcomplimentary":7760,"ĠExhibition":7761,"Ġ01223216297":7762,"Ġfavourite":7763,"01223358966":7764,"Ġgastronomy":7765,"324":7766,"315":7767,"480":7768,"Am":7769,"Adden":7770,"Don":7771,"Efes":7772,"Huntington":7773,"Id":7774,"LOL":7775,"Market":7776,"Ne":7777,"Price":7778,"QN":7779,"Sitar":7780,"Tr":7781,"Tang":7782,"Terri":7783,"Why":7784,"book":7785,"booking":7786,"broughton":7787,"byard":7788,"certain":7789,"clare":7790,"corpus":7791,"darrys":7792,"fill":7793,"frame":7794,"gret":7795,"home":7796,"idge":7797,"jinling":7798,"mine":7799,"mitt":7800,"nu":7801,"number":7802,"po":7803,"pite":7804,"plant":7805,"room":7806,"sful":7807,"then":7808,"uge":7809,"warts":7810,"Ġ/":7811,"Ġim":7812,"Ġtook":7813,"Ġtur":7814,"Ġtechn":7815,"Ġtotally":7816,"Ġamb":7817,"Ġari":7818,"ought":7819,"stazione":7820,"Ġrepe":7821,"Ġnic":7822,"Ġbl":7823,"onary":7824,"onfirmation":7825,"Ġcant":7826,"Ġpot":7827,"Ġpizz":7828,"Ġplus":7829,"Ġincon":7830,"Ġinju":7831,"Ġinfectious":7832,"ington":7833,"ingaporean":7834,"Ġwou":7835,"Ġwet":7836,"meghna":7837,"Ġhang":7838,"formation":7839,"Ġiscb":7840,"Ġdiver":7841,"Ġdiseases":7842,"ĠIT":7843,"ĠIKC":7844,"arn":7845,"Ġfix":7846,"ĠConfirmation":7847,"Ġocc":7848,"lect":7849,"Ġgl":7850,"Ġgone":7851,"Ġguy":7852,"people":7853,"Ġ000":7854,"ĠWY":7855,"ĠWed":7856,"Ġlim":7857,"itrean":7858,"Ġleft":7859,"ĠHote":7860,"ĠTable":7861,"Ġecon":7862,"ambri":7863,"Ġher":7864,"ĠAR":7865,"ĠST":7866,"ĠSure":7867,"ĠSingaporean":7868,"Ġwelsh":7869,"ĠRoom":7870,"Ġhelps":7871,"Ġtimeframe":7872,"ĠBy":7873,"ĠBish":7874,"ĠBasque":7875,"Ġtax":7876,"Ġmenu":7877,"ĠDitt":7878,"ured":7879,"ĠLE":7880,"ĠLots":7881,"ĠMG":7882,"Ġ01223329":7883,"ounding":7884,"Ġsear":7885,"Ġ0714":7886,"lled":7887,"Ġprefe":7888,"Ġprefered":7889,"Ġpartial":7890,"ccesful":7891,"isty":7892,"5859":7893,"665":7894,"Ġassisted":7895,"0734":7896,"Ġvice":7897,"Ġnote":7898,"ĠParking":7899,"Ġsimp":7900,"fied":7901,"university":7902,"1596":7903,"into":7904,"Ġmatched":7905,"Ġamong":7906,"ident":7907,"Ġspecification":7908,"3262":7909,"433":7910,"Ġjohn":7911,"Ġupdated":7912,"ogwarts":7913,"venience":7914,"Ġfewer":7915,"ĠYR":7916,"Ġ0122324515":7917,"Ġalthough":7918,"Ġnarrowing":7919,"Ġindonesian":7920,"183":7921,"1819":7922,"rewell":7923,"Ġcompare":7924,"ĠQH":7925,"Ġseeking":7926,"ĠExpect":7927,"6488":7928,"TrainID":7929,"Ġoutside":7930,"ĠGrafitti":7931,"Ġshows":7932,"Ġ01223355711":7933,"Regret":7934,"Ġproviding":7935,"ique":7936,"464646":7937,"4724":7938,"Ġ#:":7939,"Ġspread":7940,"1493":7941,"Ġcloser":7942,"Ġactual":7943,"Ġcoronary":7944,"ĠTrainID":7945,"Ġdata":7946,"0122321":7947,"0122330":7948,"Ġpoints":7949,"Ġclosed":7950,"PLE":7951,"Ġdirection":7952,"ĠEntertainment":7953,"Ġconsidering":7954,"Ġspecifying":7955,"Ġbuild":7956,"Ġeritrean":7957,"JWE":7958,"ĠMaharajah":7959,"dojo":7960,"Ġbelgian":7961,"SRY":7962,"ocated":7963,"Travellers":7964,"Ġpasta":7965,"Ġfinished":7966,"standing":7967,"Ġimpress":7968,"Ġspecializ":7969,"Ġfulfill":7970,"Ġcatalan":7971,"Ġmodify":7972,"Ġmistaken":7973,"ification":7974,"Ġcreate":7975,"Ġproper":7976,"Ġsatisfied":7977,"Ġhundreds":7978,"ĠDeparts":7979,"riverboat":7980,"Ġgastro":7981,"ĠTHAT":7982,"Ġscottish":7983,"Admission":7984,"Ġsmall":7985,"Ġcontin":7986,"Ġaccident":7987,"Ġhistoric":7988,"Queens":7989,"Scudamores":7990,"Ġintended":7991,"Ġcutting":7992,"Ġretur":7993,"Ġconnect":7994,"Ġexplore":7995,"ĠAylesbury":7996,"Ġresolve":7997,"Ġadventure":7998,"Ġdetermine":7999,"Neither":8000,"Terrific":8001,"mittance":8002,"Ġturns":8003,"Ġtechnical":8004,"Ġrepeat":8005,"Ġpotential":8006,"Ġinconvenience":8007,"Ġinjury":8008,"Ġdiverse":8009,"Ġguys":8010,"Ġeconom":8011,"ĠBishop":8012,"Ġ01223329432":8013,"Ġsimply":8014,"Ġcompared":8015,"Regretfully":8016,"\".":8017,"020":8018,"059":8019,"027":8020,"032":8021,"045":8022,"0517":8023,"0516":8024,"0117":8025,"0209":8026,"0121":8027,"0481":8028,"0269":8029,"0328":8030,"0601":8031,"0394":8032,"0217":8033,"141":8034,"190":8035,"142":8036,"1233":8037,"1428":8038,"1309":8039,"224":8040,"258":8041,"266":8042,"229":8043,"280":8044,"225":8045,"2583":8046,"346":8047,"3888":8048,"3353":8049,"3387":8050,"3390":8051,"3293":8052,"3661":8053,"417":8054,"488":8055,"452":8056,"440":8057,"427":8058,"439":8059,"443":8060,"445":8061,"479":8062,"4506":8063,"4404":8064,"4117":8065,"4594":8066,"4115":8067,"4887":8068,"4604":8069,"521":8070,"507":8071,"554":8072,"5517":8073,"5234":8074,"623":8075,"630":8076,"652":8077,"646":8078,"649":8079,"628":8080,"6210":8081,"6583":8082,"6870":8083,"6386":8084,"6809":8085,"6998":8086,"751":8087,"707":8088,"717":8089,"732":8090,"790":8091,"745":8092,"728":8093,"718":8094,"7299":8095,"7222":8096,"7355":8097,"7276":8098,"7239":8099,"7583":8100,"7293":8101,"7147":8102,"7468":8103,"7667":8104,"7169":8105,"7307":8106,"7213":8107,"7278":8108,"7683":8109,"823":8110,"821":8111,"811":8112,"858":8113,"801":8114,"890":8115,"844":8116,"842":8117,"8149":8118,"8509":8119,"8504":8120,"8361":8121,"8292":8122,"8363":8123,"8522":8124,"8406":8125,"8167":8126,"912":8127,"907":8128,"950":8129,"988":8130,"939":8131,"953":8132,"928":8133,"933":8134,"9517":8135,"9382":8136,"9202":8137,"9219":8138,"9209":8139,"9286":8140,"9545":8141,"9522":8142,"9605":8143,"9531":8144,"9345":8145,"9792":8146,"9704":8147,"??":8148,"AMS":8149,"AEG":8150,"AYU":8151,"AYF":8152,"BQQ":8153,"BEN":8154,"BJS":8155,"BCY":8156,"BCC":8157,"Based":8158,"Che":8159,"CLQ":8160,"CNU":8161,"CVP":8162,"CVK":8163,"CHK":8164,"Correct":8165,"Depart":8166,"Darry":8167,"DYH":8168,"DJM":8169,"DJX":8170,"DPU":8171,"DUF":8172,"DIW":8173,"DKT":8174,"EMW":8175,"EBN":8176,"EET":8177,"EEL":8178,"EMA":8179,"FKV":8180,"FZC":8181,"FIR":8182,"FWH":8183,"FTU":8184,"FBO":8185,"FSF":8186,"FGD":8187,"FMN":8188,"FEQ":8189,"Funky":8190,"GR":8191,"GFL":8192,"GOS":8193,"GED":8194,"GAH":8195,"GAC":8196,"GCL":8197,"GFP":8198,"GZH":8199,"GRK":8200,"GCN":8201,"GWV":8202,"HW":8203,"HVT":8204,"HXG":8205,"HRQ":8206,"Ih":8207,"Iy":8208,"Ind":8209,"IKV":8210,"IOS":8211,"IBT":8212,"IOG":8213,"IYU":8214,"IWW":8215,"JJG":8216,"JMG":8217,"JOS":8218,"JAL":8219,"JVD":8220,"JED":8221,"JDN":8222,"JDS":8223,"JBQ":8224,"JII":8225,"JPQ":8226,"JJL":8227,"KBZ":8228,"KAR":8229,"KYZ":8230,"KJK":8231,"KFP":8232,"KTY":8233,"LDN":8234,"LWL":8235,"LAC":8236,"Limehouse":8237,"LOX":8238,"Minton":8239,"MBU":8240,"MNO":8241,"MIR":8242,"MNU":8243,"MPL":8244,"MAC":8245,"MBW":8246,"MIA":8247,"Nice":8248,"NGM":8249,"NJX":8250,"NAC":8251,"NJN":8252,"NSD":8253,"NNG":8254,"NVW":8255,"OZC":8256,"OWL":8257,"ODS":8258,"OWR":8259,"OVK":8260,"OPO":8261,"OHL":8262,"OZV":8263,"PEN":8264,"PEY":8265,"PMU":8266,"PSD":8267,"PFT":8268,"PGQ":8269,"Panahar":8270,"PXR":8271,"PEFS":8272,"Personally":8273,"QK":8274,"QIT":8275,"QMU":8276,"QJD":8277,"QYP":8278,"RAA":8279,"RXH":8280,"RYC":8281,"RET":8282,"ROG":8283,"RXQ":8284,"RXZ":8285,"RZR":8286,"Soul":8287,"Since":8288,"SSO":8289,"SYR":8290,"SPA":8291,"SID":8292,"STQ":8293,"SSL":8294,"SXC":8295,"SAF":8296,"SPL":8297,"SMO":8298,"SWX":8299,"SMH":8300,"SIJ":8301,"SIQ":8302,"SZT":8303,"SZK":8304,"SEO":8305,"SSY":8306,"TA":8307,"Table":8308,"Take":8309,"TFL":8310,"TES":8311,"TZC":8312,"TYZ":8313,"TPR":8314,"TEP":8315,"TPU":8316,"TZH":8317,"TWA":8318,"TLW":8319,"TAQ":8320,"TLC":8321,"TAI":8322,"UCU":8323,"UHU":8324,"UOR":8325,"UDS":8326,"UVX":8327,"UVZ":8328,"VY":8329,"VOK":8330,"VAA":8331,"VSO":8332,"VEZ":8333,"VES":8334,"VGM":8335,"VVP":8336,"VLK":8337,"VVF":8338,"VER":8339,"VSR":8340,"VJP":8341,"WE":8342,"WS":8343,"WKV":8344,"WBN":8345,"WIG":8346,"WPR":8347,"WZQ":8348,"WEK":8349,"XAA":8350,"XAG":8351,"XEN":8352,"XED":8353,"XEJ":8354,"XBY":8355,"XIW":8356,"XEU":8357,"YJ":8358,"YYH":8359,"YXH":8360,"YWC":8361,"YPR":8362,"YXA":8363,"YAY":8364,"YVG":8365,"YLN":8366,"ZVM":8367,"ZSF":8368,"ZLY":8369,"ZUT":8370,"ZAFT":8371,"bet":8372,"bloomsbury":8373,"could":8374,"centre":8375,"cafe":8376,"clect":8377,"eep":8378,"friendly":8379,"gn":8380,"galleria":8381,"gourmet":8382,"ho":8383,"holy":8384,"iere":8385,"iester":8386,"jor":8387,"kymmoy":8388,"none":8389,"omer":8390,"pound":8391,"tre":8392,"ture":8393,"taj":8394,"udd":8395,"xx":8396,"zizzi":8397,"ref":8398,"Ġtop":8399,"Ġter":8400,"Ġtel":8401,"Ġtat":8402,"Ġteen":8403,"Ġaw":8404,"iche":8405,"ically":8406,"hely":8407,"ories":8408,"Ġrese":8409,"Ġrece":8410,"Ġremain":8411,"Ġnapier":8412,"Ġbad":8413,"Ġbank":8414,"Ġbout":8415,"Ġbuis":8416,"Ġbelf":8417,"Ġbrass":8418,"Ġbrazilian":8419,"Ġca":8420,"Ġcet":8421,"Ġcust":8422,"Ġpar":8423,"Ġyip":8424,"Ġyello":8425,"Ġworry":8426,"Ġhu":8427,"Ġhandle":8428,"Ġhung":8429,"vered":8430,"Ġline":8431,"Ġmut":8432,"Ġmint":8433,"ness":8434,"ĠIC":8435,"ĠIK":8436,"ĠIVX":8437,"ĠIIL":8438,"ĠIFH":8439,"ĠIFX":8440,"aria":8441,"Ġtow":8442,"Ġtowards":8443,"Ġnum":8444,"Ġfi":8445,"Ġfle":8446,"Ġfab":8447,"Ġfig":8448,"three":8449,"thanh":8450,"another":8451,"ancy":8452,"ĠCE":8453,"ĠCJ":8454,"ĠCO":8455,"ĠCV":8456,"ĠCUL":8457,"ĠCIG":8458,"ĠCCT":8459,"ĠCXZ":8460,"ĠCOB":8461,"rian":8462,"Ġoffered":8463,"Ġtraum":8464,"Ġsol":8465,"Ġslight":8466,"ceed":8467,"uran":8468,"les":8469,"let":8470,"Ġ111":8471,"cta":8472,"Ġglobal":8473,"Ġ011":8474,"ĠWD":8475,"ĠWQ":8476,"ĠWR":8477,"ĠWX":8478,"ĠWWW":8479,"Ġran":8480,"Ġchance":8481,"Ġchild":8482,"itir":8483,"Ġlevel":8484,"ĠHB":8485,"ĠHE":8486,"ĠHG":8487,"ĠHS":8488,"ĠHU":8489,"ĠHY":8490,"ĠHa":8491,"ĠHAG":8492,"ĠHNO":8493,"ĠHXG":8494,"ĠHLD":8495,"ĠHalal":8496,"2329":8497,"2334":8498,"2357":8499,"2319":8500,"2392":8501,"ĠTA":8502,"ĠTB":8503,"ĠTE":8504,"ĠTQ":8505,"ĠTZ":8506,"ĠTech":8507,"ĠTVF":8508,"ĠTickets":8509,"Ġanyone":8510,"Ġeclect":8511,"120":8512,"1220":8513,"1287":8514,"1242":8515,"ddle":8516,"ĠAB":8517,"ĠAD":8518,"ĠAL":8519,"ĠAQ":8520,"ĠAS":8521,"ĠAllen":8522,"ĠAEN":8523,"ĠABK":8524,"ĠANH":8525,"ĠAJT":8526,"ĠAEB":8527,"ĠALE":8528,"ĠAND":8529,"ĠGD":8530,"ĠGJ":8531,"ĠGM":8532,"ĠGR":8533,"ĠGZ":8534,"ĠGAF":8535,"ĠGVN":8536,"ĠGPU":8537,"ĠGXT":8538,"ĠGJP":8539,"ĠGwydir":8540,"ĠGHP":8541,"ĠGUES":8542,"ĠSE":8543,"ĠSM":8544,"ĠSED":8545,"Ġofferings":8546,"ĠRC":8547,"ĠRF":8548,"ĠRG":8549,"ĠRH":8550,"ĠRJ":8551,"ĠRO":8552,"ĠRP":8553,"ĠRV":8554,"ĠRes":8555,"Ġwouldn":8556,"Ġbeg":8557,"ashley":8558,"ĠBD":8559,"ĠBE":8560,"ĠBU":8561,"ĠBV":8562,"ĠBW":8563,"ĠBVD":8564,"ĠBVC":8565,"ĠBWX":8566,"ĠBIB":8567,"ĠBSJ":8568,"ĠBNF":8569,"ĠBVU":8570,"ĠBrewery":8571,"ĠBTT":8572,"ĠBZX":8573,"ĠBudd":8574,"alf":8575,"alble":8576,"alright":8577,"Ġmessage":8578,"Ġnoddle":8579,"Ġ223":8580,"Ġ266":8581,"Ġ278":8582,"Ġguesth":8583,"Ġtowns":8584,"Ġ439":8585,"ĠDA":8586,"ĠDE":8587,"ĠDF":8588,"ĠDN":8589,"ĠDO":8590,"ĠDQ":8591,"ĠDT":8592,"ĠDX":8593,"ĠDY":8594,"ĠDay":8595,"ĠDKV":8596,"ĠDJF":8597,"ĠDWZ":8598,"ĠDCI":8599,"ĠDKE":8600,"ĠPA":8601,"ĠPN":8602,"ĠPV":8603,"ĠPara":8604,"ĠProt":8605,"ĠPEY":8606,"ĠPUX":8607,"ada":8608,"Ġneigh":8609,"ulous":8610,"Ġitine":8611,"Ġ307":8612,"ĠLI":8613,"ĠLJ":8614,"ĠLR":8615,"ĠLS":8616,"ĠLT":8617,"ĠLZ":8618,"ĠLn":8619,"ĠLGM":8620,"ĠLXZ":8621,"ĠLQS":8622,"churchill":8623,"ĠMB":8624,"ĠMF":8625,"ĠMM":8626,"ĠMR":8627,"ĠMY":8628,"ĠMZ":8629,"ĠMil":8630,"ĠMus":8631,"ĠMNO":8632,"ĠMNK":8633,"ĠMRQ":8634,"ĠMCS":8635,"ĠMQR":8636,"Ġthous":8637,"Ġthought":8638,"Ġ536":8639,"Ġ544":8640,"xible":8641,"Ġmoderatley":8642,"Ġ01223360":8643,"Ġ01223349":8644,"Ġ01223350420":8645,"Ġseen":8646,"ĠStevanage":8647,"Ġ0741":8648,"Ġ0753":8649,"Ġ0722":8650,"Ġ0731":8651,"Ġ07149":8652,"Ġ07566":8653,"Ġ07237":8654,"Ġ07906":8655,"Ġ07299":8656,"Ġ072054":8657,"vers":8658,"004":8659,"006":8660,"0035":8661,"0033":8662,"00085":8663,"ĠEK":8664,"ĠEM":8665,"ĠEP":8666,"ĠER":8667,"ĠErit":8668,"ĠENO":8669,"ĠEOP":8670,"ĠFC":8671,"ĠFP":8672,"ĠFU":8673,"ĠFW":8674,"ĠFKV":8675,"ĠFVN":8676,"ĠFGO":8677,"211":8678,"2141":8679,"2106":8680,"2148":8681,"2118":8682,"2192":8683,"ĠNA":8684,"ĠND":8685,"ĠNH":8686,"ĠNL":8687,"ĠNM":8688,"ĠNS":8689,"ĠNY":8690,"ĠNZ":8691,"ĠNEZ":8692,"ĠNGH":8693,"ĠNorthern":8694,"ĠNorthend":8695,"Ġselected":8696,"ills":8697,"1188":8698,"1160":8699,"1110":8700,"1108":8701,"1152":8702,"1144":8703,"1149":8704,"1193":8705,"1197":8706,"1165":8707,"Ġ738":8708,"Ġ718":8709,"ĠHouses":8710,"2417":8711,"2408":8712,"2452":8713,"2436":8714,"2445":8715,"2444":8716,"2442":8717,"2478":8718,"2471":8719,"2473":8720,"2462":8721,"2475":8722,"2432565":8723,"5815":8724,"5849":8725,"5869":8726,"5884":8727,"5863":8728,"ĠChurches":8729,"ĠChines":8730,"Ġ800":8731,"510":8732,"5100":8733,"5167":8734,"5163":8735,"51603":8736,"Ġ67":8737,"Ġ623":8738,"ĠKA":8739,"ĠKD":8740,"ĠKE":8741,"ĠKJ":8742,"ĠKK":8743,"ĠKS":8744,"ĠKW":8745,"ĠKX":8746,"ĠKOO":8747,"ĠKSF":8748,"ĠKSH":8749,"ĠKVV":8750,"ĠKCI":8751,"6633":8752,"6668":8753,"6673":8754,"6698":8755,"6662":8756,"Ġ93":8757,"301":8758,"304":8759,"308":8760,"3066":8761,"3052":8762,"3078":8763,"Ġ114":8764,"070":8765,"073":8766,"0757":8767,"0755":8768,"0768":8769,"0767":8770,"Ġhasn":8771,"Ġwho":8772,"Ġmajor":8773,"Ġvie":8774,"2016":8775,"2069":8776,"2098":8777,"174":8778,"175":8779,"176":8780,"1764":8781,"1784":8782,"5060":8783,"5057":8784,"5032":8785,"50505":8786,"Ġdiffer":8787,"881":8788,"884":8789,"8899":8790,"8863":8791,"8873":8792,"8893":8793,"8805":8794,"544":8795,"547":8796,"5412":8797,"5410":8798,"5408":8799,"5436":8800,"5433":8801,"5496":8802,"Ġ168":8803,"Ġ1630":8804,"Ġ1610":8805,"609":8806,"6011":8807,"6024":8808,"6088":8809,"6027":8810,"6016":8811,"6037":8812,"6096":8813,"2958":8814,"2952":8815,"2941":8816,"2919":8817,"2913":8818,"2999":8819,"2969":8820,"Ġ125":8821,"101":8822,"103":8823,"1030":8824,"1088":8825,"1039":8826,"1044":8827,"1037":8828,"1086":8829,"1047":8830,"1062":8831,"089":8832,"0823":8833,"0822":8834,"Ġ1414":8835,"ĠUD":8836,"ĠUH":8837,"ĠUO":8838,"ĠUS":8839,"ĠUX":8840,"ĠUY":8841,"ĠUZF":8842,"ĠVC":8843,"ĠVO":8844,"ĠVU":8845,"ĠVON":8846,"ĠVZF":8847,"izi":8848,"Ġunless":8849,"Ġunique":8850,"ĠArri":8851,"ĠJA":8852,"ĠJD":8853,"ĠJI":8854,"ĠJP":8855,"ĠJGN":8856,"ĠJAK":8857,"ĠJJW":8858,"159":8859,"1521":8860,"1550":8861,"1534":8862,"1590":8863,"1528":8864,"1562":8865,"ĠOE":8866,"ĠOI":8867,"ĠOL":8868,"ĠOM":8869,"ĠOQ":8870,"ĠOS":8871,"ĠOZ":8872,"ĠOES":8873,"ĠOTQ":8874,"ĠOWA":8875,"ĠOJF":8876,"5287":8877,"5273":8878,"5285":8879,"5936":8880,"5906":8881,"5971":8882,"Ġotherwise":8883,"409":8884,"4017":8885,"4068":8886,"4096":8887,"2759":8888,"2709":8889,"2755":8890,"2713":8891,"2776":8892,"4615":8893,"463830":8894,"462432565":8895,"Ġmakes":8896,"399":8897,"3940":8898,"3922":8899,"3999":8900,"3969":8901,"3973":8902,"3904":8903,"enterology":8904,"3566":8905,"3564":8906,"3451":8907,"3466":8908,"3420":8909,"3433":8910,"3447":8911,"34356":8912,"Ġ180":8913,"416":8914,"4144":8915,"4161":8916,"013":8917,"0139":8918,"0168":8919,"0192":8920,"urchhill":8921,"5717":8922,"5749":8923,"5762":8924,"5793":8925,"5797":8926,"3212":8927,"3259":8928,"Ġ206":8929,"ĠLeiester":8930,"437":8931,"4300":8932,"4351":8933,"4346":8934,"4387":8935,"4389":8936,"4376":8937,"Ġjamaican":8938,"Ġenjoyable":8939,"902":8940,"9024":8941,"9030":8942,"9033":8943,"90257":8944,"5611":8945,"5688":8946,"5613":8947,"5649":8948,"5648":8949,"5678":8950,"5626":8951,"5670":8952,"5691":8953,"804":8954,"8054":8955,"8036":8956,"8044":8957,"368":8958,"3624":8959,"3634":8960,"362974":8961,"liple":8962,"4553":8963,"45339":8964,"3873":8965,"192":8966,"1911":8967,"1955":8968,"1978":8969,"163":8970,"164":8971,"165":8972,"1656":8973,"0916":8974,"0998":8975,"0992":8976,"09147":8977,"clubs":8978,"5312":8979,"5370":8980,"mag":8981,"879":8982,"8724":8983,"8762":8984,"Ġlookup":8985,"063":8986,"0615":8987,"0638":8988,"0644":8989,"0677":8990,"0678":8991,"0672":8992,"Ġproceed":8993,"ĠYJ":8994,"ĠYN":8995,"ĠYO":8996,"ĠYQ":8997,"ĠYU":8998,"ĠYSV":8999,"ĠYFF":9000,"ĠYWN":9001,"5511":9002,"5558":9003,"5538":9004,"4266":9005,"4250":9006,"4280":9007,"774":9008,"7759":9009,"7727":9010,"7706":9011,"7744":9012,"7768":9013,"7776":9014,"7763":9015,"7747":9016,"7785":9017,"1339":9018,"1336":9019,"138056":9020,"492":9021,"4977":9022,"4992":9023,"JGD":9024,"JGH":9025,"JGO":9026,"JGHN":9027,"Ġ01223358399":9028,"281":9029,"282":9030,"2851":9031,"2850":9032,"2815":9033,"2840":9034,"2833":9035,"2831":9036,"ĠAshely":9037,"485":9038,"4800":9039,"4829":9040,"4840":9041,"4836":9042,"4813":9043,"4899":9044,"4861":9045,"785":9046,"789":9047,"7852":9048,"7834":9049,"7864":9050,"ucking":9051,"1830":9052,"1817":9053,"1842":9054,"1849":9055,"1864":9056,"18620":9057,"rews":9058,"267":9059,"2634":9060,"2656":9061,"2636":9062,"2687":9063,"2677":9064,"2625":9065,"2673":9066,"26339":9067,"7940":9068,"7935":9069,"7943":9070,"7978":9071,"7979":9072,"Ġadmittance":9073,"3339":9074,"ĠChurchhill":9075,"ĠNewham":9076,"ĠNewMarket":9077,"Ġtelling":9078,"ĠZE":9079,"ĠZG":9080,"ĠZI":9081,"ĠZQ":9082,"ĠZS":9083,"ĠZX":9084,"ĠZMG":9085,"ĠZCR":9086,"ĠZDT":9087,"ĠZLR":9088,"ĠZVF":9089,"ĠZSD":9090,"ĠZPD":9091,"Ġ331":9092,"ĠQB":9093,"ĠQL":9094,"ĠQW":9095,"ĠQX":9096,"ĠQMY":9097,"ĠQIT":9098,"ĠQMH":9099,"ĠQLK":9100,"ĠQSN":9101,"Also":9102,"Almost":9103,"2521":9104,"ĠXB":9105,"ĠXF":9106,"ĠXZ":9107,"ĠXDY":9108,"ĠXMC":9109,"ĠXPE":9110,"ĠXFD":9111,"ĠXGBQ":9112,"3730":9113,"3735":9114,"3780":9115,"3736":9116,"3787":9117,"3765":9118,"3703":9119,"897":9120,"8954":9121,"8935":9122,"veller":9123,"6457":9124,"6456":9125,"9911":9126,"9942":9127,"9999":9128,"9997":9129,"1412":9130,"1400":9131,"1490":9132,"1477":9133,"1472":9134,"1475":9135,"7043":9136,"703476":9137,"OKFF":9138,"6823":9139,"68321":9140,"ĠChrists":9141,"6958":9142,"6908":9143,"6980":9144,"6919":9145,"6913":9146,"Ġ247877":9147,"Ġ07912":9148,"Ġ07951":9149,"Ġ07908":9150,"Ġ07957":9151,"Ġ07980":9152,"Ġ07916":9153,"Ġ07987":9154,"Ġ07976":9155,"Ġ079410":9156,"Ġ079449":9157,"Ġ079394":9158,"Ġ07918620":9159,"8659":9160,"8627":9161,"8653":9162,"8699":9163,"8674":9164,"7151":9165,"Ġkinda":9166,"Ġ07634":9167,"Ġ07643":9168,"Ġ07625":9169,"Ġ07699":9170,"Ġ07674":9171,"Ġ076199":9172,"Ġ076468":9173,"Ġ076359":9174,"Ġ076362974":9175,"7634":9176,"7653":9177,"7671":9178,"Ġ01223355909":9179,"8466":9180,"8420":9181,"Ġ0775":9182,"Ġ07700":9183,"Ġ07730":9184,"Ġ07760":9185,"Ġ07740":9186,"Ġ07736":9187,"Ġ07738":9188,"Ġ07733":9189,"Ġ077466":9190,"Ġ077378":9191,"Ġ0771027":9192,"Ġ367660":9193,"961":9194,"9611":9195,"9688":9196,"9641":9197,"9680":9198,"9616":9199,"9644":9200,"9678":9201,"Gladly":9202,"Ġdespite":9203,"Ġfunk":9204,"7223":9205,"7257":9206,"itched":9207,"3190":9208,"3187":9209,"673":9210,"6741":9211,"6725":9212,"Ġ2800":9213,"Ġ2828":9214,"Ġ356666":9215,"Ġ356060":9216,"Ġ07835":9217,"Ġ07857":9218,"Ġ078558":9219,"Ġ01223217450":9220,"Ġ01223217671":9221,"6310":9222,"6313":9223,"473":9224,"4758":9225,"4708":9226,"4757":9227,"2402":9228,"7310":9229,"9835":9230,"9831":9231,"MWP":9232,"9187":9233,"Ġ07021":9234,"Ġ07058":9235,"Ġ07029":9236,"Ġ07015":9237,"Ġ070552":9238,"Ġ0704379":9239,"9424":9240,"9460":9241,"9427":9242,"9445":9243,"9487":9244,"7420":9245,"Ġ5636":9246,"9226":9247,"9225":9248,"zza":9249,"Ġclosely":9250,"Ġpostalcode":9251,"DCA":9252,"Ġchristmas":9253,"6224":9254,"Churchhill":9255,"Ġtandoor":9256,"8260":9257,"8255":9258,"Ġ07451":9259,"Ġ07407":9260,"Ġ07439":9261,"Ġ074247":9262,"Ġ0742054":9263,"Ġ074218":9264,"rania":9265,"ĠDale":9266,"9332":9267,"Ġnearly":9268,"times":9269,"Ġnineteen":9270,"ginning":9271,"Ġ2929":9272,"2361":9273,"2333057":9274,"0466":9275,"0415":9276,"0440":9277,"0471":9278,"9724":9279,"9732":9280,"Ġzealand":9281,"AAO":9282,"Ġtimeslot":9283,"Ġscandinavian":9284,"MYG":9285,"MYX":9286,"Ġ0122336661":9287,"Ġ07323":9288,"Ġ07321":9289,"Ġ07359":9290,"Ġ07346":9291,"Ġ07334":9292,"Ġ073599":9293,"YHS":9294,"Ġ01223324351":9295,"BUD":9296,"KVN":9297,"KVJV":9298,"SOF":9299,"SOR":9300,"SOW":9301,"singly":9302,"8135":9303,"EZL":9304,"EZP":9305,"EZZN":9306,"Ġ01223274222":9307,"YRU":9308,"3889":9309,"AGN":9310,"CRCL":9311,"CUP":9312,"SUH":9313,"SUAGG":9314,"XHA":9315,"ITD":9316,"OSD":9317,"0378":9318,"ALA":9319,"ALL":9320,"PAR":9321,"01223353":9322,"01223334":9323,"8604":9324,"PBD":9325,"ZCC":9326,"ZCF":9327,"ZCL":9328,"Ġ01233":9329,"Ġ01462432565":9330,"2575401":9331,"GMA":9332,"WFU":9333,"ARU":9334,"ARZY":9335,"EDA":9336,"BIO":9337,"BIQ":9338,"BIJU":9339,"BIFD":9340,"BNK":9341,"BNBR":9342,"EJF":9343,"EJQ":9344,"EJZ":9345,"HUXEU":9346,"ORN":9347,"SLF":9348,"SLK":9349,"SLY":9350,"SVF":9351,"ĠBeginning":9352,"ETN":9353,"ETY":9354,"....":9355,"1120":9356,"BTN":9357,"DNK":9358,"DNS":9359,"OGBR":9360,"OGUR":9361,"XCD":9362,"XCH":9363,"XCO":9364,"XCW":9365,"AFE":9366,"AFP":9367,"ĠTraveller":9368,"ĠBotanical":9369,"Ġroutes":9370,"AJA":9371,"MFD":9372,"MFRZ":9373,"PPD":9374,"QGD":9375,"WLA":9376,"WLV":9377,"WLY":9378,"Ġ07520":9379,"EFU":9380,"EFX":9381,"LQZ":9382,"ULI":9383,"ĠFee":9384,"JSP":9385,"JSQ":9386,"YZB":9387,"YZI":9388,"YZUY":9389,"ZZGL":9390,"BHK":9391,"DTL":9392,"DTO":9393,"DTZ":9394,"JEV":9395,"JKM":9396,"JMTO":9397,"VCV":9398,"WCE":9399,"WCF":9400,"WCO":9401,"WCX":9402,"39758":9403,"1542":9404,"1546":9405,"BKF":9406,"IGK":9407,"JXN":9408,"VTHJ":9409,"Ġeighteen":9410,"ĠAmericas":9411,"Ġ07123":9412,"Ġ07130":9413,"Ġ07140":9414,"Ġ07146":9415,"PLZ":9416,"ACG":9417,"BRM":9418,"BRFT":9419,"DZW":9420,"DZGMA":9421,"FFR":9422,"FFT":9423,"IIV":9424,"JNN":9425,"JNAC":9426,"MOF":9427,"MOHD":9428,"WKA":9429,"WKI":9430,"WXESP":9431,"ZNF":9432,"ZNJH":9433,"ZQN":9434,"ZQV":9435,"ASS":9436,"ICP":9437,"IFK":9438,"VHA":9439,"VHJ":9440,"VHN":9441,"VHW":9442,"VMA":9443,"VMJ":9444,"VMT":9445,"VMX":9446,"YQN":9447,"YQS":9448,"Ġ07212":9449,"Ġ07207":9450,"OUT":9451,"OUCJ":9452,"OUSE":9453,"DYJ":9454,"DYT":9455,"EPI":9456,"WNH":9457,"WNX":9458,"BOH":9459,"CJI":9460,"CJZ":9461,"MHR":9462,"MHT":9463,"MRI":9464,"MRK":9465,"MRQ":9466,"NRCE":9467,"PUQ":9468,"SQR":9469,"URZ":9470,"VOQPH":9471,"YOT":9472,"Ġ07880":9473,"CTF":9474,"CTS":9475,"CTTG":9476,"EWG":9477,"EWQ":9478,"FPQ":9479,"FPZ":9480,"GDIBP":9481,"GDBZA":9482,"IJB":9483,"IJP":9484,"LHM":9485,"LHO":9486,"MNB":9487,"SHC":9488,"IKD":9489,"Ġclarification":9490,"2211":9491,"3547":9492,"IXJ":9493,"MKW":9494,"WRE":9495,"WRS":9496,"XFY":9497,"BLJGHN":9498,"FTK":9499,"FTT":9500,"NHD":9501,"OIWKI":9502,"XTP":9503,"prisingly":9504,"Ġreccomend":9505,"DOD":9506,"DOV":9507,"ELU":9508,"55225":9509,"EQK":9510,"IPF":9511,"Perhaps":9512,"UYV":9513,"VQL":9514,"WDRAA":9515,"XKH":9516,"ZKZ":9517,"HKC":9518,"HKR":9519,"WYT":9520,"CNL":9521,"CNX":9522,"JQM":9523,"Ġstyles":9524,"Ġ566188":9525,"Ġ07306":9526,"Ġ0730458":9527,"PHIR":9528,"Ġsaying":9529,"CSA":9530,"DQZ":9531,"HDV":9532,"HHC":9533,"HHS":9534,"ILV":9535,"IYE":9536,"LYL":9537,"PNYHS":9538,"UTC":9539,"UTT":9540,"ĠWise":9541,"12603":9542,"Ġ012232564":9543,"8519":9544,"GLJED":9545,"RFJQ":9546,"ZRJ":9547,"Ġ075852":9548,"JYN":9549,"ĠLookout":9550,"BWG":9551,"EOW":9552,"MLX":9553,"SGFH":9554,"UHG":9555,"XRZ":9556,"NFN":9557,"Ġregardless":9558,"1873":9559,"CQW":9560,"FUI":9561,"FUX":9562,"GVY":9563,"NAMG":9564,"ZYJ":9565,"Ġ0746915":9566,"Ġ07462575401":9567,"IVU":9568,"PYB":9569,"Ġ075407":9570,"Ġ070809":9571,"Ġ0122350333":9572,"Ġtransplant":9573,"6162":9574,"8431":9575,"HCW":9576,"Meze":9577,"SKIC":9578,"Ġ0756247":9579,"KCVTHJ":9580,"arrival":9581,"Ġ07263703":9582,"6799":9583,"9012325":9584,"CXB":9585,"FODS":9586,"HYL":9587,"OEIK":9588,"Ġ07121756":9589,"1809":9590,"4076":9591,"4078":9592,"ABQG":9593,"DDI":9594,"EIO":9595,"FQY":9596,"FRX":9597,"NCV":9598,"VVA":9599,"Ġprior":9600,"90366":9601,"Ġ0757463830":9602,"3304":9603,"3173":9604,"HQVD":9605,"KPV":9606,"SZJ":9607,"Ġ07389012325":9608,"Ġ070642":9609,"Ġ0789839":9610,"ĠPostal":9611,"Ġ074040":9612,"6203":9613,"6572":9614,"8285":9615,"GGR":9616,"NNN":9617,"RVY":9618,"OVA":9619,"Ġversa":9620,"Ġdelay":9621,"8177":9622,"9083":9623,"9805":9624,"9383":9625,"9384":9626,"9386":9627,"WUN":9628,"Ġfollows":9629,"Ġ071013":9630,"3515":9631,"3197":9632,"7542":9633,"8089":9634,"9588":9635,"9891":9636,"TDBIJU":9637,"TVYR":9638,"Ġboard":9639,"Ġneuros":9640,"Ġ07669":9641,"Ġ07137":9642,"Ġtours":9643,"Ġmodrate":9644,"Ġcancer":9645,"4106":9646,"7692":9647,"9495":9648,"ĠBelfast":9649,"Ġ07862333057":9650,"26151603":9651,"Ġ072298":9652,"Ġconcerns":9653,"4204":9654,"4549":9655,"6549":9656,"6419":9657,"6763":9658,"Should":9659,"TOYZUY":9660,"idding":9661,"Ġeatery":9662,"Ġ01223596055":9663,"ĠDeparture":9664,"Ġ076400":9665,"545456":9666,"28007":9667,"ĠZKOGBR":9668,"3128":9669,"Ġsingaporean":9670,"Ġresturants":9671,"0497":9672,"5365":9673,"7578":9674,"UDDOV":9675,"Ġreasonable":9676,"Ġanythign":9677,"Ġ07289":9678,"Ġ07845910":9679,"ĠFTVOQPH":9680,"ĠKHBLJGHN":9681,"34136":9682,"Ġaccomodate":9683,"8364":9684,"Reservations":9685,"Ġhandful":9686,"Ġservers":9687,"01223245151":9688,"Ġhistorical":9689,"1584":9690,"4344":9691,"5389":9692,"7409":9693,"9179":9694,"Ġtwice":9695,"Ġtwenty":9696,"Ġincre":9697,"Ġincorrect":9698,"Ġsituation":9699,"Ġsituated":9700,"Ġwishes":9701,"Ġwished":9702,"ĠBelfy":9703,"ĠBelfrey":9704,"ĠLXMFRZ":9705,"Ġexists":9706,"Ġavaialble":9707,"Ġ1223316074":9708,"Ġ07924138056":9709,"Ġ077226339":9710,"Ġ01223217712":9711,"Ġproperty":9712,"Ġproperties":9713,"Ġ01223256650":9714,"Ġ01223256645":9715,"Ġwallet":9716,"ĠCentral":9717,"ĠAddenbrook":9718,"8495":9719,"BMGNI":9720,"Looks":9721,"VYTSIJ":9722,"ZBNKZ":9723,"optional":9724,"Ġnighclubs":9725,"mediately":9726,"Ġluxury":9727,"ĠIXEZZN":9728,"ĠCabridge":9729,"ĠAllenball":9730,"ĠGLBNK":9731,"Ġ01223257168":9732,"ĠPizzaria":9733,"ĠLMABMGNI":9734,"ĠMXMOHD":9735,"Ġ075554":9736,"ĠEverything":9737,"586609":9738,"Ġaboard":9739,"Ġvacancy":9740,"Ġ07621703476":9741,"Ġ07648586609":9742,"Ġ0741190257":9743,"Ġ07330545456":9744,"Ġ01223256166":9745,"Ġ07998934356":9746,"ĠHungtington":9747,"Ġattempt":9748,"Addensbrookes":9749,"ugese":9750,"Ġimmediately":9751,"ĠWeds":9752,"Ġlimit":9753,"Ġpreferable":9754,"ĠYRIP":9755,"Ġbuildings":9756,"Ġcontinue":9757,"7177":9758,"Departure":9759,"EELPU":9760,"FGDRE":9761,"IKVZ":9762,"ODSGJ":9763,"QYPSGFH":9764,"ROGD":9765,"SYRZN":9766,"SPLT":9767,"SSYP":9768,"VVPV":9769,"YXAW":9770,"Ġterms":9771,"Ġteenage":9772,"Ġbuisness":9773,"Ġbrassiere":9774,"Ġcustomer":9775,"Ġmutliple":9776,"Ġmintues":9777,"ĠIFHSYRZN":9778,"ĠIFXPNYHS":9779,"Ġflexible":9780,"Ġfabulous":9781,"ĠCIGYXAW":9782,"Ġtrauma":9783,"Ġsolid":9784,"Ġslightly":9785,"Ġchildren":9786,"itiroomz":9787,"Ġeclectic":9788,"ĠABKFF":9789,"ĠAJTE":9790,"ĠAEBKVJV":9791,"ĠBTTS":9792,"ĠBuddha":9793,"ĠParace":9794,"Ġitinerary":9795,"ĠMNKWT":9796,"ĠMQRGDBZA":9797,"Ġthousand":9798,"Ġ01223360409":9799,"Ġ0122334900":9800,"ĠEritrean":9801,"ĠEOPOKFF":9802,"ĠFGOM":9803,"ĠNGHD":9804,"ĠKSFSKIC":9805,"ĠKCIWXESP":9806,"Ġmajority":9807,"Ġview":9808,"ĠUZFW":9809,"ĠJJWEO":9810,"ĠOJFUL":9811,"ĠYSVSLY":9812,"ĠYFFSHC":9813,"ĠZVFTQ":9814,"ĠQSNSUAGG":9815,"ĠXDYJMTO":9816,"ĠXMCHT":9817,"ĠXGBQHC":9818,"Ġ07918620184":9819,"Ġ07619968321":9820,"Ġ07636297454":9821,"Ġ07737828007":9822,"Ġ07710275649":9823,"Ġ07855855225":9824,"Ġ07043795737":9825,"Ġ07420542713":9826,"ARZYTLC":9827,"HUXEUZ":9828,"OUCJV":9829,"Ġ07304585611":9830,"Ġ01223256459":9831,"GLJEDPZ":9832,"Ġ07469156027":9833,"Ġ07562472408":9834,"Ġ07263703306":9835,"Ġ07121756826":9836,"Ġ07574638307":9837,"Ġ07898395762":9838,"ĠZKOGBRMR":9839,"Ġ07845910981":9840,"ĠFTVOQPHP":9841,"ĠLXMFRZLR":9842,"Ġ07722633912":9843,"ĠIXEZZNYL":9844,"ĠMXMOHDJ":9845,"Ġ07411902572":9846,"!)":9847,"!.":9848,"0277":9849,"287":9850,"3279":9851,"8202":9852,"9236":9853,"An":9854,"BE":9855,"But":9856,"CBZ":9857,"Clowns":9858,"Every":9859,"Found":9860,"Four":9861,"GCA":9862,"Hey":9863,"Hughes":9864,"Hold":9865,"Hills":9866,"Jesus":9867,"LNF":9868,"Michaelhouse":9869,"Name":9870,"Now":9871,"Se":9872,"Sid":9873,"Some":9874,"Saffron":9875,"Tell":9876,"TTR":9877,"VAK":9878,"Wow":9879,"alpha":9880,"bo":9881,"but":9882,"bell":9883,"blue":9884,"booked":9885,"ballare":9886,"call":9887,"castle":9888,"cience":9889,"era":9890,"fly":9891,"fantastic":9892,"glad":9893,"hotel":9894,"hood":9895,"iest":9896,"iar":9897,"ike":9898,"ien":9899,"ighe":9900,"ises":9901,"jesus":9902,"jured":9903,"lin":9904,"located":9905,"my":9906,"mation":9907,"mosp":9908,"ni":9909,"now":9910,"nbell":9911,"oderat":9912,"park":9913,"place":9914,"post":9915,"prezzo":9916,"rict":9917,"rounding":9918,"sy":9919,"sala":9920,"ten":9921,"uate":9922,"vw":9923,"vest":9924,"ware":9925,"Ġ$":9926,"Ġ+":9927,"Ġot":9928,"Ġentre":9929,"ĠOkay":9930,"Ġive":9931,"Ġtuscan":9932,"Ġag":9933,"Ġay":9934,"Ġaut":9935,"ics":9936,"ication":9937,"icient":9938,"raving":9939,"oux":9940,"Ġintensive":9941,"stent":9942,"inity":9943,"Ġrecomend":9944,"Ġrenow":9945,"Ġnorthend":9946,"eri":9947,"Ġbb":9948,"Ġbra":9949,"Ġbound":9950,"Ġbase":9951,"Ġce":9952,"Ġcn":9953,"Ġchat":9954,"Ġcap":9955,"Ġcru":9956,"Ġcambrdige":9957,"Ġcambri":9958,"Ġcraving":9959,"Ġport":9960,"Ġpinto":9961,"Ġinjured":9962,"ele":9963,"Ġhot":9964,"Ġhuntingd":9965,"Ġhogwarts":9966,"Ġhighe":9967,"ather":9968,"atch":9969,"Ġlco":9970,"Ġlab":9971,"Ġlines":9972,"mbe":9973,"nded":9974,"Ġmotel":9975,"new":9976,"nece":9977,"ĠisC":9978,"Ġdan":9979,"Ġdep":9980,"see":9981,"arl":9982,"arbury":9983,"Ġtoward":9984,"Ġnumbe":9985,"Ġflu":9986,"Ġfil":9987,"Ġfond":9988,"ĠCor":9989,"ĠCEN":9990,"Ġodd":9991,"rike":9992,"Ġoften":9993,"Ġatt":9994,"Ġatmosp":9995,"Ġtran":9996,"Ġsy":9997,"These":9998,"leave":9999}