{"<|endoftext|>":0,"!":1,"\"":2,"#":3,"$":4,"%":5,"&":6,"'":7,"(":8,")":9,"*":10,"+":11,",":12,"-":13,".":14,"/":15,"0":16,"1":17,"2":18,"3":19,"4":20,"5":21,"6":22,"7":23,"8":24,"9":25,":":26,";":27,"<":28,"=":29,">":30,"?":31,"@":32,"A":33,"B":34,"C":35,"D":36,"E":37,"F":38,"G":39,"H":40,"I":41,"J":42,"K":43,"L":44,"M":45,"N":46,"O":47,"P":48,"Q":49,"R":50,"S":51,"T":52,"U":53,"V":54,"W":55,"X":56,"Y":57,"Z":58,"[":59,"\\":60,"]":61,"^":62,"_":63,"`":64,"a":65,"b":66,"c":67,"d":68,"e":69,"f":70,"g":71,"h":72,"i":73,"j":74,"k":75,"l":76,"m":77,"n":78,"o":79,"p":80,"q":81,"r":82,"s":83,"t":84,"u":85,"v":86,"w":87,"x":88,"y":89,"z":90,"{":91,"|":92,"}":93,"~":94,"¡":95,"¢":96,"£":97,"¤":98,"¥":99,"¦":100,"§":101,"¨":102,"©":103,"ª":104,"«":105,"¬":106,"®":107,"¯":108,"°":109,"±":110,"²":111,"³":112,"´":113,"µ":114,"¶":115,"·":116,"¸":117,"¹":118,"º":119,"»":120,"¼":121,"½":122,"¾":123,"¿":124,"À":125,"Á":126,"Â":127,"Ã":128,"Ä":129,"Å":130,"Æ":131,"Ç":132,"È":133,"É":134,"Ê":135,"Ë":136,"Ì":137,"Í":138,"Î":139,"Ï":140,"Ð":141,"Ñ":142,"Ò":143,"Ó":144,"Ô":145,"Õ":146,"Ö":147,"×":148,"Ø":149,"Ù":150,"Ú":151,"Û":152,"Ü":153,"Ý":154,"Þ":155,"ß":156,"à":157,"á":158,"â":159,"ã":160,"ä":161,"å":162,"æ":163,"ç":164,"è":165,"é":166,"ê":167,"ë":168,"ì":169,"í":170,"î":171,"ï":172,"ð":173,"ñ":174,"ò":175,"ó":176,"ô":177,"õ":178,"ö":179,"÷":180,"ø":181,"ù":182,"ú":183,"û":184,"ü":185,"ý":186,"þ":187,"ÿ":188,"Ā":189,"ā":190,"Ă":191,"ă":192,"Ą":193,"ą":194,"Ć":195,"ć":196,"Ĉ":197,"ĉ":198,"Ċ":199,"ċ":200,"Č":201,"č":202,"Ď":203,"ď":204,"Đ":205,"đ":206,"Ē":207,"ē":208,"Ĕ":209,"ĕ":210,"Ė":211,"ė":212,"Ę":213,"ę":214,"Ě":215,"ě":216,"Ĝ":217,"ĝ":218,"Ğ":219,"ğ":220,"Ġ":221,"ġ":222,"Ģ":223,"ģ":224,"Ĥ":225,"ĥ":226,"Ħ":227,"ħ":228,"Ĩ":229,"ĩ":230,"Ī":231,"ī":232,"Ĭ":233,"ĭ":234,"Į":235,"į":236,"İ":237,"ı":238,"Ĳ":239,"ĳ":240,"Ĵ":241,"ĵ":242,"Ķ":243,"ķ":244,"ĸ":245,"Ĺ":246,"ĺ":247,"Ļ":248,"ļ":249,"Ľ":250,"ľ":251,"Ŀ":252,"ŀ":253,"Ł":254,"ł":255,"Ń":256,"Ġ=":257,"Ġ|":258,"er":259,"an":260,"Ġr":261,"at":262,"Ġc":263,"Ġf":264,"ri":265,"en":266,"he":267,"es":268,"Ġa":269,"in":270,"Ġt":271,"am":272,"ly":273,"od":274,"ood":275,"ea":276,"Ġp":277,"is":278,"Ġo":279,"Ġfood":280,"ge":281,"st":282,"ce":283,"The":284,"ing":285,"Ġis":286,"Ġn":287,"Ġrat":288,"om":289,"Ġpri":290,"Ġrating":291,"end":292,"ame":293,"riend":294,"riendly":295,"Ġcu":296,"stom":297,"stomer":298,"id":299,"Ġprice":300,"Ġcustomer":301,"name":302,"ĠThe":303,"ver":304,"it":305,"ĠI":306,"ta":307,"ĠC":308,"Ġran":309,"Ġrange":310,"ater":311,"Ġof":312,"ear":313,"Ġs":314,"Ġnear":315,"ami":316,"re":317,"Ġfami":318,"Ġfamily":319,"ur":320,"Ġe":321,"pe":322,"Ġ5":323,"Ġh":324,"Ġl":325,"atery":326,"Ġeatery":327,"Ġty":328,"Ġtype":329,"Ġar":330,"iver":331,"Ġarea":332,"ent":333,"ide":334,"side":335,"iverside":336,"Ġthe":337,"friendly":338,"Ġriverside":339,"ut":340,"esta":341,"ĠB":342,"ho":343,"ant":344,"urant":345,"estaurant":346,"Ġrestaurant":347,"ate":348,"Ġan":349,"ĠF":350,"li":351,"fe":352,"Ġout":353,"Ġlo":354,"Ġth":355,"ffe":356,"Ġco":357,"ffee":358,"Ġcoffee":359,"hop":360,"ap":361,"Ġshop":362,"Ġin":363,"gh":364,"ity":365,"ĠR":366,"Â£":367,"ĠÂ£":368,"Ġcent":369,"Ġm":370,"Ġcity":371,"igh":372,"Ġand":373,"Ġhigh":374,"Ġcentre":375,"ese":376,"Ġy":377,"ch":378,"il":379,"Ġyes":380,"Ġfriendly":381,"ĠIt":382,"ĠE":383,"ĠIn":384,"ĠP":385,"Ġno":386,"ated":387,"Ġthan":388,"Ġw":389,"20":390,"ren":391,"cated":392,"ub":393,"Ġha":394,"Ġpub":395,"le":396,"ast":397,"Ġlocated":398,"Ġhas":399,"ro":400,"di":401,"ĠW":402,"vera":403,"verage":404,"dian":405,"ĠA":406,"ess":407,"Ġaverage":408,"ĠIndian":409,"erv":410,"Jap":411,"anese":412,"Ġserv":413,"Japanese":414,"Ġb":415,"ice":416,"lian":417,"ĠJapanese":418,"talian":419,"ou":420,"ĠItalian":421,"Ġlow":422,"ĠH":423,"oder":424,"oderate":425,"ith":426,"Ġmoderate":427,"rench":428,"ĠFrench":429,"ĠG":430,"ve":431,"Ġwith":432,"af":433,"Ã©":434,"afÃ©":435,"ĠCafÃ©":436,"um":437,"ĠS":438,"al":439,"ol":440,"ers":441,"or":442,"Ġche":443,"ild":444,"Ġcheap":445,"ĠT":446,"Ġ3":447,"ish":448,"ne":449,"ar":450,"lish":451,"Ġless":452,"Ġserves":453,"ng":454,"oat":455,"ĠRice":456,"ĠBoat":457,"Ġ1":458,"ĠFast":459,"nglish":460,"ĠEnglish":461,"Ġthat":462,"hild":463,"hin":464,"hinese":465,"Ġchild":466,"ĠChinese":467,"ra":468,"ore":469,"Ġmore":470,"la":471,"30":472,"tl":473,"man":474,"aterman":475,"ĠWaterman":476,"dge":477,"amb":478,"ridge":479,"ĠCamb":480,"ĠCambridge":481,"Ġby":482,"Ġnot":483,"25":484,"old":485,"olden":486,"ĠGolden":487,"ed":488,"Ġk":489,"row":490,"Ġkid":491,"xp":492,"ll":493,"ot":494,"ns":495,"ĠTw":496,"ow":497,"ue":498,"ere":499,"ment":500,"Ġit":501,"ĠBar":502,"ĠM":503,"Lo":504,"ĠV":505,"ĠO":506,"lies":507,"Ġpriced":508,"ĠAr":509,"ry":510,"lue":511,"Ġrated":512,"led":513,"Ġcal":514,"Ġcalled":515,"ix":516,"zb":517,"itzb":518,"illies":519,"itzbillies":520,"ag":521,"Ġat":522,"ĠEag":523,"ĠEagle":524,"Ġfast":525,"ĠCur":526,"ĠCurry":527,"se":528,"here":529,"ay":530,"liment":531,"limentum":532,"da":533,"Ġfor":534,"Ġoff":535,"ĠRa":536,"ĠBlue":537,"ress":538,"ĠExp":539,"olid":540,"ĠHolid":541,"ĠHoliday":542,"ĠInn":543,"ĠExpress":544,"enix":545,"hoenix":546,"ĠPhoenix":547,"rowns":548,"ĠRou":549,"ĠRouge":550,"tra":551,"trada":552,"res":553,"restl":554,"restlers":555,"ĠWrestlers":556,"Ġto":557,"Ġchildren":558,"ul":559,"un":560,"ive":561,"ic":562,"ouse":563,"ces":564,"ĠHouse":565,"yne":566,"Loch":567,"ĠFyne":568,"There":569,"and":570,"ult":571,"ms":572,"Ġpro":573,"ĠN":574,"ĠFitzbillies":575,"Ġare":576,"ĠPor":577,"tland":578,"ĠArms":579,"ĠPortland":580,"Ġprov":581,"ĠSp":582,"ĠSpice":583,"ter":584,"Ġprovid":585,"Ġprices":586,"ĠY":587,"urg":588,"el":589,"ĠK":590,"ĠPun":591,"ĠPunter":592,"to":593,"otto":594,"urger":595,"Ġoffers":596,"ĠAlimentum":597,"Ġst":598,"ĠKing":599,"enty":600,"ĠBurger":601,"ip":602,"ĠTwenty":603,"ĠTwo":604,"oodle":605,"ĠNoodle":606,"ippe":607,"ippee":608,"ĠYippee":609,"bow":610,"ege":611,"rian":612,"inbow":613,"tarian":614,"ĠVege":615,"ĠVegetarian":616,"ĠRainbow":617,"ults":618,"ĠStrada":619,"Ġpla":620,"ĠBrowns":621,"Ġplace":622,"ine":623,"iz":624,"wood":625,"ildwood":626,"izz":627,"Zizz":628,"ĠOne":629,"Zizzi":630,"ĠAll":631,"rove":632,"live":633,"ĠOlive":634,"ĠGrove":635,"ill":636,"oc":637,"Ġon":638,"Ġbut":639,"ocum":640,"Ġserving":641,"aults":642,"ĠVaults":643,"ĠLoch":644,"otel":645,"Ġstar":646,"ĠPla":647,"za":648,"ĠPlaza":649,"ĠHotel":650,"ĠCrow":651,"omi":652,"hi":653,"ids":654,"ĠRan":655,"ĠSic":656,"ĠSici":657,"lia":658,"ĠSicilia":659,"isine":660,"mer":661,"Ġmoderately":662,"ummer":663,"idsummer":664,"ĠMill":665,"ĠCotto":666,"ĠCrowne":667,"ĠRiverside":668,"Ġg":669,"ree":670,"Ġratings":671,"sive":672,"ace":673,"on":674,"ĠPal":675,"ĠPalace":676,"ensive":677,"Ġkids":678,"xpensive":679,"Ġprovides":680,"ĠRanch":681,"et":682,"all":683,"hich":684,"Ġwhich":685,"ell":686,"lare":687,"ĠCu":688,"ĠHall":689,"ĠClare":690,"ĠWildwood":691,"ĠZizzi":692,"Located":693,"ak":694,"'s":695,"Ġd":696,"ĠThey":697,"low":698,"Ġname":699,"lowns":700,"ĠAromi":701,"ĠCocum":702,"nd":703,"ound":704,"Ġexpensive":705,"ĠD":706,"ling":707,"ells":708,"ump":709,"umpling":710,"ĠTree":711,"ĠDumpling":712,"ĠMidsummer":713,"ĠBak":714,"ĠBakers":715,"Ġnamed":716,"Ġhighly":717,"ĠMan":718,"reen":719,"Ġyou":720,"ira":721,"iraffe":722,"In":723,"Fitzbillies":724,"ck":725,"Ġhave":726,"Ġcan":727,"Ġcustomers":728,"Ġbe":729,"Ġre":730,"Ġcenter":731,"rice":732,"im":733,"ĠIts":734,"Ġthere":735,"Near":736,"ib":737,"ĠClowns":738,"cket":739,"vi":740,"bap":741,"imbap":742,"ibimbap":743,"ĠCuisine":744,"rent":745,"Alimentum":746,"ricket":747,"ĠCricket":748,"ĠCricketers":749,"Browns":750,"ja":751,"ĠSor":752,"Ġriver":753,"ĠRaja":754,"rento":755,"ĠSorrento":756,"Ġ20":757,"Ġal":758,"price":759,"ĠGiraffe":760,"ĠGreen":761,"Ġcost":762,"Ġproviding":763,"Strada":764,"ĠPl":765,"aste":766,"ven":767,"priced":768,"ough":769,"raz":770,"ĠPlough":771,"ĠBraz":772,"ĠBrazil":773,"Ġcuisine":774,"Ġoffer":775,"est":776,"ble":777,"Blue":778,"ĠCity":779,"Ġits":780,"ĠAd":781,"ĠBells":782,"ĠSix":783,"atic":784,"riatic":785,"ĠAdriatic":786,"ĠBibimbap":787,"Ġad":788,"For":789,"Cotto":790,"val":791,"os":792,"Ġfr":793,"Ġnon":794,"ĠTaste":795,"Ġen":796,"ee":797,"Ġfrom":798,"Cocum":799,"valon":800,"ĠAvalon":801,"Ġoffering":802,"lo":803,"so":804,"his":805,"Ġfound":806,"rave":807,"estab":808,"Ġestab":809,"lishment":810,"Ġestablishment":811,"llers":812,"Ġsu":813,"ĠBee":814,"feater":815,"ĠRest":816,"ravellers":817,"ĠBeefeater":818,"com":819,"Ġfive":820,"Ġalso":821,"eal":822,"Ġsells":823,"Ġserve":824,"ew":825,"Wildwood":826,"Ar":827,"Aromi":828,"Ġven":829,"Ġvenue":830,"Ġstars":831,"ĠCustomer":832,"Ġpound":833,"lose":834,"With":835,"ion":836,"Ġthey":837,"ĠThis":838,"ron":839,"ir":840,"Ġpounds":841,"Ġonly":842,"Ġgood":843,"viron":844,"vironment":845,"Midsummer":846,"Ġ30":847,"ĠTravellers":848,"Ġenvironment":849,"able":850,"Ġclose":851,"view":852,"Ġsit":853,"reat":854,"Ġone":855,"Ġmeal":856,"Ġrece":857,"Ġgreat":858,"Ġeat":859,"Ġas":860,"very":861,"uated":862,"ind":863,"qu":864,"mos":865,"phere":866,"mosphere":867,"Ġvery":868,"Ġatmosphere":869,"Ġadult":870,"If":871,"Ġpo":872,"ok":873,"Ġtry":874,"ĠFriendly":875,"Ġreview":876,"Ġqu":877,"ating":878,"entre":879,"Ġfind":880,"Ġfamilies":881,"elcom":882,"ĠCentre":883,"Clowns":884,"Ġsituated":885,"'t":886,"ĠLocated":887,"Ġthree":888,"ĠRating":889,"Ġreceive":890,"th":891,"Ġreceived":892,"yle":893,"Ġthis":894,"Ġwelcom":895,"shi":896,"Ġrang":897,"oking":898,"ff":899,"Ġne":900,"Ġmid":901,"Ġcosts":902,"xt":903,"ct":904,"expensive":905,"Ġinexpensive":906,"amily":907,"ugh":908,"star":909,"hough":910,"own":911,"Ġsushi":912,"Ġdo":913,"Ġbet":914,"Ġun":915,"rit":916,"een":917,"eas":918,"Ġreviews":919,"ween":920,"Ġbetween":921,"Green":922,"Ġrate":923,"Bibimbap":924,"Ġlooking":925,"ĠCustomers":926,"Ġstyle":927,"Ġall":928,"der":929,"Ġnext":930,"bo":931,"eason":932,"Ġex":933,"Giraffe":934,"Ġreason":935,"Ġpoor":936,"Ġloc":937,"ĠFood":938,"ong":939,"Ġabo":940,"Ġadults":941,"Ġmeals":942,"Ġover":943,"ality":944,"jo":945,"An":946,"ome":947,"Ġgo":948,"get":949,"Ġdoes":950,"Ġquality":951,"ffor":952,"Ġget":953,"ever":954,"Ġfa":955,"ritish":956,"fforda":957,"ĠBritish":958,"Ġhigher":959,"owever":960,"Ġwelcome":961,"Ġu":962,"Ġafforda":963,"Ġunder":964,"as":965,"Ġwill":966,"Ġaffordable":967,"our":968,"Ġalong":969,"ation":970,"rated":971,"Ġserved":972,"Ġv":973,"Ġyour":974,"Ġservice":975,"enu":976,"Taste":977,"rices":978,"uros":979,"Ġmenu":980,"Ġsuit":981,"Ġ.":982,"Ġnor":983,"Ġtheir":984,"comm":985,"Ġlocation":986,"Ġisn":987,"ĠPrices":988,"Ġexce":989,"Ġbeen":990,"commend":991,"Ġrecommend":992,"Ġwhere":993,"llent":994,"Ġnorth":995,"ĠRange":996,"Ġexcellent":997,"Ġdin":998,"ci":999,"Ġdis":1000,"Ġabove":1001,"Ġme":1002,"ĠCrown":1003,"isit":1004,"Ġranging":1005,"Ġsuitable":1006,"family":1007,"though":1008,"ĠPub":1009,"ting":1010,"Ġthen":1011,"Ġ,":1012,"Ġwho":1013,"Ġgi":1014,"-Â£":1015,"ĠL":1016,"Ġeuros":1017,"Ġde":1018,"Ġallow":1019,"Ġper":1020,"Ġmedi":1021,"Ġwine":1022,"'re":1023,"Ġreasonable":1024,"Ġwithin":1025,"Ġdining":1026,"int":1027,"ĠTheir":1028,"Ġhowever":1029,"Ġrecommended":1030,"Ġ-":1031,"ĠNot":1032,"joy":1033,"Ġvisit":1034,"Ġup":1035,"Ġgiven":1036,"Ġmedium":1037,"ake":1038,"ight":1039,"ite":1040,"ad":1041,"hes":1042,"ĠĠ":1043,"Ġop":1044,"ring":1045,"High":1046,"Ġside":1047,"ally":1048,"Ġdishes":1049,"ĠShop":1050,"hildren":1051,"Ġwe":1052,"ust":1053,"Ġfe":1054,"Ġenjoy":1055,"erving":1056,"Ġranges":1057,"cing":1058,"Ġaround":1059,"Ġcosting":1060,"ous":1061,"if":1062,"Ġtake":1063,"Ġpricing":1064,"ĠPrice":1065,"Ġwell":1066,"Ġsp":1067,"You":1068,"ab":1069,"Ġhe":1070,"Ġ25":1071,"co":1072,"ction":1073,"Ġsell":1074,"ĠWith":1075,"rea":1076,"Ġor":1077,"Ġset":1078,"Ġexp":1079,"Ġaveragely":1080,"Ġgive":1081,"eri":1082,"ence":1083,"Ġfoods":1084,"ĠWe":1085,"Ġfeat":1086,"food":1087,"Ġwhole":1088,"At":1089,"Ġexperi":1090,"Ġsat":1091,"ĠYou":1092,"ably":1093,"Ġexperience":1094,"hil":1095,"Ġam":1096,"isf":1097,"reak":1098,"lthough":1099,"ves":1100,"Ġcons":1101,"Ġdri":1102,"Ġpoorly":1103,"Ġsatisf":1104,"hile":1105,"nk":1106,"Ġj":1107,"Ġdrink":1108,"Ġjust":1109,"Ġwant":1110,"Ġreasonably":1111,"Ġkn":1112,"Ġsetting":1113,"Ġsatisfa":1114,"Ġwas":1115,"Ġbreak":1116,"Ġbeing":1117,"fast":1118,"Ġjo":1119,"heap":1120,"Ġsc":1121,"peci":1122,"Ġsatisfaction":1123,"By":1124,"Travellers":1125,"ail":1126,"Ġ'":1127,"Ġour":1128,"Ġfare":1129,"vail":1130,"Ġcater":1131,"Ġopt":1132,"vailable":1133,"French":1134,"Ġoutside":1135,"Ġbest":1136,"Ġgets":1137,"Ġknown":1138,"Ġthough":1139,"Ġnice":1140,"Ġfair":1141,"ving":1142,"ĠChildren":1143,"Ġjoint":1144,"Ġavailable":1145,"Ġbreakfast":1146,"oast":1147,"ustomer":1148,"rient":1149,"Ġbu":1150,"umer":1151,"Ġend":1152,"Ġspeci":1153,"ĠRated":1154,"Ġfriend":1155,"Ġso":1156,"Ġrecei":1157,"Italian":1158,"Serving":1159,"Ġsome":1160,"riented":1161,"On":1162,"Friendly":1163,"Riverside":1164,"ld":1165,"Ġtown":1166,"ently":1167,"Ġdown":1168,"by":1169,"Ġprovide":1170,"Ġpre":1171,"ĠHowever":1172,"Ġallowed":1173,"ider":1174,"Ġpricey":1175,"Ġboast":1176,"Ġdeli":1177,"Customer":1178,"Fast":1179,"dit":1180,"Ġright":1181,"ould":1182,"dition":1183,"Ġli":1184,"child":1185,"Ġwould":1186,"veni":1187,"Ġquite":1188,"Ġconsider":1189,"ca":1190,"ĠHigh":1191,"Ġselling":1192,"Rated":1193,"Ġcheck":1194,"cious":1195,"Ġreceives":1196,"op":1197,"Ġoriented":1198,"Ġabout":1199,"ures":1200,"radition":1201,"Ġpast":1202,"Ġcon":1203,"ased":1204,"Ġconsidered":1205,"ran":1206,"itt":1207,"orth":1208,"Ġdelicious":1209,"raditional":1210,"way":1211,"zing":1212,"Ġfeatures":1213,"Cheap":1214,"for":1215,"ĠThere":1216,"Highly":1217,"Ġoption":1218,"Ġboasts":1219,"English":1220,"Ġnearby":1221,"Ġlove":1222,"Ġtoo":1223,"range":1224,"Ġtraditional":1225,"Ġbased":1226,"Ġlower":1227,"ali":1228,"lu":1229,"Ġrank":1230,"ĠFamily":1231,"lic":1232,"uld":1233,"Ġconveni":1234,"ss":1235,"Ġview":1236,"Ġif":1237,"Ġranged":1238,"Ġbar":1239,"Ġbel":1240,"Ġcheese":1241,"Ġalthough":1242,"Ġus":1243,"Ġdec":1244,"Ġbring":1245,"oderately":1246,"ular":1247,"Ġwelcomes":1248,"ty":1249,"Ġcho":1250,"Ġtw":1251,"ĠYes":1252,"Ġcostumer":1253,"ffer":1254,"Family":1255,"Ġear":1256,"Ġpasta":1257,"This":1258,"ts":1259,"Ġcheaply":1260,"Ġfairly":1261,"Ġspeciali":1262,"Ġbelow":1263,"pic":1264,"pect":1265,"ard":1266,"ĠNo":1267,"Ġhead":1268,"Ġdrinks":1269,"ems":1270,"ies":1271,"Ġnew":1272,"ĠIs":1273,"fect":1274,"ĠAlthough":1275,"Ġitems":1276,"urgers":1277,"Ġdine":1278,"Indian":1279,"Ġpop":1280,"Ġlik":1281,"lar":1282,"Ġcom":1283,"Ġsho":1284,"ollar":1285,"Ġdollar":1286,"Ġtwenty":1287,"Ġcome":1288,"eliver":1289,"Customers":1290,"ges":1291,"Ġfine":1292,"ries":1293,"ned":1294,"Ġdeliver":1295,"Ġperfect":1296,"ffering":1297,"Low":1298,"Ġpay":1299,"Ġtypic":1300,"Ġchoice":1301,"Ġearned":1302,"ther":1303,"Ġbudge":1304,"Ġdecent":1305,"Kid":1306,"Moderately":1307,"Ġch":1308,"ituated":1309,"cost":1310,"Ġconveniently":1311,"Ġlike":1312,"Yes":1313,"ari":1314,"Ġlitt":1315,"ĠAverage":1316,"Ġgot":1317,"Ġeating":1318,"Ġbudget":1319,"Ġlittle":1320,"Although":1321,"Come":1322,"eop":1323,"ons":1324,"the":1325,"style":1326,"Ġpoint":1327,"Ġdollars":1328,"Chinese":1329,"Close":1330,"one":1331,"there":1332,"Ġwhile":1333,"Ġpopular":1334,"eople":1335,"ave":1336,"Ġac":1337,"Ġthem":1338,"ately":1339,"azing":1340,"clu":1341,"ĠEuros":1342,"Ġbad":1343,"art":1344,"Ġstarting":1345,"Ġvari":1346,"ele":1347,"Ġfries":1348,"Ġpeople":1349,"Ġmay":1350,"Ġwh":1351,"ĠNear":1352,"use":1353,"eside":1354,"ĠOur":1355,"Ġfeatu":1356,"Ġcaters":1357,"Children":1358,"Offering":1359,"amilies":1360,"ght":1361,"let":1362,"oth":1363,"ices":1364,"ĠKids":1365,"Ġdoesn":1366,"Ġspend":1367,"coffee":1368,"Ġamazing":1369,"tun":1370,"Ġrates":1371,"Ġser":1372,"light":1373,"Ġpublic":1374,"lass":1375,"ety":1376,"children":1377,"ions":1378,"esp":1379,"eses":1380,"Ġslight":1381,"Ġeven":1382,"Ġyet":1383,"Ġservices":1384,"Ġbit":1385,"Ġbeca":1386,"fortun":1387,"Ġvariety":1388,"Ġserver":1389,"Ġbecause":1390,"fortunately":1391,"kid":1392,"ost":1393,"Ġid":1394,"Ġfar":1395,"ines":1396,"ĠRiver":1397,"Ġhad":1398,"Ġcheeses":1399,"eally":1400,"Ġmidd":1401,"espite":1402,"Ġslightly":1403,"'ll":1404,"Situated":1405,"ease":1406,"red":1407,"ĠKid":1408,"Ġspecializ":1409,"ative":1410,"ener":1411,"ames":1412,"Ġworth":1413,"Ġhaving":1414,"Ġburgers":1415,"Ġbeside":1416,"Ġlocal":1417,"Ġfriends":1418,"Not":1419,"ain":1420,"eaut":1421,"Ġpl":1422,"uro":1423,"Ġhome":1424,"Ġoutlet":1425,"Ġwines":1426,"Looking":1427,"iful":1428,"Ġtypically":1429,"Ġmiddle":1430,"eautiful":1431,"Alo":1432,"up":1433,"ĠU":1434,"Ġreally":1435,"Ġclass":1436,"Ġlook":1437,"Ġwon":1438,"ĠWhile":1439,"Ġlowly":1440,"Ġexpect":1441,"Ġopen":1442,"Ġscore":1443,"Ġfeaturing":1444,"Ġspecializes":1445,"Along":1446,"pp":1447,"tty":1448,"ull":1449,"Ġsom":1450,"Ġcould":1451,"ĠServing":1452,"Ġgener":1453,"ĠLow":1454,"Ġpretty":1455,"ext":1456,"Ġpers":1457,"Ġhouse":1458,"ĠFamilies":1459,"Ġbeautiful":1460,"ican":1461,"merican":1462,"Ġideal":1463,"Ġperson":1464,"Ġfan":1465,"stand":1466,"ĠChild":1467,"Ġinclu":1468,"ĠAmerican":1469,"Ġboth":1470,"ores":1471,"Ġdon":1472,"Ġshould":1473,"Ġinclud":1474,"Try":1475,"eatery":1476,"out":1477,"with":1478,"verall":1479,"ĠSu":1480,"ĠMeal":1481,"elcome":1482,"Ġdist":1483,"Ġscores":1484,"Ġusu":1485,"Ġchar":1486,"Ġservers":1487,"standing":1488,"Child":1489,"Next":1490,"Welcome":1491,"Ġfall":1492,"Ġfull":1493,"Ġnight":1494,"Ġoutstanding":1495,"Ġwit":1496,"ĠTh":1497,"ick":1498,"Ġstore":1499,"value":1500,"Ġsited":1501,"Ġlovely":1502,"Ġdeliveries":1503,"It":1504,"ner":1505,"Ġvalue":1506,"only":1507,"Ġusually":1508,"One":1509,"near":1510,"sca":1511,"Ġaw":1512,"Ġtast":1513,"ist":1514,"Ġsele":1515,"hose":1516,"ĠHas":1517,"Ġoffered":1518,"Ġupsca":1519,"Ġamong":1520,"Ġupscale":1521,"00":1522,"ack":1523,"ging":1524,"irit":1525,"kir":1526,"skir":1527,"Ġent":1528,"heck":1529,"Ġthose":1530,"Ġaren":1531,"Ġrestaurants":1532,"Ġoutskir":1533,"Ġplaced":1534,"Ġstart":1535,"ront":1536,"Ġsits":1537,"Ġeats":1538,"Ġoptions":1539,"ĠUn":1540,"ĠSushi":1541,"irits":1542,"Ġoutskirts":1543,"City":1544,"away":1545,"ful":1546,"les":1547,"Ġapp":1548,"Ġok":1549,"Ġburger":1550,"Ġspecial":1551,"Ġgenerally":1552,"ĠMeals":1553,"per":1554,"Ġrel":1555,"Ġother":1556,"Ġoverall":1557,"Ġsm":1558,"Ġevery":1559,"Ġeuro":1560,"uton":1561,"hout":1562,"Ġmar":1563,"ĠAs":1564,"Ġbra":1565,"Ġreviewed":1566,"Ġallows":1567,"Ġranked":1568,"Ġwithout":1569,"ĠUnfortunately":1570,"'.":1571,"Average":1572,"While":1573,"are":1574,"front":1575,"her":1576,"ian":1577,"Ġpart":1578,"Ġsee":1579,"Ġhere":1580,"Ġlea":1581,"ross":1582,"ĠNorth":1583,"Ġdue":1584,"Ġconsumer":1585,"Ġacross":1586,"Ġsomew":1587,"Ġsmall":1588,"Ġbracket":1589,"BP":1590,"Visit":1591,"rt":1592,"yled":1593,"any":1594,"Ġfur":1595,"rict":1596,"Ġaway":1597,"Ġcur":1598,"Ġhamb":1599,"uth":1600,"Ġmak":1601,"Ġmight":1602,"Ġtop":1603,"Ġreg":1604,"Ġcostly":1605,"ĠPlease":1606,"Ġquick":1607,"ĠRatings":1608,"Ġfav":1609,"Ġperm":1610,"Ġspot":1611,"Ġspecializing":1612,"Ġwhat":1613,"Ġdistrict":1614,"Ġrelative":1615,".,":1616,"..":1617,"Pub":1618,"lso":1619,"uit":1620,"ĠLo":1621,"ank":1622,"Ġavera":1623,"ĠCheap":1624,"Ġsa":1625,"pet":1626,"Ġcentr":1627,"ĠHave":1628,"ĠThough":1629,"Ġstop":1630,"Ġgr":1631,"Ġdespite":1632,"rently":1633,"located":1634,"Ġsure":1635,"Ġsuited":1636,"Ġwhose":1637,"ĠLuton":1638,"Ġheart":1639,"Ġcomes":1640,"Ġdelivers":1641,"Ad":1642,"Check":1643,"fter":1644,"free":1645,"rating":1646,"Ġcli":1647,"Ġfree":1648,"Ġplu":1649,"tain":1650,"Ġsay":1651,"Ġnone":1652,"ĠAt":1653,"vious":1654,"Ġneat":1655,"Ġunfriendly":1656,"Ġspirits":1657,"itted":1658,"Ġwonder":1659,"Ġappro":1660,"Ġfurther":1661,"Ġpermitted":1662,"Ġgrub":1663,"Ġplus":1664,"No":1665,"average":1666,"njoy":1667,"restaurant":1668,"ti":1669,"us":1670,"Ġ4":1671,"ĠJ":1672,"Ġcl":1673,"stic":1674,"Ġnames":1675,"itive":1676,"ities":1677,"tastic":1678,"Ġhold":1679,"ĠBut":1680,"Ġmost":1681,"Ġnow":1682,"Ġwere":1683,"room":1684,"ĠAlso":1685,"vel":1686,"Ġriverfront":1687,"ards":1688,"Ġfantastic":1689,"Ġcurrently":1690,"Ġrelatively":1691,"Ġclient":1692,"CafÃ©":1693,"Expensive":1694,"Kids":1695,"Ġea":1696,"Ġres":1697,"Ġrest":1698,"Ġage":1699,"Ġafter":1700,"Ġpr":1701,"Ġsh":1702,"Ġlist":1703,"ĠAnd":1704,"erves":1705,"Ġbank":1706,"ĠSta":1707,"Ġthats":1708,"Ġstand":1709,"Ġplaces":1710,"Ġbuy":1711,"Ġprem":1712,"Ġviews":1713,"Ġtypical":1714,"Ġopened":1715,"ĠThames":1716,"Ġselection":1717,"Ġmakes":1718,"Enjoy":1719,"Price":1720,"cil":1721,"het":1722,"Ġages":1723,"Ġtak":1724,"Ġsea":1725,"Ġmat":1726,"Ġmone":1727,"Ġmany":1728,"Ġwide":1729,"Ġnote":1730,"Ġstyled":1731,"Ġgro":1732,"Ġdes":1733,"Ġalco":1734,"cts":1735,"rite":1736,"Ġfacil":1737,"Ġdinner":1738,"Ġlies":1739,"Ġplease":1740,"Ġhamburgers":1741,"Ġwonderful":1742,"Ġmoney":1743,"Ġalcoho":1744,"',":1745,"Found":1746,"Wh":1747,"ire":1748,"iet":1749,"king":1750,"kids":1751,"ning":1752,"uch":1753,"vid":1754,"Ġz":1755,"Ġauth":1756,"odest":1757,"entic":1758,"Ġany":1759,"app":1760,"Ġmuch":1761,"Ġmodest":1762,"ĠServes":1763,"aghet":1764,"resh":1765,"Ġgave":1766,"Ġquiet":1767,"Ġwelcomed":1768,"Ġunfortunately":1769,"Ġspaghet":1770,"Ġprevious":1771,"Ġthemed":1772,"Ġincludes":1773,"Ġcharges":1774,"Ġfalls":1775,"Ġtasty":1776,"Ġmark":1777,"ĠAsian":1778,"ĠLoc":1779,"rooms":1780,"Ġauthentic":1781,"Ġspaghetti":1782,"Find":1783,"ding":1784,"ired":1785,"of":1786,"oad":1787,"orite":1788,"xpect":1789,"ance":1790,"rien":1791,"Ġpos":1792,"tal":1793,"Ġle":1794,"Ġthir":1795,"ching":1796,"Ġcall":1797,"Ġstill":1798,"ond":1799,"Ġsuch":1800,"Ġsite":1801,"Ġexclu":1802,"Ġlocate":1803,"Ġnorm":1804,"Ġupper":1805,"Ġamb":1806,"Ġbus":1807,"Ġprovided":1808,"Ġsomewhere":1809,"Ġfavorite":1810,"Ġcentrally":1811,"Ġgroup":1812,"Ġalcohol":1813,"Ġzone":1814,"riental":1815,"Ġthirty":1816,"Ġexclusive":1817,"Despite":1818,"Even":1819,"cy":1820,"down":1821,"gin":1822,"pri":1823,"ates":1824,"odu":1825,"ises":1826,"ĠIf":1827,"Ġsur":1828,"reater":1829,"entele":1830,"Â£.":1831,"Ġmind":1832,"Ġmake":1833,"Ġmust":1834,"Ġmain":1835,"Ġwal":1836,"ĠGBP":1837,"ĠModerate":1838,"ĠOn":1839,"unch":1840,"Ġgreater":1841,"imed":1842,"Ġneed":1843,"Ġorder":1844,"Ġconvenient":1845,"arded":1846,"Ġcompet":1847,"Ġshort":1848,"Ġwhy":1849,"acks":1850,"Ġokay":1851,"Ġleave":1852,"Ġaveraging":1853,"Adult":1854,"Ġclentele":1855,"Ġeast":1856,"Ġrestrooms":1857,"Ġprodu":1858,"Ġship":1859,"When":1860,"We":1861,"ale":1862,"aving":1863,"be":1864,"cently":1865,"gg":1866,"hing":1867,"ium":1868,"ied":1869,"ud":1870,"xim":1871,"Ġate":1872,"Ġdi":1873,"Ġrice":1874,"Ġroad":1875,"Ġcra":1876,"ens":1877,"iness":1878,"Ġtow":1879,"Ġrather":1880,"ĠClose":1881,"Ġsear":1882,"Ġlunch":1883,"ĠFor":1884,"Ġshops":1885,"Ġinto":1886,"Ġmoder":1887,"Ġwater":1888,"Ġwar":1889,"rovid":1890,"verages":1891,"umers":1892,"ĠSituated":1893,"ors":1894,"hines":1895,"onveni":1896,"Ġbeverages":1897,"Ġrep":1898,"Ġfruit":1899,"quality":1900,"Ġreceiving":1901,"Ġchain":1902,"Ġacc":1903,"Ġscored":1904,"Ġentire":1905,"Ġholds":1906,"Ġpremium":1907,"ĠLocate":1908,"roviding":1909,"Eat":1910,"North":1911,"Providing":1912,"ared":1913,"cri":1914,"met":1915,"native":1916,"ure":1917,"ual":1918,"ery":1919,"Ġfun":1920,"Ġfresh":1921,"enities":1922,"Ġaimed":1923,"ince":1924,"Ġtend":1925,"eaway":1926,"Ġoriental":1927,"ĠCal":1928,"ĠChines":1929,"review":1930,"urmet":1931,"Ġloves":1932,"Ġcook":1933,"Ġcoup":1934,"ĠEuro":1935,"ĠExpect":1936,"Ġboat":1937,"ort":1938,"Ġcheaper":1939,"ternative":1940,"Ġstay":1941,"ething":1942,"Ġrecently":1943,"Ġalternative":1944,"eep":1945,"Ġpolic":1946,"Ġgourmet":1947,"Ġuse":1948,"ĠPublic":1949,"Ġgives":1950,"Ġfeed":1951,"Ġamenities":1952,"Ġbreakfasts":1953,"ĠHighly":1954,"ways":1955,"Ġclassic":1956,"Ġsomething":1957,"Ġaware":1958,"Ġstandard":1959,"Ġtakeaway":1960,"Ġlevel":1961,"Ġgroups":1962,"Ġproducts":1963,"Ġsearching":1964,"onveniently":1965,"ĠCalled":1966,"reviewed":1967,"Ġpolicy":1968,"All":1969,"Bring":1970,"Down":1971,"Families":1972,"Having":1973,"Though":1974,"age":1975,"customer":1976,"ep":1977,"ely":1978,"hat":1979,"lf":1980,"nce":1981,"pared":1982,"town":1983,"ans":1984,"atro":1985,"Ġfond":1986,"esome":1987,"Ġtag":1988,"Ġtaste":1989,"amous":1990,"Ġpatro":1991,"Ġprince":1992,"ides":1993,"Ġsince":1994,"Ġthing":1995,"Ġwro":1996,"roun":1997,"oun":1998,"ĠGreat":1999,"ĠTy":2000,"ĠModerately":2001,"ĠOffering":2002,"self":2003,"Ġalways":2004,"ffers":2005,"Ġneigh":2006,"ctions":2007,"Ġdowntown":2008,"Ġboasting":2009,"Ġfancy":2010,"Ġawesome":2011,"Ġregarded":2012,"Ġsaid":2013,"Ġbanks":2014,"Ġfacility":2015,"Ġnormal":2016,"Ġcompetitive":2017,"Ġcraving":2018,"Ġpatrons":2019,"Ġwrong":2020,"Crow":2021,"Get":2022,"GBP":2023,"Let":2024,"Moderate":2025,"Re":2026,"bed":2027,"ig":2028,"nacks":2029,"oe":2030,"que":2031,"serving":2032,"Ġim":2033,"Ġrage":2034,"eave":2035,"its":2036,"Ġsold":2037,"Ġsnacks":2038,"aps":2039,"Ġint":2040,"Ġmood":2041,"Ġbite":2042,"ĠSt":2043,"ĠArea":2044,"Ġattra":2045,"ocre":2046,"Ġstarts":2047,"Ġgu":2048,"Ġgra":2049,"Ġdate":2050,"Ġday":2051,"Ġyoung":2052,"ible":2053,"ĠSorry":2054,"Ġsuper":2055,"Within":2056,"Ġgoes":2057,"Ġgoing":2058,"Ġyourself":2059,"Ġmediocre":2060,"ade":2061,"ĠĠĠĠ":2062,"ĠPriced":2063,"Ġhear":2064,"coring":2065,"read":2066,"Ġscale":2067,"Ġtheme":2068,"Ġpleas":2069,"Ġincluding":2070,"Ġdistance":2071,"Ġtasting":2072,"Ġselections":2073,"Ġeveryone":2074,"Ġmargin":2075,"Ġsomewhat":2076,"uitable":2077,"ĠJo":2078,"ĠJust":2079,"ĠStar":2080,"ĠStart":2081,"Ġseafood":2082,"Ġmature":2083,"Ġbusiness":2084,"Ġtowards":2085,"Ġwarm":2086,"cribed":2087,"Ġcouples":2088,"ount":2089,"Food":2090,"Here":2091,"aint":2092,"bs":2093,"back":2094,"cheap":2095,"fin":2096,"five":2097,"high":2098,"haps":2099,"iving":2100,"less":2101,"oor":2102,"ose":2103,"oriented":2104,"pt":2105,"pired":2106,"spired":2107,"Ġes":2108,"erling":2109,"erts":2110,"ertain":2111,"Ġrave":2112,"Ġcas":2113,"Ġfin":2114,"river":2115,"hest":2116,"oodles":2117,"Ġpur":2118,"Ġpar":2119,"ceiving":2120,"Ġhapp":2121,"Ġlet":2122,"Ġlight":2123,"ents":2124,"utation":2125,"ĠBring":2126,"ĠBreak":2127,"ĠFind":2128,"Ġmom":2129,"ĠEven":2130,"Ġwor":2131,"level":2132,"ĠAn":2133,"Ġaveraged":2134,"Ġbo":2135,"Ġbread":2136,"ĠHere":2137,"ording":2138,"lax":2139,"nsuitable":2140,"ĠOffers":2141,"Ġatt":2142,"Ġstep":2143,"Ġsterling":2144,"Ġdish":2145,"Ġdeal":2146,"Ġrelax":2147,"Nearby":2148,"Ġsupp":2149,"Ġwelcoming":2150,"Ġbetter":2151,"Ġwilling":2152,"cies":2153,"Ġmeet":2154,"Ġdefin":2155,"itely":2156,"Ġamount":2157,"oasting":2158,"Ġprepared":2159,"Ġdelica":2160,"Ġdecently":2161,"Ġcomp":2162,"Ġinclude":2163,"iance":2164,"Ġaverages":2165,"Ġappropri":2166,"Ġpositive":2167,"Ġambiance":2168,"Ġreputation":2169,"Ġfeedback":2170,"Receiving":2171,"Ġsuperb":2172,"Ġcasual":2173,"riverside":2174,"ĠBreakfast":2175,"Ġsteps":2176,"Ġdefinitely":2177,"Ġdelicacies":2178,"Ġappropriate":2179,"'ve":2180,"Go":2181,"Mid":2182,"Poor":2183,"Qu":2184,"Right":2185,"Take":2186,"Want":2187,"bor":2188,"eed":2189,"ft":2190,"ie":2191,"ient":2192,"lb":2193,"mely":2194,"prices":2195,"ppet":2196,"rd":2197,"rner":2198,"uc":2199,"ug":2200,"uv":2201,"Ġi":2202,"ern":2203,"erri":2204,"Ġrun":2205,"Ġcant":2206,"Ġfew":2207,"Ġach":2208,"Ġappet":2209,"ination":2210,"Ġterri":2211,"Ġput":2212,"Ġpup":2213,"Ġnoodles":2214,"ited":2215,"ĠCan":2216,"ĠCam":2217,"ĠCome":2218,"ĠCost":2219,"ĠCheck":2220,"Ġsou":2221,"Ġscoring":2222,"remely":2223,"Ġedge":2224,"Ġext":2225,"Ġhis":2226,"Ġhotel":2227,"Ġhors":2228,"Ġlu":2229,"Ġthin":2230,"Ġcorner":2231,"Ġinspired":2232,"ĠRe":2233,"Ġmade":2234,"Ġbill":2235,"ither":2236,"ĠGood":2237,"ved":2238,"alth":2239,"ĠTry":2240,"ĠOverall":2241,"ulous":2242,"icens":2243,"ĠSpirits":2244,"Ġplay":2245,"ĠCotton":2246,"ĠDon":2247,"ĠMany":2248,"Ġref":2249,"Ġrem":2250,"ĠAdults":2251,"Ġsugg":2252,"Ġass":2253,"Ġunsuitable":2254,"commod":2255,"Ġexceed":2256,"Ġnorthern":2257,"Ġdiner":2258,"ĠLess":2259,"Ġperhaps":2260,"Ġfeel":2261,"Ġenjoyed":2262,"Ġspor":2263,"Ġspace":2264,"Ġheard":2265,"Ġhealth":2266,"Ġknow":2267,"Ġscen":2268,"Ġsoon":2269,"Ġsouth":2270,"Ġchoose":2271,"fferent":2272,"pected":2273,"Ġaccommod":2274,"Ġwhen":2275,"Ġcharging":2276,"Ġspecialises":2277,"Ġregular":2278,"Ġcentral":2279,"tains":2280,"Ġapproval":2281,"Ġclients":2282,"Ġdescribed":2283,"Ġfacilities":2284,"Ġmarket":2285,"Ġposs":2286,"Ġambient":2287,"ĠOnly":2288,"ude":2289,"Ġdifferent":2290,"Ġcooks":2291,"orted":2292,"Ġstaying":2293,"Ġneighbor":2294,"Crowne":2295,"oeuv":2296,"Ġimp":2297,"Ġguest":2298,"Ġgrab":2299,"Poorly":2300,"Ġachie":2301,"Ġterrible":2302,"Ġsoup":2303,"Ġextremely":2304,"icensed":2305,"Ġsuggest":2306,"oeuvres":2307,"35":2308,"Beside":2309,"Boasting":2310,"Cost":2311,"Conveniently":2312,"Ine":2313,"Ra":2314,"Reason":2315,"Sta":2316,"ber":2317,"bly":2318,"bulous":2319,"cc":2320,"cta":2321,"cent":2322,"edi":2323,"fer":2324,"hn":2325,"hood":2326,"ia":2327,"iven":2328,"iring":2329,"ique":2330,"ny":2331,"ping":2332,"ple":2333,"ten":2334,"yes":2335,"ather":2336,"Ġchop":2337,"Ġfit":2338,"Ġfry":2339,"enny":2340,"heese":2341,"inity":2342,"Ġtr":2343,"Ġtap":2344,"Ġtrave":2345,"Ġpic":2346,"Ġpenny":2347,"ising":2348,"ishes":2349,"Ġob":2350,"styled":2351,"ingly":2352,"omis":2353,"itude":2354,"ĠIT":2355,"ĠCol":2356,"ĠCons":2357,"ĠConveniently":2358,"Ġse":2359,"Ġever":2360,"Ġequ":2361,"Ġeither":2362,"Ġlicensed":2363,"ivers":2364,"ĠBe":2365,"hool":2366,"ĠFive":2367,"Ġlot":2368,"Ġlots":2369,"Ġshopping":2370,"Ġinc":2371,"Ġinside":2372,"Ġmy":2373,"Ġmil":2374,"Ġmere":2375,"Ġhight":2376,"Ġwrestlers":2377,"Ġhard":2378,"lege":2379,"rop":2380,"ĠWine":2381,"esserts":2382,"Ġbab":2383,"ĠGree":2384,"ory":2385,"ary":2386,"ĠWatermans":2387,"Ġkeep":2388,"ĠExpensive":2389,"respected":2390,"icinity":2391,"Ġproxim":2392,"ĠNO":2393,"Zizzis":2394,"roved":2395,"Ġglass":2396,"Ġgain":2397,"Ġdest":2398,"Ġdesserts":2399,"Ġbeverage":2400,"Ġcostumers":2401,"looking":2402,"Ġquaint":2403,"ctive":2404,"Ġunique":2405,"Ġgetting":2406,"Ġfabulous":2407,"Ġalongside":2408,"Ġvicinity":2409,"Ġexcellently":2410,"Ġdisapp":2411,"Ġmeans":2412,"Ġgiving":2413,"ĠLeave":2414,"Ġvisited":2415,"adult":2416,"ĠĠĠ":2417,"Ġopin":2418,"Ġjoin":2419,"Ġschool":2420,"pecially":2421,"Ġcatering":2422,"Ġcatered":2423,"Ġsoft":2424,"Ġprefer":2425,"Ġtwo":2426,"Ġcoming":2427,"Ġshow":2428,"Ġfeature":2429,"other":2430,"Ġspending":2431,"Ġplate":2432,"Ġclassy":2433,"Ġentertain":2434,"Ġspecialising":2435,"Ġseeking":2436,"Ġleaves":2437,"Ġhamburger":2438,"tained":2439,"Ġapproxim":2440,"Ġclos":2441,"Ġresides":2442,"Ġpremises":2443,"Priced":2444,"Ġmatch":2445,"Ġdesired":2446,"Ġanyone":2447,"Ġbusy":2448,"Ġsurpri":2449,"Ġsurroun":2450,"Ġwallet":2451,"Ġmoderated":2452,"Ġfruits":2453,"Ġaccording":2454,"Ġtends":2455,"ĠEurope":2456,"ĠTypic":2457,"ighest":2458,"Ġpleasant":2459,"ĠJohn":2460,"Ġespecially":2461,"Ġmoment":2462,"Ġboard":2463,"Ġattitude":2464,"Ġsupplies":2465,"Ġcompany":2466,"uga":2467,"Ġappetiz":2468,"Ġlux":2469,"Ġthink":2470,"Ġhealthy":2471,"Ġaccommodate":2472,"Costing":2473,"Inexpensive":2474,"edium":2475,"ĠCollege":2476,"ĠGreek":2477,"Ġproximity":2478,"Ġdestination":2479,"Ġdisappo":2480,"Ġapproximately":2481,"Ġsurrounding":2482,"AG":2483,"Am":2484,"Be":2485,"Burger":2486,"Dine":2487,"Don":2488,"ER":2489,"Five":2490,"Great":2491,"Given":2492,"Just":2493,"Non":2494,"Oriented":2495,"Ther":2496,"VER":2497,"ase":2498,"air":2499,"airing":2500,"bited":2501,"centre":2502,"ey":2503,"eat":2504,"fic":2505,"has":2506,"lder":2507,"nvironment":2508,"rum":2509,"shop":2510,"uring":2511,"wards":2512,"Ġ2":2513,"Ġ:":2514,"Ġeas":2515,"ĠQu":2516,"eres":2517,"Ġrea":2518,"ath":2519,"Ġcrow":2520,"Ġfoc":2521,"Ġfamous":2522,"rip":2523,"rill":2524,"ricing":2525,"hed":2526,"inery":2527,"Ġtod":2528,"Ġtell":2529,"Ġtrip":2530,"ample":2531,"ead":2532,"Ġpairing":2533,"Ġolder":2534,"They":2535,"iting":2536,"itable":2537,"ĠCheese":2538,"Ġsing":2539,"Ġsame":2540,"Ġsor":2541,"Ġsample":2542,"Ġemer":2543,"Ġhost":2544,"Ġhighest":2545,"Ġla":2546,"Ġlar":2547,"Ġlacks":2548,"Ġarra":2549,"Ġanother":2550,"ĠFriend":2551,"ĠFound":2552,"liar":2553,"Ġcond":2554,"Ġind":2555,"Ġindi":2556,"Ġinter":2557,"Ġman":2558,"Ġmin":2559,"Ġmix":2560,"ilet":2561,"ĠEnvironment":2562,"ĠPricing":2563,"Ġwent":2564,"ĠWhich":2565,"ĠAVER":2566,"essible":2567,"Ġbough":2568,"Ġbist":2569,"Ġback":2570,"aff":2571,"ĠCafÃ©ter":2572,"umber":2573,"ĠSo":2574,"area":2575,"Ġchildless":2576,"llo":2577,"ments":2578,"ĠMedium":2579,"Look":2580,"ĠVery":2581,"ĠOther":2582,"ĠAromis":2583,"ĠEagles":2584,"Ġform":2585,"Ġforget":2586,"Ġtoilet":2587,"unning":2588,"Ġprof":2589,"Ġprohi":2590,"Ġprovider":2591,"Ġstunning":2592,"Ġstarred":2593,"ĠSicilian":2594,"Ġdid":2595,"ounds":2596,"ĠDespite":2597,"Ġbeat":2598,"Ġbecom":2599,"Ġbegin":2600,"Ġofferings":2601,"Ġestablishments":2602,"ional":2603,"quisit":2604,"than":2605,"thing":2606,"stars":2607,"bove":2608,"Ġexquisit":2609,"ffordable":2610,"Ġaffordably":2611,"ass":2612,"Ġvary":2613,"Ġexcept":2614,"Ġupwards":2615,"Ġdrinking":2616,"Ġwanting":2617,"Ġbeluga":2618,"Ġliked":2619,"Ġpaying":2620,"Ġmaybe":2621,"ĠUK":2622,"Ġgeneral":2623,"ĠSuitable":2624,"Ġcharge":2625,"ĠThat":2626,"ĠThree":2627,"Ġentries":2628,"Ġspecialty":2629,"Ġparties":2630,"Ġmaking":2631,"Ġregion":2632,"Ġsale":2633,"Adults":2634,"Ġsays":2635,"used":2636,"Ġstandards":2637,"Ġtaking":2638,"Ġmodestly":2639,"Ġnormally":2640,"Ġmainly":2641,"Ġwalk":2642,"ggs":2643,"Ġmodern":2644,"Ġwaterfront":2645,"Ġaccessible":2646,"Ġfondue":2647,"round":2648,"ĠType":2649,"Ġfinest":2650,"Ġpurch":2651,"ucive":2652,"ĠReview":2653,"Ġrefresh":2654,"Ġassorted":2655,"Ġsports":2656,"Ġpossible":2657,"Ġguests":2658,"Reasonably":2659,"Star":2660,"Ġtapas":2661,"Ġtraveling":2662,"Ġobtained":2663,"Ġequally":2664,"ĠNOT":2665,"Ġentertainment":2666,"Ġsurpris":2667,"ĠEuropean":2668,"ĠTypically":2669,"Ġappetizers":2670,"Ġsurroundings":2671,"AGE":2672,"Theres":2673,"eaturing":2674,"Ġcrowd":2675,"Ġtoday":2676,"Ġsorry":2677,"Ġhosts":2678,"Ġarray":2679,"Ġconducive":2680,"Ġinterest":2681,"Ġmixed":2682,"ĠAVERAGE":2683,"Ġbought":2684,"Ġbistro":2685,"ĠCafÃ©teria":2686,"Ġtoilets":2687,"Ġprohibited":2688,"Ġexquisite":2689,"Ġexceptional":2690,"10":2691,"50":2692,"As":2693,"Available":2694,"Based":2695,"Com":2696,"Clare":2697,"Fr":2698,"Fan":2699,"Have":2700,"Luton":2701,"Leave":2702,"Name":2703,"Prices":2704,"Rating":2705,"Sat":2706,"Th":2707,"ded":2708,"equ":2709,"fami":2710,"famous":2711,"gan":2712,"gain":2713,"ily":2714,"ks":2715,"mp":2716,"ming":2717,"moderate":2718,"nic":2719,"oid":2720,"pes":2721,"rate":2722,"son":2723,"tures":2724,"uri":2725,"ues":2726,"uce":2727,"void":2728,"where":2729,"xce":2730,"Ġ;":2731,"ĠĊ":2732,"Ġentre":2733,"ĠZizzis":2734,"erate":2735,"erfect":2736,"Ġred":2737,"Ġrive":2738,"Ġrough":2739,"Ġcar":2740,"Ġfo":2741,"Ġfish":2742,"Ġflare":2743,"Ġfront":2744,"enance":2745,"hello":2746,"Ġabs":2747,"Ġavoid":2748,"Ġtea":2749,"Ġtab":2750,"ams":2751,"eace":2752,"Ġpres":2753,"Ġpick":2754,"Ġpass":2755,"Ġpeace":2756,"ise":2757,"ised":2758,"Ġore":2759,"Ġoth":2760,"Ġorient":2761,"stenance":2762,"Ġnest":2763,"Ġnumber":2764,"Ġprim":2765,"Ġcut":2766,"Ġoften":2767,"Ġsod":2768,"Ġsub":2769,"Ġsix":2770,"Ġsiz":2771,"Ġsim":2772,"Ġsad":2773,"ream":2774,"revious":2775,"ury":2776,"urse":2777,"Ġet":2778,"Ġeggs":2779,"pecta":2780,"Ġhi":2781,"Ġho":2782,"Ġtypes":2783,"Ġareas":2784,"ided":2785,"utely":2786,"Ġans":2787,"Ġcous":2788,"Ġcourse":2789,"Ġinfamous":2790,"Ġmo":2791,"Ġmer":2792,"ĠEat":2793,"ĠPerfect":2794,"ĠPrevious":2795,"Ġwaterman":2796,"Ġway":2797,"Ġwinery":2798,"Ġpubs":2799,"Ġbear":2800,"Ġbak":2801,"Ġbas":2802,"Ġbig":2803,"Ġbath":2804,"ĠHe":2805,"olutely":2806,"Ġcheat":2807,"ark":2808,"Ġkind":2809,"rown":2810,"ĠMid":2811,"ressive":2812,"Ġproud":2813,"ĠNext":2814,"top":2815,"Ġstat":2816,"Ġstree":2817,"Ġsteep":2818,"ips":2819,"ĠRanges":2820,"ĠMills":2821,"Ġgather":2822,"Ġgrill":2823,"Ġdear":2824,"ĠDishes":2825,"imum":2826,"ibly":2827,"ĠPlates":2828,"Ġadv":2829,"Ġaddition":2830,"Ġadequ":2831,"Ġsustenance":2832,"ĠBeefeaters":2833,"Ġgoods":2834,"Ġsitting":2835,"Ġeaten":2836,"oks":2837,"ctory":2838,"Ġinexpensively":2839,"Ġdoor":2840,"Ġunivers":2841,"rity":2842,"Ġlocates":2843,"Ġfact":2844,"Ġdiners":2845,"Ġdisc":2846,"Ġdele":2847,"Ġvisiting":2848,"akey":2849,"Ġoperate":2850,"Ġenjoys":2851,"Ġenjoying":2852,"Ġenjoyable":2853,"ously":2854,"Ġtakeout":2855,"hilst":2856,"Ġconsumers":2857,"Ġsatisfied":2858,"Ġsatisfactory":2859,"Ġscener":2860,"peciali":2861,"Ġbuck":2862,"Ġspecific":2863,"idered":2864,"ĠHigher":2865,"opular":2866,"Ġcontains":2867,"Cheaply":2868,"Ġloved":2869,"Ġranking":2870,"Ġbrings":2871,"pectrum":2872,"Ġcombo":2873,"Ġperfectly":2874,"Ġchips":2875,"Ġlikely":2876,"they":2877,"Ġpoints":2878,"Ġacce":2879,"Ġbadly":2880,"Ġwhit":2881,"Ġfeatured":2882,"Ġmiddling":2883,"Ġspecialized":2884,"Ġwont":2885,"Ġexpected":2886,"Ġgenerated":2887,"Ġcharming":2888,"Ġfalling":2889,"Ġwitch":2890,"ĠTheres":2891,"icks":2892,"Ġawarded":2893,"Ġtastes":2894,"Ġamongst":2895,"Ġapproved":2896,"Ġpartner":2897,"ĠLook":2898,"Ġsafe":2899,"Ġclientele":2900,"Ġresult":2901,"Ġprams":2902,"vidual":2903,"Ġanything":2904,"Ġanywhere":2905,"Ġexclusively":2906,"Ġmaintains":2907,"Ġwalking":2908,"Ġneeds":2909,"ensibly":2910,"Ġfreshly":2911,"Ġclassics":2912,"Ġneighbo":2913,"Ġattracts":2914,"Ġhearty":2915,"Ġpleased":2916,"ĠJoin":2917,"Ġparents":2918,"Ġhappy":2919,"Ġhappen":2920,"Ġwork":2921,"Ġdeals":2922,"ĠCostumer":2923,"Ġscene":2924,"Ġscenic":2925,"Ġregularly":2926,"Ġneighborhood":2927,"Ġimpressive":2928,"Ġachieved":2929,"Rainbow":2930,"Ġpicnic":2931,"ĠConsumers":2932,"Ġmiles":2933,"Ġbaby":2934,"Ġgained":2935,"Ġopinion":2936,"Ġpreferred":2937,"Ġclosest":2938,"Ġluxury":2939,"Ġdisappoint":2940,"Being":2941,"airly":2942,"Ġeasy":2943,"Ġfocused":2944,"Ġpairings":2945,"Ġsingle":2946,"Ġemerging":2947,"Ġlaid":2948,"Ġlarge":2949,"Ġindeed":2950,"Ġindividual":2951,"Ġminimum":2952,"Ġpurchase":2953,"ĠReviews":2954,"Ġrefreshments":2955,"Ġsurprisingly":2956,"From":2957,"Fancy":2958,"familiar":2959,"turesque":2960,"uced":2961,"xcellent":2962,"Ġentrees":2963,"Ġreduced":2964,"Ġabsolutely":2965,"Ġothers":2966,"Ġorientated":2967,"Ġsadly":2968,"Ġcousin":2969,"Ġbasic":2970,"Ġstreet":2971,"Ġuniversity":2972,"Ġscenery":2973,"'d":2974,"'m":2975,",,":2976,"--":2977,".Â£":2978,"19":2979,"33":2980,"99":2981,"Also":2982,"Above":2983,"Affordable":2984,"Around":2985,"Both":2986,"Cent":2987,"Cons":2988,"Do":2989,"Due":2990,"Drop":2991,"Ear":2992,"Exp":2993,"Expect":2994,"Excellent":2995,"Famous":2996,"Featuring":2997,"Fairly":2998,"Good":2999,"Hell":3000,"Head":3001,"Id":3002,"Is":3003,"Jo":3004,"Kn":3005,"More":3006,"Nice":3007,"Over":3008,"People":3009,"Popular":3010,"Ran":3011,"Rivers":3012,"Sited":3013,"To":3014,"Traditional":3015,"Whilst":3016,"Yippee":3017,"act":3018,"aries":3019,"ban":3020,"but":3021,"bles":3022,"cap":3023,"cular":3024,"cond":3025,"ders":3026,"day":3027,"eve":3028,"euros":3029,"fore":3030,"fare":3031,"gle":3032,"gal":3033,"ground":3034,"ich":3035,"ilies":3036,"ious":3037,"ke":3038,"key":3039,"lp":3040,"lis":3041,"loc":3042,"liness":3043,"mal":3044,"med":3045,"moderately":3046,"most":3047,"nit":3048,"not":3049,"offee":3050,"offering":3051,"pan":3052,"pub":3053,"par":3054,"phis":3055,"reas":3056,"rally":3057,"sit":3058,"ters":3059,"this":3060,"ties":3061,"ung":3062,"uff":3063,"ying":3064,"yor":3065,"yling":3066,"čĊ":3067,"Ġod":3068,"Ġur":3069,"Ġant":3070,"Ġice":3071,"Ġvi":3072,"Ġest":3073,"Ġ-Â£":3074,"erto":3075,"ang":3076,"andi":3077,"ansive":3078,"Ġru":3079,"Ġrom":3080,"Ġrid":3081,"Ġrear":3082,"Ġraving":3083,"ations":3084,"Ġca":3085,"Ġcast":3086,"Ġcraz":3087,"Ġcrit":3088,"Ġcare":3089,"Ġcertain":3090,"Ġcream":3091,"Ġfyne":3092,"Ġfour":3093,"Ġfus":3094,"Ġfoe":3095,"Ġfits":3096,"rist":3097,"ene":3098,"esides":3099,"escribed":3100,"Ġact":3101,"Ġaffor":3102,"Ġactive":3103,"iners":3104,"inting":3105,"Ġtur":3106,"Ġtou":3107,"Ġtree":3108,"Ġtim":3109,"Ġtreat":3110,"Ġtradition":3111,"eak":3112,"Ġpol":3113,"Ġpra":3114,"Ġphoenix":3115,"Ġpizz":3116,"iss":3117,"isines":3118,"Ġow":3119,"Ġoli":3120,"Ġold":3121,"sticks":3122,"Ġrater":3123,"Ġratting":3124,"Ġpried":3125,"endy":3126,"ended":3127,"Ġcup":3128,"Ġcuisines":3129,"verthe":3130,"itch":3131,"ĠId":3132,"table":3133,"ĠChop":3134,"ĠChest":3135,"ĠCoffee":3136,"Ġranch":3137,"Ġranting":3138,"eared":3139,"Ġspecta":3140,"Ġspectrum":3141,"Ġsensibly":3142,"redi":3143,"recommend":3144,"ped":3145,"pecc":3146,"Ġhat":3147,"Ġhung":3148,"Ġlend":3149,"Ġlate":3150,"Ġlay":3151,"Ġland":3152,"Ġlad":3153,"Ġares":3154,"ention":3155,"ĠBy":3156,"ĠBurgers":3157,"ĠBoth":3158,"ĠBeautiful":3159,"ĠBoasting":3160,"hos":3161,"antly":3162,"antic":3163,"antee":3164,"ĠFitzb":3165,"ĠFull":3166,"ĠFeaturing":3167,"Ġthro":3168,"Ġcore":3169,"Ġcoast":3170,"Ġcool":3171,"Ġinv":3172,"Ġinst":3173,"ĠRel":3174,"ĠRoad":3175,"Â£-":3176,"ĠÂ£,":3177,"ĠÂ£.":3178,"Ġmild":3179,"Ġyear":3180,"ile":3181,"ĠEatery":3182,"ĠEnjoy":3183,"ĠPounds":3184,"Ġwat":3185,"Ġwhe":3186,"Ġwhis":3187,"asta":3188,"astro":3189,"rocious":3190,"ĠWelcom":3191,"ĠAcc":3192,"ĠAbove":3193,"ĠAffordable":3194,"esses":3195,"essment":3196,"Ġblue":3197,"Ġbare":3198,"Ġbloc":3199,"Ġbesides":3200,"ourite":3201,"veyor":3202,"ĠSc":3203,"ĠSell":3204,"ĠStop":3205,"ĠSpeciali":3206,"ales":3207,"orable":3208,"Ġcheep":3209,"ilding":3210,"Ġcheapest":3211,"ĠTraditional":3212,"ĠTuc":3213,"arantee":3214,"ored":3215,"lain":3216,"laimed":3217,"Ġkitch":3218,"ĠMa":3219,"ĠMay":3220,"ĠMenu":3221,"ĠVisit":3222,"ĠOf":3223,"ĠOriental":3224,"ryout":3225,"Ġatrocious":3226,"Ġtoast":3227,"unfriendly":3228,"ived":3229,"ics":3230,"icult":3231,"icular":3232,"Ġproble":3233,"ĠName":3234,"ĠNon":3235,"Ġproves":3236,"ĠKeep":3237,"ĠPunters":3238,"tons":3239,"Ġstell":3240,"Ġstaff":3241,"Ġstuff":3242,"Ġstyling":3243,"inexpensive":3244,"Ġones":3245,"ĠRang":3246,"Ġgate":3247,"Ġgar":3248,"Ġgrove":3249,"Ġgas":3250,"Ġgrown":3251,"Ġgeared":3252,"Ġgastro":3253,"Ġdra":3254,"ĠDE":3255,"ĠDescribed":3256,"cker":3257,"Ġbeans":3258,"Ġrequ":3259,"imate":3260,"Ġtherefore":3261,"ibe":3262,"jacent":3263,"Ġrivers":3264,"Ġalbe":3265,"ĠPlus":3266,"ĠAddition":3267,"Ġadded":3268,"osite":3269,"looks":3270,"sons":3271,"Ġsuffers":3272,"compan":3273,"Ġvenues":3274,"iraff":3275,"Ġgreatly":3276,"Ġreviewers":3277,"Ġquali":3278,"Ġneverthe":3279,"cted":3280,"starred":3281,"Ġdone":3282,"Ġunable":3283,"Ġunbe":3284,"Ġexc":3285,"Ġexist":3286,"Ġexact":3287,"Ġlocale":3288,"Ġoverpriced":3289,"Ġoverlooks":3290,"ourable":3291,"Ġvaries":3292,"Ġvibe":3293,"Ġmenus":3294,"ĠRanged":3295,"Ġmeat":3296,"Ġmeant":3297,"Ġ--":3298,"Ġvisitors":3299,"Ġspent":3300,"Ġspite":3301,"Ġhelp":3302,"Ġorgan":3303,"Ġorders":3304,"Ġexpansive":3305,"isfied":3306,"Ġconsist":3307,"Ġdrive":3308,"Ġsatisfying":3309,"Ġwants":3310,"Ġsettings":3311,"Ġbreaking":3312,"Ġscare":3313,"Ġbuilding":3314,"Ġsophis":3315,"Only":3316,"Ġwouldn":3317,"Ġconsidering":3318,"Ġpastries":3319,"ranged":3320,"Ġranks":3321,"Ġviewed":3322,"Ġuser":3323,"Ġdecided":3324,"Ġbringing":3325,"type":3326,"Ġchoices":3327,"Ġearns":3328,"Ġshoo":3329,"Ġshot":3330,"Ġdelivery":3331,"Ġbudgets":3332,"Ġchill":3333,"arily":3334,"Ġgotten":3335,"Ġaccompan":3336,"Ġvaried":3337,"Ġvarious":3338,"Ġideally":3339,"Ġfares":3340,"atively":3341,"Ġlocals":3342,"Ġplates":3343,"ĠUs":3344,"Ġbeautifully":3345,"Ġfans":3346,"outs":3347,"Ġusual":3348,"Ġawful":3349,"Ġenter":3350,"Ġentree":3351,"ĠUnfriendly":3352,"Ġspecialties":3353,"Ġeveryday":3354,"Averagely":3355,"Ġparticular":3356,"Ġseek":3357,"Ġleast":3358,"Ġleaving":3359,"Visiting":3360,"Ġfurnit":3361,"Ġcurry":3362,"Ġfavourite":3363,"Ġfavorable":3364,"Ġpermits":3365,"Adjacent":3366,"ticated":3367,"Ġmostly":3368,"Ġnowhere":3369,"Ġeach":3370,"Ġeagle":3371,"Ġresults":3372,"Ġrestroom":3373,"Pricey":3374,"Ġdeserts":3375,"Ġalcoholic":3376,"Why":3377,"Ġmarks":3378,"Ġmarked":3379,"ĠLocation":3380,"Ġlegal":3381,"Ġordered":3382,"Ġcompetit":3383,"Ġproduces":3384,"Ġdire":3385,"Ġcracker":3386,"Ġreport":3387,"Ġacclaimed":3388,"Ġcooked":3389,"Ġcoupled":3390,"Ġboats":3391,"Ġuseful":3392,"Ġlevels":3393,"Ġthings":3394,"Crown":3395,"Lets":3396,"Ġimpecc":3397,"Ġintended":3398,"Ġattraction":3399,"Ġattractive":3400,"Ġguarantee":3401,"Ġdays":3402,"Ġpurveyor":3403,"Ġpark":3404,"Ġworse":3405,"Ġbreads":3406,"Ġattention":3407,"Ġrelaxing":3408,"ĠBreakfasts":3409,"ĠCosts":3410,"Ġplayground":3411,"Ġrefle":3412,"Ġremain":3413,"Ġremark":3414,"Ġassessment":3415,"Ġexceeding":3416,"Ġsporting":3417,"Ġpossesses":3418,"Ġimprove":3419,"Ġachieving":3420,"Ġsoups":3421,"Raja":3422,"Ġtrue":3423,"Ġtrendy":3424,"Ġpicturesque":3425,"Ġsecond":3426,"Ġincreas":3427,"Ġincredi":3428,"Ġbabies":3429,"Ġkeeping":3430,"Ġopinions":3431,"Ġluxuri":3432,"Ġdisappointing":3433,"Among":3434,"Amazing":3435,"ĠQuid":3436,"Ġreasons":3437,"Ġprofile":3438,"Ġdidn":3439,"Ġbecome":3440,"Ġbecoming":3441,"Ġvarying":3442,"Ġcrowds":3443,"Ġinteresting":3444,"Ġinterested":3445,"Coming":3446,"Named":3447,"Three":3448,"Ġroughly":3449,"Ġfool":3450,"Ġpeaceful":3451,"Ġnestled":3452,"Ġprimarily":3453,"Ġcute":3454,"Ġsoda":3455,"Ġsizes":3456,"Ġethos":3457,"Ġhope":3458,"Ġmoved":3459,"Ġmerits":3460,"Ġbathrooms":3461,"Ġstatus":3462,"Ġgrills":3463,"Ġadequate":3464,"Ġdelecta":3465,"Ġspecifically":3466,"Ġaccept":3467,"Ġneighbour":3468,"Ġbabysit":3469,"Ġdisappointed":3470,"Ġindividuals":3471,"Centrally":3472,"Considered":3473,"Earning":3474,"Express":3475,"Hello":3476,"Join":3477,"Known":3478,"Riversides":3479,"Ġurban":3480,"erton":3481,"andicap":3482,"Ġromantic":3483,"Ġcrazy":3484,"Ġcritics":3485,"Ġcertainly":3486,"Ġfusion":3487,"Ġactively":3488,"Ġturn":3489,"Ġtourist":3490,"Ġtime":3491,"Ġpolite":3492,"Ġpraised":3493,"Ġpizza":3494,"Ġolives":3495,"ĠChopsticks":3496,"ĠChesterton":3497,"Ġspectacular":3498,"recommended":3499,"Ġhungry":3500,"ĠFitzbilies":3501,"Ġthrough":3502,"ĠRelatively":3503,"Ġmildly":3504,"Ġwhiskey":3505,"ĠWelcoming":3506,"ĠAccording":3507,"Ġbarely":3508,"ĠSelling":3509,"ĠTucson":3510,"Ġkitchen":3511,"Ġproblem":3512,"Ġstellar":3513,"Ġalbeit":3514,"ĠAdditionally":3515,"iraffes":3516,"Ġnevertheless":3517,"Ġexactly":3518,"Ġorganiz":3519,"Ġsophisticated":3520,"Ġaccompanied":3521,"Ġfurniture":3522,"Ġimpeccable":3523,"Ġremarkable":3524,"Ġincreasingly":3525,"Ġluxurious":3526,"Ġbabysitter":3527}