#version: 0.2 - Trained by `huggingface/tokenizers`
Ġ =
Ġ |
e r
Ġ c
Ġ r
a n
Ġ f
Ġ t
a t
Ġ i
e n
r i
Ġ a
h e
s t
a m
l y
Ġ p
o d
e a
Ġt he
i n
o od
Ġ o
e s
Ġf ood
g e
c e
in g
Ġ n
Ġi s
Ġr at
Ġc u
o m
Ġp ri
Ġrat ing
en d
am e
ri end
riend ly
st om
stom er
Ġcu stomer
i d
Ġpri ce
Ġ s
n ame
Ġ h
v er
Ġr an
Ġran ge
Ġr i
Ġa r
Ġ b
Ġ e
at er
Ġo f
i t
ea r
Ġi n
Ġn ear
Ġ l
r e
am i
Ġf ami
Ġfami ly
p e
l i
Ġ 5
Ġi t
ater y
Ġe atery
Ġt y
Ġty pe
Ġar ea
Ġri ver
u r
en t
id e
st a
s ide
f riendly
Ġriver side
Ġr e
Ġc o
u t
Ġl o
h o
an t
Ġ w
ur ant
sta urant
Ġre staurant
Ġ an
at e
Ġt h
f e
Ġo ut
Ġ m
f fe
ffe e
Ġs ho
Ġco ffee
Ġsho p
a p
Ġ y
g h
it y
Ġc ity
Â £
Ġc ent
Ġ Â£
Ġan d
i gh
Ġh igh
Ġcent re
es e
c h
i l
t he
Ġp u
Ġy es
Ġf riendly
Ġh a
Ġn o
ate d
Ġc a
Ġth an
2 0
r en
c ated
v e
Ġc h
Ġpu b
l e
a st
Ġlo cated
a li
Ġ g
Ġha s
d i
r o
ver a
vera ge
Ġf ast
Ġa verage
di an
es s
Ġin dian
Ġ j
Ġs er
an ese
ap anese
ali an
Ġj apanese
o u
Ġit alian
Ġlo w
od er
oder ate
it h
Ġm oderate
ren ch
Ġf rench
Ġser v
Ġw ith
f Ã
fÃ ©
Ġca fÃ©
u m
o l
er s
o r
Ġc he
il d
Ġche ap
s h
Ġ k
l a
Ġ 3
n e
li sh
Ġb o
Ġ en
Ġl ess
Ġserv es
Ġri ce
Ġbo at
Ġ 1
l l
g lish
Ġen glish
Ġth at
Ġch ild
in ese
r a
Ġch inese
Ġb a
o re
Ġm ore
3 0
Ġno t
Ġw ater
m an
Ġwater man
d ge
am b
Ġc amb
ri dge
Ġcamb ridge
Ġb y
2 5
ol d
Ġg old
Ġgold en
ro w
Ġk id
e d
l o
x p
Ġt w
n s
Ġe xp
u e
er e
m ent
Ġba r
li es
Ġprice d
z i
Ġp la
Ġrat ed
r y
l ue
le d
Ġca l
Ġcal led
i x
z b
it zb
il lies
itzb illies
Ġ at
Ġ ea
Ġea g
Ġeag le
Ġcu r
Ġcur ry
s e
h ere
a y
ment um
d a
Ġf or
Ġof f
Ġr a
Ġb lue
r ess
ol id
Ġh olid
Ġholid ay
Ġin n
Ġexp ress
en ix
Ġp ho
Ġpho enix
row ns
Ġr ou
Ġrou ge
i s
ra da
st rada
o w
re st
Ġw rest
Ġwrest l
Ġwrestl ers
Ġchild ren
i ce
Ġt o
Ġb e
l t
Ġpri c
Ġ v
i ve
i c
Ġh ou
Ġhou se
t here
o t
Ġf y
Ġfy ne
or t
Ġpric es
Ġs p
u lt
m s
an d
Ġp ro
Ġf itzbillies
l and
Ġp ort
Ġar e
Ġar ms
Ġport land
Ġpro v
Ġsp ice
ge t
n t
Ġo ne
Ġprov id
Ġ d
ur g
Ġpu nt
Ġpunt er
Ġb urg
t o
Ġoff ers
Ġa li
Ġburg er
Ġali mentum
Ġk ing
ent y
Ġtw enty
Ġa ll
i p
Ġtw o
e l
Ġn ood
a ri
ip pe
Ġnood le
ippe e
Ġy ippee
sta r
b ow
Ġ ve
in bow
get ari
Ġve getari
Ġvegetari an
Ġra inbow
ult s
Ġ strada
Ġb rowns
Ġpla ce
in e
w ood
ild wood
z zi
zi zzi
Ġg ro
Ġo li
Ġoli ve
Ġgro ve
il l
Ġserv ing
Ġb ut
Ġo n
Ġv a
c um
Ġ star
Ġva ults
Ġlo ch
Ġh ot
Ġhot el
z a
Ġpla za
Ġc row
om i
Ġthe y
li a
Ġs ic
Ġsic i
Ġsici lia
Ġcu is
Ġcuis ine
Ġmoderate ly
m er
id s
Ġp a
Ġit s
um mer
ids ummer
Ġm ill
t to
Ġco tto
Ġcrow ne
Ġw h
Ġrating s
Ġkid s
re e
s ive
la ce
Ġpa lace
en sive
Ġprovid es
Ġran ch
n d
i ch
Ġwh ich
Ġc la
Ġha ll
Ġcla re
Ġw ildwood
Ġ zizzi
lo w
' s
Ġcustomer s
Ġa d
Ġg re
Ġn ame
low ns
Ġar omi
Ġco cum
Ġy ou
ou nd
Ġexp ensive
ll s
b i
l ing
e t
Ġt ree
p ling
um pling
Ġd umpling
Ġm idsummer
Ġba k
Ġbak ers
Ġm an
Ġhigh ly
Ġname d
i ra
ira ffe
lo cated
f itzbillies
Ġha ve
c k
Ġc an
o n
Ġcent er
Ġth ere
n ear
Ġc lowns
ck et
m b
bi mb
bimb ap
r ent
Ġc ri
ali mentum
cket ers
Ġcri cketers
b rowns
Ġs or
j a
p ri
Ġra ja
f or
rent o
Ġsor rento
Ġ 20
pri ce
Ġp l
v i
Ġg iraffe
Ġgre en
l s
Ġco st
lo n
Ġprovid ing
Ġth is
ast e
Ġb ra
price d
ou gh
Ġpl ough
z il
Ġbra zil
Ġoff er
Ġser ve
lo ch
a r
c o
Ġs e
b le
v a
b lue
Ġa va
Ġb i
Ġs ix
Ġbe lls
at ic
ri atic
Ġad riatic
Ġbi bimbap
c ot
cot to
Ġf r
Ġt aste
c om
Ġno n
o s
Ġoffer ing
Ġfr om
Ġs u
co cum
Ġava lon
Ġre st
Ġf ound
ls o
Ġa lso
a l
ra ve
Ġf ive
sta b
Ġe stab
lish ment
Ġestab lishment
ll ers
e fe
Ġbe efe
rave llers
Ġbeefe ater
Ġ u
Ġse lls
w ith
e w
w ildwood
ar omi
Ġv en
Ġven ue
Ġp ound
Ġstar s
lo se
i on
i r
Ġpound s
ro n
Ġon ly
Ġg ood
Ġen vi
ron ment
Ġenvi ronment
m idsummer
Ġ3 0
Ġt ravellers
a ble
Ġc lose
Ġm ea
Ġs it
i f
Ġa s
Ġgre at
Ġ st
Ġre ce
Ġe at
ver y
u ated
q u
in d
Ġ very
Ġfami lies
m os
p here
Ġat mos
Ġatmos phere
Ġad ult
vi ew
t h
Ġp o
o k
Ġt ry
Ġre view
Ġw e
Ġ qu
Ġf ind
Ġsit uated
el com
' t
Ġthe ir
c lowns
Ġth ree
Ġrece ive
Ġreceive d
xp ensive
Ġran g
y le
Ġw elcom
e xpensive
Ġn e
sh i
Ġsu shi
ok ing
Ġm id
c t
Ġcost s
x t
Ġb ri
Ġin expensive
u gh
Ġr ea
ho ugh
r ated
v en
w e
Ġd o
t i
ow n
Ġbe t
Ġreview s
g re
we en
Ġrat e
Ġmea ls
Ġbet ween
gre en
Ġlo oking
bi bimbap
Ġst yle
Ġe x
Ġlo c
b o
Ġne xt
s on
Ġf a
g iraffe
Ġad ults
lon g
Ġpo or
Ġrea son
Ġa bo
Ġa f
Ġo ver
nd er
al ity
f ami
Ġg o
Ġdo es
Ġe ur
Ġ get
Ġhigh er
Ġqu ality
Ġh ow
for da
Ġwelcom e
ti sh
fami ly
e ver
Ġbri tish
Ġhow ever
Ġaf forda
Ġu nder
Ġafforda ble
o ur
Ġw ill
Ġno r
Ġa long
at ion
Ġd e
Ġserve d
Ġy our
Ġserv ice
Ġnor th
en u
Ġm enu
t aste
Ġsu it
Ġeur os
Ġ .
Ġ di
k e
Ġloc ation
com m
Ġis n
Ġex ce
om e
Ġbe en
comm end
Ġre commend
Ġw here
ll ent
v ing
Ġexce llent
Ġmea l
Ġm e
Ġd in
b y
Ġabo ve
Ġsuit able
Ġcrow n
is it
c i
f ast
Ġrang ing
ri n
lt hough
Ġth en
Ġ ,
Ġw ho
t ing
Ġg i
- Â£
Ġw ine
Ġme di
Ġp er
Ġall ow
Ġt a
in t
' re
Ġreason able
l d
Ġwith in
Ġdin ing
j o
Ġdi s
Ġrecommend ed
Ġmedi um
Ġv isit
Ġ -
ch ild
Ġgi ven
jo y
Ġu p
h igh
it e
he s
Ġo p
Ġ Ġ
Ġo ur
Ġdis hes
Ġs ide
Ġde li
Ġf e
Ġen joy
Ġrang es
u st
Ġar ound
gh t
Ġpric ing
Ġcost ing
r ea
Ġ he
a s
ou s
Ġwe ll
Ġta ke
Ġa lthough
la r
y ou
f ood
Ġ 25
Ġse ll
al ly
a d
b ly
ct ion
j apanese
er i
Ġo r
Ġaverage ly
Ġs et
Ġfe at
Ġfood s
Ġb rea
Ġg ive
Ġt hough
en ce
Ġco ns
Ġj ust
Ġwho le
Ġexp eri
a bly
Ġa m
Ġs at
Ġexperi ence
v es
il e
is f
Ġpoor ly
Ġbrea k
c a
Ġj o
Ġsat isf
Ġd rin
Ġdrin k
ri ent
Ġreason ably
Ġw ant
s er
Ġk n
Ġbe ing
Ġset ting
Ġsatisf a
c he
Ġw as
Ġbreak fast
c u
Ġsatisfa ction
t ravellers
Ġ '
Ġs pe
Ġfa re
Ġc ater
Ġl i
il able
Ġbe st
ser ving
f rench
ri ver
Ġout side
Ġfa ir
Ġget s
Ġkn own
Ġn ice
Ġf riend
Ġs o
Ġava ilable
Ġjo int
river side
k id
Ġo rient
Ġ end
Ġb u
um er
cu stomer
Ġs ome
Ġrece i
Ġspe ci
Ġs c
it alian
u n
Ġp re
c ent
Ġt own
child ren
s ed
Ġbo ast
Ġprov ide
Ġwh ile
Ġprice y
Ġche ck
Ġallow ed
n g
id er
t s
d it
o p
Ġri ght
ou ld
Ġu n
Ġqu ite
Ġsell ing
Ġcons ider
dit ion
Ġi f
Ġw ould
ven i
che ap
veni ent
o ne
p u
ci ous
Ġrecei ves
Ġspeci ali
r an
Ġco n
Ġd own
Ġabo ut
Ġorient ed
t ion
it t
ur es
ra dition
Ġconsider ed
Ġt radition
Ġbri ng
Ġdeli cious
Ġcon venient
u l
w ay
z ing
Ġc ho
Ġlo ve
high ly
Ġfeat ures
Ġnear by
Ġche ese
Ġv i
Ġop tion
Ġboast s
Ġtradition al
en glish
Ġlow er
Ġto o
rin g
ran ge
s s
Ġrange d
Ġba sed
m oderate
u ld
Ġran k
li c
Ġcost umer
Ġu s
Ġvi ew
f f
Ġpa sta
Ġwelcom es
Ġc ome
Ġty p
th is
Ġ ear
igh t
Ġfair ly
t y
Ġcheap ly
Ġbe low
Ġde cent
Ġhe ad
e ms
Ġf ine
Ġdrink s
Ġtyp ic
Ġc om
in dian
Ġn ew
Ġit ems
fe ct
Ġd ine
Ġper fect
ver s
pe ct
ol lar
Ġd ollar
co st
Ġconvenient ly
l ly
y es
th er
customer s
Ġp ay
ne d
Ġcho ice
moderate ly
Ġear ned
a in
g es
ri es
Ġpub lic
Ġbu dge
ff er
i es
l u
in es
com e
Ġeat ing
Ġli ke
a lthough
Ġl itt
Ġg ot
Ġpo pu
Ġbudge t
Ġlitt le
c lose
Ġa c
st yle
le t
Ġpo int
Ġdollar s
Ġthe m
Ġe ven
ch inese
Ġv ari
ort h
op le
Ġpopu lar
Ġp e
ate ly
Ġm ay
Ġpl ea
a zing
c lu
Ġba d
Ġstar ting
Ġex pect
Ġfeat u
Ġpe ople
o ns
o ffer
Ġf ries
offer ing
es ide
Ġd es
Ġdoes n
Ġam azing
Ġcater s
s it
u se
Ġrat es
ic es
Ġsp end
co ffee
a verage
f ort
Ġi d
ea l
li ght
Ġm a
Ġy et
lo oking
et y
ar d
p ro
w h
es es
Ġs light
Ġb it
Ġserv ices
Ġche eses
Ġbe ca
un ately
Ġtypic ally
Ġvari ety
fort unately
Ġbeca use
i m
p ite
Ġf ar
Ġha d
Ġburg ers
Ġmid d
Ġun fortunately
Ġspeciali z
sit uated
Ġslight ly
' ll
n ot
re d
Ġlo ok
Ġd on
Ġplea se
at ive
en er
am es
Ġb eside
Ġw orth
Ġha ving
Ġfriend s
Ġfeatu ring
ea ut
Ġh ome
Ġw ines
Ġout let
if ul
Ġloc al
ca le
Ġsc ore
Ġmidd le
eaut iful
a ll
a long
Ġb eautiful
Ġlow ly
Ġstar t
Ġcla ss
Ġrea lly
Ġeur o
Ġop en
Ġspecializ es
t ty
u ll
Ġs om
Ġco uld
Ġg ener
Ġbo th
Ġpre tty
Ġid eal
k ids
r t
Ġa p
Ġp ers
Ġch ar
ic an
Ġpers on
o ut
u s
Ġf ull
Ġa l
Ġa mer
Ġin clu
Ġsho uld
or es
and ing
Ġdeli ver
Ġsc ores
Ġamer ican
Ġinclu d
e atery
t ry
w elcom
st anding
Ġo vera
Ġh ere
Ġout standing
Ġser vers
on ly
Ġdi st
Ġus u
Ġovera ll
c es
Ġ ent
Ġn ight
Ġw it
ne xt
ic k
on g
Ġsit ed
Ġst ore
Ġhe ar
Ġlove ly
Ġdeliver ies
welcom e
n er
t er
u p
Ġo ther
Ġl ea
Ġva lue
Ġusu ally
o st
s cale
Ġt ast
Ġa w
ho se
Ġoffer ed
Ġse le
Ġsit s
Ġup scale
Ġam ong
0 0
c ity
g ing
i ri
k ir
s kir
Ġt hose
at ing
Ġo k
Ġar en
Ġrestaurant s
Ġout skir
ro nt
Ġsp iri
Ġplace d
Ġeat s
ti ons
Ġloc ate
Ġop tions
Ġoutskir ts
Ġspiri ts
a way
f ul
h er
k ing
l es
p er
Ġre l
Ġdes pite
Ġgener ally
Ġs m
Ġe very
ut on
ho ut
Ġm ar
Ġd ue
Ġreview ed
Ġallow s
Ġcons umer
pu b
Ġrank ed
Ġwit hout
Ġrel ative
' .
d own
e st
f ront
r d
r ating
y led
Ġf ur
Ġh amb
Ġw o
ro ss
Ġsp a
Ġman y
Ġbra cket
Ġst op
Ġspeciali zing
Ġac ross
wh ile
Ġsom ew
Ġap pro
Ġsm all
Ġhamb urg
a ck
b p
v isit
an ce
ri ct
Ġa way
ut h
Ġm ight
Ġg r
Ġto p
Ġsp ot
Ġwh at
Ġpl us
Ġcost ly
Ġse e
Ġqu ick
Ġfa v
Ġper m
Ġdeli vers
Ġun friendly
Ġdist rict
. ,
. .
e p
g he
k es
u b
u it
Ġa vera
Ġs a
Ġl uton
Ġre g
Ġcent ra
Ġcur rent
Ġsu re
Ġsuit ed
Ġwho se
Ġcom es
Ġhear t
Ġrelative ly
Ġfur ther
f ree
n o
r es
Ġc li
Ġr es
an k
Ġf o
Ġf ree
Ġs ay
Ġm ost
Ġno w
Ġno ne
Ġpa rt
vi ous
Ġne at
che ck
itt ed
Ġwo nder
Ġgr ub
Ġperm itted
Ġcurrent ly
a ve
b e
t e
t it
Ġ 4
er n
Ġf ant
Ġa ge
Ġn ames
Ġh old
it ies
re staurant
Ġriver front
Ġw ere
ast ic
ro om
Ġaf ter
ad ult
Ġpre vious
Ġtypic al
Ġlea ve
Ġcli ent
Ġfant astic
e le
Ġp r
Ġs h
Ġb ank
Ġth ames
Ġthat s
Ġnot e
Ġpla ces
Ġst yled
ca fÃ©
Ġli st
Ġbu y
Ġpre m
Ġview s
Ġma kes
Ġopen ed
Ġsele ction
c il
e ve
an da
en joy
ri te
Ġa ges
Ġs ea
Ġw ide
Ġm at
Ġm one
co ho
ct s
Ġfa cil
Ġdin ner
Ġor d
Ġli es
Ġal coho
Ġhamburg ers
Ġwonder ful
anda rd
Ġmone y
' ,
a re
f ound
i an
i re
i et
t ti
u ch
v id
Ġ z
Ġr o
Ġa uth
od est
ent ic
Ġan y
Ġm uch
Ġm odest
Ġg ave
Ġrest room
Ġas ian
Ġst andard
Ġqu iet
Ġwelcom ed
Ġfa lls
Ġthem ed
Ġchar ges
Ġinclud es
Ġtast y
Ġmar k
Ġspa ghe
Ġauth entic
Ġspaghe tti
f ind
i ons
i red
n ing
o f
o rite
Ġc ra
Ġp os
Ġre cent
Ġth ir
Ġm ust
ap p
ch ing
Ġca ll
Ġgro up
Ġsu ch
Ġsit e
Ġst ill
Ġex clu
Ġfa ll
Ġnor m
Ġup per
Ġam bi
Ġbu s
Ġprovide d
Ġcom pe
Ġac c
ard s
Ġsomew here
Ġfav orite
Ġcentra lly
Ġalcoho l
Ġz one
Ġro ad
Ġthir ty
Ġexclu sive
a lt
c y
d es
e ven
g in
l ent
o rient
t ain
u lar
Ġ sta
Ġc lent
an cy
od u
Ġrat her
Ġs ur
Ġw al
Ġm oder
Ġm ind
Ġsho rt
Â£ .
Ġg bp
Ġea st
Ġwh y
Ġgre ater
Ġsor ry
qu ality
Ġne ed
Ġbreakfast s
Ġorient al
un ch
Ġma ke
ard ed
wh en
im ed
Ġscore d
Ġok ay
ack s
Ġavera ging
Ġpr odu
Ġsh ip
Ġord er
Ġrestroom s
des pite
Ġclent ele
d e
f ive
h ing
i um
p a
s ing
x im
Ġ ate
an s
Ġt ow
at es
in ess
Ġs ear
Ġin t
Ġin to
Ġl unch
Ġre p
Ġw on
Ġw ar
Ġshop s
Ġch ain
Ġch ines
vera ges
um ers
or s
Ġbe verages
Ġfr uit
Ġfe ed
Ġrecei ving
Ġboast ing
pro vid
Ġclass ic
Ġent ire
Ġhold s
Ġprem ium
Ġrecent ly
Ġcompe tit
orient ed
provid ing
a ke
c ri
c re
e at
e ep
i ed
k ea
m et
n orth
t hough
u re
u nd
Ġf un
Ġt end
en ities
Ġa lt
Ġa imed
in ce
es h
Ġl eve
re view
ur met
Ġco ok
Ġco up
Ġlo ves
Ġcheap er
Ġat t
et hing
Ġfr esh
Ġu se
Ġpo lic
Ġgo urmet
Ġgi ves
Ġta kea
Ġam enities
way s
Ġsom ething
Ġaw are
ern ative
Ġgroup s
Ġsta y
Ġprodu cts
Ġsear ching
Ġalt ernative
review ed
Ġpolic y
Ġtakea way
a ving
b ring
e ly
h aving
l f
n ce
Ġf ancy
at ro
am ous
Ġp ast
Ġp atro
es ome
Ġpri nce
id es
Ġs ince
Ġw ron
Ġth ing
Ġm ain
ro und
Ġser ver
ou nt
se lf
ow nt
Ġd ownt
pri ces
Ġwelcom ing
Ġne igh
ct ions
fami lies
Ġta g
Ġthem e
Ġdes cri
Ġal ways
Ġaw esome
Ġsa id
Ġreg arded
Ġfo nd
Ġbank s
Ġfacil ity
Ġcra ving
Ġnorm al
pa red
Ġcompetit ive
Ġpatro ns
Ġwron g
Ġdownt own
b ed
c row
d ing
f in
g bp
h at
i st
i ble
n acks
o cre
q ue
s p
s es
u al
Ġi m
Ġs old
Ġs cale
Ġs nacks
Ġh app
Ġb ite
it s
re ce
Ġw or
Ġm ood
ap s
Ġg ra
Ġra ge
Ġd ate
Ġd ay
Ġstar ts
Ġpa r
Ġyou ng
co ring
Ġsu p
Ġsu per
Ġu ns
with in
Ġgo es
Ġgo ing
Ġyour self
Ġmedi ocre
ĠĠ ĠĠ
ad e
Ġjo in
Ġun i
ain s
Ġinclud ing
Ġdist ance
Ġtast ing
Ġsele ctions
Ġevery one
Ġmar gin
Ġsomew hat
uit able
Ġsea food
Ġmat ure
Ġbus iness
Ġtow ards
Ġwar m
Ġleve l
Ġcoup les
Ġatt ra
Ġdescri bed
a int
b ack
h aps
i z
i ving
l ess
m id
o se
p an
s ual
t en
Ġ es
er ling
er ts
er tain
Ġc am
Ġp ur
Ġs coring
Ġh is
Ġe xt
it ive
Ġl u
Ġl et
Ġl ight
Ġre la
ut ation
Ġm om
the y
Ġca sual
ve d
ve l
le vel
Ġaverage d
or ding
Ġk eep
Ġra ve
Ġsp ort
Ġnood les
ine xpensive
near by
pri ate
Ġst ep
Ġst erling
Ġpo p
Ġbet ter
Ġwill ing
Ġde fin
Ġdi sh
Ġme et
ci es
ite ly
Ġdeli ca
Ġfe el
Ġbrea d
Ġam ount
Ġpre pared
Ġcho p
Ġdecent ly
pect ed
Ġchar ging
Ġinclud e
Ġappro priate
Ġavera ges
Ġpos itive
Ġambi ance
Ġacc ording
Ġrep utation
Ġfeed back
sp ired
rece iving
Ġsup p
Ġsuper b
Ġuns uitable
Ġrela x
Ġstep s
Ġdefin itely
Ġdelica cies
' ve
a ls
b s
b or
c on
e u
g o
g ge
k ed
l b
m ely
o or
o eu
p oor
r ner
s ant
t ake
u c
u de
v res
w ant
er y
er ri
Ġc ant
Ġr un
Ġf ew
Ġt ap
Ġt erri
en sed
ri ght
Ġa ch
st s
Ġp ut
in ation
Ġo ld
om is
Ġs ou
Ġh i
Ġh ors
Ġb ill
Ġe ver
Ġe dge
Ġin spired
Ġl ic
re mely
pe ci
Ġre f
Ġre m
Ġco rner
Ġth in
Ġm ade
Ġpu p
Ġg ue
ith er
la re
ll o
lo ok
Ġpla y
ort ed
Ġcotto n
Ġwh en
va l
Ġsu gge
Ġas s
Ġqu aint
Ġnorth ern
Ġdi ffer
comm od
Ġexce ed
Ġdin er
Ġper haps
Ġenjoy ed
Ġhe ard
Ġhe alt
Ġcons umers
Ġkn ow
Ġso on
Ġso uth
Ġspeci alt
Ġsc en
Ġspeciali ses
ul ous
Ġcho ose
Ġac commod
Ġap pe
Ġspa ce
Ġappro val
Ġhamburg er
Ġreg ular
Ġcentra l
Ġclient s
Ġfacil ities
Ġmark et
Ġpos s
Ġambi ent
Ġmoder ated
Ġcook s
Ġstay ing
Ġneigh bor
crow ne
Ġgra b
Ġext remely
oeu vres
poor ly
Ġterri ble
Ġach i
Ġsou p
Ġlic ensed
Ġdiffer ent
Ġhealt h
3 5
b urg
b eside
b ulous
f er
f amous
g a
g g
g i
h i
h n
h ood
i ring
l le
n y
p ing
p le
u d
Ġf it
Ġf ry
Ġt e
Ġt r
Ġt rave
at h
en ny
he llo
st yled
st ination
Ġp ic
Ġp enny
in ity
in ery
Ġo b
ing s
Ġe qu
Ġe ither
Ġin side
Ġin di
Ġl a
li an
Ġco lle
Ġlo t
Ġlo ts
ho ol
Ġm y
Ġm ere
Ġsho w
Ġshop ping
Ġhigh t
Ġha rd
ast ing
Ġg la
Ġg ree
ess erts
or y
Ġbo ard
Ġwaterman s
Ġat tit
is es
Ġbe verage
Ġbe lu
Ġv ic
ot her
Ġpro xim
Ġd esserts
Ġad dition
Ġpl ate
Ġpl ates
Ġcost umers
ct ive
ti z
bo asting
Ġfa bulous
Ġget ting
Ġalong side
Ġde stination
Ġexcellent ly
Ġme ans
Ġgi ving
Ġdis app
Ġvisit ed
Ġop in
ĠĠ Ġ
rea son
as ed
ad ults
Ġjo hn
Ġspe ct
Ġcater ing
Ġcater ed
Ġso f
Ġsc hool
un ning
Ġpre fer
venient ly
Ġspeciali sing
Ġcom ing
Ġcom pan
cost ing
ther es
Ġmay be
Ġplea sant
Ġfeatu re
Ġdes ired
Ġspend ing
Ġclass y
Ġeuro pe
Ġent ertain
Ġlea ves
Ġappro xim
Ġsee king
ghe st
res pected
Ġres ides
Ġprem ises
Ġmat ch
Ġany one
Ġbus y
tain ed
Ġsur pri
Ġsur round
Ġwal let
sing ly
Ġfruit s
Ġtend s
Ġuni que
Ġes peci
Ġlu x
Ġmom ent
Ġsupp lies
con veniently
Ġtap as
Ġthin k
Ġsugge st
Ġaccommod ate
Ġappe tiz
Ġhealth y
Ġcolle ge
Ġgla ss
Ġgree k
Ġattit ude
Ġbelu ga
Ġvic inity
Ġproxim ity
Ġdisapp o
Ġcompan y
Ġapproxim ately
Ġespeci ally
a va
b er
b it
b ased
d ine
d on
e x
h ment
h as
i sh
j ust
n on
p tion
r um
s i
s ho
t eri
w ards
Ġ 2
Ġ :
er es
Ġf amous
Ġt ri
Ġt od
at her
st ro
am ple
ea ls
ea lly
Ġs ing
Ġs ame
Ġs ample
Ġh ost
Ġar ra
Ġar omis
Ġb ough
Ġe mer
Ġof ten
it ing
Ġl ar
Ġl acks
re at
Ġco nt
Ġco nd
Ġw ent
Ġw inery
Ġan other
Ġth eres
Ġm in
Ġm il
Ġm ix
ch a
il et
Ġca r
Ġg ri
Ġg ain
ro p
ess ible
ĠcafÃ© teri
um ber
Ġchild less
Ġba ck
Ġwater front
ere st
Ġeag les
Ġfor m
Ġfor get
Ġrou gh
Ġto ilet
Ġbe at
Ġbe gin
Ġpro f
Ġpro hi
Ġprovid er
Ġd id
Ġd eal
star s
Ġva ry
Ġstar red
Ġcrow d
lia r
Ġsici lian
Ġpa iring
rent s
ar ea
Ġbi stro
com ing
Ġoffering s
Ġestablishment s
Ġu k
Ġsit ting
Ġst unning
qu isit
th an
th ing
ti es
gre at
Ġex quisit
Ġafforda bly
Ġde c
Ġexce ption
Ġdin ers
Ġta king
Ġup wards
Ġdrink ing
Ġwant ing
Ġli ked
Ġspeci al
cent re
Ġlove d
Ġfine st
Ġpay ing
Ġma king
Ġspecializ ed
Ġgener al
Ġchar ge
Ġent ries
Ġsa le
Ġreg ion
res hment
Ġfo cu
Ġsay s
Ġmodest ly
Ġstandard s
Ġnorm ally
Ġacc essible
Ġwal k
Ġmoder n
Ġint erest
Ġmain ly
Ġfond ue
Ġim p
Ġhapp y
Ġpar ties
Ġsport s
uc ive
Ġold er
Ġhi ghest
Ġref reshment
Ġgue sts
Ġass orted
Ġspecialt y
Ġposs ible
burg er
gg s
gi ven
Ġte ll
Ġtrave ling
Ġob tained
Ġequ ally
reason ably
Ġsof t
Ġeurope an
Ġentertain ment
Ġsurround ings
Ġappetiz ers
bit ed
sho p
Ġtri p
Ġtod ay
Ġhost s
Ġarra y
Ġbough t
Ġcond ucive
Ġmix ed
ĠcafÃ©teri a
Ġtoilet s
Ġprohi bited
Ġexquisit e
Ġexception al
1 0
5 0
a f
c c
c if
c lare
d u
d ed
e y
e ur
e qu
f a
f r
f ore
f ancy
g an
g ain
h ave
k able
l ea
l uton
m p
m ing
m ore
n ic
o id
p t
p op
r ate
s y
s at
s ic
t ures
u ri
u es
v oid
w here
z y
Ġ ;
Ġ Ċ
er ate
Ġf ront
Ġf lare
Ġf ish
Ġt ea
Ġt reat
en ance
en si
ri ve
ri ty
Ġa bs
Ġa void
he d
st led
st enance
am s
Ġp ea
Ġp ick
Ġo re
Ġo th
ce d
ce pt
Ġn umber
Ġpri m
Ġs od
Ġs ad
Ġs ca
Ġs im
Ġs iz
Ġh o
Ġh an
Ġran ting
Ġri ve
Ġb ear
Ġb ath
Ġe t
Ġe ggs
Ġin c
Ġin de
Ġin famous
Ġl e
Ġl ate
re am
re es
Ġarea s
ur y
ur se
ent s
ide d
Ġre du
Ġco us
Ġco urse
ut ely
Ġw he
Ġw ay
Ġan s
Ġm o
Ġm er
il st
Ġch ip
Ġpub s
le ct
ast ro
Ġg ather
ol utely
Ġche at
Ġk ind
ra inbow
Ġba by
Ġba sic
row n
Ġea sy
Ġra ving
ress ive
is ed
ic ally
ot h
Ġpro ud
Ġd ear
Ġd eals
Ġpa ss
Ġpa rents
Ġmill s
Ġwh it
ree t
Ġzizzi s
Ġad v
Ġad equ
Ġbi g
Ġsu b
Ġsu stenance
Ġbeefeater s
Ġgood s
Ġclose st
Ġst at
Ġst eep
Ġst reet
Ġeat en
Ġreview ers
ct ory
Ġinexpensive ly
Ġdo or
Ġex ist
Ġloc ates
Ġfa ct
fami liar
Ġta b
int ains
Ġvisit ing
Ġop erate
Ġenjoy s
Ġenjoy ing
Ġenjoy able
ous ly
Ġtake out
Ġsatisf ied
Ġsatisfa ctory
Ġspe cif
Ġorient ated
Ġbu ck
Ġsc ener
cheap ly
Ġbring s
Ġbring ing
Ġrank ing
Ġtyp es
Ġcom bo
Ġperfect ly
vers ity
Ġlike ly
Ġac cept
Ġpoint s
Ġplea sed
Ġbad ly
Ġexpect ed
Ġfeatu red
Ġid eally
Ġma intains
im um
Ġmidd ling
Ġgener ated
Ġchar ming
Ġent rees
Ġwit ch
ick s
Ġhear ty
Ġtast es
Ġaw arded
Ġamong st
Ġwo nt
Ġappro ved
Ġsa fe
Ġres ult
Ġpart ner
be ing
Ġclient ele
Ġpr ams
eve d
Ġord ers
Ġany thing
Ġany where
Ġfall ing
Ġexclusive ly
Ġwal king
Ġneed s
Ġrep ort
Ġclassic s
Ġfresh ly
Ġneigh bo
Ġhapp en
Ġwor k
Ġuni versity
Ġattra cts
Ġpur cha
Ġsport ing
Ġscen e
Ġscen ic
Ġregular ly
Ġneighbor hood
Ġachi e
Ġachi eved
Ġpic nic
Ġindi vid
Ġla id
Ġaddition ally
Ġopin ion
Ġspect rum
Ġprefer red
Ġsurpri singly
Ġlux ury
Ġdisappo int
ava ilable
Ġsing le
Ġemer ging
Ġlar ge
Ġcont ains
Ġmin imum
Ġmil es
Ġgain ed
Ġpairing s
Ġfocu sed
Ġimp ressive
Ġrefreshment s
fr om
lea ve
pop ular
tures que
ensi bly
Ġabs olutely
Ġpea ce
Ġoth ers
Ġsad ly
Ġbath room
Ġinde ed
Ġredu ced
Ġcous in
Ġchip s
Ġscener y
Ġpurcha se
' d
' m
, ,
- -
. Â£
1 9
3 3
9 9
a b
a pe
a le
a lso
a ct
a bo
a cu
a round
b an
b ut
b oth
c ap
c ount
d o
d ue
d ay
d rop
e e
e xp
f are
g ood
g ry
g al
g round
h ist
i er
i ly
i cated
i lies
i se
k n
l p
l iness
m y
m ed
m al
m ost
n it
n ice
o ver
p ar
p os
p hist
s itt
s ons
s ides
t a
t rada
t ic
t radition
u ar
u ring
u ff
u als
w ine
y ing
y or
y ippee
y ling
č Ċ
Ġ od
Ġ ur
Ġ ant
Ġ -Â£
er to
Ġc lo
Ġc ertain
Ġc ream
Ġr u
Ġr om
Ġr id
Ġr ear
an sive
Ġf in
Ġf itzb
Ġf our
Ġf us
Ġf ans
Ġf its
Ġt ur
Ġt ou
Ġt im
Ġt uc
at ions
at uring
Ġi ce
en e
Ġa ct
Ġa ctive
he ad
st icks
st erto
am azing
am ong
Ġp ol
Ġp ra
Ġp res
Ġp iz
ea k
ea st
in ting
Ġo w
es ides
ce llent
Ġrat er
Ġrat ting
Ġcu p
Ġcu te
Ġpri ed
end y
end ed
Ġs ensibly
name d
Ġh at
Ġh un
ver the
Ġar es
Ġb lo
Ġb esides
Ġe st
it ch
ear ed
ear ning
Ġin v
Ġin st
Ġin cre
Ġl end
Ġl ay
Ġl and
Ġl ad
re ly
re commend
pe d
pe ople
pe cc
li s
Ġriver s
ent ly
ent ion
Ġre qu
Ġco re
Ġco ast
Ġco ol
ho s
ant ly
ant ic
ant ee
Ġw at
Ġth ro
fe aturing
Ġm ild
Ġm is
Ġsho o
Ġsho t
Ġy ear
Â£ -
ĠÂ£ ,
ĠÂ£ .
Ġca st
Ġca re
ve yor
Ġch ill
le g
le ts
ali f
Ġg ate
Ġg ar
Ġg as
Ġg astro
Ġg rown
Ġg uar
Ġg eared
di cap
ro cious
Ġfast food
ess es
ess ment
ou rite
or able
Ġche ep
Ġche ape
Ġche sterto
ild ing
Ġk ey
Ġk itch
la in
la imed
Ġboat s
ra ja
ra lly
Ġba bi
Ġba rely
lo c
ns ider
Ġexp ansive
ry out
Ġat rocious
Ġea ch
se t
is ke
Ġto ast
Ġbe come
Ġbe ans
Ġbe coming
ive d
ic ult
ic ular
Ġsp ent
Ġsp ite
Ġpro ble
Ġprov es
Ġd ra
Ġd et
Ġd rop
Ġd rive
Ġpunt ers
el lar
ari ly
star red
zizzi s
Ġoli ves
Ġon es
Ġcuis ines
Ġwh iske
Ġad ded
ound s
ira ff
ck er
Ġthere fore
Ġcri tic
ja cent
price y
ar kable
co nd
co nsider
Ġse cond
com pan
Ġsu ff
al es
Ġu ser
Ġven ues
ir ly
ir es
Ġgreat ly
Ġst uff
Ġst yling
Ġst ellar
th at
th ree
Ġqu id
Ġqu alif
Ġne stled
Ġne verthe
ct ed
Ġrea sons
Ġdo ne
ti m
Ġex act
Ġloc als
Ġloc ale
Ġaf for
Ġover priced
Ġover look
forda ble
our able
Ġde lect
Ġmenu s
Ġdi re
Ġme at
Ġme ant
jo in
Ġvisit ors
Ġ- -
high er
Ġop pos
Ġdeli very
Ġdeli ght
rea singly
Ġhe lp
ad jacent
Ġor gan
Ġcons ist
isf ied
Ġbreak ing
Ġsatisf ying
Ġwant s
Ġsetting s
river sides
Ġso phist
Ġbu ilding
un friendly
cent rally
op en
Ġun able
Ġun be
Ġconsider ing
Ġwould n
ran ked
Ġcho ices
Ġvi be
range d
Ġrank s
Ġview ed
Ġear ns
ty pe
Ġcom p
Ġcom pared
Ġbudge ts
Ġgot ten
Ġac compan
Ġvari es
Ġvari ed
Ġvari ous
Ġdes erts
sit ed
average ly
pro ve
pro ved
wh y
wh ilst
Ġfar es
Ġbeautiful ly
Ġap p
out s
Ġal be
Ġal most
Ġusu al
Ġent er
Ġent ree
Ġlea st
Ġlea ving
Ġaw ful
Ġevery day
rating s
Ġfur nit
visit ing
Ġsee k
Ġfav ourite
Ġfav orable
Ġperm its
Ġres er
Ġres ults
Ġfo e
Ġfo ol
Ġmost ly
Ġnow here
Ġpart icular
Ġalcoho lic
Ġmark s
Ġmark ed
Ġcra zy
Ġcra cker
Ġacc laimed
Ġsta ff
Ġprodu ces
Ġorder ed
Ġint ended
ake y
Ġleve ls
Ġcook ed
Ġcoup led
Ġatt ention
Ġuse ful
Ġpast ries
Ġthing s
crow n
Ġim pecc
Ġim prove
Ġwor se
Ġday s
Ġpar k
Ġattra ction
Ġattra ctive
Ġpur veyor
Ġlu ck
Ġkeep ing
Ġbread s
Ġchop sticks
Ġrelax ing
Ġrem arkable
Ġgue st
Ġplay ground
Ġass essment
Ġexceed ing
Ġspecialt ies
Ġposs esses
Ġsoup s
Ġtr ue
Ġtr endy
Ġpic turesque
Ġopin ions
Ġspect acu
Ġlux uri
Ġdisappo inting
ex pect
ex cellent
Ġcar ryout
Ġgri ll
Ġgri lls
Ġrough ly
Ġprof ile
Ġdid n
Ġvary ing
Ġcrowd s
Ġdec ided
Ġinterest ing
Ġinterest ed
af fordable
eur os
fa irly
Ġprim arily
Ġsod a
Ġsca re
Ġsiz es
Ġho pe
Ġhan dicap
Ġet hos
Ġinc reasingly
Ġle gal
Ġmo ved
Ġmer its
Ġbaby sitt
Ġadequ ate
Ġstat us
Ġspecif ically
Ġneighbo ur
Ġachie ving
Ġindivid uals
Ġdisappoint ed
Ġpeace ful
Ġbathroom s
abo ve
exp ress
kn own
tradition al
Ġur ban
Ġcertain ly
Ġrom antic
Ġfitzb ilies
Ġfus ion
Ġtur n
Ġtou ri
Ġtim e
Ġtuc son
Ġactive ly
Ġpol ite
Ġpra ised
Ġpiz za
Ġhun gry
Ġblo ck
Ġincre di
recommend ed
Ġthro ugh
Ġmild ly
Ġguar antee
Ġcheape st
Ġchesterto n
Ġkitch en
Ġbabi es
Ġproble m
Ġwhiske y
iraff es
Ġcritic s
consider ed
Ġsuff ers
Ġneverthe less
Ġexact ly
Ġoverlook s
Ġoppos ite
Ġorgan iz
Ġsophist icated
Ġaccompan ied
Ġalbe it
Ġfurnit ure
Ġimpecc able
Ġspectacu lar
Ġluxuri ous
Ġbabysitt er
