{"<|endoftext|>":0,"!":1,"\"":2,"#":3,"$":4,"%":5,"&":6,"'":7,"(":8,")":9,"*":10,"+":11,",":12,"-":13,".":14,"/":15,"0":16,"1":17,"2":18,"3":19,"4":20,"5":21,"6":22,"7":23,"8":24,"9":25,":":26,";":27,"<":28,"=":29,">":30,"?":31,"@":32,"A":33,"B":34,"C":35,"D":36,"E":37,"F":38,"G":39,"H":40,"I":41,"J":42,"K":43,"L":44,"M":45,"N":46,"O":47,"P":48,"Q":49,"R":50,"S":51,"T":52,"U":53,"V":54,"W":55,"X":56,"Y":57,"Z":58,"[":59,"\\":60,"]":61,"^":62,"_":63,"`":64,"a":65,"b":66,"c":67,"d":68,"e":69,"f":70,"g":71,"h":72,"i":73,"j":74,"k":75,"l":76,"m":77,"n":78,"o":79,"p":80,"q":81,"r":82,"s":83,"t":84,"u":85,"v":86,"w":87,"x":88,"y":89,"z":90,"{":91,"|":92,"}":93,"~":94,"¡":95,"¢":96,"£":97,"¤":98,"¥":99,"¦":100,"§":101,"¨":102,"©":103,"ª":104,"«":105,"¬":106,"®":107,"¯":108,"°":109,"±":110,"²":111,"³":112,"´":113,"µ":114,"¶":115,"·":116,"¸":117,"¹":118,"º":119,"»":120,"¼":121,"½":122,"¾":123,"¿":124,"À":125,"Á":126,"Â":127,"Ã":128,"Ä":129,"Å":130,"Æ":131,"Ç":132,"È":133,"É":134,"Ê":135,"Ë":136,"Ì":137,"Í":138,"Î":139,"Ï":140,"Ð":141,"Ñ":142,"Ò":143,"Ó":144,"Ô":145,"Õ":146,"Ö":147,"×":148,"Ø":149,"Ù":150,"Ú":151,"Û":152,"Ü":153,"Ý":154,"Þ":155,"ß":156,"à":157,"á":158,"â":159,"ã":160,"ä":161,"å":162,"æ":163,"ç":164,"è":165,"é":166,"ê":167,"ë":168,"ì":169,"í":170,"î":171,"ï":172,"ð":173,"ñ":174,"ò":175,"ó":176,"ô":177,"õ":178,"ö":179,"÷":180,"ø":181,"ù":182,"ú":183,"û":184,"ü":185,"ý":186,"þ":187,"ÿ":188,"Ā":189,"ā":190,"Ă":191,"ă":192,"Ą":193,"ą":194,"Ć":195,"ć":196,"Ĉ":197,"ĉ":198,"Ċ":199,"ċ":200,"Č":201,"č":202,"Ď":203,"ď":204,"Đ":205,"đ":206,"Ē":207,"ē":208,"Ĕ":209,"ĕ":210,"Ė":211,"ė":212,"Ę":213,"ę":214,"Ě":215,"ě":216,"Ĝ":217,"ĝ":218,"Ğ":219,"ğ":220,"Ġ":221,"ġ":222,"Ģ":223,"ģ":224,"Ĥ":225,"ĥ":226,"Ħ":227,"ħ":228,"Ĩ":229,"ĩ":230,"Ī":231,"ī":232,"Ĭ":233,"ĭ":234,"Į":235,"į":236,"İ":237,"ı":238,"Ĳ":239,"ĳ":240,"Ĵ":241,"ĵ":242,"Ķ":243,"ķ":244,"ĸ":245,"Ĺ":246,"ĺ":247,"Ļ":248,"ļ":249,"Ľ":250,"ľ":251,"Ŀ":252,"ŀ":253,"Ł":254,"ł":255,"Ń":256,"Ġ=":257,"Ġ|":258,"er":259,"Ġc":260,"Ġr":261,"an":262,"Ġf":263,"Ġt":264,"at":265,"Ġi":266,"en":267,"ri":268,"Ġa":269,"he":270,"st":271,"am":272,"ly":273,"Ġp":274,"od":275,"ea":276,"Ġthe":277,"in":278,"ood":279,"Ġo":280,"es":281,"Ġfood":282,"ge":283,"ce":284,"ing":285,"Ġn":286,"Ġis":287,"Ġrat":288,"Ġcu":289,"om":290,"Ġpri":291,"Ġrating":292,"end":293,"ame":294,"riend":295,"riendly":296,"stom":297,"stomer":298,"Ġcustomer":299,"id":300,"Ġprice":301,"Ġs":302,"name":303,"Ġh":304,"ver":305,"Ġran":306,"Ġrange":307,"Ġri":308,"Ġar":309,"Ġb":310,"Ġe":311,"ater":312,"Ġof":313,"it":314,"ear":315,"Ġin":316,"Ġnear":317,"Ġl":318,"re":319,"ami":320,"Ġfami":321,"Ġfamily":322,"pe":323,"li":324,"Ġ5":325,"Ġit":326,"atery":327,"Ġeatery":328,"Ġty":329,"Ġtype":330,"Ġarea":331,"Ġriver":332,"ur":333,"ent":334,"ide":335,"sta":336,"side":337,"friendly":338,"Ġriverside":339,"Ġre":340,"Ġco":341,"ut":342,"Ġlo":343,"ho":344,"ant":345,"Ġw":346,"urant":347,"staurant":348,"Ġrestaurant":349,"Ġan":350,"ate":351,"Ġth":352,"fe":353,"Ġout":354,"Ġm":355,"ffe":356,"ffee":357,"Ġsho":358,"Ġcoffee":359,"Ġshop":360,"ap":361,"Ġy":362,"gh":363,"ity":364,"Ġcity":365,"Â£":366,"Ġcent":367,"ĠÂ£":368,"Ġand":369,"igh":370,"Ġhigh":371,"Ġcentre":372,"ese":373,"ch":374,"il":375,"the":376,"Ġpu":377,"Ġyes":378,"Ġfriendly":379,"Ġha":380,"Ġno":381,"ated":382,"Ġca":383,"Ġthan":384,"20":385,"ren":386,"cated":387,"ve":388,"Ġch":389,"Ġpub":390,"le":391,"ast":392,"Ġlocated":393,"ali":394,"Ġg":395,"Ġhas":396,"di":397,"ro":398,"vera":399,"verage":400,"Ġfast":401,"Ġaverage":402,"dian":403,"ess":404,"Ġindian":405,"Ġj":406,"Ġser":407,"anese":408,"apanese":409,"alian":410,"Ġjapanese":411,"ou":412,"Ġitalian":413,"Ġlow":414,"oder":415,"oderate":416,"ith":417,"Ġmoderate":418,"rench":419,"Ġfrench":420,"Ġserv":421,"Ġwith":422,"fÃ":423,"fÃ©":424,"ĠcafÃ©":425,"um":426,"ol":427,"ers":428,"or":429,"Ġche":430,"ild":431,"Ġcheap":432,"sh":433,"Ġk":434,"la":435,"Ġ3":436,"ne":437,"lish":438,"Ġbo":439,"Ġen":440,"Ġless":441,"Ġserves":442,"Ġrice":443,"Ġboat":444,"Ġ1":445,"ll":446,"glish":447,"Ġenglish":448,"Ġthat":449,"Ġchild":450,"inese":451,"ra":452,"Ġchinese":453,"Ġba":454,"ore":455,"Ġmore":456,"30":457,"Ġnot":458,"Ġwater":459,"man":460,"Ġwaterman":461,"dge":462,"amb":463,"Ġcamb":464,"ridge":465,"Ġcambridge":466,"Ġby":467,"25":468,"old":469,"Ġgold":470,"Ġgolden":471,"row":472,"Ġkid":473,"ed":474,"lo":475,"xp":476,"Ġtw":477,"ns":478,"Ġexp":479,"ue":480,"ere":481,"ment":482,"Ġbar":483,"lies":484,"Ġpriced":485,"zi":486,"Ġpla":487,"Ġrated":488,"ry":489,"lue":490,"led":491,"Ġcal":492,"Ġcalled":493,"ix":494,"zb":495,"itzb":496,"illies":497,"itzbillies":498,"Ġat":499,"Ġea":500,"Ġeag":501,"Ġeagle":502,"Ġcur":503,"Ġcurry":504,"se":505,"here":506,"ay":507,"mentum":508,"da":509,"Ġfor":510,"Ġoff":511,"Ġra":512,"Ġblue":513,"ress":514,"olid":515,"Ġholid":516,"Ġholiday":517,"Ġinn":518,"Ġexpress":519,"enix":520,"Ġpho":521,"Ġphoenix":522,"rowns":523,"Ġrou":524,"Ġrouge":525,"is":526,"rada":527,"strada":528,"ow":529,"rest":530,"Ġwrest":531,"Ġwrestl":532,"Ġwrestlers":533,"Ġchildren":534,"ice":535,"Ġto":536,"Ġbe":537,"lt":538,"Ġpric":539,"Ġv":540,"ive":541,"ic":542,"Ġhou":543,"Ġhouse":544,"there":545,"ot":546,"Ġfy":547,"Ġfyne":548,"ort":549,"Ġprices":550,"Ġsp":551,"ult":552,"ms":553,"and":554,"Ġpro":555,"Ġfitzbillies":556,"land":557,"Ġport":558,"Ġare":559,"Ġarms":560,"Ġportland":561,"Ġprov":562,"Ġspice":563,"get":564,"nt":565,"Ġone":566,"Ġprovid":567,"Ġd":568,"urg":569,"Ġpunt":570,"Ġpunter":571,"Ġburg":572,"to":573,"Ġoffers":574,"Ġali":575,"Ġburger":576,"Ġalimentum":577,"Ġking":578,"enty":579,"Ġtwenty":580,"Ġall":581,"ip":582,"Ġtwo":583,"el":584,"Ġnood":585,"ari":586,"ippe":587,"Ġnoodle":588,"ippee":589,"Ġyippee":590,"star":591,"bow":592,"Ġve":593,"inbow":594,"getari":595,"Ġvegetari":596,"Ġvegetarian":597,"Ġrainbow":598,"ults":599,"Ġstrada":600,"Ġbrowns":601,"Ġplace":602,"ine":603,"wood":604,"ildwood":605,"zzi":606,"zizzi":607,"Ġgro":608,"Ġoli":609,"Ġolive":610,"Ġgrove":611,"ill":612,"Ġserving":613,"Ġbut":614,"Ġon":615,"Ġva":616,"cum":617,"Ġstar":618,"Ġvaults":619,"Ġloch":620,"Ġhot":621,"Ġhotel":622,"za":623,"Ġplaza":624,"Ġcrow":625,"omi":626,"Ġthey":627,"lia":628,"Ġsic":629,"Ġsici":630,"Ġsicilia":631,"Ġcuis":632,"Ġcuisine":633,"Ġmoderately":634,"mer":635,"ids":636,"Ġpa":637,"Ġits":638,"ummer":639,"idsummer":640,"Ġmill":641,"tto":642,"Ġcotto":643,"Ġcrowne":644,"Ġwh":645,"Ġratings":646,"Ġkids":647,"ree":648,"sive":649,"lace":650,"Ġpalace":651,"ensive":652,"Ġprovides":653,"Ġranch":654,"nd":655,"ich":656,"Ġwhich":657,"Ġcla":658,"Ġhall":659,"Ġclare":660,"Ġwildwood":661,"Ġzizzi":662,"low":663,"'s":664,"Ġcustomers":665,"Ġad":666,"Ġgre":667,"Ġname":668,"lowns":669,"Ġaromi":670,"Ġcocum":671,"Ġyou":672,"ound":673,"Ġexpensive":674,"lls":675,"bi":676,"ling":677,"et":678,"Ġtree":679,"pling":680,"umpling":681,"Ġdumpling":682,"Ġmidsummer":683,"Ġbak":684,"Ġbakers":685,"Ġman":686,"Ġhighly":687,"Ġnamed":688,"ira":689,"iraffe":690,"located":691,"fitzbillies":692,"Ġhave":693,"ck":694,"Ġcan":695,"on":696,"Ġcenter":697,"Ġthere":698,"near":699,"Ġclowns":700,"cket":701,"mb":702,"bimb":703,"bimbap":704,"rent":705,"Ġcri":706,"alimentum":707,"cketers":708,"Ġcricketers":709,"browns":710,"Ġsor":711,"ja":712,"pri":713,"Ġraja":714,"for":715,"rento":716,"Ġsorrento":717,"Ġ20":718,"price":719,"Ġpl":720,"vi":721,"Ġgiraffe":722,"Ġgreen":723,"ls":724,"Ġcost":725,"lon":726,"Ġproviding":727,"Ġthis":728,"aste":729,"Ġbra":730,"priced":731,"ough":732,"Ġplough":733,"zil":734,"Ġbrazil":735,"Ġoffer":736,"Ġserve":737,"loch":738,"ar":739,"co":740,"Ġse":741,"ble":742,"va":743,"blue":744,"Ġava":745,"Ġbi":746,"Ġsix":747,"Ġbells":748,"atic":749,"riatic":750,"Ġadriatic":751,"Ġbibimbap":752,"cot":753,"cotto":754,"Ġfr":755,"Ġtaste":756,"com":757,"Ġnon":758,"os":759,"Ġoffering":760,"Ġfrom":761,"Ġsu":762,"cocum":763,"Ġavalon":764,"Ġrest":765,"Ġfound":766,"lso":767,"Ġalso":768,"al":769,"rave":770,"Ġfive":771,"stab":772,"Ġestab":773,"lishment":774,"Ġestablishment":775,"llers":776,"efe":777,"Ġbeefe":778,"ravellers":779,"Ġbeefeater":780,"Ġu":781,"Ġsells":782,"with":783,"ew":784,"wildwood":785,"aromi":786,"Ġven":787,"Ġvenue":788,"Ġpound":789,"Ġstars":790,"lose":791,"ion":792,"ir":793,"Ġpounds":794,"ron":795,"Ġonly":796,"Ġgood":797,"Ġenvi":798,"ronment":799,"Ġenvironment":800,"midsummer":801,"Ġ30":802,"Ġtravellers":803,"able":804,"Ġclose":805,"Ġmea":806,"Ġsit":807,"if":808,"Ġas":809,"Ġgreat":810,"Ġst":811,"Ġrece":812,"Ġeat":813,"very":814,"uated":815,"qu":816,"ind":817,"Ġvery":818,"Ġfamilies":819,"mos":820,"phere":821,"Ġatmos":822,"Ġatmosphere":823,"Ġadult":824,"view":825,"th":826,"Ġpo":827,"ok":828,"Ġtry":829,"Ġreview":830,"Ġwe":831,"Ġqu":832,"Ġfind":833,"Ġsituated":834,"elcom":835,"'t":836,"Ġtheir":837,"clowns":838,"Ġthree":839,"Ġreceive":840,"Ġreceived":841,"xpensive":842,"Ġrang":843,"yle":844,"Ġwelcom":845,"expensive":846,"Ġne":847,"shi":848,"Ġsushi":849,"oking":850,"Ġmid":851,"ct":852,"Ġcosts":853,"xt":854,"Ġbri":855,"Ġinexpensive":856,"ugh":857,"Ġrea":858,"hough":859,"rated":860,"ven":861,"we":862,"Ġdo":863,"ti":864,"own":865,"Ġbet":866,"Ġreviews":867,"gre":868,"ween":869,"Ġrate":870,"Ġmeals":871,"Ġbetween":872,"green":873,"Ġlooking":874,"bibimbap":875,"Ġstyle":876,"Ġex":877,"Ġloc":878,"bo":879,"Ġnext":880,"son":881,"Ġfa":882,"giraffe":883,"Ġadults":884,"long":885,"Ġpoor":886,"Ġreason":887,"Ġabo":888,"Ġaf":889,"Ġover":890,"nder":891,"ality":892,"fami":893,"Ġgo":894,"Ġdoes":895,"Ġeur":896,"Ġget":897,"Ġhigher":898,"Ġquality":899,"Ġhow":900,"forda":901,"Ġwelcome":902,"tish":903,"family":904,"ever":905,"Ġbritish":906,"Ġhowever":907,"Ġafforda":908,"Ġunder":909,"Ġaffordable":910,"our":911,"Ġwill":912,"Ġnor":913,"Ġalong":914,"ation":915,"Ġde":916,"Ġserved":917,"Ġyour":918,"Ġservice":919,"Ġnorth":920,"enu":921,"Ġmenu":922,"taste":923,"Ġsuit":924,"Ġeuros":925,"Ġ.":926,"Ġdi":927,"ke":928,"Ġlocation":929,"comm":930,"Ġisn":931,"Ġexce":932,"ome":933,"Ġbeen":934,"commend":935,"Ġrecommend":936,"Ġwhere":937,"llent":938,"ving":939,"Ġexcellent":940,"Ġmeal":941,"Ġme":942,"Ġdin":943,"by":944,"Ġabove":945,"Ġsuitable":946,"Ġcrown":947,"isit":948,"ci":949,"fast":950,"Ġranging":951,"rin":952,"lthough":953,"Ġthen":954,"Ġ,":955,"Ġwho":956,"ting":957,"Ġgi":958,"-Â£":959,"Ġwine":960,"Ġmedi":961,"Ġper":962,"Ġallow":963,"Ġta":964,"int":965,"'re":966,"Ġreasonable":967,"ld":968,"Ġwithin":969,"Ġdining":970,"jo":971,"Ġdis":972,"Ġrecommended":973,"Ġmedium":974,"Ġvisit":975,"Ġ-":976,"child":977,"Ġgiven":978,"joy":979,"Ġup":980,"high":981,"ite":982,"hes":983,"Ġop":984,"ĠĠ":985,"Ġour":986,"Ġdishes":987,"Ġside":988,"Ġdeli":989,"Ġfe":990,"Ġenjoy":991,"Ġranges":992,"ust":993,"Ġaround":994,"ght":995,"Ġpricing":996,"Ġcosting":997,"rea":998,"Ġhe":999,"as":1000,"ous":1001,"Ġwell":1002,"Ġtake":1003,"Ġalthough":1004,"lar":1005,"you":1006,"food":1007,"Ġ25":1008,"Ġsell":1009,"ally":1010,"ad":1011,"bly":1012,"ction":1013,"japanese":1014,"eri":1015,"Ġor":1016,"Ġaveragely":1017,"Ġset":1018,"Ġfeat":1019,"Ġfoods":1020,"Ġbrea":1021,"Ġgive":1022,"Ġthough":1023,"ence":1024,"Ġcons":1025,"Ġjust":1026,"Ġwhole":1027,"Ġexperi":1028,"ably":1029,"Ġam":1030,"Ġsat":1031,"Ġexperience":1032,"ves":1033,"ile":1034,"isf":1035,"Ġpoorly":1036,"Ġbreak":1037,"ca":1038,"Ġjo":1039,"Ġsatisf":1040,"Ġdrin":1041,"Ġdrink":1042,"rient":1043,"Ġreasonably":1044,"Ġwant":1045,"ser":1046,"Ġkn":1047,"Ġbeing":1048,"Ġsetting":1049,"Ġsatisfa":1050,"che":1051,"Ġwas":1052,"Ġbreakfast":1053,"cu":1054,"Ġsatisfaction":1055,"travellers":1056,"Ġ'":1057,"Ġspe":1058,"Ġfare":1059,"Ġcater":1060,"Ġli":1061,"ilable":1062,"Ġbest":1063,"serving":1064,"french":1065,"river":1066,"Ġoutside":1067,"Ġfair":1068,"Ġgets":1069,"Ġknown":1070,"Ġnice":1071,"Ġfriend":1072,"Ġso":1073,"Ġavailable":1074,"Ġjoint":1075,"riverside":1076,"kid":1077,"Ġorient":1078,"Ġend":1079,"Ġbu":1080,"umer":1081,"customer":1082,"Ġsome":1083,"Ġrecei":1084,"Ġspeci":1085,"Ġsc":1086,"italian":1087,"un":1088,"Ġpre":1089,"cent":1090,"Ġtown":1091,"children":1092,"sed":1093,"Ġboast":1094,"Ġprovide":1095,"Ġwhile":1096,"Ġpricey":1097,"Ġcheck":1098,"Ġallowed":1099,"ng":1100,"ider":1101,"ts":1102,"dit":1103,"op":1104,"Ġright":1105,"ould":1106,"Ġun":1107,"Ġquite":1108,"Ġselling":1109,"Ġconsider":1110,"dition":1111,"Ġif":1112,"Ġwould":1113,"veni":1114,"cheap":1115,"venient":1116,"one":1117,"pu":1118,"cious":1119,"Ġreceives":1120,"Ġspeciali":1121,"ran":1122,"Ġcon":1123,"Ġdown":1124,"Ġabout":1125,"Ġoriented":1126,"tion":1127,"itt":1128,"ures":1129,"radition":1130,"Ġconsidered":1131,"Ġtradition":1132,"Ġbring":1133,"Ġdelicious":1134,"Ġconvenient":1135,"ul":1136,"way":1137,"zing":1138,"Ġcho":1139,"Ġlove":1140,"highly":1141,"Ġfeatures":1142,"Ġnearby":1143,"Ġcheese":1144,"Ġvi":1145,"Ġoption":1146,"Ġboasts":1147,"Ġtraditional":1148,"english":1149,"Ġlower":1150,"Ġtoo":1151,"ring":1152,"range":1153,"ss":1154,"Ġranged":1155,"Ġbased":1156,"moderate":1157,"uld":1158,"Ġrank":1159,"lic":1160,"Ġcostumer":1161,"Ġus":1162,"Ġview":1163,"ff":1164,"Ġpasta":1165,"Ġwelcomes":1166,"Ġcome":1167,"Ġtyp":1168,"this":1169,"Ġear":1170,"ight":1171,"Ġfairly":1172,"ty":1173,"Ġcheaply":1174,"Ġbelow":1175,"Ġdecent":1176,"Ġhead":1177,"ems":1178,"Ġfine":1179,"Ġdrinks":1180,"Ġtypic":1181,"Ġcom":1182,"indian":1183,"Ġnew":1184,"Ġitems":1185,"fect":1186,"Ġdine":1187,"Ġperfect":1188,"vers":1189,"pect":1190,"ollar":1191,"Ġdollar":1192,"cost":1193,"Ġconveniently":1194,"lly":1195,"yes":1196,"ther":1197,"customers":1198,"Ġpay":1199,"ned":1200,"Ġchoice":1201,"moderately":1202,"Ġearned":1203,"ain":1204,"ges":1205,"ries":1206,"Ġpublic":1207,"Ġbudge":1208,"ffer":1209,"ies":1210,"lu":1211,"ines":1212,"come":1213,"Ġeating":1214,"Ġlike":1215,"although":1216,"Ġlitt":1217,"Ġgot":1218,"Ġpopu":1219,"Ġbudget":1220,"Ġlittle":1221,"close":1222,"Ġac":1223,"style":1224,"let":1225,"Ġpoint":1226,"Ġdollars":1227,"Ġthem":1228,"Ġeven":1229,"chinese":1230,"Ġvari":1231,"orth":1232,"ople":1233,"Ġpopular":1234,"Ġpe":1235,"ately":1236,"Ġmay":1237,"Ġplea":1238,"azing":1239,"clu":1240,"Ġbad":1241,"Ġstarting":1242,"Ġexpect":1243,"Ġfeatu":1244,"Ġpeople":1245,"ons":1246,"offer":1247,"Ġfries":1248,"offering":1249,"eside":1250,"Ġdes":1251,"Ġdoesn":1252,"Ġamazing":1253,"Ġcaters":1254,"sit":1255,"use":1256,"Ġrates":1257,"ices":1258,"Ġspend":1259,"coffee":1260,"average":1261,"fort":1262,"Ġid":1263,"eal":1264,"light":1265,"Ġma":1266,"Ġyet":1267,"looking":1268,"ety":1269,"ard":1270,"pro":1271,"wh":1272,"eses":1273,"Ġslight":1274,"Ġbit":1275,"Ġservices":1276,"Ġcheeses":1277,"Ġbeca":1278,"unately":1279,"Ġtypically":1280,"Ġvariety":1281,"fortunately":1282,"Ġbecause":1283,"im":1284,"pite":1285,"Ġfar":1286,"Ġhad":1287,"Ġburgers":1288,"Ġmidd":1289,"Ġunfortunately":1290,"Ġspecializ":1291,"situated":1292,"Ġslightly":1293,"'ll":1294,"not":1295,"red":1296,"Ġlook":1297,"Ġdon":1298,"Ġplease":1299,"ative":1300,"ener":1301,"ames":1302,"Ġbeside":1303,"Ġworth":1304,"Ġhaving":1305,"Ġfriends":1306,"Ġfeaturing":1307,"eaut":1308,"Ġhome":1309,"Ġwines":1310,"Ġoutlet":1311,"iful":1312,"Ġlocal":1313,"cale":1314,"Ġscore":1315,"Ġmiddle":1316,"eautiful":1317,"all":1318,"along":1319,"Ġbeautiful":1320,"Ġlowly":1321,"Ġstart":1322,"Ġclass":1323,"Ġreally":1324,"Ġeuro":1325,"Ġopen":1326,"Ġspecializes":1327,"tty":1328,"ull":1329,"Ġsom":1330,"Ġcould":1331,"Ġgener":1332,"Ġboth":1333,"Ġpretty":1334,"Ġideal":1335,"kids":1336,"rt":1337,"Ġap":1338,"Ġpers":1339,"Ġchar":1340,"ican":1341,"Ġperson":1342,"out":1343,"us":1344,"Ġfull":1345,"Ġal":1346,"Ġamer":1347,"Ġinclu":1348,"Ġshould":1349,"ores":1350,"anding":1351,"Ġdeliver":1352,"Ġscores":1353,"Ġamerican":1354,"Ġinclud":1355,"eatery":1356,"try":1357,"welcom":1358,"standing":1359,"Ġovera":1360,"Ġhere":1361,"Ġoutstanding":1362,"Ġservers":1363,"only":1364,"Ġdist":1365,"Ġusu":1366,"Ġoverall":1367,"ces":1368,"Ġent":1369,"Ġnight":1370,"Ġwit":1371,"next":1372,"ick":1373,"ong":1374,"Ġsited":1375,"Ġstore":1376,"Ġhear":1377,"Ġlovely":1378,"Ġdeliveries":1379,"welcome":1380,"ner":1381,"ter":1382,"up":1383,"Ġother":1384,"Ġlea":1385,"Ġvalue":1386,"Ġusually":1387,"ost":1388,"scale":1389,"Ġtast":1390,"Ġaw":1391,"hose":1392,"Ġoffered":1393,"Ġsele":1394,"Ġsits":1395,"Ġupscale":1396,"Ġamong":1397,"00":1398,"city":1399,"ging":1400,"iri":1401,"kir":1402,"skir":1403,"Ġthose":1404,"ating":1405,"Ġok":1406,"Ġaren":1407,"Ġrestaurants":1408,"Ġoutskir":1409,"ront":1410,"Ġspiri":1411,"Ġplaced":1412,"Ġeats":1413,"tions":1414,"Ġlocate":1415,"Ġoptions":1416,"Ġoutskirts":1417,"Ġspirits":1418,"away":1419,"ful":1420,"her":1421,"king":1422,"les":1423,"per":1424,"Ġrel":1425,"Ġdespite":1426,"Ġgenerally":1427,"Ġsm":1428,"Ġevery":1429,"uton":1430,"hout":1431,"Ġmar":1432,"Ġdue":1433,"Ġreviewed":1434,"Ġallows":1435,"Ġconsumer":1436,"pub":1437,"Ġranked":1438,"Ġwithout":1439,"Ġrelative":1440,"'.":1441,"down":1442,"est":1443,"front":1444,"rd":1445,"rating":1446,"yled":1447,"Ġfur":1448,"Ġhamb":1449,"Ġwo":1450,"ross":1451,"Ġspa":1452,"Ġmany":1453,"Ġbracket":1454,"Ġstop":1455,"Ġspecializing":1456,"Ġacross":1457,"while":1458,"Ġsomew":1459,"Ġappro":1460,"Ġsmall":1461,"Ġhamburg":1462,"ack":1463,"bp":1464,"visit":1465,"ance":1466,"rict":1467,"Ġaway":1468,"uth":1469,"Ġmight":1470,"Ġgr":1471,"Ġtop":1472,"Ġspot":1473,"Ġwhat":1474,"Ġplus":1475,"Ġcostly":1476,"Ġsee":1477,"Ġquick":1478,"Ġfav":1479,"Ġperm":1480,"Ġdelivers":1481,"Ġunfriendly":1482,"Ġdistrict":1483,".,":1484,"..":1485,"ep":1486,"ghe":1487,"kes":1488,"ub":1489,"uit":1490,"Ġavera":1491,"Ġsa":1492,"Ġluton":1493,"Ġreg":1494,"Ġcentra":1495,"Ġcurrent":1496,"Ġsure":1497,"Ġsuited":1498,"Ġwhose":1499,"Ġcomes":1500,"Ġheart":1501,"Ġrelatively":1502,"Ġfurther":1503,"free":1504,"no":1505,"res":1506,"Ġcli":1507,"Ġres":1508,"ank":1509,"Ġfo":1510,"Ġfree":1511,"Ġsay":1512,"Ġmost":1513,"Ġnow":1514,"Ġnone":1515,"Ġpart":1516,"vious":1517,"Ġneat":1518,"check":1519,"itted":1520,"Ġwonder":1521,"Ġgrub":1522,"Ġpermitted":1523,"Ġcurrently":1524,"ave":1525,"be":1526,"te":1527,"tit":1528,"Ġ4":1529,"ern":1530,"Ġfant":1531,"Ġage":1532,"Ġnames":1533,"Ġhold":1534,"ities":1535,"restaurant":1536,"Ġriverfront":1537,"Ġwere":1538,"astic":1539,"room":1540,"Ġafter":1541,"adult":1542,"Ġprevious":1543,"Ġtypical":1544,"Ġleave":1545,"Ġclient":1546,"Ġfantastic":1547,"ele":1548,"Ġpr":1549,"Ġsh":1550,"Ġbank":1551,"Ġthames":1552,"Ġthats":1553,"Ġnote":1554,"Ġplaces":1555,"Ġstyled":1556,"cafÃ©":1557,"Ġlist":1558,"Ġbuy":1559,"Ġprem":1560,"Ġviews":1561,"Ġmakes":1562,"Ġopened":1563,"Ġselection":1564,"cil":1565,"eve":1566,"anda":1567,"enjoy":1568,"rite":1569,"Ġages":1570,"Ġsea":1571,"Ġwide":1572,"Ġmat":1573,"Ġmone":1574,"coho":1575,"cts":1576,"Ġfacil":1577,"Ġdinner":1578,"Ġord":1579,"Ġlies":1580,"Ġalcoho":1581,"Ġhamburgers":1582,"Ġwonderful":1583,"andard":1584,"Ġmoney":1585,"',":1586,"are":1587,"found":1588,"ian":1589,"ire":1590,"iet":1591,"tti":1592,"uch":1593,"vid":1594,"Ġz":1595,"Ġro":1596,"Ġauth":1597,"odest":1598,"entic":1599,"Ġany":1600,"Ġmuch":1601,"Ġmodest":1602,"Ġgave":1603,"Ġrestroom":1604,"Ġasian":1605,"Ġstandard":1606,"Ġquiet":1607,"Ġwelcomed":1608,"Ġfalls":1609,"Ġthemed":1610,"Ġcharges":1611,"Ġincludes":1612,"Ġtasty":1613,"Ġmark":1614,"Ġspaghe":1615,"Ġauthentic":1616,"Ġspaghetti":1617,"find":1618,"ions":1619,"ired":1620,"ning":1621,"of":1622,"orite":1623,"Ġcra":1624,"Ġpos":1625,"Ġrecent":1626,"Ġthir":1627,"Ġmust":1628,"app":1629,"ching":1630,"Ġcall":1631,"Ġgroup":1632,"Ġsuch":1633,"Ġsite":1634,"Ġstill":1635,"Ġexclu":1636,"Ġfall":1637,"Ġnorm":1638,"Ġupper":1639,"Ġambi":1640,"Ġbus":1641,"Ġprovided":1642,"Ġcompe":1643,"Ġacc":1644,"ards":1645,"Ġsomewhere":1646,"Ġfavorite":1647,"Ġcentrally":1648,"Ġalcohol":1649,"Ġzone":1650,"Ġroad":1651,"Ġthirty":1652,"Ġexclusive":1653,"alt":1654,"cy":1655,"des":1656,"even":1657,"gin":1658,"lent":1659,"orient":1660,"tain":1661,"ular":1662,"Ġsta":1663,"Ġclent":1664,"ancy":1665,"odu":1666,"Ġrather":1667,"Ġsur":1668,"Ġwal":1669,"Ġmoder":1670,"Ġmind":1671,"Ġshort":1672,"Â£.":1673,"Ġgbp":1674,"Ġeast":1675,"Ġwhy":1676,"Ġgreater":1677,"Ġsorry":1678,"quality":1679,"Ġneed":1680,"Ġbreakfasts":1681,"Ġoriental":1682,"unch":1683,"Ġmake":1684,"arded":1685,"when":1686,"imed":1687,"Ġscored":1688,"Ġokay":1689,"acks":1690,"Ġaveraging":1691,"Ġprodu":1692,"Ġship":1693,"Ġorder":1694,"Ġrestrooms":1695,"despite":1696,"Ġclentele":1697,"de":1698,"five":1699,"hing":1700,"ium":1701,"pa":1702,"sing":1703,"xim":1704,"Ġate":1705,"ans":1706,"Ġtow":1707,"ates":1708,"iness":1709,"Ġsear":1710,"Ġint":1711,"Ġinto":1712,"Ġlunch":1713,"Ġrep":1714,"Ġwon":1715,"Ġwar":1716,"Ġshops":1717,"Ġchain":1718,"Ġchines":1719,"verages":1720,"umers":1721,"ors":1722,"Ġbeverages":1723,"Ġfruit":1724,"Ġfeed":1725,"Ġreceiving":1726,"Ġboasting":1727,"provid":1728,"Ġclassic":1729,"Ġentire":1730,"Ġholds":1731,"Ġpremium":1732,"Ġrecently":1733,"Ġcompetit":1734,"oriented":1735,"providing":1736,"ake":1737,"cri":1738,"cre":1739,"eat":1740,"eep":1741,"ied":1742,"kea":1743,"met":1744,"north":1745,"though":1746,"ure":1747,"und":1748,"Ġfun":1749,"Ġtend":1750,"enities":1751,"Ġalt":1752,"Ġaimed":1753,"ince":1754,"esh":1755,"Ġleve":1756,"review":1757,"urmet":1758,"Ġcook":1759,"Ġcoup":1760,"Ġloves":1761,"Ġcheaper":1762,"Ġatt":1763,"ething":1764,"Ġfresh":1765,"Ġuse":1766,"Ġpolic":1767,"Ġgourmet":1768,"Ġgives":1769,"Ġtakea":1770,"Ġamenities":1771,"ways":1772,"Ġsomething":1773,"Ġaware":1774,"ernative":1775,"Ġgroups":1776,"Ġstay":1777,"Ġproducts":1778,"Ġsearching":1779,"Ġalternative":1780,"reviewed":1781,"Ġpolicy":1782,"Ġtakeaway":1783,"aving":1784,"bring":1785,"ely":1786,"having":1787,"lf":1788,"nce":1789,"Ġfancy":1790,"atro":1791,"amous":1792,"Ġpast":1793,"Ġpatro":1794,"esome":1795,"Ġprince":1796,"ides":1797,"Ġsince":1798,"Ġwron":1799,"Ġthing":1800,"Ġmain":1801,"round":1802,"Ġserver":1803,"ount":1804,"self":1805,"ownt":1806,"Ġdownt":1807,"prices":1808,"Ġwelcoming":1809,"Ġneigh":1810,"ctions":1811,"families":1812,"Ġtag":1813,"Ġtheme":1814,"Ġdescri":1815,"Ġalways":1816,"Ġawesome":1817,"Ġsaid":1818,"Ġregarded":1819,"Ġfond":1820,"Ġbanks":1821,"Ġfacility":1822,"Ġcraving":1823,"Ġnormal":1824,"pared":1825,"Ġcompetitive":1826,"Ġpatrons":1827,"Ġwrong":1828,"Ġdowntown":1829,"bed":1830,"crow":1831,"ding":1832,"fin":1833,"gbp":1834,"hat":1835,"ist":1836,"ible":1837,"nacks":1838,"ocre":1839,"que":1840,"sp":1841,"ses":1842,"ual":1843,"Ġim":1844,"Ġsold":1845,"Ġscale":1846,"Ġsnacks":1847,"Ġhapp":1848,"Ġbite":1849,"its":1850,"rece":1851,"Ġwor":1852,"Ġmood":1853,"aps":1854,"Ġgra":1855,"Ġrage":1856,"Ġdate":1857,"Ġday":1858,"Ġstarts":1859,"Ġpar":1860,"Ġyoung":1861,"coring":1862,"Ġsup":1863,"Ġsuper":1864,"Ġuns":1865,"within":1866,"Ġgoes":1867,"Ġgoing":1868,"Ġyourself":1869,"Ġmediocre":1870,"ĠĠĠĠ":1871,"ade":1872,"Ġjoin":1873,"Ġuni":1874,"ains":1875,"Ġincluding":1876,"Ġdistance":1877,"Ġtasting":1878,"Ġselections":1879,"Ġeveryone":1880,"Ġmargin":1881,"Ġsomewhat":1882,"uitable":1883,"Ġseafood":1884,"Ġmature":1885,"Ġbusiness":1886,"Ġtowards":1887,"Ġwarm":1888,"Ġlevel":1889,"Ġcouples":1890,"Ġattra":1891,"Ġdescribed":1892,"aint":1893,"back":1894,"haps":1895,"iz":1896,"iving":1897,"less":1898,"mid":1899,"ose":1900,"pan":1901,"sual":1902,"ten":1903,"Ġes":1904,"erling":1905,"erts":1906,"ertain":1907,"Ġcam":1908,"Ġpur":1909,"Ġscoring":1910,"Ġhis":1911,"Ġext":1912,"itive":1913,"Ġlu":1914,"Ġlet":1915,"Ġlight":1916,"Ġrela":1917,"utation":1918,"Ġmom":1919,"they":1920,"Ġcasual":1921,"ved":1922,"vel":1923,"level":1924,"Ġaveraged":1925,"ording":1926,"Ġkeep":1927,"Ġrave":1928,"Ġsport":1929,"Ġnoodles":1930,"inexpensive":1931,"nearby":1932,"priate":1933,"Ġstep":1934,"Ġsterling":1935,"Ġpop":1936,"Ġbetter":1937,"Ġwilling":1938,"Ġdefin":1939,"Ġdish":1940,"Ġmeet":1941,"cies":1942,"itely":1943,"Ġdelica":1944,"Ġfeel":1945,"Ġbread":1946,"Ġamount":1947,"Ġprepared":1948,"Ġchop":1949,"Ġdecently":1950,"pected":1951,"Ġcharging":1952,"Ġinclude":1953,"Ġappropriate":1954,"Ġaverages":1955,"Ġpositive":1956,"Ġambiance":1957,"Ġaccording":1958,"Ġreputation":1959,"Ġfeedback":1960,"spired":1961,"receiving":1962,"Ġsupp":1963,"Ġsuperb":1964,"Ġunsuitable":1965,"Ġrelax":1966,"Ġsteps":1967,"Ġdefinitely":1968,"Ġdelicacies":1969,"'ve":1970,"als":1971,"bs":1972,"bor":1973,"con":1974,"eu":1975,"go":1976,"gge":1977,"ked":1978,"lb":1979,"mely":1980,"oor":1981,"oeu":1982,"poor":1983,"rner":1984,"sant":1985,"take":1986,"uc":1987,"ude":1988,"vres":1989,"want":1990,"ery":1991,"erri":1992,"Ġcant":1993,"Ġrun":1994,"Ġfew":1995,"Ġtap":1996,"Ġterri":1997,"ensed":1998,"right":1999,"Ġach":2000,"sts":2001,"Ġput":2002,"ination":2003,"Ġold":2004,"omis":2005,"Ġsou":2006,"Ġhi":2007,"Ġhors":2008,"Ġbill":2009,"Ġever":2010,"Ġedge":2011,"Ġinspired":2012,"Ġlic":2013,"remely":2014,"peci":2015,"Ġref":2016,"Ġrem":2017,"Ġcorner":2018,"Ġthin":2019,"Ġmade":2020,"Ġpup":2021,"Ġgue":2022,"ither":2023,"lare":2024,"llo":2025,"look":2026,"Ġplay":2027,"orted":2028,"Ġcotton":2029,"Ġwhen":2030,"val":2031,"Ġsugge":2032,"Ġass":2033,"Ġquaint":2034,"Ġnorthern":2035,"Ġdiffer":2036,"commod":2037,"Ġexceed":2038,"Ġdiner":2039,"Ġperhaps":2040,"Ġenjoyed":2041,"Ġheard":2042,"Ġhealt":2043,"Ġconsumers":2044,"Ġknow":2045,"Ġsoon":2046,"Ġsouth":2047,"Ġspecialt":2048,"Ġscen":2049,"Ġspecialises":2050,"ulous":2051,"Ġchoose":2052,"Ġaccommod":2053,"Ġappe":2054,"Ġspace":2055,"Ġapproval":2056,"Ġhamburger":2057,"Ġregular":2058,"Ġcentral":2059,"Ġclients":2060,"Ġfacilities":2061,"Ġmarket":2062,"Ġposs":2063,"Ġambient":2064,"Ġmoderated":2065,"Ġcooks":2066,"Ġstaying":2067,"Ġneighbor":2068,"crowne":2069,"Ġgrab":2070,"Ġextremely":2071,"oeuvres":2072,"poorly":2073,"Ġterrible":2074,"Ġachi":2075,"Ġsoup":2076,"Ġlicensed":2077,"Ġdifferent":2078,"Ġhealth":2079,"35":2080,"burg":2081,"beside":2082,"bulous":2083,"fer":2084,"famous":2085,"ga":2086,"gg":2087,"gi":2088,"hi":2089,"hn":2090,"hood":2091,"iring":2092,"lle":2093,"ny":2094,"ping":2095,"ple":2096,"ud":2097,"Ġfit":2098,"Ġfry":2099,"Ġte":2100,"Ġtr":2101,"Ġtrave":2102,"ath":2103,"enny":2104,"hello":2105,"styled":2106,"stination":2107,"Ġpic":2108,"Ġpenny":2109,"inity":2110,"inery":2111,"Ġob":2112,"ings":2113,"Ġequ":2114,"Ġeither":2115,"Ġinside":2116,"Ġindi":2117,"Ġla":2118,"lian":2119,"Ġcolle":2120,"Ġlot":2121,"Ġlots":2122,"hool":2123,"Ġmy":2124,"Ġmere":2125,"Ġshow":2126,"Ġshopping":2127,"Ġhight":2128,"Ġhard":2129,"asting":2130,"Ġgla":2131,"Ġgree":2132,"esserts":2133,"ory":2134,"Ġboard":2135,"Ġwatermans":2136,"Ġattit":2137,"ises":2138,"Ġbeverage":2139,"Ġbelu":2140,"Ġvic":2141,"other":2142,"Ġproxim":2143,"Ġdesserts":2144,"Ġaddition":2145,"Ġplate":2146,"Ġplates":2147,"Ġcostumers":2148,"ctive":2149,"tiz":2150,"boasting":2151,"Ġfabulous":2152,"Ġgetting":2153,"Ġalongside":2154,"Ġdestination":2155,"Ġexcellently":2156,"Ġmeans":2157,"Ġgiving":2158,"Ġdisapp":2159,"Ġvisited":2160,"Ġopin":2161,"ĠĠĠ":2162,"reason":2163,"ased":2164,"adults":2165,"Ġjohn":2166,"Ġspect":2167,"Ġcatering":2168,"Ġcatered":2169,"Ġsof":2170,"Ġschool":2171,"unning":2172,"Ġprefer":2173,"veniently":2174,"Ġspecialising":2175,"Ġcoming":2176,"Ġcompan":2177,"costing":2178,"theres":2179,"Ġmaybe":2180,"Ġpleasant":2181,"Ġfeature":2182,"Ġdesired":2183,"Ġspending":2184,"Ġclassy":2185,"Ġeurope":2186,"Ġentertain":2187,"Ġleaves":2188,"Ġapproxim":2189,"Ġseeking":2190,"ghest":2191,"respected":2192,"Ġresides":2193,"Ġpremises":2194,"Ġmatch":2195,"Ġanyone":2196,"Ġbusy":2197,"tained":2198,"Ġsurpri":2199,"Ġsurround":2200,"Ġwallet":2201,"singly":2202,"Ġfruits":2203,"Ġtends":2204,"Ġunique":2205,"Ġespeci":2206,"Ġlux":2207,"Ġmoment":2208,"Ġsupplies":2209,"conveniently":2210,"Ġtapas":2211,"Ġthink":2212,"Ġsuggest":2213,"Ġaccommodate":2214,"Ġappetiz":2215,"Ġhealthy":2216,"Ġcollege":2217,"Ġglass":2218,"Ġgreek":2219,"Ġattitude":2220,"Ġbeluga":2221,"Ġvicinity":2222,"Ġproximity":2223,"Ġdisappo":2224,"Ġcompany":2225,"Ġapproximately":2226,"Ġespecially":2227,"ava":2228,"ber":2229,"bit":2230,"based":2231,"dine":2232,"don":2233,"ex":2234,"hment":2235,"has":2236,"ish":2237,"just":2238,"non":2239,"ption":2240,"rum":2241,"si":2242,"sho":2243,"teri":2244,"wards":2245,"Ġ2":2246,"Ġ:":2247,"eres":2248,"Ġfamous":2249,"Ġtri":2250,"Ġtod":2251,"ather":2252,"stro":2253,"ample":2254,"eals":2255,"eally":2256,"Ġsing":2257,"Ġsame":2258,"Ġsample":2259,"Ġhost":2260,"Ġarra":2261,"Ġaromis":2262,"Ġbough":2263,"Ġemer":2264,"Ġoften":2265,"iting":2266,"Ġlar":2267,"Ġlacks":2268,"reat":2269,"Ġcont":2270,"Ġcond":2271,"Ġwent":2272,"Ġwinery":2273,"Ġanother":2274,"Ġtheres":2275,"Ġmin":2276,"Ġmil":2277,"Ġmix":2278,"cha":2279,"ilet":2280,"Ġcar":2281,"Ġgri":2282,"Ġgain":2283,"rop":2284,"essible":2285,"ĠcafÃ©teri":2286,"umber":2287,"Ġchildless":2288,"Ġback":2289,"Ġwaterfront":2290,"erest":2291,"Ġeagles":2292,"Ġform":2293,"Ġforget":2294,"Ġrough":2295,"Ġtoilet":2296,"Ġbeat":2297,"Ġbegin":2298,"Ġprof":2299,"Ġprohi":2300,"Ġprovider":2301,"Ġdid":2302,"Ġdeal":2303,"stars":2304,"Ġvary":2305,"Ġstarred":2306,"Ġcrowd":2307,"liar":2308,"Ġsicilian":2309,"Ġpairing":2310,"rents":2311,"area":2312,"Ġbistro":2313,"coming":2314,"Ġofferings":2315,"Ġestablishments":2316,"Ġuk":2317,"Ġsitting":2318,"Ġstunning":2319,"quisit":2320,"than":2321,"thing":2322,"ties":2323,"great":2324,"Ġexquisit":2325,"Ġaffordably":2326,"Ġdec":2327,"Ġexception":2328,"Ġdiners":2329,"Ġtaking":2330,"Ġupwards":2331,"Ġdrinking":2332,"Ġwanting":2333,"Ġliked":2334,"Ġspecial":2335,"centre":2336,"Ġloved":2337,"Ġfinest":2338,"Ġpaying":2339,"Ġmaking":2340,"Ġspecialized":2341,"Ġgeneral":2342,"Ġcharge":2343,"Ġentries":2344,"Ġsale":2345,"Ġregion":2346,"reshment":2347,"Ġfocu":2348,"Ġsays":2349,"Ġmodestly":2350,"Ġstandards":2351,"Ġnormally":2352,"Ġaccessible":2353,"Ġwalk":2354,"Ġmodern":2355,"Ġinterest":2356,"Ġmainly":2357,"Ġfondue":2358,"Ġimp":2359,"Ġhappy":2360,"Ġparties":2361,"Ġsports":2362,"ucive":2363,"Ġolder":2364,"Ġhighest":2365,"Ġrefreshment":2366,"Ġguests":2367,"Ġassorted":2368,"Ġspecialty":2369,"Ġpossible":2370,"burger":2371,"ggs":2372,"given":2373,"Ġtell":2374,"Ġtraveling":2375,"Ġobtained":2376,"Ġequally":2377,"reasonably":2378,"Ġsoft":2379,"Ġeuropean":2380,"Ġentertainment":2381,"Ġsurroundings":2382,"Ġappetizers":2383,"bited":2384,"shop":2385,"Ġtrip":2386,"Ġtoday":2387,"Ġhosts":2388,"Ġarray":2389,"Ġbought":2390,"Ġconducive":2391,"Ġmixed":2392,"ĠcafÃ©teria":2393,"Ġtoilets":2394,"Ġprohibited":2395,"Ġexquisite":2396,"Ġexceptional":2397,"10":2398,"50":2399,"af":2400,"cc":2401,"cif":2402,"clare":2403,"du":2404,"ded":2405,"ey":2406,"eur":2407,"equ":2408,"fa":2409,"fr":2410,"fore":2411,"fancy":2412,"gan":2413,"gain":2414,"have":2415,"kable":2416,"lea":2417,"luton":2418,"mp":2419,"ming":2420,"more":2421,"nic":2422,"oid":2423,"pt":2424,"pop":2425,"rate":2426,"sy":2427,"sat":2428,"sic":2429,"tures":2430,"uri":2431,"ues":2432,"void":2433,"where":2434,"zy":2435,"Ġ;":2436,"ĠĊ":2437,"erate":2438,"Ġfront":2439,"Ġflare":2440,"Ġfish":2441,"Ġtea":2442,"Ġtreat":2443,"enance":2444,"ensi":2445,"rive":2446,"rity":2447,"Ġabs":2448,"Ġavoid":2449,"hed":2450,"stled":2451,"stenance":2452,"ams":2453,"Ġpea":2454,"Ġpick":2455,"Ġore":2456,"Ġoth":2457,"ced":2458,"cept":2459,"Ġnumber":2460,"Ġprim":2461,"Ġsod":2462,"Ġsad":2463,"Ġsca":2464,"Ġsim":2465,"Ġsiz":2466,"Ġho":2467,"Ġhan":2468,"Ġranting":2469,"Ġrive":2470,"Ġbear":2471,"Ġbath":2472,"Ġet":2473,"Ġeggs":2474,"Ġinc":2475,"Ġinde":2476,"Ġinfamous":2477,"Ġle":2478,"Ġlate":2479,"ream":2480,"rees":2481,"Ġareas":2482,"ury":2483,"urse":2484,"ents":2485,"ided":2486,"Ġredu":2487,"Ġcous":2488,"Ġcourse":2489,"utely":2490,"Ġwhe":2491,"Ġway":2492,"Ġans":2493,"Ġmo":2494,"Ġmer":2495,"ilst":2496,"Ġchip":2497,"Ġpubs":2498,"lect":2499,"astro":2500,"Ġgather":2501,"olutely":2502,"Ġcheat":2503,"Ġkind":2504,"rainbow":2505,"Ġbaby":2506,"Ġbasic":2507,"rown":2508,"Ġeasy":2509,"Ġraving":2510,"ressive":2511,"ised":2512,"ically":2513,"oth":2514,"Ġproud":2515,"Ġdear":2516,"Ġdeals":2517,"Ġpass":2518,"Ġparents":2519,"Ġmills":2520,"Ġwhit":2521,"reet":2522,"Ġzizzis":2523,"Ġadv":2524,"Ġadequ":2525,"Ġbig":2526,"Ġsub":2527,"Ġsustenance":2528,"Ġbeefeaters":2529,"Ġgoods":2530,"Ġclosest":2531,"Ġstat":2532,"Ġsteep":2533,"Ġstreet":2534,"Ġeaten":2535,"Ġreviewers":2536,"ctory":2537,"Ġinexpensively":2538,"Ġdoor":2539,"Ġexist":2540,"Ġlocates":2541,"Ġfact":2542,"familiar":2543,"Ġtab":2544,"intains":2545,"Ġvisiting":2546,"Ġoperate":2547,"Ġenjoys":2548,"Ġenjoying":2549,"Ġenjoyable":2550,"ously":2551,"Ġtakeout":2552,"Ġsatisfied":2553,"Ġsatisfactory":2554,"Ġspecif":2555,"Ġorientated":2556,"Ġbuck":2557,"Ġscener":2558,"cheaply":2559,"Ġbrings":2560,"Ġbringing":2561,"Ġranking":2562,"Ġtypes":2563,"Ġcombo":2564,"Ġperfectly":2565,"versity":2566,"Ġlikely":2567,"Ġaccept":2568,"Ġpoints":2569,"Ġpleased":2570,"Ġbadly":2571,"Ġexpected":2572,"Ġfeatured":2573,"Ġideally":2574,"Ġmaintains":2575,"imum":2576,"Ġmiddling":2577,"Ġgenerated":2578,"Ġcharming":2579,"Ġentrees":2580,"Ġwitch":2581,"icks":2582,"Ġhearty":2583,"Ġtastes":2584,"Ġawarded":2585,"Ġamongst":2586,"Ġwont":2587,"Ġapproved":2588,"Ġsafe":2589,"Ġresult":2590,"Ġpartner":2591,"being":2592,"Ġclientele":2593,"Ġprams":2594,"eved":2595,"Ġorders":2596,"Ġanything":2597,"Ġanywhere":2598,"Ġfalling":2599,"Ġexclusively":2600,"Ġwalking":2601,"Ġneeds":2602,"Ġreport":2603,"Ġclassics":2604,"Ġfreshly":2605,"Ġneighbo":2606,"Ġhappen":2607,"Ġwork":2608,"Ġuniversity":2609,"Ġattracts":2610,"Ġpurcha":2611,"Ġsporting":2612,"Ġscene":2613,"Ġscenic":2614,"Ġregularly":2615,"Ġneighborhood":2616,"Ġachie":2617,"Ġachieved":2618,"Ġpicnic":2619,"Ġindivid":2620,"Ġlaid":2621,"Ġadditionally":2622,"Ġopinion":2623,"Ġspectrum":2624,"Ġpreferred":2625,"Ġsurprisingly":2626,"Ġluxury":2627,"Ġdisappoint":2628,"available":2629,"Ġsingle":2630,"Ġemerging":2631,"Ġlarge":2632,"Ġcontains":2633,"Ġminimum":2634,"Ġmiles":2635,"Ġgained":2636,"Ġpairings":2637,"Ġfocused":2638,"Ġimpressive":2639,"Ġrefreshments":2640,"from":2641,"leave":2642,"popular":2643,"turesque":2644,"ensibly":2645,"Ġabsolutely":2646,"Ġpeace":2647,"Ġothers":2648,"Ġsadly":2649,"Ġbathroom":2650,"Ġindeed":2651,"Ġreduced":2652,"Ġcousin":2653,"Ġchips":2654,"Ġscenery":2655,"Ġpurchase":2656,"'d":2657,"'m":2658,",,":2659,"--":2660,".Â£":2661,"19":2662,"33":2663,"99":2664,"ab":2665,"ape":2666,"ale":2667,"also":2668,"act":2669,"abo":2670,"acu":2671,"around":2672,"ban":2673,"but":2674,"both":2675,"cap":2676,"count":2677,"do":2678,"due":2679,"day":2680,"drop":2681,"ee":2682,"exp":2683,"fare":2684,"good":2685,"gry":2686,"gal":2687,"ground":2688,"hist":2689,"ier":2690,"ily":2691,"icated":2692,"ilies":2693,"ise":2694,"kn":2695,"lp":2696,"liness":2697,"my":2698,"med":2699,"mal":2700,"most":2701,"nit":2702,"nice":2703,"over":2704,"par":2705,"pos":2706,"phist":2707,"sitt":2708,"sons":2709,"sides":2710,"ta":2711,"trada":2712,"tic":2713,"tradition":2714,"uar":2715,"uring":2716,"uff":2717,"uals":2718,"wine":2719,"ying":2720,"yor":2721,"yippee":2722,"yling":2723,"čĊ":2724,"Ġod":2725,"Ġur":2726,"Ġant":2727,"Ġ-Â£":2728,"erto":2729,"Ġclo":2730,"Ġcertain":2731,"Ġcream":2732,"Ġru":2733,"Ġrom":2734,"Ġrid":2735,"Ġrear":2736,"ansive":2737,"Ġfin":2738,"Ġfitzb":2739,"Ġfour":2740,"Ġfus":2741,"Ġfans":2742,"Ġfits":2743,"Ġtur":2744,"Ġtou":2745,"Ġtim":2746,"Ġtuc":2747,"ations":2748,"aturing":2749,"Ġice":2750,"ene":2751,"Ġact":2752,"Ġactive":2753,"head":2754,"sticks":2755,"sterto":2756,"amazing":2757,"among":2758,"Ġpol":2759,"Ġpra":2760,"Ġpres":2761,"Ġpiz":2762,"eak":2763,"east":2764,"inting":2765,"Ġow":2766,"esides":2767,"cellent":2768,"Ġrater":2769,"Ġratting":2770,"Ġcup":2771,"Ġcute":2772,"Ġpried":2773,"endy":2774,"ended":2775,"Ġsensibly":2776,"named":2777,"Ġhat":2778,"Ġhun":2779,"verthe":2780,"Ġares":2781,"Ġblo":2782,"Ġbesides":2783,"Ġest":2784,"itch":2785,"eared":2786,"earning":2787,"Ġinv":2788,"Ġinst":2789,"Ġincre":2790,"Ġlend":2791,"Ġlay":2792,"Ġland":2793,"Ġlad":2794,"rely":2795,"recommend":2796,"ped":2797,"people":2798,"pecc":2799,"lis":2800,"Ġrivers":2801,"ently":2802,"ention":2803,"Ġrequ":2804,"Ġcore":2805,"Ġcoast":2806,"Ġcool":2807,"hos":2808,"antly":2809,"antic":2810,"antee":2811,"Ġwat":2812,"Ġthro":2813,"featuring":2814,"Ġmild":2815,"Ġmis":2816,"Ġshoo":2817,"Ġshot":2818,"Ġyear":2819,"Â£-":2820,"ĠÂ£,":2821,"ĠÂ£.":2822,"Ġcast":2823,"Ġcare":2824,"veyor":2825,"Ġchill":2826,"leg":2827,"lets":2828,"alif":2829,"Ġgate":2830,"Ġgar":2831,"Ġgas":2832,"Ġgastro":2833,"Ġgrown":2834,"Ġguar":2835,"Ġgeared":2836,"dicap":2837,"rocious":2838,"Ġfastfood":2839,"esses":2840,"essment":2841,"ourite":2842,"orable":2843,"Ġcheep":2844,"Ġcheape":2845,"Ġchesterto":2846,"ilding":2847,"Ġkey":2848,"Ġkitch":2849,"lain":2850,"laimed":2851,"Ġboats":2852,"raja":2853,"rally":2854,"Ġbabi":2855,"Ġbarely":2856,"loc":2857,"nsider":2858,"Ġexpansive":2859,"ryout":2860,"Ġatrocious":2861,"Ġeach":2862,"set":2863,"iske":2864,"Ġtoast":2865,"Ġbecome":2866,"Ġbeans":2867,"Ġbecoming":2868,"ived":2869,"icult":2870,"icular":2871,"Ġspent":2872,"Ġspite":2873,"Ġproble":2874,"Ġproves":2875,"Ġdra":2876,"Ġdet":2877,"Ġdrop":2878,"Ġdrive":2879,"Ġpunters":2880,"ellar":2881,"arily":2882,"starred":2883,"zizzis":2884,"Ġolives":2885,"Ġones":2886,"Ġcuisines":2887,"Ġwhiske":2888,"Ġadded":2889,"ounds":2890,"iraff":2891,"cker":2892,"Ġtherefore":2893,"Ġcritic":2894,"jacent":2895,"pricey":2896,"arkable":2897,"cond":2898,"consider":2899,"Ġsecond":2900,"compan":2901,"Ġsuff":2902,"ales":2903,"Ġuser":2904,"Ġvenues":2905,"irly":2906,"ires":2907,"Ġgreatly":2908,"Ġstuff":2909,"Ġstyling":2910,"Ġstellar":2911,"that":2912,"three":2913,"Ġquid":2914,"Ġqualif":2915,"Ġnestled":2916,"Ġneverthe":2917,"cted":2918,"Ġreasons":2919,"Ġdone":2920,"tim":2921,"Ġexact":2922,"Ġlocals":2923,"Ġlocale":2924,"Ġaffor":2925,"Ġoverpriced":2926,"Ġoverlook":2927,"fordable":2928,"ourable":2929,"Ġdelect":2930,"Ġmenus":2931,"Ġdire":2932,"Ġmeat":2933,"Ġmeant":2934,"join":2935,"Ġvisitors":2936,"Ġ--":2937,"higher":2938,"Ġoppos":2939,"Ġdelivery":2940,"Ġdelight":2941,"reasingly":2942,"Ġhelp":2943,"adjacent":2944,"Ġorgan":2945,"Ġconsist":2946,"isfied":2947,"Ġbreaking":2948,"Ġsatisfying":2949,"Ġwants":2950,"Ġsettings":2951,"riversides":2952,"Ġsophist":2953,"Ġbuilding":2954,"unfriendly":2955,"centrally":2956,"open":2957,"Ġunable":2958,"Ġunbe":2959,"Ġconsidering":2960,"Ġwouldn":2961,"ranked":2962,"Ġchoices":2963,"Ġvibe":2964,"ranged":2965,"Ġranks":2966,"Ġviewed":2967,"Ġearns":2968,"type":2969,"Ġcomp":2970,"Ġcompared":2971,"Ġbudgets":2972,"Ġgotten":2973,"Ġaccompan":2974,"Ġvaries":2975,"Ġvaried":2976,"Ġvarious":2977,"Ġdeserts":2978,"sited":2979,"averagely":2980,"prove":2981,"proved":2982,"why":2983,"whilst":2984,"Ġfares":2985,"Ġbeautifully":2986,"Ġapp":2987,"outs":2988,"Ġalbe":2989,"Ġalmost":2990,"Ġusual":2991,"Ġenter":2992,"Ġentree":2993,"Ġleast":2994,"Ġleaving":2995,"Ġawful":2996,"Ġeveryday":2997,"ratings":2998,"Ġfurnit":2999,"visiting":3000,"Ġseek":3001,"Ġfavourite":3002,"Ġfavorable":3003,"Ġpermits":3004,"Ġreser":3005,"Ġresults":3006,"Ġfoe":3007,"Ġfool":3008,"Ġmostly":3009,"Ġnowhere":3010,"Ġparticular":3011,"Ġalcoholic":3012,"Ġmarks":3013,"Ġmarked":3014,"Ġcrazy":3015,"Ġcracker":3016,"Ġacclaimed":3017,"Ġstaff":3018,"Ġproduces":3019,"Ġordered":3020,"Ġintended":3021,"akey":3022,"Ġlevels":3023,"Ġcooked":3024,"Ġcoupled":3025,"Ġattention":3026,"Ġuseful":3027,"Ġpastries":3028,"Ġthings":3029,"crown":3030,"Ġimpecc":3031,"Ġimprove":3032,"Ġworse":3033,"Ġdays":3034,"Ġpark":3035,"Ġattraction":3036,"Ġattractive":3037,"Ġpurveyor":3038,"Ġluck":3039,"Ġkeeping":3040,"Ġbreads":3041,"Ġchopsticks":3042,"Ġrelaxing":3043,"Ġremarkable":3044,"Ġguest":3045,"Ġplayground":3046,"Ġassessment":3047,"Ġexceeding":3048,"Ġspecialties":3049,"Ġpossesses":3050,"Ġsoups":3051,"Ġtrue":3052,"Ġtrendy":3053,"Ġpicturesque":3054,"Ġopinions":3055,"Ġspectacu":3056,"Ġluxuri":3057,"Ġdisappointing":3058,"expect":3059,"excellent":3060,"Ġcarryout":3061,"Ġgrill":3062,"Ġgrills":3063,"Ġroughly":3064,"Ġprofile":3065,"Ġdidn":3066,"Ġvarying":3067,"Ġcrowds":3068,"Ġdecided":3069,"Ġinteresting":3070,"Ġinterested":3071,"affordable":3072,"euros":3073,"fairly":3074,"Ġprimarily":3075,"Ġsoda":3076,"Ġscare":3077,"Ġsizes":3078,"Ġhope":3079,"Ġhandicap":3080,"Ġethos":3081,"Ġincreasingly":3082,"Ġlegal":3083,"Ġmoved":3084,"Ġmerits":3085,"Ġbabysitt":3086,"Ġadequate":3087,"Ġstatus":3088,"Ġspecifically":3089,"Ġneighbour":3090,"Ġachieving":3091,"Ġindividuals":3092,"Ġdisappointed":3093,"Ġpeaceful":3094,"Ġbathrooms":3095,"above":3096,"express":3097,"known":3098,"traditional":3099,"Ġurban":3100,"Ġcertainly":3101,"Ġromantic":3102,"Ġfitzbilies":3103,"Ġfusion":3104,"Ġturn":3105,"Ġtouri":3106,"Ġtime":3107,"Ġtucson":3108,"Ġactively":3109,"Ġpolite":3110,"Ġpraised":3111,"Ġpizza":3112,"Ġhungry":3113,"Ġblock":3114,"Ġincredi":3115,"recommended":3116,"Ġthrough":3117,"Ġmildly":3118,"Ġguarantee":3119,"Ġcheapest":3120,"Ġchesterton":3121,"Ġkitchen":3122,"Ġbabies":3123,"Ġproblem":3124,"Ġwhiskey":3125,"iraffes":3126,"Ġcritics":3127,"considered":3128,"Ġsuffers":3129,"Ġnevertheless":3130,"Ġexactly":3131,"Ġoverlooks":3132,"Ġopposite":3133,"Ġorganiz":3134,"Ġsophisticated":3135,"Ġaccompanied":3136,"Ġalbeit":3137,"Ġfurniture":3138,"Ġimpeccable":3139,"Ġspectacular":3140,"Ġluxurious":3141,"Ġbabysitter":3142}