{"<s>":0,"<pad>":1,"</s>":2,"<unk>":3,"!":4,"\"":5,"#":6,"$":7,"%":8,"&":9,"'":10,"(":11,")":12,"*":13,"+":14,",":15,"-":16,".":17,"/":18,"0":19,"1":20,"2":21,"3":22,"4":23,"5":24,"6":25,"7":26,"8":27,"9":28,":":29,";":30,"<":31,"=":32,">":33,"?":34,"@":35,"A":36,"B":37,"C":38,"D":39,"E":40,"F":41,"G":42,"H":43,"I":44,"J":45,"K":46,"L":47,"M":48,"N":49,"O":50,"P":51,"Q":52,"R":53,"S":54,"T":55,"U":56,"V":57,"W":58,"X":59,"Y":60,"Z":61,"[":62,"\\":63,"]":64,"^":65,"_":66,"`":67,"a":68,"b":69,"c":70,"d":71,"e":72,"f":73,"g":74,"h":75,"i":76,"j":77,"k":78,"l":79,"m":80,"n":81,"o":82,"p":83,"q":84,"r":85,"s":86,"t":87,"u":88,"v":89,"w":90,"x":91,"y":92,"z":93,"{":94,"|":95,"}":96,"~":97,"¡":98,"¢":99,"£":100,"¤":101,"¥":102,"¦":103,"§":104,"¨":105,"©":106,"ª":107,"«":108,"¬":109,"®":110,"¯":111,"°":112,"±":113,"²":114,"³":115,"´":116,"µ":117,"¶":118,"·":119,"¸":120,"¹":121,"º":122,"»":123,"¼":124,"½":125,"¾":126,"¿":127,"À":128,"Á":129,"Â":130,"Ã":131,"Ä":132,"Å":133,"Æ":134,"Ç":135,"È":136,"É":137,"Ê":138,"Ë":139,"Ì":140,"Í":141,"Î":142,"Ï":143,"Ð":144,"Ñ":145,"Ò":146,"Ó":147,"Ô":148,"Õ":149,"Ö":150,"×":151,"Ø":152,"Ù":153,"Ú":154,"Û":155,"Ü":156,"Ý":157,"Þ":158,"ß":159,"à":160,"á":161,"â":162,"ã":163,"ä":164,"å":165,"æ":166,"ç":167,"è":168,"é":169,"ê":170,"ë":171,"ì":172,"í":173,"î":174,"ï":175,"ð":176,"ñ":177,"ò":178,"ó":179,"ô":180,"õ":181,"ö":182,"÷":183,"ø":184,"ù":185,"ú":186,"û":187,"ü":188,"ý":189,"þ":190,"ÿ":191,"Ā":192,"ā":193,"Ă":194,"ă":195,"Ą":196,"ą":197,"Ć":198,"ć":199,"Ĉ":200,"ĉ":201,"Ċ":202,"ċ":203,"Č":204,"č":205,"Ď":206,"ď":207,"Đ":208,"đ":209,"Ē":210,"ē":211,"Ĕ":212,"ĕ":213,"Ė":214,"ė":215,"Ę":216,"ę":217,"Ě":218,"ě":219,"Ĝ":220,"ĝ":221,"Ğ":222,"ğ":223,"Ġ":224,"ġ":225,"Ģ":226,"ģ":227,"Ĥ":228,"ĥ":229,"Ħ":230,"ħ":231,"Ĩ":232,"ĩ":233,"Ī":234,"ī":235,"Ĭ":236,"ĭ":237,"Į":238,"į":239,"İ":240,"ı":241,"Ĳ":242,"ĳ":243,"Ĵ":244,"ĵ":245,"Ķ":246,"ķ":247,"ĸ":248,"Ĺ":249,"ĺ":250,"Ļ":251,"ļ":252,"Ľ":253,"ľ":254,"Ŀ":255,"ŀ":256,"Ł":257,"ł":258,"Ń":259,"Ġ=":260,"Ġ|":261,"Ġc":262,"er":263,"Ġr":264,"Ġf":265,"an":266,"Ġt":267,"at":268,"Ġi":269,"en":270,"ri":271,"Ġa":272,"he":273,"ly":274,"am":275,"es":276,"Ġp":277,"od":278,"ea":279,"Ġthe":280,"in":281,"ood":282,"Ġo":283,"st":284,"ge":285,"ce":286,"Ġfood":287,"Ġn":288,"ing":289,"Ġis":290,"Ġrat":291,"Ġcu":292,"Ġpri":293,"end":294,"riend":295,"riendly":296,"om":297,"id":298,"Ġrating":299,"Ġprice":300,"ame":301,"ver":302,"stom":303,"stomer":304,"Ġcustomer":305,"name":306,"Ġs":307,"Ġh":308,"Ġran":309,"ear":310,"Ġb":311,"Ġnear":312,"Ġrange":313,"Ġri":314,"ami":315,"Ġfami":316,"Ġar":317,"Ġfamily":318,"Ġl":319,"Ġof":320,"Ġin":321,"it":322,"ta":323,"friendly":324,"li":325,"Ġriver":326,"ide":327,"Ġ5":328,"re":329,"side":330,"Ġriverside":331,"Ġarea":332,"Ġe":333,"Ġlo":334,"ater":335,"ent":336,"ed":337,"Ġco":338,"Ġm":339,"Ġth":340,"ut":341,"ho":342,"ee":343,"Ġw":344,"Ġan":345,"ff":346,"Ġout":347,"Ġy":348,"Â£":349,"ur":350,"ĠÂ£":351,"ffee":352,"Ġsho":353,"Ġcoffee":354,"Ġshop":355,"pe":356,"Ġeater":357,"Ġeatery":358,"gh":359,"ap":360,"Ġty":361,"Ġtype":362,"Ġit":363,"igh":364,"Ġhigh":365,"Ġres":366,"Ġyes":367,"Ġand":368,"ant":369,"ity":370,"taur":371,"taurant":372,"Ġrestaurant":373,"ch":374,"Ġcity":375,"Ġcent":376,"ese":377,"il":378,"the":379,"Ġno":380,"Ġcentre":381,"Ġpu":382,"Ġca":383,"Ġfriendly":384,"Ġthan":385,"ated":386,"20":387,"cated":388,"ren":389,"Ġha":390,"Ġpub":391,"ll":392,"Ġg":393,"Ġlocated":394,"ou":395,"ess":396,"Ġch":397,"ast":398,"ve":399,"ro":400,"vera":401,"verage":402,"fÃ":403,"fÃ©":404,"Ġlow":405,"ĠcafÃ©":406,"Ġaverage":407,"Ġj":408,"lian":409,"Ġfast":410,"apan":411,"Ġita":412,"Ġitalian":413,"apanese":414,"ate":415,"Ġjapanese":416,"oder":417,"oderate":418,"Ġhas":419,"rench":420,"Ġmoderate":421,"Ġfrench":422,"di":423,"ol":424,"or":425,"Ġser":426,"um":427,"dian":428,"Ġindian":429,"ers":430,"ith":431,"ar":432,"Ġserv":433,"Ġwith":434,"ne":435,"ild":436,"sh":437,"Ġche":438,"la":439,"Ġcheap":440,"Ġless":441,"le":442,"Ġk":443,"Ġbo":444,"lish":445,"Ġen":446,"Ġrice":447,"Ġboat":448,"Ġ3":449,"Ġ1":450,"glish":451,"Ġenglish":452,"ore":453,"Ġmore":454,"ra":455,"30":456,"Ġserves":457,"Ġthat":458,"dge":459,"Ġby":460,"amb":461,"Ġchild":462,"tl":463,"Ġcamb":464,"ridge":465,"Ġcambridge":466,"25":467,"old":468,"row":469,"Ġgold":470,"Ġgolden":471,"xp":472,"inese":473,"Ġchinese":474,"Ġbar":475,"lo":476,"Ġnot":477,"Ġexp":478,"Ġwater":479,"man":480,"Ġwaterman":481,"Ġkid":482,"Ġst":483,"ns":484,"ere":485,"ue":486,"Ġtw":487,"Ġpla":488,"ment":489,"lies":490,"Ġpriced":491,"ry":492,"ay":493,"Ġcall":494,"Ġcalled":495,"lue":496,"se":497,"zi":498,"Ġrou":499,"Ġrouge":500,"Ġrated":501,"Ġcur":502,"ress":503,"Ġhol":504,"iday":505,"Ġholiday":506,"Ġinn":507,"Ġcurry":508,"Ġexpress":509,"ix":510,"zb":511,"itzb":512,"illies":513,"itzbillies":514,"Ġat":515,"Ġto":516,"Ġea":517,"Ġra":518,"here":519,"Ġeag":520,"Ġeagle":521,"Ġone":522,"Ġfor":523,"da":524,"rowns":525,"Ġblue":526,"liment":527,"limentum":528,"Ġoff":529,"Ġall":530,"ic":531,"is":532,"ow":533,"ot":534,"Ġhou":535,"Ġhouse":536,"Ġd":537,"rada":538,"ms":539,"and":540,"ice":541,"res":542,"Ġv":543,"Ġchildren":544,"Ġpor":545,"Ġarms":546,"tland":547,"Ġportland":548,"ul":549,"Ġwres":550,"Ġwrestl":551,"Ġwrestlers":552,"there":553,"Ġpric":554,"enix":555,"Ġpho":556,"Ġphoenix":557,"el":558,"Ġsp":559,"ult":560,"Ġprices":561,"Ġfy":562,"Ġfyne":563,"Ġfitzbillies":564,"Ġspice":565,"urg":566,"rov":567,"Ġare":568,"Ġburg":569,"Ġprov":570,"geta":571,"Ġve":572,"Ġvegeta":573,"bow":574,"rian":575,"inbow":576,"Ġvegetarian":577,"pp":578,"Ġrainbow":579,"Ġbe":580,"Ġoffers":581,"to":582,"ter":583,"ive":584,"Ġnood":585,"Ġburger":586,"Ġnoodle":587,"ipp":588,"ippee":589,"Ġprovid":590,"Ġyippee":591,"ine":592,"Ġpun":593,"Ġpunter":594,"Ġking":595,"Ġalimentum":596,"ults":597,"Ġhot":598,"Ġhotel":599,"za":600,"Ġbrowns":601,"enty":602,"Ġplaza":603,"Ġtwenty":604,"Ġcrow":605,"Ġstar":606,"Ġtwo":607,"wood":608,"ildwood":609,"Ġstrada":610,"Ġva":611,"Ġgre":612,"cum":613,"Ġcrowne":614,"Ġplace":615,"Ġon":616,"Ġman":617,"ree":618,"Ġvaults":619,"Ġsic":620,"Ġsici":621,"lia":622,"Ġsicilia":623,"ak":624,"ill":625,"zzi":626,"zizzi":627,"mer":628,"Ġmid":629,"Ġranch":630,"Ġcuis":631,"Ġserving":632,"Ġcuisine":633,"Ġoli":634,"Ġolive":635,"rove":636,"Ġgrove":637,"ummer":638,"summer":639,"Ġloch":640,"Ġbut":641,"Ġpa":642,"lace":643,"Ġthey":644,"Ġpalace":645,"Ġmoderately":646,"omi":647,"tto":648,"Ġcotto":649,"Ġbak":650,"Ġbakers":651,"Ġclo":652,"Ġcla":653,"Ġwh":654,"Ġkids":655,"Ġmill":656,"Ġhall":657,"Ġclare":658,"Ġwildwood":659,"et":660,"nd":661,"Ġits":662,"ling":663,"ens":664,"ump":665,"Ġtree":666,"Ġdump":667,"Ġdumpling":668,"ensive":669,"Ġgreen":670,"rent":671,"Ġsor":672,"bi":673,"rento":674,"Ġsorrento":675,"ich":676,"Ġwhich":677,"Ġratings":678,"lls":679,"Ġad":680,"Ġprovides":681,"ck":682,"'s":683,"Ġcocum":684,"Ġzizzi":685,"ough":686,"Ġpl":687,"wns":688,"Ġyou":689,"Ġname":690,"ffe":691,"ira":692,"iraffe":693,"Ġmidsummer":694,"ound":695,"Ġplough":696,"cket":697,"Ġcustomers":698,"Ġcri":699,"cketers":700,"Ġcricketers":701,"Ġaromi":702,"Ġnamed":703,"Ġbra":704,"located":705,"near":706,"mb":707,"Ġhighly":708,"Ġexpensive":709,"zil":710,"Ġbrazil":711,"bimb":712,"bimbap":713,"on":714,"fitzbillies":715,"Ġcan":716,"Ġthere":717,"pri":718,"price":719,"Ġcenter":720,"Ġre":721,"ja":722,"Ġraja":723,"Ġhave":724,"Ġgiraffe":725,"browns":726,"Ġclowns":727,"priced":728,"Ġsix":729,"lon":730,"Ġbells":731,"ls":732,"Ġsu":733,"Ġcost":734,"alimentum":735,"vi":736,"Ġproviding":737,"Ġ20":738,"strada":739,"Ġbi":740,"Ġthis":741,"Ġbibimbap":742,"co":743,"atic":744,"riatic":745,"Ġadriatic":746,"Ġtast":747,"Ġoffer":748,"ble":749,"va":750,"Ġava":751,"Ġtaste":752,"loch":753,"fe":754,"blue":755,"al":756,"Ġfr":757,"for":758,"Ġse":759,"com":760,"Ġfrom":761,"Ġavalon":762,"Ġclose":763,"cot":764,"cotto":765,"Ġrest":766,"cocum":767,"rave":768,"llers":769,"Ġbee":770,"feater":771,"ravellers":772,"Ġbeefeater":773,"os":774,"Ġfive":775,"Ġu":776,"shi":777,"Ġne":778,"Ġoffering":779,"Ġsushi":780,"Ġfound":781,"lso":782,"Ġalso":783,"Ġnon":784,"th":785,"Ġes":786,"Ġgood":787,"Ġstars":788,"iv":789,"tab":790,"Ġestab":791,"lishment":792,"Ġestablishment":793,"wildwood":794,"ir":795,"xt":796,"ion":797,"Ġmea":798,"Ġgreat":799,"Ġtravellers":800,"Ġven":801,"ew":802,"Ġvenue":803,"Ġsells":804,"Ġpound":805,"Ġfamilies":806,"mid":807,"Ġserve":808,"ron":809,"Ġsit":810,"with":811,"midsummer":812,"aromi":813,"Ġpounds":814,"if":815,"Ġas":816,"Ġnext":817,"able":818,"Ġenvi":819,"ronment":820,"Ġenvironment":821,"Ġonly":822,"clo":823,"Ġ30":824,"qu":825,"uated":826,"very":827,"gre":828,"Ġeat":829,"ind":830,"green":831,"ok":832,"Ġwe":833,"Ġqu":834,"Ġvery":835,"view":836,"mos":837,"phere":838,"ceiv":839,"Ġatmos":840,"elcom":841,"Ġatmosphere":842,"Ġsituated":843,"Ġtry":844,"Ġfind":845,"Ġreceiv":846,"Ġthree":847,"Ġreview":848,"Ġpo":849,"clowns":850,"Ġadult":851,"star":852,"Ġwelcom":853,"Ġdo":854,"xpensive":855,"expensive":856,"oking":857,"Ġinexpensive":858,"giraffe":859,"'t":860,"Ġfa":861,"Ġnor":862,"bibimbap":863,"ct":864,"yle":865,"Ġde":866,"Ġtheir":867,"Ġrea":868,"rin":869,"Ġmeals":870,"ti":871,"Ġhigher":872,"ium":873,"Ġreceived":874,"Ġnorth":875,"Ġlooking":876,"Ġmed":877,"Ġrang":878,"Ġloc":879,"Ġreviews":880,"Ġex":881,"ality":882,"Ġmedium":883,"Ġcosts":884,"son":885,"we":886,"Ġwine":887,"rated":888,"Ġbet":889,"fami":890,"Ġreason":891,"bo":892,"ffor":893,"fforda":894,"Ġquality":895,"ween":896,"Ġafforda":897,"Ġbetween":898,"our":899,"long":900,"Ġstyle":901,"tast":902,"Ġaffordable":903,"Ġwill":904,"own":905,"Ġabo":906,"Ġadults":907,"family":908,"Ġover":909,"Ġpoor":910,"Ġwelcome":911,"Ġrate":912,"Ġdoes":913,"get":914,"Ġservice":915,"nder":916,"Ġyour":917,"Ġdin":918,"Ġeur":919,"Ġgo":920,"taste":921,"Ġalong":922,"ation":923,"Ġget":924,"enu":925,"Ġmenu":926,"Ġdeli":927,"riti":928,"ritish":929,"Ġbritish":930,"Ġsuit":931,"Ġdi":932,"Ġunder":933,"by":934,"Ġhow":935,"Ġexce":936,"ever":937,"Ġ.":938,"Ġhowever":939,"Ġmeal":940,"ome":941,"ake":942,"comm":943,"Ġlocation":944,"ci":945,"Ġeuros":946,"Ġwho":947,"Ġwhere":948,"isit":949,"commend":950,"ad":951,"llent":952,"Ġrecommend":953,"Ġsuitable":954,"Ġserved":955,"Ġdining":956,"Ġexcellent":957,"as":958,"fast":959,"ust":960,"Ġtake":961,"Ġthen":962,"Ġabove":963,"tho":964,"ugh":965,"Ġisn":966,"though":967,"Ġbeen":968,"ting":969,"Ġup":970,"jo":971,"Ġbes":972,"-Â£":973,"Ġal":974,"Ġvisit":975,"Ġ,":976,"joy":977,"Ġwell":978,"food":979,"Ġcrown":980,"Ġallow":981,"'re":982,"Ġjust":983,"Ġranging":984,"Ġper":985,"rink":986,"Ġfoods":987,"Ġdrink":988,"Ġrecommended":989,"rea":990,"ght":991,"Ġop":992,"ring":993,"Ġdis":994,"way":995,"Ġ-":996,"child":997,"Ġwithin":998,"ven":999,"int":1000,"ite":1001,"Ġwhole":1002,"Ġenjoy":1003,"bly":1004,"Ġend":1005,"Ġgiv":1006,"hes":1007,"ving":1008,"Ġbrea":1009,"ous":1010,"Ġcheese":1011,"Ġreasonable":1012,"Ġpricing":1013,"Ġfair":1014,"Ġdishes":1015,"eat":1016,"ts":1017,"ably":1018,"ĠĠ":1019,"Ġaround":1020,"Ġside":1021,"Ġbreak":1022,"ca":1023,"eri":1024,"ence":1025,"Ġgiven":1026,"high":1027,"Ġreasonably":1028,"Ġour":1029,"Ġbu":1030,"low":1031,"Ġexperi":1032,"Ġori":1033,"Ġbreakfast":1034,"you":1035,"Ġexperience":1036,"Ġhe":1037,"Ġoutside":1038,"Ġkn":1039,"Ġranges":1040,"Ġfeat":1041,"Ġor":1042,"Ġcosting":1043,"Ġdeliver":1044,"Ġsell":1045,"Ġalthough":1046,"ally":1047,"ction":1048,"Ġset":1049,"Ġpast":1050,"Ġ25":1051,"Ġnice":1052,"Ġam":1053,"Ġcater":1054,"ented":1055,"Ġknown":1056,"kid":1057,"Ġli":1058,"Ġtow":1059,"Ġcons":1060,"ile":1061,"Ġjo":1062,"Ġbest":1063,"Ġso":1064,"Ġsat":1065,"Ġgive":1066,"Ġpoorly":1067,"Ġspe":1068,"isf":1069,"Ġpricey":1070,"Ġdown":1071,"Ġsetting":1072,"Ġwant":1073,"Ġaveragely":1074,"Ġpasta":1075,"cent":1076,"Ġ'":1077,"Ġright":1078,"Ġsatisf":1079,"travellers":1080,"Ġnearby":1081,"Ġfare":1082,"japanese":1083,"Ġfine":1084,"Ġthough":1085,"che":1086,"ss":1087,"Ġbeing":1088,"Ġoriented":1089,"un":1090,"ries":1091,"river":1092,"Ġspeci":1093,"Ġsatisfa":1094,"Ġsome":1095,"Ġcon":1096,"riverside":1097,"ran":1098,"ser":1099,"Ġfriend":1100,"veni":1101,"Ġtown":1102,"cious":1103,"venient":1104,"Ġvi":1105,"Ġcheck":1106,"one":1107,"Ġpre":1108,"Ġwas":1109,"Ġgets":1110,"Ġsatisfaction":1111,"cu":1112,"cost":1113,"Ġdelicious":1114,"ilable":1115,"Ġdrinks":1116,"Ġview":1117,"ies":1118,"serving":1119,"ld":1120,"Ġavailable":1121,"children":1122,"Ġconvenient":1123,"op":1124,"Ġwelcomes":1125,"french":1126,"away":1127,"Ġcho":1128,"Ġfries":1129,"Ġif":1130,"Ġac":1131,"Ġburgers":1132,"customer":1133,"ali":1134,"Ġwhile":1135,"Ġbudge":1136,"Ġjoint":1137,"range":1138,"tion":1139,"ines":1140,"Ġallowed":1141,"ition":1142,"Ġdine":1143,"Ġprovide":1144,"Ġvari":1145,"Ġbudget":1146,"dition":1147,"ges":1148,"ider":1149,"Ġlower":1150,"umer":1151,"Ġboast":1152,"alian":1153,"italian":1154,"Ġus":1155,"Ġspeciali":1156,"Ġsc":1157,"Ġbring":1158,"ould":1159,"Ġfairly":1160,"Ġconsider":1161,"zing":1162,"Ġranged":1163,"Ġwould":1164,"ures":1165,"Ġun":1166,"ther":1167,"Ġdecent":1168,"itt":1169,"Ġlove":1170,"ight":1171,"radition":1172,"Ġquite":1173,"Ġfeatures":1174,"Ġselling":1175,"Ġcom":1176,"lic":1177,"ety":1178,"ased":1179,"Ġtradition":1180,"ard":1181,"Ġoption":1182,"Ġvariety":1183,"ke":1184,"uld":1185,"cheap":1186,"Ġconsidered":1187,"Ġreceives":1188,"ular":1189,"Ġtraditional":1190,"ican":1191,"Ġbelow":1192,"Ġabout":1193,"Ġbased":1194,"Ġite":1195,"close":1196,"Ġboasts":1197,"Ġnew":1198,"Ġconveniently":1199,"Ġitems":1200,"ty":1201,"Ġamer":1202,"eses":1203,"Ġrank":1204,"Ġtoo":1205,"Ġamerican":1206,"Ġtyp":1207,"Ġbeside":1208,"highly":1209,"Ġdeliveries":1210,"Ġwines":1211,"Ġmidd":1212,"fect":1213,"Ġperfect":1214,"Ġchoice":1215,"lly":1216,"this":1217,"Ġpop":1218,"Ġcome":1219,"english":1220,"come":1221,"Ġmiddle":1222,"Ġcheeses":1223,"Ġtypic":1224,"Ġcostumer":1225,"Ġlike":1226,"moderate":1227,"pect":1228,"Ġpublic":1229,"Ġhead":1230,"im":1231,"style":1232,"cale":1233,"Ġcaters":1234,"all":1235,"Ġear":1236,"lu":1237,"llar":1238,"Ġcheaply":1239,"Ġpopular":1240,"ons":1241,"Ġpay":1242,"Ġeating":1243,"Ġlitt":1244,"next":1245,"Ġpoint":1246,"Ġdollar":1247,"Ġdelivers":1248,"Ġlittle":1249,"azing":1250,"clu":1251,"orth":1252,"customers":1253,"Ġro":1254,"Ġfar":1255,"although":1256,"sit":1257,"Ġthem":1258,"Ġamazing":1259,"Ġroad":1260,"indian":1261,"est":1262,"ffer":1263,"Ġvalue":1264,"Ġfu":1265,"Ġgot":1266,"moderately":1267,"kir":1268,"yes":1269,"Ġstarting":1270,"Ġplea":1271,"Ġfeatu":1272,"Ġearn":1273,"Ġdollars":1274,"kirts":1275,"ain":1276,"ps":1277,"skirts":1278,"eal":1279,"Ġoutskirts":1280,"ices":1281,"Ġexpect":1282,"ople":1283,"Ġearned":1284,"Ġbad":1285,"red":1286,"Ġmay":1287,"ross":1288,"Ġspend":1289,"situated":1290,"Ġfull":1291,"Ġpe":1292,"Ġhad":1293,"ately":1294,"Ġacross":1295,"scale":1296,"Ġid":1297,"Ġlook":1298,"chinese":1299,"looking":1300,"Ġstart":1301,"Ġupscale":1302,"iri":1303,"Ġbit":1304,"Ġeven":1305,"Ġservices":1306,"Ġdes":1307,"Ġspiri":1308,"Ġclass":1309,"Ġdoesn":1310,"Ġspecializ":1311,"Ġpeople":1312,"Ġspirits":1313,"ner":1314,"ose":1315,"art":1316,"Ġlocal":1317,"Ġopen":1318,"ag":1319,"Ġrates":1320,"Ġhome":1321,"Ġfriends":1322,"average":1323,"ack":1324,"pite":1325,"ub":1326,"Ġaway":1327,"Ġsli":1328,"Ġgr":1329,"let":1330,"ick":1331,"Ġdon":1332,"offer":1333,"wh":1334,"Ġinclu":1335,"Ġboth":1336,"fort":1337,"Ġreally":1338,"ghtly":1339,"offering":1340,"Ġinclud":1341,"ian":1342,"use":1343,"eaut":1344,"Ġother":1345,"Ġworth":1346,"iful":1347,"Ġdist":1348,"Ġspecializes":1349,"Ġslightly":1350,"eautiful":1351,"ori":1352,"uit":1353,"Ġfan":1354,"ative":1355,"Ġbeautiful":1356,"uth":1357,"Ġyet":1358,"Ġserver":1359,"coffee":1360,"Ġsele":1361,"unately":1362,"Ġtypically":1363,"Ġfeaturing":1364,"Ġideal":1365,"fortunately":1366,"Ġent":1367,"Ġasian":1368,"Ġunfortunately":1369,"Ġplease":1370,"'ll":1371,"not":1372,"us":1373,"ames":1374,"Ġhere":1375,"Ġcould":1376,"Ġbeca":1377,"Ġbecause":1378,"along":1379,"ost":1380,"Ġsm":1381,"Ġsom":1382,"Ġshould":1383,"tions":1384,"Ġoptions":1385,"Ġusu":1386,"ener":1387,"Ġthose":1388,"verages":1389,"Ġtop":1390,"Ġsmall":1391,"try":1392,"Ġnight":1393,"Ġhamb":1394,"Ġhaving":1395,"ront":1396,"Ġeuro":1397,"Ġhamburg":1398,"out":1399,"ance":1400,"ating":1401,"Ġmone":1402,"Ġscore":1403,"Ġmoney":1404,"..":1405,"only":1406,"Ġlovely":1407,"ful":1408,"front":1409,"tty":1410,"Ġapp":1411,"Ġpers":1412,"Ġoutlet":1413,"Ġgener":1414,"Ġlowly":1415,"Ġfav":1416,"Ġpretty":1417,"Ġperson":1418,"'.":1419,"down":1420,"ank":1421,"het":1422,"Ġchar":1423,"ores":1424,"ark":1425,"Ġstop":1426,"Ġplaced":1427,"Ġquick":1428,"kids":1429,"Ġaw":1430,"Ġsee":1431,"Ġmost":1432,"Ġscores":1433,"Ġranked":1434,"Ġusually":1435,"ces":1436,"les":1437,"Ġfur":1438,"Ġovera":1439,"Ġsh":1440,"Ġwit":1441,"Ġstore":1442,"Ġspag":1443,"ong":1444,"Ġcostly":1445,"Ġfruit":1446,"Ġsits":1447,"Ġsited":1448,"Ġlocate":1449,"hetti":1450,"Ġoverall":1451,"Ġspaghetti":1452,".,":1453,"per":1454,"welcom":1455,"ates":1456,"stand":1457,"Ġrestaurants":1458,"Ġwhat":1459,"cafÃ©":1460,"Ġservers":1461,"fter":1462,"Ġfo":1463,"Ġlea":1464,"Ġoutstand":1465,"Ġspot":1466,"Ġsure":1467,"Ġamong":1468,"Ġfurther":1469,"Ġoutstanding":1470,"city":1471,"visit":1472,"coho":1473,"Ġalcoho":1474,"check":1475,"Ġdespite":1476,"acks":1477,"Ġhamburgers":1478,"her":1479,"king":1480,"led":1481,"enta":1482,"enjoy":1483,"Ġok":1484,"Ġsea":1485,"Ġbank":1486,"Ġevery":1487,"Ġmat":1488,"Ġwide":1489,"Ġcentra":1490,"Ġbracket":1491,"Ġreg":1492,"Ġsuper":1493,"Ġoffered":1494,"Ġneat":1495,"Ġeats":1496,"Ġreviewed":1497,"ards":1498,"Ġselection":1499,"welcome":1500,"ental":1501,"ging":1502,"onder":1503,"rating":1504,"te":1505,"Ġages":1506,"Ġafter":1507,"Ġpr":1508,"Ġsa":1509,"Ġaren":1510,"Ġwonder":1511,"room":1512,"resh":1513,"restaurant":1514,"Ġbeverages":1515,"Ġplus":1516,"tastic":1517,"Ġdinner":1518,"Ġallows":1519,"Ġfantastic":1520,"Ġgenerally":1521,"00":1522,"ip":1523,"of":1524,"rt":1525,"Ġsn":1526,"Ġriverfront":1527,"Ġmight":1528,"hout":1529,"Ġshort":1530,"vel":1531,"Ġdue":1532,"Ġmany":1533,"akes":1534,"Ġoriental":1535,"Ġheart":1536,"Ġprem":1537,"Ġspecializing":1538,"Ġcomes":1539,"Ġtypical":1540,"Ġsomew":1541,"Ġwithout":1542,"ave":1543,"cil":1544,"ele":1545,"pub":1546,"ves":1547,"yled":1548,"Ġ4":1549,"Ġrel":1550,"ities":1551,"uton":1552,"Ġfacil":1553,"Ġperm":1554,"Ġopened":1555,"Ġsnacks":1556,"no":1557,"Ġage":1558,"Ġpro":1559,"Ġhold":1560,"Ġnow":1561,"Ġcurrent":1562,"Ġrestroom":1563,"Ġwelcomed":1564,"Ġviews":1565,"while":1566,"Ġship":1567,"Ġwonderful":1568,"Ġrelative":1569,"tit":1570,"rict":1571,"tain":1572,"Ġnone":1573,"oups":1574,"Ġeast":1575,"Ġlies":1576,"Ġconsumer":1577,"Ġunfriendly":1578,"Ġdistrict":1579,"Ġalcohol":1580,"Ġcurrently":1581,"are":1582,"ire":1583,"ning":1584,"Ġauth":1585,"Ġnames":1586,"Ġluton":1587,"ents":1588,"entic":1589,"entele":1590,"ors":1591,"ort":1592,"Ġtasty":1593,"Ġneed":1594,"quality":1595,"families":1596,"Ġwhose":1597,"Ġord":1598,"Ġacc":1599,"itted":1600,"Ġthemed":1601,"Ġdistance":1602,"Ġfavori":1603,"Ġsuperb":1604,"Ġpermitted":1605,"Ġauthentic":1606,"bp":1607,"eed":1608,"xim":1609,"Ġcli":1610,"Ġfree":1611,"Ġpart":1612,"Ġle":1613,"Ġlun":1614,"Ġmakes":1615,"Ġgave":1616,"Ġcheaper":1617,"Ġthats":1618,"vious":1619,"Ġtasting":1620,"Ġsuited":1621,"Ġsouth":1622,"imed":1623,"Ġcentrally":1624,"Ġrestrooms":1625,"Ġrelatively":1626,"Ġfavorite":1627,"free":1628,"found":1629,"gin":1630,"iet":1631,"uch":1632,"odest":1633,"Ġmark":1634,"Ġmuch":1635,"Ġmodest":1636,"Ġstand":1637,"Ġstyled":1638,"Ġquiet":1639,"Ġnorm":1640,"cts":1641,"Ġbuy":1642,"Ġspecial":1643,"Ġprevious":1644,"arded":1645,"Ġgrub":1646,"Ġincludes":1647,"Ġseafood":1648,"Ġpremium":1649,"ions":1650,"lentele":1651,"pa":1652,"su":1653,"ure":1654,"Ġclentele":1655,"odu":1656,"Ġsay":1657,"Ġhi":1658,"Ġlight":1659,"Ġmain":1660,"Ġthir":1661,"Ġthames":1662,"app":1663,"ching":1664,"pper":1665,"Ġgreater":1666,"Ġupper":1667,"Ġbus":1668,"Ġjoin":1669,"Ġcompe":1670,"Ġappro":1671,"Ġleave":1672,"',":1673,"be":1674,"cre":1675,"mp":1676,"sive":1677,"Ġfeed":1678,"Ġtak":1679,"Ġsear":1680,"Ġlu":1681,"Ġmust":1682,"Ġwere":1683,"Ġshops":1684,"Ġnote":1685,"Ġste":1686,"Ġplaces":1687,"adult":1688,"ways":1689,"Ġlist":1690,"Ġclassic":1691,"when":1692,"Ġentire":1693,"Ġfond":1694,"Ġprodu":1695,"Ġholds":1696,"Ġorder":1697,"Ġlunch":1698,"Ġthirty":1699,"cy":1700,"des":1701,"hing":1702,"met":1703,"ng":1704,"north":1705,"sing":1706,"Ġfresh":1707,"Ġedge":1708,"Ġmoder":1709,"Ġmind":1710,"Ġmake":1711,"Ġwon":1712,"Ġsuch":1713,"Ġsite":1714,"Ġfalls":1715,"Ġalways":1716,"Ġincluding":1717,"Ġcharges":1718,"Ġbanks":1719,"Ġregarded":1720,"pared":1721,"Ġcompetit":1722,"despite":1723,"con":1724,"find":1725,"ired":1726,"ved":1727,"Ġred":1728,"Ġfun":1729,"Ġbite":1730,"Ġinside":1731,"Ġme":1732,"Ġgour":1733,"Ġchain":1734,"Ġaveraged":1735,"tern":1736,"Ġwhen":1737,"Ġplates":1738,"Ġfall":1739,"Ġexclu":1740,"Ġgroups":1741,"oriented":1742,"Ġselect":1743,"Ġmature":1744,"Ġsearching":1745,"Ġlux":1746,"Ġgourmet":1747,"Ġexclusive":1748,"bring":1749,"even":1750,"io":1751,"rner":1752,"up":1753,"uce":1754,"Ġz":1755,"ery":1756,"Ġfew":1757,"ans":1758,"Ġavera":1759,"Ġpos":1760,"Ġrather":1761,"Ġscale":1762,"review":1763,"Ġcorner":1764,"eep":1765,"Ġwar":1766,"Ġwal":1767,"Ġany":1768,"Ġgra":1769,"Ġstill":1770,"Ġatt":1771,"ething":1772,"Ġyoung":1773,"Ġrecent":1774,"Ġambi":1775,"Ġsomething":1776,"Ġsomewhere":1777,"Ġfacility":1778,"Ġsteps":1779,"Ġreduce":1780,"iocre":1781,"Ġaveraging":1782,"reviewed":1783,"Ġreduced":1784,"cri":1785,"five":1786,"ible":1787,"ips":1788,"prov":1789,"sp":1790,"Ġ2":1791,"Ġcra":1792,"erri":1793,"Ġtag":1794,"Ġterri":1795,"Ġaimed":1796,"eals":1797,"eaway":1798,"iness":1799,"Ġlic":1800,"Ġchips":1801,"umers":1802,"lax":1803,"Ġstay":1804,"Ġwhy":1805,"ensed":1806,"Ġrelax":1807,"Ġuns":1808,"Ġmediocre":1809,"Ġknow":1810,"Ġtowards":1811,"Ġprepared":1812,"Ġprovided":1813,"Ġcomp":1814,"Ġfancy":1815,"Ġokay":1816,"Ġlevel":1817,"Ġstandard":1818,"Ġtakeaway":1819,"Ġproducts":1820,"Ġcompetitive":1821,"Ġzone":1822,"Ġlicensed":1823,"ds":1824,"din":1825,"eu":1826,"ege":1827,"ghe":1828,"hn":1829,"iz":1830,"ish":1831,"just":1832,"ked":1833,"lf":1834,"oeu":1835,"Ġate":1836,"Ġap":1837,"Ġaverages":1838,"esome":1839,"Ġpur":1840,"ster":1841,"ides":1842,"iding":1843,"Ġsur":1844,"Ġhors":1845,"Ġblo":1846,"Ġinto":1847,"Ġloves":1848,"Ġcoll":1849,"Ġcook":1850,"Ġcoup":1851,"Ġwin":1852,"Â£.":1853,"Ġgbp":1854,"oun":1855,"ory":1856,"level":1857,"self":1858,"Ġrage":1859,"Ġday":1860,"Ġdeals":1861,"ton":1862,"Ġsorry":1863,"Ġrep":1864,"Ġass":1865,"Ġreceiving":1866,"Ġwelcoming":1867,"Ġdoor":1868,"Ġbetter":1869,"Ġgoing":1870,"ade":1871,"Ġaltern":1872,"Ġgives":1873,"Ġbreakfasts":1874,"Ġscored":1875,"Ġapprov":1876,"Ġaware":1877,"Ġawesome":1878,"Ġrecently":1879,"Ġterrible":1880,"ghest":1881,"oeuv":1882,"Ġblock":1883,"Ġcollege":1884,"go":1885,"gs":1886,"hat":1887,"ist":1888,"ied":1889,"me":1890,"ses":1891,"town":1892,"Ġcam":1893,"ern":1894,"Ġtend":1895,"enities":1896,"right":1897,"Ġpar":1898,"Ġbill":1899,"Ġmar":1900,"Ġthing":1901,"Ġwor":1902,"Ġgu":1903,"oup":1904,"Ġchines":1905,"Ġstarts":1906,"priate":1907,"coring":1908,"Ġuse":1909,"Ġneigh":1910,"Ġyourself":1911,"Ġdiner":1912,"Ġamenities":1913,"Ġcatering":1914,"Ġboasting":1915,"uitable":1916,"Ġseeking":1917,"Ġfruits":1918,"Ġeveryone":1919,"Ġsomewhat":1920,"Ġproxim":1921,"Ġmarket":1922,"Ġnormal":1923,"Ġhighest":1924,"Ġselections":1925,"Ġgrab":1926,"providing":1927,"dining":1928,"Ġappe":1929,"ount":1930,"Ġalternative":1931,"Ġmargin":1932,"Ġproximity":1933,"aving":1934,"fin":1935,"fresh":1936,"having":1937,"iring":1938,"less":1939,"nce":1940,"sed":1941,"uc":1942,"erts":1943,"ertain":1944,"Ġfee":1945,"Ġpat":1946,"ince":1947,"cep":1948,"Ġprince":1949,"Ġsold":1950,"Ġindi":1951,"receiv":1952,"Ġext":1953,"Ġmy":1954,"Ġmade":1955,"Ġhight":1956,"Ġcasu":1957,"ary":1958,"Ġchester":1959,"look":1960,"Ġnoodles":1961,"prices":1962,"Ġpolic":1963,"Ġnorthern":1964,"Ġwilling":1965,"Ġgoes":1966,"Ġdelica":1967,"Ġdiffer":1968,"Ġexceed":1969,"commod":1970,"cies":1971,"Ġupw":1972,"Ġjohn":1973,"Ġdowntown":1974,"unning":1975,"Ġaccep":1976,"Ġaccommod":1977,"tional":1978,"Ġuni":1979,"Ġmatch":1980,"Ġfacilities":1981,"Ġneeds":1982,"Ġbusiness":1983,"Ġappropriate":1984,"Ġfondue":1985,"Ġwarm":1986,"Ġcouples":1987,"Ġwinery":1988,"Ġassort":1989,"Ġcasual":1990,"Ġchesterton":1991,"Ġpolicy":1992,"Ġdelicacies":1993,"Ġdifferent":1994,"ace":1995,"als":1996,"aint":1997,"bes":1998,"bed":1999,"back":2000,"crow":2001,"de":2002,"ft":2003,"gain":2004,"ggs":2005,"ptional":2006,"sy":2007,"ug":2008,"Ġfit":2009,"Ġtr":2010,"Ġtap":2011,"Ġtim":2012,"Ġimp":2013,"amous":2014,"Ġpic":2015,"Ġpark":2016,"Ġsame":2017,"Ġscoring":2018,"Ġsince":2019,"Ġhapp":2020,"Ġlet":2021,"Ġloved":2022,"Ġmin":2023,"Ġmood":2024,"Ġwron":2025,"Ġwall":2026,"rons":2027,"Ġkeep":2028,"Ġwaterfront":2029,"Ġplay":2030,"Ġpairing":2031,"nearby":2032,"jacent":2033,"Ġsupp":2034,"alth":2035,"within":2036,"Ġdefin":2037,"tiz":2038,"Ġexceptional":2039,"itely":2040,"Ġheard":2041,"Ġhealth":2042,"Ġamount":2043,"Ġsoft":2044,"Ġchop":2045,"Ġdecently":2046,"pected":2047,"Ġtheme":2048,"Ġdescri":2049,"Ġinclude":2050,"Ġhamburger":2051,"Ġsaid":2052,"Ġspecialty":2053,"Ġfeedback":2054,"Ġattra":2055,"spired":2056,"Ġcraving":2057,"Ġunsuitable":2058,"Ġappetiz":2059,"Ġfeel":2060,"Ġpatrons":2061,"Ġupwards":2062,"Ġwrong":2063,"Ġdefinitely":2064,"'ve":2065,"bs":2066,"ding":2067,"gbp":2068,"lb":2069,"med":2070,"nic":2071,"que":2072,"round":2073,"sant":2074,"uri":2075,"want":2076,"Ġfish":2077,"Ġtea":2078,"Ġopp":2079,"stro":2080,"vers":2081,"Ġsoup":2082,"Ġhis":2083,"Ġint":2084,"Ġinter":2085,"liar":2086,"reat":2087,"Ġlot":2088,"Ġcool":2089,"Ġcond":2090,"Ġmom":2091,"Ġmee":2092,"utation":2093,"ury":2094,"aps":2095,"Ġpup":2096,"Ġgain":2097,"lare":2098,"Ġkind":2099,"Ġstree":2100,"Ġstunning":2101,"ises":2102,"Ġdate":2103,"ulous":2104,"Ġspace":2105,"Ġbeverage":2106,"Ġbegin":2107,"inexpensive":2108,"Ġbistro":2109,"Ġtastes":2110,"Ġuk":2111,"Ġquaint":2112,"ctive":2113,"ctory":2114,"Ġgetting":2115,"Ġdish":2116,"ĠĠĠĠ":2117,"Ġhear":2118,"Ġliked":2119,"Ġconsumers":2120,"veniently":2121,"Ġchoose":2122,"Ġentries":2123,"Ġmostly":2124,"Ġaccess":2125,"Ġclient":2126,"Ġnormally":2127,"Ġbusy":2128,"Ġmoderated":2129,"conveniently":2130,"Ġluxury":2131,"Ġwalking":2132,"Ġambiance":2133,"Ġstaying":2134,"Ġpurch":2135,"Ġreputation":2136,"Ġapproval":2137,"oeuvres":2138,"ucive":2139,"receiving":2140,"beside":2141,"Ġtapas":2142,"Ġtime":2143,"Ġwallet":2144,"Ġpairings":2145,"Ġhealthy":2146,"Ġdescribed":2147,"Ġappetizers":2148,"Ġconducive":2149,"Ġstreet":2150,"ase":2151,"burg":2152,"bulous":2153,"dine":2154,"don":2155,"ex":2156,"haps":2157,"kn":2158,"ple":2159,"ten":2160,"erling":2161,"Ġtod":2162,"Ġpres":2163,"inity":2164,"ination":2165,"Ġsim":2166,"Ġsoups":2167,"Ġbel":2168,"Ġinspired":2169,"its":2170,"ited":2171,"itive":2172,"take":2173,"reme":2174,"Ġever":2175,"Ġeggs":2176,"Ġlots":2177,"Ġmil":2178,"Ġmis":2179,"Ġthin":2180,"Ġshow":2181,"they":2182,"esserts":2183,"Ġjapan":2184,"ording":2185,"laimed":2186,"Ġsterling":2187,"Ġeasy":2188,"Ġrave":2189,"icinity":2190,"other":2191,"Ġdesserts":2192,"respected":2193,"Ġvicinity":2194,"Ġspor":2195,"Ġadjacent":2196,"osite":2197,"stars":2198,"Ġfabulous":2199,"Ġlocates":2200,"Ġaffordably":2201,"Ġalongside":2202,"Ġdelivery":2203,"Ġenjoyed":2204,"Ġbread":2205,"Ġbuild":2206,"Ġsatisfactory":2207,"Ġspecialises":2208,"Ġscen":2209,"theres":2210,"ested":2211,"Ġpleasant":2212,"Ġspending":2213,"Ġclassy":2214,"Ġentertain":2215,"Ġusual":2216,"Ġeurope":2217,"Ġcharging":2218,"Ġcentral":2219,"Ġregular":2220,"Ġsafe":2221,"Ġaccording":2222,"ximately":2223,"Ġclients":2224,"Ġapproximately":2225,"Ġmeans":2226,"Ġluxuri":2227,"Ġpositive":2228,"Ġextreme":2229,"crowne":2230,"uga":2231,"Ġpicnic":2232,"Ġopposite":2233,"Ġaccessible":2234,"known":2235,"Ġtoday":2236,"Ġbeluga":2237,"Ġextremely":2238,"50":2239,"bor":2240,"ek":2241,"fer":2242,"good":2243,"gges":2244,"hood":2245,"ie":2246,"ier":2247,"lea":2248,"ming":2249,"oor":2250,"past":2251,"poor":2252,"rd":2253,"ude":2254,"vid":2255,"Ġ:":2256,"Ġcant":2257,"Ġfry":2258,"any":2259,"Ġta":2260,"Ġtreat":2261,"ather":2262,"Ġach":2263,"ample":2264,"ests":2265,"Ġput":2266,"Ġpick":2267,"Ġold":2268,"omic":2269,"Ġsod":2270,"Ġsing":2271,"eared":2272,"Ġba":2273,"Ġla":2274,"Ġequ":2275,"Ġecon":2276,"entated":2277,"Ġmix":2278,"peci":2279,"Ġresides":2280,"llo":2281,"Ġgla":2282,"Ġgeared":2283,"ither":2284,"Ġboard":2285,"Ġchildless":2286,"Ġbargain":2287,"Ġdest":2288,"Ġbeat":2289,"Ġgreek":2290,"Ġcotton":2291,"Ġaddition":2292,"Ġplate":2293,"Ġsugges":2294,"Ġofferings":2295,"three":2296,"Ġsitting":2297,"great":2298,"starred":2299,"ties":2300,"Ġdelight":2301,"Ġvisiting":2302,"Ġperhaps":2303,"Ġdrinking":2304,"reason":2305,"Ġdisapp":2306,"ĠĠĠ":2307,"Ġorientated":2308,"Ġsoon":2309,"Ġwanting":2310,"Ġprefer":2311,"costing":2312,"Ġspecialising":2313,"Ġcoming":2314,"Ġfeature":2315,"Ġfavor":2316,"Ġfocu":2317,"Ġalcoholic":2318,"Ġpremises":2319,"tains":2320,"tained":2321,"Ġacclaimed":2322,"sushi":2323,"Ġposs":2324,"Ġwalk":2325,"Ġambient":2326,"Ġcooks":2327,"Ġneighbor":2328,"Ġindivid":2329,"Ġassorted":2330,"Ġinterested":2331,"Ġmoment":2332,"Ġmeet":2333,"Ġpurchase":2334,"Ġmiss":2335,"Ġthink":2336,"Ġjapaneses":2337,"Ġeuropean":2338,"leave":2339,"poorly":2340,"Ġachie":2341,"Ġeconomic":2342,"Ġglass":2343,"Ġdestination":2344,"Ġdisappo":2345,"Ġindividu":2346,"35":2347,"ava":2348,"cc":2349,"clare":2350,"ep":2351,"famous":2352,"gry":2353,"hi":2354,"ia":2355,"mark":2356,"ny":2357,"over":2358,"ping":2359,"pas":2360,"rate":2361,"rum":2362,"sho":2363,"ters":2364,"ues":2365,"vice":2366,"yippee":2367,"eres":2368,"Ġrun":2369,"Ġfines":2370,"Ġte":2371,"Ġtri":2372,"Ġtrave":2373,"enny":2374,"ried":2375,"head":2376,"hello":2377,"Ġpenny":2378,"Ġob":2379,"styled":2380,"ceive":2381,"Ġnative":2382,"omis":2383,"Ġhan":2384,"Ġhun":2385,"Ġbear":2386,"Ġback":2387,"Ġarra":2388,"Ġoften":2389,"iting":2390,"table":2391,"Ġrivers":2392,"Ġeither":2393,"ently":2394,"ention":2395,"Ġma":2396,"Ġmere":2397,"Ġtheres":2398,"hool":2399,"Ġwent":2400,"Ġanother":2401,"Ġshopping":2402,"Ġcar":2403,"Ġcare":2404,"Ġhard":2405,"Ġgather":2406,"ouri":2407,"asting":2408,"astro":2409,"Ġindiana":2410,"around":2411,"rainbow":2412,"tled":2413,"rown":2414,"Ġwatermans":2415,"Ġsteep":2416,"ments":2417,"Ġattit":2418,"Ġform":2419,"ised":2420,"Ġdear":2421,"Ġdeal":2422,"Ġvary":2423,"Ġbeans":2424,"Ġprovider":2425,"Ġstarred":2426,"Ġsicilian":2427,"Ġwhit":2428,"Ġrefresh":2429,"Ġreceive":2430,"Ġcostumers":2431,"than":2432,"Ġespeci":2433,"quisit":2434,"Ġdec":2435,"Ġnorthw":2436,"Ġexquisit":2437,"familiar":2438,"boasting":2439,"Ġoverlooking":2440,"Ġdiners":2441,"adults":2442,"Ġexcellently":2443,"Ġvisited":2444,"Ġopin":2445,"Ġenjoying":2446,"Ġgiving":2447,"Ġbreads":2448,"Ġpastas":2449,"Ġcatered":2450,"Ġspec":2451,"ranged":2452,"Ġvarious":2453,"Ġschool":2454,"Ġtypes":2455,"Ġfeatured":2456,"Ġmaybe":2457,"Ġdesired":2458,"Ġspecialized":2459,"lete":2460,"icks":2461,"....":2462,"Ġcharge":2463,"Ġleaves":2464,"ratings":2465,"Ġprof":2466,"Ġmainly":2467,"singly":2468,"Ġmodern":2469,"Ġanyone":2470,"Ġcompany":2471,"Ġcomplete":2472,"Ġsurpri":2473,"Ġsurround":2474,"Ġblocks":2475,"Ġtends":2476,"Ġguests":2477,"Ġneighbo":2478,"Ġaccept":2479,"Ġaccommodate":2480,"Ġunique":2481,"Ġunivers":2482,"Ġimpress":2483,"Ġsupplies":2484,"burger":2485,"Ġmiles":2486,"Ġentertainment":2487,"Ġluxurious":2488,"Ġequally":2489,"Ġmixed":2490,"Ġsuggest":2491,"shop":2492,"Ġfinest":2493,"Ġhungry":2494,"Ġarray":2495,"Ġattitude":2496,"Ġespecially":2497,"Ġexquisite":2498,"Ġsurrounding":2499,"Ġuniversity":2500,"10":2501,"ber":2502,"based":2503,"bank":2504,"bited":2505,"can":2506,"ches":2507,"day":2508,"exp":2509,"equ":2510,"giv":2511,"has":2512,"have":2513,"ily":2514,"ise":2515,"ious":2516,"non":2517,"pop":2518,"rom":2519,"sest":2520,"udi":2521,"vents":2522,"wine":2523,"Ġcre":2524,"Ġrd":2525,"Ġru":2526,"Ġfamous":2527,"ath":2528,"ations":2529,"rimp":2530,"Ġact":2531,"Ġaudi":2532,"hed":2533,"estled":2534,"Ġpea":2535,"Ġpra":2536,"Ġpiz":2537,"eak":2538,"eally":2539,"Ġcup":2540,"endy":2541,"Ġsiz":2542,"Ġsample":2543,"Ġhost":2544,"Ġbough":2545,"Ġbas":2546,"Ġrive":2547,"Ġaromis":2548,"Ġlar":2549,"Ġlacks":2550,"Ġind":2551,"lis":2552,"Ġriverbank":2553,"rees":2554,"rect":2555,"Ġemer":2556,"Ġevents":2557,"Ġmo":2558,"Ġmer":2559,"Ġmak":2560,"ute":2561,"Ġway":2562,"Ġwish":2563,"Ġans":2564,"Ġshot":2565,"people":2566,"ilet":2567,"their":2568,"Ġcal":2569,"Ġpubs":2570,"Ġgri":2571,"Ġgastro":2572,"Ġgrown":2573,"oud":2574,"rop":2575,"ĠcafÃ©ter":2576,"umber":2577,"Ġcheep":2578,"Ġstu":2579,"Ġstat":2580,"Ġrough":2581,"Ġtoilet":2582,"Ġeagles":2583,"Ġforget":2584,"Ġdid":2585,"Ġpricier":2586,"Ġpass":2587,"Ġclosest":2588,"Ġadequ":2589,"Ġsub":2590,"Ġbig":2591,"coming":2592,"thing":2593,"Ġgoods":2594,"Ġestablishments":2595,"Ġeaten":2596,"Ġfact":2597,"Ġoverpriced":2598,"Ġdirect":2599,"Ġtakeout":2600,"Ġenjoys":2601,"higher":2602,"centre":2603,"unfriendly":2604,"service":2605,"Ġcombo":2606,"cheaply":2607,"Ġranking":2608,"Ġperfectly":2609,"Ġpaying":2610,"Ġexpected":2611,"Ġentrees":2612,"usa":2613,"outside":2614,"Ġgeneral":2615,"Ġcharming":2616,"Ġquickly":2617,"Ġshrimp":2618,"Ġamongst":2619,"Ġregion":2620,"Ġproud":2621,"Ġsale":2622,"Ġprohi":2623,"Ġleg":2624,"Ġmodestly":2625,"Ġstandards":2626,"Ġsays":2627,"Ġhist":2628,"Ġtaking":2629,"Ġordered":2630,"Ġfreshly":2631,"Ġwont":2632,"Ġfalling":2633,"Ġattention":2634,"Ġrelaxed":2635,"Ġcooked":2636,"Ġapproved":2637,"oeuvre":2638,"Ġparents":2639,"Ġparties":2640,"freshly":2641,"Ġexceeding":2642,"Ġaccepts":2643,"Ġassortment":2644,"Ġhappy":2645,"Ġhappen":2646,"Ġminors":2647,"Ġattracts":2648,"expect":2649,"Ġsports":2650,"Ġscenic":2651,"pasta":2652,"Ġolder":2653,"Ġbaby":2654,"reasonably":2655,"Ġfavorable":2656,"Ġfocused":2657,"Ġpossible":2658,"Ġdisappoint":2659,"Ġindividuals":2660,"Ġtell":2661,"Ġtrip":2662,"Ġtraveling":2663,"Ġobtained":2664,"Ġrefreshments":2665,"Ġimpressive":2666,"Ġsurroundings":2667,"express":2668,"given":2669,"Ġaudience":2670,"Ġpraised":2671,"Ġpizza":2672,"Ġhosts":2673,"Ġbought":2674,"Ġmaking":2675,"ĠcafÃ©teria":2676,"Ġtoilets":2677,"Ġprohibited":2678,"'m":2679,"--":2680,"ari":2681,"ale":2682,"also":2683,"air":2684,"afforda":2685,"after":2686,"brea":2687,"cing":2688,"cur":2689,"car":2690,"cal":2691,"do":2692,"dy":2693,"ded":2694,"ey":2695,"ean":2696,"eur":2697,"fan":2698,"fore":2699,"fic":2700,"from":2701,"gan":2702,"got":2703,"gative":2704,"ground":2705,"icated":2706,"ibly":2707,"luton":2708,"my":2709,"min":2710,"more":2711,"oid":2712,"par":2713,"peri":2714,"sat":2715,"sion":2716,"tures":2717,"uring":2718,"void":2719,"where":2720,"yor":2721,"your":2722,"zy":2723,"Ġ6":2724,"Ġ;":2725,"ĠĊ":2726,"Ġ-Â£":2727,"Ġcate":2728,"Ġcele":2729,"Ġcertain":2730,"erate":2731,"erran":2732,"erican":2733,"Ġfin":2734,"Ġfront":2735,"Ġflare":2736,"Ġfried":2737,"Ġtouri":2738,"atters":2739,"aturing":2740,"Ġice":2741,"enance":2742,"rive":2743,"Ġali":2744,"Ġabs":2745,"Ġavoid":2746,"ams":2747,"american":2748,"estern":2749,"east":2750,"inary":2751,"Ġow":2752,"Ġore":2753,"Ġoth":2754,"stenance":2755,"cellent":2756,"Ġnestled":2757,"Ġnumber":2758,"Ġcute":2759,"ended":2760,"named":2761,"Ġsol":2762,"Ġsens":2763,"Ġsad":2764,"Ġsca":2765,"Ġher":2766,"Ġranting":2767,"Ġbath":2768,"Ġrich":2769,"Ġfamiliar":2770,"Ġares":2771,"Ġlate":2772,"Ġland":2773,"Ġliv":2774,"Ġlack":2775,"Ġinc":2776,"Ġinv":2777,"Ġincre":2778,"Ġinfamous":2779,"iterran":2780,"ided":2781,"Ġareas":2782,"Ġedi":2783,"Ġeffe":2784,"Ġcore":2785,"Ġcour":2786,"Ġcoast":2787,"Ġcoffe":2788,"Ġcous":2789,"Ġmile":2790,"eemed":2791,"Ġanti":2792,"ffers":2793,"ĠÂ£,":2794,"ĠÂ£.":2795,"apes":2796,"Ġresult":2797,"antic":2798,"ilst":2799,"ilar":2800,"veyor":2801,"veral":2802,"Ġlowest":2803,"dic":2804,"olute":2805,"area":2806,"arant":2807,"Ġcheat":2808,"lain":2809,"Ġcheapest":2810,"ored":2811,"raja":2812,"Ġstro":2813,"Ġsteak":2814,"Ġraving":2815,"ically":2816,"oth":2817,"Ġhouses":2818,"Ġdeemed":2819,"pping":2820,"Ġcrowd":2821,"Ġcrowds":2822,"Ġcuisines":2823,"Ġpal":2824,"Ġmills":2825,"Ġsort":2826,"Ġzizzis":2827,"Ġplatters":2828,"ounds":2829,"pricey":2830,"Ġref":2831,"Ġrem":2832,"Ġsuperi":2833,"Ġsustenance":2834,"featuring":2835,"ales":2836,"Ġseveral":2837,"Ġbeefeaters":2838,"Ġnegative":2839,"Ġescar":2840,"Ġgreatly":2841,"Ġquid":2842,"Ġquali":2843,"Ġreviewers":2844,"Ġinexpensively":2845,"ctrum":2846,"Ġdele":2847,"Ġmediterran":2848,"Ġlocale":2849,"Ġexc":2850,"Ġexist":2851,"Ġoverlook":2852,"join":2853,"Ġbesides":2854,"Ġvisitors":2855,"Ġoperate":2856,"Ġdisc":2857,"Ġdiscri":2858,"Ġenjoyable":2859,"ously":2860,"Ġbuck":2861,"Ġhel":2862,"Ġconsist":2863,"Ġspectrum":2864,"Ġsatisfied":2865,"unity":2866,"Ġcont":2867,"Ġcontains":2868,"ranch":2869,"ranked":2870,"costs":2871,"Ġchoices":2872,"Ġvaried":2873,"Ġscener":2874,"Ġbrings":2875,"Ġbringing":2876,"Ġwouldn":2877,"Ġcomm":2878,"Ġcompared":2879,"Ġmiddling":2880,"Ġlikely":2881,"imum":2882,"Ġpoints":2883,"Ġfusion":2884,"Ġpleased":2885,"Ġbadly":2886,"Ġideally":2887,"Ġbites":2888,"Ġevening":2889,"Ġdeserts":2890,"Ġgroup":2891,"Ġgrapes":2892,"Ġenter":2893,"Ġgenerated":2894,"Ġfavored":2895,"Ġawful":2896,"Ġawarded":2897,"Ġseek":2898,"Ġseems":2899,"Ġwitch":2900,"Ġleast":2901,"Ġafterno":2902,"Ġprams":2903,"Ġsausa":2904,"Ġnowhere":2905,"Ġorders":2906,"Ġclientele":2907,"Ġpartner":2908,"Ġlunches":2909,"Ġmaintains":2910,"being":2911,"Ġclassics":2912,"Ġproduces":2913,"Ġminded":2914,"Ġexclusively":2915,"Ġanything":2916,"Ġanywhere":2917,"Ġ23":2918,"Ġpurveyor":2919,"Ġreport":2920,"Ġthings":2921,"Ġwork":2922,"Ġguarant":2923,"Ġindia":2924,"Ġextra":2925,"Ġtrendy":2926,"Ġminimum":2927,"Ġplayground":2928,"Ġsupport":2929,"Ġintended":2930,"Ġgains":2931,"Ġgained":2932,"Ġkinds":2933,"Ġbeginning":2934,"Ġhearty":2935,"excellent":2936,"Ġpresti":2937,"Ġsimilar":2938,"Ġsporting":2939,"Ġbuilding":2940,"Ġscene":2941,"Ġregularly":2942,"Ġtab":2943,"Ġsoda":2944,"Ġsodas":2945,"Ġsingle":2946,"Ġsingles":2947,"Ġlaid":2948,"Ġbargains":2949,"Ġadditionally":2950,"Ġpreferred":2951,"Ġneighborhood":2952,"Ġachieved":2953,"available":2954,"Ġhandic":2955,"Ġnorthwest":2956,"Ġopinion":2957,"Ġspecif":2958,"Ġsurprisingly":2959,"Ġneighbour":2960,"popular":2961,"Ġcream":2962,"Ġruns":2963,"Ġactiv":2964,"Ġpeace":2965,"Ġbasic":2966,"Ġlarge":2967,"Ġindeed":2968,"Ġemerging":2969,"Ġcalm":2970,"Ġstatus":2971,"Ġadequate":2972,"Ġlegal":2973,"Ġhistori":2974,"Ġdisappointed":2975,"affordable":2976,"fancy":2977,"minating":2978,"turesque":2979,"Ġceleb":2980,"Ġcertainly":2981,"Ġtourist":2982,"Ġalike":2983,"Ġabsolute":2984,"Ġothers":2985,"Ġsadly":2986,"Ġbathroom":2987,"Ġincredi":2988,"Ġeffective":2989,"Ġcourse":2990,"Ġcoffees":2991,"Ġcousin":2992,"Ġsuperior":2993,"Ġescargot":2994,"Ġmediterranean":2995,"Ġoverlooks":2996,"Ġdiscriminating":2997,"Ġscenery":2998,"Ġafternoon":2999,"Ġabsolutely":3000,"'d":3001,",,":3002,".'":3003,".Â£":3004,"19":3005,"32":3006,"33":3007,"99":3008,"aff":3009,"act":3010,"abo":3011,"bu":3012,"ban":3013,"but":3014,"bar":3015,"british":3016,"best":3017,"both":3018,"cular":3019,"cery":3020,"ctable":3021,"due":3022,"drink":3023,"dents":3024,"drop":3025,"ees":3026,"eggs":3027,"fit":3028,"fare":3029,"fair":3030,"gn":3031,"ger":3032,"gory":3033,"gious":3034,"hist":3035,"ilies":3036,"ires":3037,"ksh":3038,"kfast":3039,"lust":3040,"liness":3041,"linary":3042,"mpe":3043,"mal":3044,"most":3045,"mari":3046,"nit":3047,"nice":3048,"ope":3049,"oon":3050,"pan":3051,"ply":3052,"place":3053,"pons":3054,"pounds":3055,"phist":3056,"rant":3057,"rough":3058,"so":3059,"shes":3060,"sons":3061,"sides":3062,"scoring":3063,"suitable":3064,"sily":3065,"tes":3066,"ted":3067,"tic":3068,"trada":3069,"tite":3070,"tradition":3071,"ull":3072,"vate":3073,"vor":3074,"ware":3075,"ym":3076,"ying":3077,"yling":3078,"čĊ":3079,"Ġod":3080,"Ġur":3081,"erves":3082,"Ġrood":3083,"Ġrom":3084,"Ġrid":3085,"Ġrear":3086,"Ġfame":3087,"Ġfla":3088,"Ġfitzb":3089,"Ġfour":3090,"ansive":3091,"another":3092,"Ġtur":3093,"Ġtable":3094,"Ġtad":3095,"Ġtran":3096,"Ġtakes":3097,"Ġtuc":3098,"ati":3099,"atisf":3100,"Ġimpe":3101,"ene":3102,"rity":3103,"Ġable":3104,"Ġaffor":3105,"Ġactive":3106,"Ġahead":3107,"amazing":3108,"among":3109,"esting":3110,"Ġpol":3111,"inting":3112,"inspired":3113,"stop":3114,"sticks":3115,"gether":3116,"ington":3117,"Ġrater":3118,"Ġratting":3119,"Ġcut":3120,"Ġculinary":3121,"Ġpried":3122,"Ġpriori":3123,"Ġprime":3124,"Ġprimari":3125,"Ġprivate":3126,"verthe":3127,"Ġsw":3128,"Ġhat":3129,"Ġhope":3130,"earning":3131,"Ġblow":3132,"Ġbare":3133,"Ġlend":3134,"Ġlast":3135,"Ġlay":3136,"Ġlad":3137,"Ġinst":3138,"itch":3139,"tacular":3140,"lie":3141,"reco":3142,"recommend":3143,"Ġetho":3144,"Ġlose":3145,"Ġlong":3146,"Ġcove":3147,"Ġmild":3148,"Ġmeat":3149,"Ġthrough":3150,"utes":3151,"house":3152,"Ġwat":3153,"Ġwhe":3154,"Ġwhet":3155,"Ġwise":3156,"ffes":3157,"Ġouter":3158,"Ġouting":3159,"Ġyear":3160,"Â£-":3161,"urpas":3162,"Ġshoo":3163,"Ġshores":3164,"Ġreser":3165,"Ġresults":3166,"Ġrespons":3167,"antly":3168,"theast":3169,"themed":3170,"Ġnoise":3171,"Ġcast":3172,"lling":3173,"Ġgod":3174,"Ġgro":3175,"Ġgate":3176,"Ġgar":3177,"Ġgas":3178,"Ġgrea":3179,"Ġglis":3180,"Ġgym":3181,"esses":3182,"essment":3183,"ession":3184,"Ġchill":3185,"vels":3186,"rocious":3187,"Ġfastfood":3188,"dishes":3189,"Ġservic":3190,"new":3191,"lets":3192,"Ġkey":3193,"Ġkitch":3194,"Ġboats":3195,"rally":3196,"dget":3197,"Ġnoted":3198,"Ġnotch":3199,"Ġnothing":3200,"Ġexpansive":3201,"Ġwaterside":3202,"Ġstake":3203,"Ġsticks":3204,"Ġstaff":3205,"Ġstyling":3206,"nsider":3207,"ryout":3208,"set":3209,"Ġattained":3210,"Ġatrocious":3211,"Ġtoy":3212,"Ġtoast":3213,"Ġtogether":3214,"Ġeach":3215,"Ġeasily":3216,"icult":3217,"icular":3218,"iske":3219,"otic":3220,"Ġdra":3221,"Ġdrop":3222,"Ġdrive":3223,"Ġspent":3224,"Ġspite":3225,"Ġspoon":3226,"Ġproves":3227,"Ġbecome":3228,"Ġbecoming":3229,"Ġbeware":3230,"tons":3231,"ively":3232,"Ġpunters":3233,"Ġvaries":3234,"Ġvalu":3235,"Ġones":3236,"zizzis":3237,"Ġolives":3238,"Ġbaked":3239,"Ġwhine":3240,"Ġwhiske":3241,"ethn":3242,"ensales":3243,"umpington":3244,"bies":3245,"Ġadv":3246,"Ġadded":3247,"cker":3248,"iraffes":3249,"Ġcritic":3250,"mber":3251,"mbing":3252,"Ġtherefore":3253,"Ġrequ":3254,"Ġremark":3255,"Ġsuffers":3256,"cond":3257,"consider":3258,"blem":3259,"Ġfrance":3260,"fortable":3261,"Ġsevers":3262,"Ġsecond":3263,"compan":3264,"Ġune":3265,"Ġuser":3266,"Ġneverthe":3267,"that":3268,"Ġest":3269,"Ġestablis":3270,"Ġvenues":3271,"ified":3272,"oks":3273,"Ġtrying":3274,"Ġfinding":3275,"Ġpocket":3276,"Ġdone":3277,"Ġdogs":3278,"Ġnortheast":3279,"Ġready":3280,"Ġreasons":3281,"tim":3282,"Ġmedian":3283,"Ġlocating":3284,"Ġlocals":3285,"Ġexample":3286,"Ġexact":3287,"Ġexotic":3288,"well":3289,"ourable":3290,"Ġdinning":3291,"Ġmenus":3292,"Ġdiet":3293,"akey":3294,"adent":3295,"adjacent":3296,"Ġalbe":3297,"Ġalmost":3298,"reasingly":3299,"Ġdisco":3300,"Ġ--":3301,"Ġbreaking":3302,"Ġbuds":3303,"Ġexperien":3304,"Ġorgan":3305,"Ġpastries":3306,"Ġlik":3307,"Ġlim":3308,"Ġsophist":3309,"Ġsettings":3310,"Ġwants":3311,"centrally":3312,"Ġsatisfying":3313,"riversides":3314,"Ġspecials":3315,"Ġvibe":3316,"Ġviewed":3317,"open":3318,"Ġchopping":3319,"Ġaccompan":3320,"Ġbudgets":3321,"Ġconsidering":3322,"Ġconsiderable":3323,"Ġunable":3324,"Ġcomfort":3325,"Ġcomensales":3326,"Ġcomfortable":3327,"type":3328,"Ġranks":3329,"Ġearns":3330,"Ġearth":3331,"Ġfarm":3332,"Ġfares":3333,"sited":3334,"sitter":3335,"Ġgotten":3336,"Ġpleasing":3337,"Ġlooks":3338,"Ġdeserves":3339,"Ġclassified":3340,"averagely":3341,"Ġgrand":3342,"why":3343,"whilst":3344,"Ġfans":3345,"Ġbeautifully":3346,"Ġentree":3347,"Ġshouldn":3348,"outs":3349,"...":3350,"Ġappear":3351,"Ġappeal":3352,"Ġfavouri":3353,"Ġseem":3354,"Ġfurnit":3355,"welcoming":3356,"Ġfoe":3357,"Ġfool":3358,"Ġleaving":3359,"visiting":3360,"Ġeveryday":3361,"Ġprom":3362,"Ġpermits":3363,"Ġproblem":3364,"Ġclimbing":3365,"Ġparticular":3366,"Ġlevels":3367,"Ġtastings":3368,"Ġmarks":3369,"Ġmarked":3370,"Ġspecialties":3371,"Ġluck":3372,"Ġstellar":3373,"Ġfondues":3374,"Ġmoderates":3375,"Ġcompetitor":3376,"Ġmeant":3377,"Ġgrade":3378,"sport":3379,"Ġ21":3380,"Ġ24":3381,"Ġcrazy":3382,"Ġcracker":3383,"Ġrelaxing":3384,"Ġunsatisf":3385,"Ġunsurpas":3386,"Ġcompetitively":3387,"ized":3388,"Ġcoupled":3389,"Ġdays":3390,"Ġassessment":3391,"Ġworry":3392,"Ġworse":3393,"Ġworld":3394,"Ġguest":3395,"Ġuseful":3396,"Ġappetite":3397,"received":3398,"Ġaccommodations":3399,"crown":3400,"Ġfits":3401,"Ġtrue":3402,"Ġtrumpington":3403,"Ġimprove":3404,"Ġpicturesque":3405,"Ġparking":3406,"Ġminutes":3407,"Ġkeeping":3408,"Ġchopsticks":3409,"Ġattraction":3410,"Ġattractive":3411,"medium":3412,"Ġinteresting":3413,"Ġgaining":3414,"Ġpurchased":3415,"burgers":3416,"Ġpresently":3417,"Ġsimply":3418,"Ġmilksh":3419,"Ġshown":3420,"Ġluxuriant":3421,"pasto":3422,"Ġtail":3423,"Ġtreats":3424,"Ġbabies":3425,"Ġlaw":3426,"Ġdelights":3427,"reasonable":3428,"Ġpossesses":3429,"Ġachieving":3430,"Ġdisappointing":3431,"Ġindividual":3432,"avalon":3433,"ccable":3434,"passing":3435,"Ġhang":3436,"Ġmaxim":3437,"Ġcarries":3438,"Ġcarryout":3439,"Ġvarying":3440,"Ġdecided":3441,"Ġdecadent":3442,"Ġnorthwestern":3443,"Ġopinions":3444,"Ġspectacular":3445,"Ġprofile":3446,"Ġprofession":3447,"Ġneighboring":3448,"Ġsizes":3449,"Ġmoved":3450,"Ġmerits":3451,"Ġgrill":3452,"Ġgrills":3453,"Ġstuff":3454,"Ġstudents":3455,"Ġroughly":3456,"Ġdidn":3457,"Ġdirectly":3458,"Ġproudly":3459,"Ġbabysitter":3460,"breakfast":3461,"curried":3462,"euros":3463,"fication":3464,"Ġcategory":3465,"Ġsensibly":3466,"Ġscare":3467,"Ġherbs":3468,"Ġlandmark":3469,"Ġlives":3470,"Ġlacklust":3471,"Ġincreasingly":3472,"Ġedible":3473,"Ġantipasto":3474,"Ġstrollers":3475,"Ġpalates":3476,"Ġrefle":3477,"Ġremain":3478,"Ġqualification":3479,"Ġexciting":3480,"Ġdiscount":3481,"Ġhelp":3482,"Ġconsistently":3483,"Ġcontin":3484,"Ġcommunity":3485,"Ġsausages":3486,"Ġguarantee":3487,"Ġprestigious":3488,"Ġhandicap":3489,"Ġspecifically":3490,"Ġactivities":3491,"Ġpeaceful":3492,"Ġhistorical":3493,"Ġcelebrating":3494,"Ġtourists":3495,"Ġbathrooms":3496,"Ġincredibly":3497,"above":3498,"budget":3499,"bargain":3500,"drinks":3501,"fairly":3502,"gnized":3503,"traditional":3504,"vorful":3505,"Ġurban":3506,"Ġromantic":3507,"Ġfamed":3508,"Ġflavorful":3509,"Ġfitzbilies":3510,"Ġturn":3511,"Ġtransport":3512,"Ġtucson":3513,"Ġimpeccable":3514,"Ġactively":3515,"Ġpolite":3516,"Ġpriority":3517,"Ġprimarily":3518,"Ġbarely":3519,"recognized":3520,"recommended":3521,"Ġethos":3522,"Ġcoveted":3523,"Ġmildly":3524,"Ġresponse":3525,"Ġgrocery":3526,"Ġgreasy":3527,"Ġglisson":3528,"Ġservicing":3529,"Ġkitchen":3530,"Ġwhiskey":3531,"ethnic":3532,"Ġcritics":3533,"Ġremarkable":3534,"considered":3535,"Ġnevertheless":3536,"Ġestablished":3537,"Ġexactly":3538,"Ġalbeit":3539,"Ġorganiz":3540,"Ġsophisticated":3541,"Ġaccompanied":3542,"Ġfavourite":3543,"Ġfurniture":3544,"Ġunsurpassed":3545,"Ġmilkshakes":3546,"Ġprofessionally":3547,"Ġlackluster":3548}