#version: 0.2 - Trained by `huggingface/tokenizers`
< |
| >
e r
Ġ <|
i n
r e
Ġ a
a t
o n
Ġ t
o r
Ġ p
m e
l a
Ġ s
l e
a s
a me
v e
Ġt h
la y
Ġ i
f or
t i
Ġ g
in g
s t
e n
er s
Ġ m
o u
d a
Ġ y
e d
p lay
Ġg ame
Ġ in
for m
r at
c ti
n t
Ġ w
le as
re leas
i r
Ġ b
Ġ n
i on
play er
n ame
Ġa n
Ġ 2
Ġth e
e a
Ġi s
Ġ c
e s
Ġ f
at ion
Ġy ou
Ġ d
o o
releas e
re s
Ġp ers
Ġp lay
Ġ o
u l
Ġ e
p e
h as
u re
Ġ2 0
g en
gen res
rat ing
Ġi t
r o
Ġpers on
a l
v er
a c
Ġan d
ir d
r i
ve nt
d vent
Ġ re
dvent ure
Ġo f
l at
l o
lat form
Ġn o
d e
a n
cti ve
Ġs t
g e
Ġp c
pe ctive
Ġin form
ul ti
ulti player
Ġ on
i t
t er
Ġ h
Ġ20 1
i e
st ation
Ġplay station
ea r
Ġ l
a i
lo p
ve lop
Ġgame s
cti on
Ġ v
latform s
p latforms
' s
Ġy es
Ġth ird
Ġa ction
Ġs h
p ers
b o
pers pective
Ġth at
Ġ for
b le
x bo
Ġ xbo
Ġxbo x
y ear
ea m
c e
Ġs i
velop er
v ai
vai la
vaila ble
Ġsh oo
a r
de veloper
a dventure
i f
Ġ (
u t
Ġshoo ter
in u
inu x
a ge
oo d
Ġg ood
o m
Ġw as
ie w
l y
m ultiplayer
or t
i c
d o
Ġ ro
Ġa ver
Ġaver age
l l
Ġa dventure
Ġ 1
Ġv iew
l d
Ġf ir
Ġe x
g h
Ġfir st
Ġsi m
p ort
Ġm ultiplayer
Ġ releas
i s
k e
e g
ou t
Ġreleas ed
rat eg
Ġw it
in t
Ġ en
Ġst rateg
le nt
Ġstrateg y
u n
r b
es rb
Ġp o
Ġro le
play ing
ri v
Ġb y
Ġsim ul
q u
Ġt o
Ġd o
Ġwit h
Ġ r
Ġs u
t h
Ġb e
Ġ20 0
Ġex ce
Ġm a
Ġexce l
Ġexcel lent
i ve
Ġh a
gh t
Ġl i
e st
Ġs port
ac ing
u s
Ġb ird
Ġt e
Ġa vailable
rat ed
Ġst eam
a vailable
st eam
Ġ me
Ġd riv
Ġdriv ing
f t
Ġin d
en do
int endo
Ġn intendo
Ġsimul ation
Ġre qu
Ġrequ est
Ġm ac
m ac
t ri
Ġpo or
Ġli ke
z z
ro m
Ġf rom
Ġl inux
l inux
Ġ rated
Ġind ie
Ġp u
9 9
on e
Ġd e
o s
ut e
c h
Ġs o
r acing
at ure
Ġno t
Ġha ve
d er
tri b
trib ute
at tribute
Ġe ver
Ġ has
Ġm ature
Ġb ut
Ġpu zz
Ġpuzz le
Ġp latform
l i
Ġplay ed
p in
pin ion
a y
t a
Ġ or
Ġg ive
Ġm o
Ġ ver
la n
Ġi i
Ġc an
Ġ out
Ġpers pective
an d
om b
Ġn e
o pinion
if y
Ġver ify
Ġ 3
al l
Ġs pe
i ght
Ġc on
Ġ1 99
Ġw or
d i
Ġre al
Ġplatform er
r y
a re
Ġever y
Ġa s
w h
Ġ rating
me nt
Ġevery one
i er
Ġte en
n d
o w
Ġ k
i a
Ġ un
Ġ201 4
Ġa b
Ġde velop
c om
e x
c al
ex p
pe c
Ġspe ed
Ġdevelop ed
Ġab out
u r
Ġsu p
er o
i g
' t
u di
ac k
c k
Ġa l
i d
Ġst udi
a nt
a m
ta in
p g
ter tain
Ġen tertain
l in
Ġ201 5
j o
Ġentertain ment
r a
Ġa re
Ġt a
me nd
Ġre com
Ġrecom mend
Ġw h
Ġ da
ar d
th e
jo y
e m
Ġen joy
ti on
Ġc h
y ou
Ġne ed
s pec
if ier
spec ifier
cti cal
s o
Ġta ctical
as s
Ġ release
Ġwor ld
wh at
ge st
Ġcon f
er e
ir m
Ġstudi os
c l
ld er
lan ation
exp lanation
Ġsu g
Ġconf irm
) .
Ġsug gest
Ġs k
Ġsi de
o re
en t
k ing
Ġf e
Ġ us
Ġh ero
a d
Ġ la
Ġan y
Ġth is
t le
Ġ1 0
t t
Ġ 4
s e
u st
Ġw ar
ti me
Ġc ry
in d
Ġmo st
m an
Ġt ur
Ġc ame
Ġr ai
Ġrai der
m p
ic k
Ġw i
s h
b all
c o
Ġdo es
Ġs c
Ġ201 6
i v
Ġa m
h o
al ly
Ġ j
b er
o l
r on
c ra
Ġpo int
cra ft
ou ld
Ġ201 1
a g
Ġa ge
Ġth in
m or
Ġsup er
cl ick
oo m
Ġthin k
t ro
Ġt omb
Ġs m
Ġm mor
Ġ201 8
Ġmmor pg
r an
Ġv i
e ll
la r
Ġtur n
as ed
it tle
Ġw on
ro ll
Ġrating s
Ġ le
Ġ201 7
at e
Ġsport s
e l
b ased
n ow
Ġt y
Ġs ing
Ġsing le
Ġj ust
ou gh
c t
Ġso ft
Ġp re
Ġp ro
Ġth ere
th er
Ġw ant
Ġk now
Ġh ack
s la
Ġ ea
Ġf ore
ai d
sla sh
Ġfore st
Ġs aid
Ġreal ly
Ġg en
u it
Ġp ay
n e
u lar
Ġon ly
Ġsimul at
Ġ lo
Ġsimulat or
g ic
Ġm ight
lan c
Ġre v
b a
at er
ta le
Ġc re
lo ad
Ġma gic
lin e
Ġyou r
' re
Ġf un
Ġl ittle
Ġsc roll
w n
Ġs e
Ġc or
Ġc om
Ġc omb
Ġe lder
Ġon e
Ġscroll s
Ġr acing
Ġsk y
Ġ200 5
m s
Ġc lanc
Ġme tro
Ġsoft w
Ġclanc y
Ġr un
Ġo ther
load ed
t ed
Ġm an
Ġt riv
Ġb i
w it
Ġ1 5
ri ver
Ġre loaded
i ll
in ball
Ġp inball
Ġs wit
Ġb ig
Ġ201 0
Ġma de
Ġhero es
Ġswit ch
Ġt ry
it e
or ation
Ġsup port
Ġla st
co on
Ġty coon
Ġa r
Ġre ce
Ġ199 9
h ic
u p
Ġplay ing
Ġcomb at
if e
Ġ z
Ġ ve
Ġal so
tt y
Ġve hic
Ġh u
n tion
Ġme ntion
Ġwant ed
Ġwar craft
Ġvehic ular
os ho
Ġrece ive
osho ck
a de
Ġreceive d
o ft
Ġmo de
m a
Ġth r
Ġd river
Ġre me
Ġ201 3
Ġm y
Ġon line
Ġn ba
Ġme an
u e
der tale
Ġpre tty
t s
y st
Ġ qu
Ġh it
Ġt i
Ġ200 9
on g
Ġin ter
Ġwor ms
Ġa ll
e t
Ġn ight
Ġmention ed
or y
Ġf ight
Ġwon der
a os
Ġro ll
Ġch aos
Ġr pg
Ġsu ch
Ġfight ing
1 6
Ġen d
Ġbe en
Ġb o
Ġgen er
n ce
Ġt r
Ġf ind
ass in
Ġcre ed
Ġo lder
ic h
Ġsoftw are
ke t
Ġlo ve
f er
Ġam ong
as h
es s
Ġh ill
ar ted
Ġfe el
Ġsm ash
uit ar
Ġbi oshock
c ket
w k
Ġm us
Ġh ear
ag ue
Ġle ague
Ġmus ic
on y
Ġth ie
Ġc at
Ġd id
Ġha wk
ch arted
Ġii i
Ġsk ater
Ġhit s
Ġthie f
r or
Ġt om
or m
Ġe le
x t
Ġf a
Ġhear d
Ġcat al
Ġ ed
ri m
Ġed ge
Ġw ol
ir ror
Ġf an
Ġ201 2
Ġtriv ia
Ġcatal yst
Ġwol f
' m
Ġte xt
Ġrev iew
i li
Ġwh ich
Ġda nce
bo ard
Ġa d
Ġs ay
le s
Ġg et
Ġshoo t
Ġr oom
p o
Ġt eam
Ġun dertale
d s
Ġ &
Ġg o
Ġd oom
Ġe mp
ri o
Ġma rio
a ve
k ed
Ġs p
is h
Ġti me
i l
le d
r k
ing s
Ġda rk
zz ard
ch er
li zzard
ig n
Ġwi ld
a ke
n ess
Ġl oo
do s
c ade
d ate
k es
for ge
Ġan ge
Ġwit cher
Ġ200 4
Ġ199 4
Ġar cade
Ġhu nt
Ġdark ness
Ġange l
i re
Ġro cket
Ġ200 1
Ġt ony
Ġd is
Ġo ver
h ave
Ġg uitar
Ġe v
Ġsi lent
Ġma d
i res
i ce
m ber
Ġdoes n
Ġreview s
Ġp ri
Ġm on
Ġw ould
Ġb lizzard
Ġst ran
Ġma kes
Ġstran ge
s is
v or
Ġthe ory
Ġk ings
Ġun charted
Ġemp ires
Ġpri me
Ġt al
Ġd ig
Ġl in
Ġas s
Ġfa vor
Ġm ass
Ġf ire
t e
Ġth ough
Ġc ar
Ġenjoy ed
' ve
o ld
Ġm irror
it al
Ġde veloper
ish ing
Ġdig ital
3 3
er man
la st
as ter
ou nd
Ġb omb
Ġc ro
Ġo k
Ġo s
Ġe th
Ġ20 33
an ishing
Ġv anishing
Ġ200 2
wh y
ron ic
Ġsm all
Ġcar ter
Ġbomb erman
Ġeth an
Ġd on
Ġso li
Ġtal king
Ġsoli d
ear li
am i
ne ed
Ġman ag
earli er
f e
in ce
Ġn a
oo t
Ġen em
Ġloo king
Ġass assin
d en
p oration
Ġn f
Ġd iv
is ion
Ġdo g
Ġcor poration
Ġsky rim
Ġfavor ite
Ġdiv ision
h ind
o x
r and
u ght
er co
ou ght
ir is
Ġb lin
gh old
Ġbe hind
Ġte mp
tri s
man dos
ho t
ron ghold
Ġlin es
Ġcro ft
Ġos iris
Ġmanag er
oot ball
Ġenem y
Ġnf l
ught y
erco aster
Ġblin d
Ġtemp le
c ent
Ġso me
Ġ199 8
Ġal one
a p
c ed
i al
Ġt oo
Ġth ought
Ġw ay
Ġsh ow
ar craft
Ġsky forge
p t
p le
u m
ve n
Ġre d
us e
Ġna ughty
c age
Ġ ri
Ġp ort
Ġli ked
res id
Ġre st
Ġev il
resid ent
b lo
p se
t or
u tion
y pse
z ation
Ġa po
lay ers
Ġi ll
st orm
ir t
Ġc iv
Ġc ell
Ġf ear
Ġsh if
if a
do wn
Ġ1 2
Ġ200 7
us ion
Ġme ier
cal ypse
lin ter
ol ution
ili zation
Ġad v
Ġsp linter
Ġshow down
tor storm
Ġapo calypse
Ġill usion
Ġciv ilization
Ġshif t
h er
y e
Ġ u
or i
da y
Ġf ar
Ġe f
b y
ou s
Ġne ver
fe ct
Ġe ye
Ġh ow
Ġpu r
Ġbo th
t o
u al
de o
an ced
Ġcry sis
Ġvi deo
Ġreme mber
Ġele ment
Ġok ay
Ġport al
h l
u ck
Ġd es
Ġl ife
Ġsh ould
Ġpay ne
b is
d ers
f are
h am
l ife
s a
s port
z ard
on ami
Ġi f
Ġf ound
Ġd ut
em ber
tt o
Ġwar fare
Ġwi zard
Ġwon ders
Ġse pt
Ġcor sa
Ġthr one
Ġdid n
Ġmon t
Ġadv anced
Ġef fect
bis oft
Ġdut y
Ġsept ember
v ers
re at
Ġg reat
ort h
Ġex p
Ġ200 0
Ġmetro id
Ġelement s
s i
s up
Ġw ell
Ġk onami
Ġu bisoft
sup er
at h
Ġe ven
Ġv al
Ġshoot ers
Ġdis li
Ġt ri
Ġo c
b ack
in a
gen d
Ġst ronghold
ar ina
Ġma x
Ġle gend
el da
Ġcom mandos
Ġz elda
Ġval ve
Ġoc arina
f ia
s uit
u ro
Ġ er
for ce
en ce
Ġy ear
Ġc o
Ġof f
ll force
Ġsim s
Ġne vers
Ġ199 3
ran sport
Ġea d
Ġpay back
ma res
Ġnight mares
Ġtr uck
Ġrest oration
Ġpur suit
ath ia
Ġer athia
Ġnevers oft
Ġ earlier
Ġte tris
Ġwi ll
ve l
Ġthe y
Ġf ri
Ġout last
Ġthr ough
Ġroll cage
k y
Ġ up
Ġ resident
re a
d y
Ġb rea
Ġf ootball
Ġh o
Ġor i
Ġroll ercoaster
Ġs en
Ġun iv
Ġreme dy
Ġgener ally
Ġbrea k
Ġuniv ers
a ctive
a ble
Ġn orth
Ġc all
Ġre vel
Ġpoor ly
ant um
Ġrev olution
Ġinter active
Ġgener al
Ġunivers e
Ġrevel ation
Ġ layers
Ġex am
Ġha d
Ġmo torstorm
Ġwh at
Ġla ra
Ġsuper hot
Ġtri ed
n o
Ġm u
Ġin to
Ġb us
Ġexam ple
p tion
li ght
Ġmad den
Ġmu ch
t al
er i
ti es
Ġw ere
Ġthe m
Ġd ia
it her
th ing
Ġcom p
Ġdia blo
b la
n am
y nam
re al
Ġs n
Ġd ynam
ri f
Ġv is
ori z
Ġdynam ic
u a
w or
Ġa ut
Ġs ac
Ġg ear
Ġthe ft
Ġe ater
Ġsi d
Ġda wn
ell bla
Ġz ero
ma x
Ġmont real
Ġoff ers
Ġsen ua
Ġsn ake
rif ice
oriz on
Ġaut o
Ġsac rifice
ellbla de
s ince
Ġd irt
it y
k s
Ġt it
Ġc al
Ġf ifa
Ġma fia
Ġstudi o
Ġfe at
ate ly
Ġexp eri
Ġfri en
c i
Ġn hl
Ġbe t
Ġwonder ing
Ġexperi ence
for t
st al
Ġte ll
Ġde cent
Ġas se
Ġda y
Ġri ght
Ġdes ign
Ġasse tto
1 7
u ri
at ed
on d
Ġf ond
Ġit s
ro p
al f
ce p
un ately
Ġgen re
Ġgo t
t d
u res
at tle
Ġt ransport
Ġth en
Ġc uri
Ġre ign
Ġl td
Ġind ia
Ġcon cep
Ġ199 0
Ġch e
Ġch ronic
Ġsc s
Ġvis ual
Ġcuri ous
Ġconcep ts
Ġchronic les
l t
u ally
Ġo ption
Ġwh y
Ġfe lt
w ay
Ġa t
ti c
ea king
Ġe ither
Ġse em
Ġcal led
Ġfrien ds
e ver
Ġe uro
Ġex pec
Ġun fort
ran k
Ġunfort unately
t om
Ġ esrb
Ġc ore
Ġf rank
Ġplay er
Ġtriv ial
Ġsupport ed
a z
Ġt in
ur t
Ġam az
Ġrun s
Ġday s
Ġamaz ing
1 9
a da
f ox
f urt
h em
i x
i ties
l oo
m are
er ic
me tro
Ġm ic
Ġw ake
Ġb ad
Ġc ities
oo f
ro se
Ġ201 9
ar y
Ġ1 4
Ġto by
Ġcan ada
Ġal lo
Ġcry te
Ġam eric
Ġpay day
Ġnight mare
Ġdynamic s
ci ent
rop rose
Ġfrank furt
loo ber
Ġmic roprose
Ġtoby fox
Ġcryte k
Ġameric an
) ,
p ic
as y
Ġb attle
res s
do w
Ġ200 8
Ġcry stal
Ġqu antum
Ġover all
f ul
Ġb ack
Ġb loober
Ġperspective s
Ġspe llforce
Ġwh en
Ġpre fer
u ter
er ri
Ġg rand
en d
Ġf use
Ġo pinion
Ġbe st
Ġmass ive
Ġfeat ures
s p
Ġc ould
Ġc ap
Ġst arcraft
Ġh orizon
mp ress
Ġdisli ke
Ġcomp uter
a ut
s y
Ġa st
as t
Ġan cient
Ġis n
us ive
Ġme tal
cl usive
way s
8 6
9 86
a dow
m er
o c
p r
s ier
Ġa nt
on ix
or ks
Ġs light
st on
Ġc e
Ġf ant
Ġplay ers
ge ham
ar re
ar sier
Ġ1 986
Ġex clusive
Ġbe ing
ack man
Ġal ways
Ġtur bo
ron aut
ct ronic
Ġsoftw orks
Ġar ts
Ġqu ite
Ġbo ston
led geham
Ġillusion s
Ġho le
Ġche ck
sy onix
Ġast ronaut
pr oof
Ġant hem
Ġslight ly
ackman ia
ledgeham mer
Ġastronaut s
Ġt arsier
Ġp latforms
Ġp syonix
la ck
Ġs ledgehammer
Ġg am
Ġb lack
Ġh ellblade
Ġbeen ox
Ġele ctronic
Ġshoot ing
Ġtit le
Ġtell tale
Ġexpec ted
l ittle
Ġs ame
al ity
Ġreleas es
ass assin
Ġinter est
Ġrpg s
Ġfire proof
Ġhow ever
v ing
Ġcon so
Ġty pic
Ġlo t
d u
o d
s s
Ġa de
nt ly
Ġn orm
ri s
Ġpuzzle s
si der
t omb
Ġg u
Ġin cl
Ġc ur
Ġof fer
Ġno w
Ġcon sider
Ġpro du
Ġsimulator s
Ġincl u
Ġcur re
f ore
j e
k ill
m ast
n ation
n ba
s em
y ro
Ġt end
Ġp yro
de mast
Ġ1 1
Ġen sem
Ġto w
Ġto ky
Ġ200 3
Ġla ck
Ġhu ds
Ġinter nation
Ġco me
sp eaking
Ġtypic ally
Ġade line
Ġnorm ally
Ġcurre ntly
demast ers
Ġensem ble
Ġtoky o
Ġhuds on
Ġinternation al
Ġ lat
Ġp ar
as e
Ġlove d
e ly
Ġs ince
Ġth an
lo re
Ġmo re
Ġco demasters
i le
Ġc ase
Ġre cent
Ġsh adow
Ġbe fore
Ġplatform ers
Ġver y
Ġqu ality
Ġover kill
' d
c a
c all
l s
u g
in al
ers ion
Ġw e
Ġh alf
ie ld
Ġdo wn
Ġme di
tt en
wor ld
Ġbet ter
mpress ed
oc re
Ġlat ely
Ġmedi ocre
f ly
o h
p ay
Ġs a
Ġn ice
Ġv ersion
Ġbe ca
Ġne w
Ġvi i
Ġfant asy
Ġgam ing
Ġinclu d
Ġbeca use
a x
b ur
b rand
f ield
Ġa lan
Ġs out
Ġg rim
Ġb arre
Ġthe ir
Ġfir ax
un dertale
ow are
Ġus ually
sh ade
Ġcre w
Ġti bur
Ġfire fly
Ġfire brand
Ġri se
Ġconso les
Ġprodu ction
pay day
Ġsout ham
Ġgrim lore
Ġbarre ls
Ġfirax is
Ġtibur on
p p
Ġin c
Ġto ld
Ġbi oware
Ġgo d
Ġcap com
r ing
t ent
Ġm ind
ai l
po int
Ġdis ap
Ġinterest ed
Ġrecent ly
Ġdisap point
m ad
le ction
Ġde t
Ġspe ct
Ġsome thing
wor ms
mad den
b us
f ar
f ifa
i lar
m ight
r u
s pe
t en
u la
Ġa g
Ġgame play
Ġre fer
an ce
Ġsim ilar
Ġma ke
Ġcan no
Ġfe ature
ular ly
Ġtr ackmania
Ġpar tic
spe llforce
Ġcanno t
b i
d irt
Ġa tten
la ra
Ġh ate
Ġsu r
th ough
Ġenjoy able
Ġmost ly
super hot
metro id
Ġdet ail
Ġrefer ring
Ġatten tion
b ru
e en
i max
k t
l la
m o
m ass
s id
t no
v ol
z ion
z ero
Ġ rat
Ġa zero
Ġs ant
Ġs yst
en imax
Ġb it
Ġ2 2
Ġ2 9
Ġc d
Ġc li
Ġsh ort
ic a
Ġex od
Ġsim ula
un e
un os
un charted
Ġwith out
Ġspe c
Ġcon tent
Ġk unos
Ġwh ile
Ġfe bru
Ġj une
Ġpro je
Ġmon ica
Ġdon tno
ous ly
Ġallo w
Ġallo ds
erri lla
Ġgu errilla
Ġconsider ed
ug ust
bi oshock
zion i
Ġazero th
Ġsant a
Ġsyst em
Ġcli max
Ġexod us
Ġsimula zioni
Ġfebru ary
Ġproje kt
Ġdontno d
c ry
g uitar
h alf
i ously
m irror
v iously
w een
Ġa w
ou nt
Ġin vol
Ġn or
Ġno thing
Ġsh o
Ġwas n
com ing
Ġz enimax
Ġad di
si lent
Ġdisli ked
Ġbet ween
Ġbattle field
Ġexclusive ly
a blo
e tto
f ootball
n hl
t riv
w arcraft
y le
Ġa ugust
la ss
Ġs ie
Ġi m
st arcraft
Ġm ere
ul l
Ġof ten
port al
Ġplatform ing
Ġmo on
di ablo
ass etto
roll ercoaster
Ġcre ated
Ġman y
Ġup coming
cry sis
triv ial
Ġmere ly
a lan
e uro
h ow
Ġt erri
Ġy et
Ġc lass
Ġf am
Ġf inal
Ġro ck
Ġr ts
Ġun i
Ġun der
ne ver
Ġcom m
Ġcomb in
Ġfa ir
Ġsa w
Ġsur p
Ġrat her
d river
h ero
i ally
m all
s ky
s mall
t ony
Ġ es
Ġs ti
ou r
ul y
ro cket
Ġre f
out last
Ġso l
pec ially
Ġtr uly
ili ar
Ġsay ing
Ġdisappoint ing
Ġallow s
Ġterri ble
Ġclass ic
Ġfam iliar
Ġcomm on
Ġsurp ris
hero es
sky forge
Ġes pecially
a b
h ellblade
z e
Ġa pp
st rateg
ea p
ri se
Ġst yle
it able
if fer
qu antum
Ġsu itable
Ġch eap
Ġse t
te tris
Ġpartic ularly
mo torstorm
strateg y
iffer ent
a lanc
i der
i dos
j a
o ber
p ite
r Ã
r um
t ransport
v ory
w ood
y er
© al
Ġ 7
in ja
me tal
Ġi vory
st ar
Ġb alanc
Ġn inja
Ġo ct
Ġe idos
Ġre call
lo by
ie st
Ġ1 6
Ġha ze
Ġal though
so l
Ġsc ary
Ġnight shade
Ġev olution
Ġred wood
Ġdes pite
Ġmont rÃ
Ġho loby
Ġtow er
Ġtow ard
lection s
Ġspect rum
Ġsho res
Ġaddi ctive
Ġim m
Ġrock star
Ġsaw yer
Ġsti ll
Ġref lections
Ġbalanc ed
Ġoct ober
Ġhaze light
ĠmontrÃ ©al
Ġholoby te
f in
n g
o ther
Ġi mpressed
st ronghold
ers ive
un ch
di d
wh en
Ġk ind
Ġab sol
com mandos
Ġwh o
Ġch ris
il ity
Ġag o
Ġsystem s
Ġsol ving
Ġimm ersive
Ġabsol ute
c es
h orizon
o me
p ly
r ackmania
t rackmania
es ome
Ġf ami
Ġe asy
Ġsim ply
Ġdevelop ers
ack ed
ron g
roll cage
Ġtit les
Ġinclud ing
Ġspec ial
Ġaw esome
Ġinvol ve
Ġfami ly
' ll
) ?
2 0
b e
c an
g rand
p s
re d
Ġa udi
Ġs ad
le ar
da nce
Ġf ull
oo ter
Ġplay s
Ġplay able
al le
ac t
Ġv ia
Ġstrateg ic
os e
Ġch alle
sh ooter
Ġsp eaking
Ġcap ab
Ġuni mpressed
Ġtoward s
Ġabsolute ly
b ing
e p
e y
l ic
w ould
er ing
in ally
Ġa ct
Ġp ick
en ces
Ġin st
ri ght
Ġma y
Ġli king
Ġor ig
Ġgive n
Ġmo ment
wh ich
Ġla unch
Ġfun ction
ma fia
ili ties
Ġloo k
Ġdown load
Ġcapab ilities
Ġact ually
Ġorig inally
c as
g od
s or
t ry
u ti
Ġ jo
or ing
en ing
Ġm ust
Ġw ish
Ġb ea
es da
th esda
Ġde fin
Ġgive s
Ġk id
Ġun us
ur ing
Ġta ke
Ġus es
Ġqu ick
Ġreview ed
les s
Ġfeat uring
Ġnew est
Ġsurpris ing
Ġaudi ences
lic ated
Ġinst ance
uti ful
Ġbea utiful
b je
c c
j er
l de
m it
n ight
o ice
p er
p re
t ing
t ally
y ing
z arre
Ġ leas
Ġ ke
er ful
Ġt ear
Ġs qu
as on
as tic
ve mber
Ġth ing
Ġth ose
ti ve
Ġg ri
releas ed
Ġb oring
Ġn ade
Ġc ri
Ġo lde
Ġre ason
Ġno vember
Ġst and
ce mber
Ġ1 3
Ġto tally
ght ening
Ġli mit
Ġind ifferent
Ġde cember
Ġ199 7
ow ering
Ġun cas
Ġab sor
Ġare n
Ġch ance
Ġch oice
Ġus ers
Ġam ount
Ġty pe
Ġse e
Ġbi zarre
ite ly
Ġemp owering
Ġover rated
Ġfri ghtening
Ġche erful
Ġseem s
Ġcome s
Ġinclud es
Ġsimilar ly
Ġshort est
Ġunder rated
ng ing
Ġinvolve s
lear n
Ġchalle nging
Ġdefin itely
Ġunus ual
jer king
night shade
pre viously
Ġleas t
Ġtear jerking
Ġsqu are
Ġnade o
Ġolde st
Ġuncas ual
Ġabsor bing
b ly
b ility
h ey
i es
er ed
re ct
at ing
Ġi mpress
Ġg ho
Ġw orth
Ġb u
Ġf re
oo l
Ġre g
Ġst ory
Ġst rong
ie ve
Ġbe thesda
Ġha ving
Ġas pec
Ġwh ere
Ġenjoy ing
Ġus e
ag ers
Ġpre viously
Ġknow s
Ġgen res
Ġcor rect
Ġcom ing
Ġmean s
Ġtr ue
Ġsp ider
Ġlin e
Ġfant astic
Ġkid s
Ġgri tty
Ġgho st
f inal
i gh
l us
p latform
v o
w ard
Ġa ble
on est
Ġp er
Ġp la
Ġg ra
Ġan other
Ġc our
Ġc ool
Ġf oc
Ġf ps
ri ve
Ġh ated
Ġh igh
Ġex c
qu ent
Ġsu bje
Ġne ither
Ġwor st
Ġteen agers
Ġtry ing
Ġhu ge
Ġfeel ing
Ġoption s
Ġexpec t
Ġinterest ing
Ġgu ess
Ġsa fe
Ġversion s
Ġcommon ly
Ġjo b
Ġfre quent
Ġline up
Ġcour se
Ġfoc us
Ġsubje ct
c has
c ount
d es
e o
l ieve
n ing
u me
u ke
w ar
Ġa dvent
Ġa vo
Ġp lus
Ġp eo
me s
Ġth ri
ti re
Ġm at
Ġb ro
Ġan no
Ġthe mes
ea l
Ġc are
Ġe as
ac ular
ge ther
it es
Ġh el
Ġl uke
ll ing
Ġview s
Ġen ough
Ġen count
Ġen tire
Ġpo si
Ġdo ing
Ġbe lieve
Ġmo des
Ġcon ven
wh ile
Ġus er
sh adow
Ġmmorpg s
Ġsupport s
Ġar ound
Ġhit man
Ġfavor ites
Ġpur chas
Ġconso le
Ġspect acular
Ġlaunch ed
Ġfrequent ly
war m
Ġadvent ures
Ġavo id
Ġpeo ple
Ġanno ying
Ġluke warm
Ġencount ered
Ġposi tive
Ġconven i
a lent
l er
n ed
p acked
r ust
Ġa cc
at ive
or ough
Ġp res
Ġp ut
le nd
Ġth orough
Ġm ulti
Ġm is
Ġm id
Ġb lend
Ġf act
Ġf rust
Ġd rive
Ġst un
if ic
is tic
Ġto gether
th ers
th ere
Ġme ant
Ġme ss
ta ctical
Ġwor k
Ġas king
com p
Ġany thing
iv alent
Ġpro ba
Ġse lection
Ġcom pe
Ġrece ption
Ġass ume
Ġsome time
Ġdisli king
Ġprefer ence
Ġlack ing
Ġspec ific
Ġke ep
Ġlimit ing
onest ly
Ġthri lling
Ġthorough ly
Ġmid d
Ġfrust rating
Ġproba bly
1 0
b lizzard
b attle
b ivalent
d ing
j or
l ust
m ing
p th
u mp
in e
Ġa vaila
Ġp acked
la x
Ġi mp
ti al
Ġg e
en s
ir ky
Ġn eg
Ġc ol
Ġd ull
Ġd ifferent
Ġre lax
Ġno stal
an other
Ġh or
Ġh old
Ġen try
Ġma jor
Ġha pp
us ing
Ġpuzz ler
Ġreal istic
are d
Ġun in
Ġal right
Ġconf using
Ġus ed
se l
Ġam bivalent
Ġqu irky
Ġfan s
Ġgo tten
Ġsome what
Ġcomp licated
Ġprefer red
sp ider
Ġoffer ing
Ġlack lust
Ġwe ird
Ġdown right
Ġmind less
Ġpartic ular
Ġinvol ving
Ġcombin e
Ġfair ly
Ġsurpris ed
Ġsad ly
Ġpick ed
Ġfunction ality
Ġsurprising ly
Ġbu y
Ġreg ularly
Ġaspec t
Ġhel p
Ġpres ent
Ġmulti ple
Ġstun ning
battle field
Ġneg ative
Ġlacklust er
a ir
b or
e ther
f f
f air
g l
h i
h ap
i st
i ac
j ust
k i
k en
n a
n y
n iac
p ut
s om
w as
re ci
at es
on gest
Ġt on
or ful
la rating
la bor
as ts
Ġi o
ti ment
ti cal
Ġg ory
Ġg oof
ing ham
Ġm aster
Ġb irm
Ġb ased
Ġb last
Ġd one
oo se
Ġo thers
Ġe pic
Ġe labor
Ġre ward
lat ed
de pth
Ġon es
ter est
Ġh e
Ġl ive
Ġl ong
Ġl ongest
Ġsi ll
do es
Ġex t
Ġex hi
lent ed
qu e
th us
Ġli k
Ġun fair
ant age
ant hem
Ġta lented
Ġwh ether
Ġch oose
Ġj ap
ol ting
Ġlo w
Ġlo ki
Ġrev olting
Ġfun ky
Ġfun ny
Ġbo ard
Ġna use
Ġadv antage
Ġu gl
Ġexp ens
Ġtri ump
Ġmax is
Ġup per
Ġsen timent
Ġvis ually
Ġcal ming
Ġfrien d
Ġgam er
Ġinclu de
Ġpar t
Ġthan ks
Ġinc re
Ġapp reci
Ġwho le
Ġcri tic
Ġcri tical
Ġimpress ive
Ġpla in
Ġbro ken
Ġeas iest
Ġconveni ent
Ġmis s
comp licated
Ġsometime s
Ġmidd le
Ġavaila bility
Ġcol orful
Ġrelax ing
Ġnostal gic
Ġunin terest
Ġweird est
som niac
Ġgoof y
Ġbirm ingham
Ġelabor ate
Ġreward ing
Ġsill iest
Ġexhi larating
Ġjap an
Ġnause ating
Ġugl iest
Ġexpens ive
Ġtriump h
Ġuninterest ing
a in
c ore
g n
g le
o f
p ed
p leas
p os
r d
u ff
Ġ ear
er en
in dow
Ġa do
Ġa tt
Ġt ea
or ding
Ġs ure
Ġs lated
Ġth ings
Ġi d
Ġm ix
da rd
Ġin somniac
Ġw rong
Ġw eren
Ġw indow
Ġb as
Ġc am
Ġf ol
Ġd ate
Ġd ug
al though
lo w
an cient
an dard
Ġst andard
Ġh ard
Ġh onestly
Ġl uck
ble m
ut ed
Ġr are
th is
Ġme mor
Ġsimulation s
Ġso on
Ġwor ks
Ġsup pos
Ġentertain ing
Ġta kes
Ġany one
Ġany way
tt ing
Ġthin king
Ġle t
Ġpro blem
Ġcom ple
Ġmention ing
Ġgo ing
il led
Ġef fort
Ġcomp ared
Ġcheck ed
Ġlack s
Ġdisappoint ed
Ġaw are
Ġaddi tion
Ġuni que
Ġcombin ed
20 0
20 1
Ġmay be
Ġcorrect ly
platform er
Ġgra b
Ġexc it
Ġentire ly
Ġpurchas e
Ġhor ror
sel f
Ġpresent ed
Ġhe ld
thus i
Ġfriend ly
Ġear ned
Ġwindow s
Ġsuppos ed
+ .
a h
a ri
b el
d d
d in
f ter
g ag
i ly
o p
p or
p ai
t unately
Ġ our
er tain
er ms
Ġa c
Ġa way
on ly
on ent
Ġt w
Ġt ra
Ġt erms
or por
me d
la in
Ġs ort
Ġth us
Ġn ame
Ġan gle
ea bility
Ġc up
Ġc ertain
Ġf la
Ġyou ng
Ġd ue
Ġd eal
Ġo wn
ro le
ac e
ri ate
Ġre de
Ġst ore
Ġst uff
Ġh ea
Ġv ari
Ġfor tunately
ar t
ar ound
ic ally
port ant
Ġen thusi
Ġen gag
Ġstrateg ies
Ġpo ten
th at
Ġma king
us h
ch ed
Ġhave n
Ġcon tro
Ġwor se
di ble
di tion
Ġevery thing
Ġas k
wh o
wh el
Ġun en
Ġun pleas
Ġal ong
id es
Ġch ar
Ġfe w
Ġus ing
ad y
Ġla bel
Ġle ts
Ġle ave
ct ed
Ġse en
Ġend ed
Ġad ul
Ġthought s
Ġexp lore
Ġexp lain
Ġho me
Ġcomp onent
Ġtell ing
rop riate
Ġgot ta
Ġgam ers
Ġconsider ing
Ġdown loaded
Ġinc orpor
Ġag ain
Ġsho t
Ġim portant
Ġunder whel
Ġcombin es
Ġapp ropriate
Ġlimit ed
Ġaspec ts
Ġper fect
Ġper hap
Ġhigh ly
Ġfocus ed
Ġmat ter
Ġacc ording
Ġcompe tent
Ġge tting
Ġhapp y
put ting
Ġlik eability
Ġincre dible
Ġappreci ate
Ġcritic s
Ġid ea
Ġbas ically
Ġcam pai
Ġexcit ed
din ary
Ġtra dition
Ġrede fin
Ġenthusi asts
Ġengag ing
Ġpoten tial
Ġunpleas ant
Ġincorpor ates
Ġperhap s
Ġcampai gn
) -
+ ,
. ,
a us
d ic
f ri
f use
g ame
h it
h onestly
i p
i ed
i ble
i ld
k er
l se
l ick
m is
m ay
m ore
m ately
n ge
o ver
p y
p es
p ie
p hic
r pg
s w
t end
u led
v iv
v ides
w d
w ere
z ed
re ady
Ġa fter
at is
on us
on na
Ġp leas
Ġp lan
Ġp ast
Ġs ong
Ġs ound
Ġs eri
le y
ti tive
Ġg r
Ġg onna
st and
st yle
Ġm one
Ġm ine
Ġb oo
Ġb are
Ġb alan
Ġb unch
Ġb onus
Ġn on
Ġan sw
Ġc lo
Ġc lear
Ġc aus
Ġc lick
Ġf all
Ġf ig
Ġf ine
Ġf illed
ation s
Ġd ated
Ġd rop
Ġo h
Ġo ld
Ġo per
Ġo dd
Ġe vent
Ġe lse
ure d
ro ve
ro ss
ge t
Ġh y
Ġh and
Ġh our
Ġfor ward
Ġwas te
Ġro ad
Ġreleas ing
Ġen h
qu ate
Ġto day
Ġr ave
Ġr ace
Ġsu cc
Ġma in
Ġme h
Ġde light
ch e
Ġso ld
Ġcon st
Ġteen s
Ġun less
Ġal mo
Ġal ready
Ġwh ose
em pt
Ġch ild
Ġla pt
Ġany more
iv ing
Ġturn s
Ġturn ed
Ġpro vides
Ġknow n
Ġlo ts
Ġlo vers
Ġscroll ing
wit h
Ġvehic le
et y
Ġfeel s
Ġcat eg
Ġwould n
Ġtal k
Ġtal ked
Ġcro wd
Ġmanag ed
Ġenem ies
Ġshow s
sport s
Ġtri ck
Ġyear s
Ġthrough out
end ly
Ġmassive ly
Ġcould n
Ġtypic al
Ġinclud ed
Ġsur viv
Ġrat e
Ġunder stand
Ġcombin ation
Ġsol ve
ab ility
Ġapp eal
Ġchalle nge
Ġlaunch ing
Ġjo in
Ġke pt
Ġstrong ly
Ġgra phic
Ġexpect ations
Ġmat ch
Ġeas ily
Ġconveni ence
Ġimp act
Ġimp rove
Ġge ts
na ughty
Ġton s
Ġmaster pie
Ġext ra
Ġado re
Ġatt empt
Ġmix ed
Ġfol low
Ġcomple te
Ġac ross
Ġtw o
Ġfla w
Ġyoung er
Ġhea ven
Ġvari ety
ush ed
Ġcontro l
Ġadul t
Ġunderwhel med
Ġtradition al
Ġredefin ed
fri endly
hit man
may be
over kill
atis f
Ġmone y
Ġbare ly
Ġbalan ce
Ġclo se
Ġfig ured
Ġhour s
Ġsucc ess
Ġalmo st
Ġlapt op
Ġsurviv al
Ġgraphic s
Ġmasterpie ce
1 99
a it
a ugust
b l
b t
b ed
b ut
b loober
c y
c ri
c ess
c uted
d on
e ye
e cuted
f ire
f illed
g ed
i or
k ay
k now
k onami
k ful
l ing
m y
n intendo
n ered
o g
o kay
p c
s ed
s ion
s ie
s ic
s ay
s um
t y
t in
t eam
t inu
t ell
u in
u de
u bisoft
v in
v ia
v ated
w is
w ap
y led
Ġ -
Ġ form
Ġ ulti
in da
re e
re n
re t
re me
re nd
at ch
at ur
at ible
Ġt ame
Ġt en
Ġt rend
or ge
or dinary
Ġs le
Ġs al
Ġs po
Ġs our
Ġs ched
Ġs atisf
Ġs wap
as te
ve s
ve y
ti l
Ġg ea
Ġg ar
Ġg orge
st ep
Ġm ar
ou bt
play station
Ġin com
Ġin tend
rat ive
Ġw ea
Ġw atch
Ġb l
Ġb ri
Ġb oot
Ġb ought
Ġb ug
Ġb ring
Ġn ear
Ġn ar
Ġn atur
ea d
es tion
Ġf it
Ġf ut
Ġf ur
Ġf ield
Ġd il
Ġd ist
Ġd oubt
oo th
Ġo bje
Ġo mis
Ġe qu
Ġit self
ro w
ro ac
ro ad
ac ter
ac ts
ri d
ri ble
ri cted
vent ed
Ġre put
lo t
Ġno vel
de velop
an ic
Ġst arted
Ġst art
it ing
Ġh ey
Ġh ating
Ġh onest
pers on
Ġfor get
Ġsi ght
if ied
Ġview ed
Ġex act
ke y
un cher
Ġpo p
Ġto p
Ġto pic
Ġbe co
Ġexce ption
Ġma ker
Ġli st
Ġme ch
Ġrequ ires
Ġlike ly
Ġde c
Ġde p
Ġde v
Ġde ci
der n
Ġhas n
li ke
ta ble
ta bly
Ġor dinary
Ġmo dern
Ġout did
and ing
Ġne xt
Ġcon vers
Ġcon sum
Ġcon tinu
Ġreal i
are ntly
Ġk inda
ia nt
Ġun hap
Ġun til
Ġab ility
Ġal ley
Ġentertain ed
ra ctive
Ġta king
Ġwh ate
joy able
you r
Ġneed ed
so me
Ġus ual
ad ed
Ġla me
Ġla uncher
Ġwi de
co demasters
Ġsm ooth
Ġle g
Ġle vel
Ġle ss
Ġpre dic
Ġpre vented
Ġpro per
Ġgen uin
Ġlo aded
Ġyour self
Ġse es
Ġother wis
Ġswitch ed
Ġar rive
Ġrece iving
Ġbo ast
Ġbo asts
Ġtr ust
Ġlove s
Ġfeel ings
Ġhear ing
Ġele vated
Ġcatal og
Ġfan cy
Ġreview ers
Ġad d
Ġad ding
Ġgo es
il s
ire d
Ġcro ss
Ġport ed
Ġrest ricted
Ġdes cri
Ġgreat ly
Ġexp anding
si de
si ble
Ġval ue
Ġho pes
Ġthem sel
Ġcomp atible
Ġdecent ly
Ġtin y
Ġamazing ly
Ġcheck ing
Ġade quate
Ġnorm al
Ġgu y
Ġoffer ed
Ġprodu ct
Ġprodu ced
Ġpar tial
Ġthan kful
Ġnice ly
Ġnew er
pp ed
Ġdisappoint ment
ru cted
Ġag es
Ġag ree
Ġfeature d
mo on
Ġallow ing
Ġallow ed
Ġaw ful
Ġcombin ing
Ġsti ck
Ġapp roac
Ġapp arently
20 16
20 10
be fore
be thesda
Ġaudi ence
act ers
Ġreason s
Ġstand s
Ġstand ing
Ġimpress ion
Ġreg ret
Ġstory line
ieve d
platform ing
Ġpla ce
Ġpla ced
Ġexc pec
Ġexc use
Ġbro thers
Ġhel ps
Ġpurchas ing
Ġpurchas ed
Ġacc ess
Ġmis step
Ġblend s
Ġmess ed
Ġcompe te
Ġcompe titive
Ġspecific ally
Ġmidd ling
Ġhor rible
Ġhold s
Ġhapp en
Ġext reme
Ġlik ability
Ġappreci ated
Ġado red
Ġatt ractive
Ġfol ks
Ġrare ly
Ġmemor y
Ġmemor ies
200 5
201 3
Ġgrab bing
Ġunen joyable
Ġchar acter
Ġchar acters
Ġleave s
game s
Ġpleas e
Ġplan ning
Ġsong s
Ġseri es
Ġgr ou
Ġboo k
Ġansw er
Ġcaus es
Ġdrop ped
Ġevent ually
Ġhy pe
Ġenh anced
Ġdelight ful
Ġconst ructed
Ġchild ren
Ġcateg ory
Ġappeal ing
Ġextra ordinary
Ġfollow ing
Ġflaw less
fire proof
Ġulti mately
Ġten ds
Ġspo ils
Ġsched uled
Ġswap s
aste ful
Ġgea red
Ġgar nered
Ġgorge ous
Ġmar ket
Ġwea k
Ġnar rative
Ġnatur ally
estion s
Ġfut ure
Ġfur ther
Ġdil uted
Ġdist asteful
Ġomis sion
Ġreput ation
develop ed
anic s
Ġbeco me
Ġmech anics
Ġdeci de
Ġconvers ation
Ġunhap py
Ġwhate ver
Ġpredic tably
Ġproper ly
Ġgenuin ely
Ġotherwis e
Ġarrive d
Ġdescri be
Ġthemsel ves
Ġthankful ly
Ġapproac h
