{"<s>":0,"<pad>":1,"</s>":2,"<unk>":3,"!":4,"\"":5,"#":6,"$":7,"%":8,"&":9,"'":10,"(":11,")":12,"*":13,"+":14,",":15,"-":16,".":17,"/":18,"0":19,"1":20,"2":21,"3":22,"4":23,"5":24,"6":25,"7":26,"8":27,"9":28,":":29,";":30,"<":31,"=":32,">":33,"?":34,"@":35,"A":36,"B":37,"C":38,"D":39,"E":40,"F":41,"G":42,"H":43,"I":44,"J":45,"K":46,"L":47,"M":48,"N":49,"O":50,"P":51,"Q":52,"R":53,"S":54,"T":55,"U":56,"V":57,"W":58,"X":59,"Y":60,"Z":61,"[":62,"\\":63,"]":64,"^":65,"_":66,"`":67,"a":68,"b":69,"c":70,"d":71,"e":72,"f":73,"g":74,"h":75,"i":76,"j":77,"k":78,"l":79,"m":80,"n":81,"o":82,"p":83,"q":84,"r":85,"s":86,"t":87,"u":88,"v":89,"w":90,"x":91,"y":92,"z":93,"{":94,"|":95,"}":96,"~":97,"¡":98,"¢":99,"£":100,"¤":101,"¥":102,"¦":103,"§":104,"¨":105,"©":106,"ª":107,"«":108,"¬":109,"®":110,"¯":111,"°":112,"±":113,"²":114,"³":115,"´":116,"µ":117,"¶":118,"·":119,"¸":120,"¹":121,"º":122,"»":123,"¼":124,"½":125,"¾":126,"¿":127,"À":128,"Á":129,"Â":130,"Ã":131,"Ä":132,"Å":133,"Æ":134,"Ç":135,"È":136,"É":137,"Ê":138,"Ë":139,"Ì":140,"Í":141,"Î":142,"Ï":143,"Ð":144,"Ñ":145,"Ò":146,"Ó":147,"Ô":148,"Õ":149,"Ö":150,"×":151,"Ø":152,"Ù":153,"Ú":154,"Û":155,"Ü":156,"Ý":157,"Þ":158,"ß":159,"à":160,"á":161,"â":162,"ã":163,"ä":164,"å":165,"æ":166,"ç":167,"è":168,"é":169,"ê":170,"ë":171,"ì":172,"í":173,"î":174,"ï":175,"ð":176,"ñ":177,"ò":178,"ó":179,"ô":180,"õ":181,"ö":182,"÷":183,"ø":184,"ù":185,"ú":186,"û":187,"ü":188,"ý":189,"þ":190,"ÿ":191,"Ā":192,"ā":193,"Ă":194,"ă":195,"Ą":196,"ą":197,"Ć":198,"ć":199,"Ĉ":200,"ĉ":201,"Ċ":202,"ċ":203,"Č":204,"č":205,"Ď":206,"ď":207,"Đ":208,"đ":209,"Ē":210,"ē":211,"Ĕ":212,"ĕ":213,"Ė":214,"ė":215,"Ę":216,"ę":217,"Ě":218,"ě":219,"Ĝ":220,"ĝ":221,"Ğ":222,"ğ":223,"Ġ":224,"ġ":225,"Ģ":226,"ģ":227,"Ĥ":228,"ĥ":229,"Ħ":230,"ħ":231,"Ĩ":232,"ĩ":233,"Ī":234,"ī":235,"Ĭ":236,"ĭ":237,"Į":238,"į":239,"İ":240,"ı":241,"Ĳ":242,"ĳ":243,"Ĵ":244,"ĵ":245,"Ķ":246,"ķ":247,"ĸ":248,"Ĺ":249,"ĺ":250,"Ļ":251,"ļ":252,"Ľ":253,"ľ":254,"Ŀ":255,"ŀ":256,"Ł":257,"ł":258,"Ń":259,"er":260,"in":261,"],":262,"at":263,"re":264,"on":265,"Ġa":266,"or":267,"me":268,"la":269,"Ġp":270,"le":271,"as":272,"ame":273,"ve":274,"Ġg":275,"lay":276,"th":277,"ti":278,"for":279,"ing":280,"Ġs":281,"Ġth":282,"en":283,"ers":284,"ou":285,"ed":286,"es":287,"Ġi":288,"čĊ":289,"nt":290,"])":291,"\",":292,"])\",":293,"rat":294,"cti":295,"Ġgame":296,"form":297,"ir":298,"leas":299,"layer":300,"releas":301,"name":302,"ion":303,"Ġh":304,"nd":305,"ar":306,"Ġis":307,"Ġy":308,"ĠS":309,"res":310,"Ġyou":311,"mu":312,"lat":313,"Ġrat":314,"ĠT":315,"oo":316,"ĠP":317,"Ġpers":318,"release":319,"pe":320,"ure":321,"Ġd":322,"20":323,"Ġgen":324,"Ġw":325,"Ġhas":326,"ĠI":327,"Ġo":328,"Ġgenres":329,"Ġb":330,"al":331,"st":332,"ĠM":333,"Ġrating":334,"Ġperson":335,"ad":336,"ver":337,"no":338,"])\",\"":339,"vent":340,"venture":341,"ird":342,"Ġand":343,"player":344,"ation":345,"ri":346,"ac":347,"Ġf":348,"Ġof":349,"ro":350,"op":351,"ctive":352,"latform":353,"pective":354,"lti":355,"multi":356,"multiplayer":357,"he":358,"Ġplatform":359,"ĠE":360,"Ġin":361,"201":362,"inform":363,"Ġthe":364,"St":365,"Ġt":366,"Ġon":367,"eve":368,"ear":369,"ie":370,"ge":371,"ai":372,"ction":373,"laySt":374,"layStation":375,"am":376,"lop":377,"evelop":378,"adventure":379,"an":380,"'s":381,"Ġrelease":382,"ter":383,".\"":384,"el":385,"ĠPC":386,"Ġplayer":387,"Ġplatforms":388,"pers":389,"perspective":390,"Ġthat":391,"yes":392,"Ġdevelop":393,"te":394,"ĠC":395,"li":396,"bo":397,"Ġgames":398,"Ġfor":399,"year":400,"ble":401,"ex":402,"Ġc":403,"Ġsh":404,"ĠIt":405,"Xbo":406,"Xbox":407,"vai":408,"vaila":409,"vailable":410,"Ġshoo":411,"Ġavailable":412,"ĠThe":413,"Ġ(":414,"ĠR":415,"Ġdeveloper":416,"ood":417,"om":418,"est":419,"ĠXbox":420,"Ġshooter":421,"ĠW":422,"Ġan":423,"Ġit":424,"ĠA":425,"Ġv":426,"ĠD":427,"iew":428,"Ġwas":429,"inu":430,"inux":431,"age":432,"Ġ201":433,"ĠL":434,"Ġplay":435,"Ġview":436,"verage":437,"ly":438,"ld":439,"gh":440,"ort":441,"irst":442,"ic":443,"eg":444,"if":445,"Ġthird":446,"ke":447,"ĠN":448,"it":449,"Ġmultiplayer":450,"Ġst":451,"Ġreleas":452,"rateg":453,"ĠH":454,"port":455,"ll":456,"rategy":457,"Ġm":458,"Ġwi":459,"Ġreleased":460,"imu":461,"PlayStation":462,"ĠPlayStation":463,"play":464,"lent":465,"imulat":466,"is":467,"Ġaction":468,"Ġstrategy":469,"action":470,"role":471,"ut":472,"playing":473,"Ġno":474,"id":475,"Ġ2":476,"?\"":477,"int":478,"riv":479,"Ġ1":480,"qu":481,"Ġby":482,"Ġwith":483,"Ġli":484,"rb":485,"esrb":486,"out":487,"end":488,"exc":489,"200":490,"ive":491,")],":492,"Ġre":493,"eam":494,"rac":495,"Ġesrb":496,"ght":497,"excel":498,"excellent":499,"good":500,"Ġto":501,"The":502,"ĠB":503,"ay":504,"racing":505,"requ":506,"request":507,"ave":508,"Ġlike":509,"Ġrole":510,"imulation":511,"tri":512,"average":513,"zz":514,"ĠSte":515,"ĠSteam":516,"steam":517,"riving":518,"dventure":519,"99":520,"io":521,"bu":522,"oor":523,"intend":524,"intendo":525,"third":526,"ft":527,"Ġbe":528,"rom":529,"Ġfrom":530,"tribu":531,"mac":532,"ĠMac":533,"tribute":534,"attribute":535,"Ġrated":536,"Ġpu":537,"ĠLinux":538,"linux":539,"Ġpuzz":540,"ch":541,"Ġpuzzle":542,"ce":543,"ature":544,"die":545,"Ġnot":546,"Ġdo":547,"and":548,"ĠG":549,"inion":550,"Ġadventure":551,"ĠV":552,"ck":553,"ĠO":554,"Ġsport":555,"one":556,"Ġfirst":557,"Ġbut":558,"lan":559,"Ġperspective":560,"Ġplayed":561,"un":562,"ĠMature":563,"ta":564,"omb":565,"give":566,"ĠF":567,"verif":568,"opinion":569,"verify":570,"first":571,"ight":572,"ĠTe":573,"et":574,"ĠII":575,"Ġ3":576,"Ġhave":577,"Ġgood":578,"ĠSt":579,"exp":580,"Ġsimulation":581,"Ġindie":582,"all":583,"ĠNintendo":584,"erta":585,"aid":586,"You":587,"Ġor":588,"Ġme":589,"up":590,"poor":591,"Ġcan":592,"ia":593,"ally":594,"very":595,"Wh":596,"ment":597,"PC":598,"ud":599,"pec":600,"ier":601,"Ġab":602,"su":603,"Ġe":604,"Ġabout":605,"ur":606,"Ġ200":607,"Ġout":608,"Ġaverage":609,"ry":610,"veryone":611,"ĠTeen":612,"ĠGame":613,"com":614,"'t":615,"Ġen":616,"bird":617,"cal":618,"Ġbird":619,"ĠEveryone":620,"ĠGames":621,"us":622,"Ġplatformer":623,"ag":624,"ow":625,"ero":626,"ĠU":627,"ĠTh":628,"udio":629,"ide":630,"ant":631,"ĠSpe":632,"ĠStudio":633,"eed":634,"Ġdeveloped":635,"jo":636,"Ġso":637,"ĠSpeed":638,"ig":639,"ind":640,"tion":641,"Ġdriving":642,"joy":643,"Ġenjoy":644,"driving":645,"mend":646,"commend":647,"ertain":648,"ntertain":649,"ĠEntertain":650,"ĠEntertainment":651,"lo":652,"gg":653,"tle":654,"irm":655,"ard":656,"Ġwh":657,"pecif":658,"ggest":659,"onf":660,"conf":661,"ĠStudios":662,"ade":663,"recommend":664,"lanation":665,"explanation":666,"suggest":667,"pecifier":668,"confirm":669,"ĠDo":670,"are":671,"Ġas":672,"Ġta":673,"PG":674,"Ġmo":675,"ack":676,"What":677,"time":678,"orm":679,"ctical":680,"sh":681,"orld":682,"Ġtactical":683,"ent":684,"oft":685,"lder":686,"king":687,"ell":688,"Ġany":689,"ron":690,"ere":691,"mp":692,"Do":693,"ĠRaid":694,"ĠRaider":695,"Ġare":696,"os":697,"Ġexcellent":698,"ther":699,"ho":700,"em":701,"ol":702,"Need":703,"199":704,"ond":705,"ust":706,"iv":707,"Ġ199":708,"Ġ2014":709,"itch":710,"ber":711,"ĠHero":712,"simulation":713,"Ġcame":714,"Ġ10":715,"lin":716,"ĠSk":717,"uper":718,"ss":719,"Ġk":720,"ass":721,"ĠWar":722,"Ġ4":723,"Ġthin":724,"If":725,"Ġthink":726,"Ro":727,"ball":728,"ould":729,"Ġdoes":730,"ra":731,"Ġal":732,"oint":733,"de":734,"Ġj":735,"lar":736,"oon":737,"ĠWorld":738,"Ġsing":739,"oom":740,"sport":741,"Ġsingle":742,"Ġfe":743,"Ġ2015":744,"ran":745,"Ġspecifier":746,"]),":747,"ittle":748,"Ġjust":749,"so":750,"raft":751,"aw":752,"Ġ2018":753,"ased":754,"Ġpoor":755,"Ġpre":756,"now":757,"urn":758,"rest":759,"Ġpoint":760,"Ġreally":761,"Ġsaid":762,"Ġknow":763,"ĠCh":764,"lick":765,"based":766,"ĠTy":767,"ast":768,"Ġratings":769,"click":770,"ak":771,"coon":772,"mber":773,"ater":774,"ĠTycoon":775,"orest":776,"tt":777,"ular":778,"ĠForest":779,"Ġonly":780,"ough":781,"etro":782,"Ġn":783,"RPG":784,"real":785,"2014":786,"Ġlo":787,"imulator":788,"lanc":789,"'re":790,"MO":791,"MORPG":792,"to":793,"Ġyour":794,"Super":795,"Ġsu":796,"Ġexp":797,"Ġturn":798,"Nintendo":799,"cro":800,"ĠWi":801,"ĠPro":802,"aded":803,"Ġcomb":804,"dge":805,"sla":806,"ĠSoft":807,"slash":808,"croll":809,"ax":810,"ĠUs":811,"orms":812,"oaded":813,"ĠScroll":814,"ĠMag":815,"ĠElder":816,"eloaded":817,"ĠClanc":818,"ĠReloaded":819,"ĠScrolls":820,"ĠMagic":821,"ĠClancy":822,"ost":823,"ĠCre":824,"se":825,"Ġone":826,"Ġmade":827,"ĠZ":828,"Ġracing":829,"ori":830,"ĠSm":831,").":832,"Ġfun":833,"ill":834,"ĠSh":835,"rating":836,"Ġother":837,"ĠRe":838,"Ġplaying":839,"Ġside":840,"ate":841,"Co":842,"oration":843,"ĠCor":844,"Ġall":845,"ance":846,"ĠPay":847,"Ġever":848,"line":849,"ot":850,"ted":851,"ntion":852,"Ġsports":853,"Ġmention":854,"ĠK":855,"tty":856,"hic":857,"Ġcombat":858,"ĠLast":859,"yst":860,"river":861,"ĠAm":862,"Ġ15":863,"ĠVI":864,"Are":865,"Sho":866,"Ġtry":867,"ioSho":868,"ioShock":869,"vehic":870,"ĠCry":871,"ĠAge":872,"Ass":873,"Ġsup":874,"BA":875,"ely":876,"Little":877,"craft":878,"vehicular":879,"ĠSoftw":880,"ct":881,"Ġthis":882,"Ġhack":883,"ĠMMORPG":884,"Ġalso":885,"ili":886,"Ġmu":887,"ĠAn":888,"Ġpretty":889,"witch":890,"Roll":891,"Ġmean":892,"Ġmode":893,"ĠYou":894,"Ġsupport":895,"inball":896,"side":897,"Ġmy":898,"ake":899,"Ġmentioned":900,"ru":901,"ory":902,"ĠOn":903,"im":904,"Ġrece":905,"Tomb":906,"ong":907,"Ġthere":908,"ĠUn":909,"onder":910,"ĠTomb":911,"eveloper":912,"Ġsuch":913,"Metro":914,"ĠEA":915,"developer":916,"Ġfeel":917,"anted":918,"ĠNight":919,"2015":920,"Ġlove":921,"ĠOnline":922,"ror":923,"Ġreal":924,"ash":925,"ĠMost":926,"ĠHit":927,"Tom":928,"Ġfind":929,"Age":930,"ilent":931,"uit":932,"atal":933,"ĠHill":934,"Ġreceive":935,"uitar":936,"ma":937,"Ġex":938,"ony":939,"ess":940,"nderta":941,"ĠRPG":942,"ife":943,"assin":944,"ĠCreed":945,"Ġreceived":946,"ndertale":947,"aos":948,"irror":949,"ĠEdge":950,"ĠCatal":951,"ĠWanted":952,"ĠAdventure":953,"ĠHaw":954,"ĠBig":955,"ĠSkater":956,"ĠChaos":957,"ĠSmash":958,"ĠHits":959,"ĠCatalyst":960,"ĠHawk":961,"vol":962,"ich":963,"Ġhear":964,"Ġgener":965,"sic":966,"loo":967,"ĠMan":968,"ĠSwitch":969,"Ġshoot":970,"fer":971,"ings":972,"Ġdid":973,"Ġheard":974,"Ġfa":975,"Ġfight":976,"Ġfan":977,"Ġfighting":978,"yp":979,"Ġsay":980,"Ġsimulator":981,"ked":982,"ont":983,"ĠHeroes":984,"ever":985,"Ġget":986,"2016":987,"old":988,"Ġ2016":989,"ĠThis":990,"rivia":991,"ĠSoftware":992,"ue":993,"ĠBe":994,"ĠSky":995,"'m":996,"2017":997,"Ġwhich":998,"platform":999,"vi":1000,"rim":1001,"Ġ2017":1002,"ne":1003,"aster":1004,"ĠTi":1005,"board":1006,"ice":1007,").\"":1008,"Worms":1009,"ĠHave":1010,"ires":1011,"ark":1012,"arted":1013,"2011":1014,"ket":1015,"Ġmost":1016,"ness":1017,"Ġ2011":1018,"16":1019,"cket":1020,"eag":1021,"erCo":1022,"ĠLeag":1023,"ĠNeed":1024,"ĠAmong":1025,"erCoaster":1026,"ĠLeague":1027,"[]),":1028,"date":1029,"specifier":1030,"unt":1031,"Ġ&":1032,"ĠEnd":1033,"ĠEmp":1034,"ief":1035,"gel":1036,"ĠRun":1037,"ĠRoom":1038,"ĠWol":1039,"ĠWitch":1040,"ĠDoom":1041,"ĠDark":1042,"ghold":1043,"ortal":1044,"ĠHunt":1045,"charted":1046,"ĠIII":1047,"ĠThief":1048,"ronghold":1049,"ĠWarcraft":1050,"ĠWild":1051,"ĠKings":1052,"ĠAngel":1053,"ĠEmpires":1054,"ĠWolf":1055,"ĠWitcher":1056,"ĠDarkness":1057,"Life":1058,"'ve":1059,"Have":1060,"Ġvehicular":1061,"nter":1062,"Ġtal":1063,"da":1064,"lizz":1065,"omm":1066,"ĠOlder":1067,"ign":1068,"lizzard":1069,"ts":1070,"ĠEn":1071,"ap":1072,"cade":1073,"ire":1074,"man":1075,"ĠTheory":1076,"Ġmak":1077,"Why":1078,"ronic":1079,"ky":1080,"ĠRo":1081,"Ġop":1082,"ĠAd":1083,"ays":1084,"Ġmakes":1085,"view":1086,"last":1087,"Ġfav":1088,"ĠDriver":1089,"Cry":1090,"NBA":1091,"car":1092,"Ġreview":1093,"Ġtalking":1094,"ep":1095,"rand":1096,"lid":1097,"Assassin":1098,"ĠInter":1099,"orite":1100,"BioShock":1101,"Ġdoesn":1102,"Max":1103,"So":1104,"ced":1105,"1999":1106,"Is":1107,"poration":1108,"ution":1109,"ĠMight":1110,"ext":1111,"Ġenjoyed":1112,"Ġ1999":1113,"ĠCorporation":1114,"volution":1115,"indie":1116,"reat":1117,"Ġwonder":1118,"ines":1119,"Ġtext":1120,"ought":1121,"add":1122,"Ġtrivia":1123,"Ġbeen":1124,"Guitar":1125,"od":1126,"Ġloo":1127,"les":1128,"lier":1129,"2005":1130,"Ġfavorite":1131,"For":1132,"Spe":1133,"ous":1134,"Ġsome":1135,"mple":1136,"oot":1137,"Ġdis":1138,"An":1139,"Undertale":1140,"Ġthought":1141,"ĠAre":1142,"ish":1143,"Mirror":1144,"um":1145,"esid":1146,"ĠSp":1147,"Ġ2005":1148,"Silent":1149,"po":1150,"Ġun":1151,"reak":1152,"use":1153,"Ġreviews":1154,"au":1155,"cage":1156,"ound":1157,"anced":1158,"ital":1159,"Ġele":1160,"own":1161,"igital":1162,"Un":1163,"blo":1164,"down":1165,"ina":1166,"orSt":1167,"forge":1168,"irt":1169,"ara":1170,"lation":1171,"ĠEvi":1172,"elda":1173,"ĠApo":1174,"ĠLeg":1175,"ĠNF":1176,"ision":1177,"Ġliked":1178,"ĠOcar":1179,"iablo":1180,"calyp":1181,"ivision":1182,"range":1183,"ĠZelda":1184,"ĠPayne":1185,"otorSt":1186,"ĠSkyrim":1187,"ĠTime":1188,"ishing":1189,"esident":1190,"ĠEvil":1191,"ĠApocalyp":1192,"ĠLegend":1193,"ĠOcarina":1194,"otorStorm":1195,"ĠApocalypse":1196,"33":1197,"Qu":1198,"eier":1199,"fare":1200,"hind":1201,"kay":1202,"lind":1203,"sir":1204,"sis":1205,"vanced":1206,"zation":1207,"Ġ20":1208,"Ġqu":1209,"erman":1210,"ince":1211,"than":1212,"arter":1213,"ario":1214,"ĠPri":1215,"ĠPinball":1216,"ĠMeier":1217,"ĠMario":1218,"roft":1219,"ĠEthan":1220,"2010":1221,"evelation":1222,"anishing":1223,"ĠCell":1224,"ĠCiv":1225,"ĠCarter":1226,"ĠCroft":1227,"ĠRevelation":1228,"ĠDut":1229,"ĠDigital":1230,"ĠDivision":1231,"ĠLines":1232,"utlast":1233,"Ġ12":1234,"ĠBomb":1235,"ĠBreak":1236,"ĠBlind":1237,"tris":1238,"andos":1239,"ĠVanishing":1240,"ĠOsir":1241,"ĠTemple":1242,"ĠStrange":1243,"ager":1244,"owdown":1245,"antum":1246,"emy":1247,"linter":1248,"ĠWarfare":1249,"ransport":1250,"ĠShowdown":1251,"ilization":1252,"ĠNightma":1253,"ĠManager":1254,"ĠBehind":1255,"ommandos":1256,"ĠEnemy":1257,"ĠAdvanced":1258,"adden":1259,"ootball":1260,"ĠSplinter":1261,"ĠNFL":1262,"Quantum":1263,"Ġ2033":1264,"ĠPrime":1265,"ĠCivilization":1266,"ĠDuty":1267,"ĠBomberman":1268,"ĠOsiris":1269,"ĠNightmares":1270,"FA":1271,"IFA":1272,"Ġdon":1273,"Ġelement":1274,"ial":1275,"Ġokay":1276,"Ġbo":1277,"Ġcon":1278,"ple":1279,"Ġreme":1280,"Tony":1281,"Ġremember":1282,"Ġshooters":1283,"Ġdidn":1284,"Ġelements":1285,"ect":1286,"ami":1287,"Ġ2010":1288,"Ġif":1289,"Ġtoo":1290,"ĠDance":1291,"RollerCoaster":1292,"World":1293,"ual":1294,"Ġlooking":1295,"ĠIs":1296,"cent":1297,"ien":1298,"ye":1299,"ghty":1300,"ĠDog":1301,"aughty":1302,"Might":1303,"Portal":1304,"orth":1305,"Ġde":1306,"Ġwell":1307,"ĠAl":1308,"EA":1309,"Ġear":1310,"ĠSo":1311,"Stronghold":1312,"Ġeye":1313,"dy":1314,"ore":1315,"Ġthough":1316,"af":1317,"mall":1318,"ties":1319,"right":1320,"Ġvide":1321,"Ġvideo":1322,"ox":1323,"llus":1324,"ĠEAD":1325,"llusion":1326,"Ġgreat":1327,"Ġse":1328,"Ġfound":1329,"Ġboth":1330,"ff":1331,"Ġshould":1332,"Small":1333,"thing":1334,"Ġyear":1335,"Ġoff":1336,"Uncharted":1337,"Ġsim":1338,"alve":1339,"Rocket":1340,"Ġgeneral":1341,"ci":1342,"medy":1343,"Ġwill":1344,"active":1345,"een":1346,"Ġr":1347,"Ġeve":1348,"onami":1349,"rated":1350,"Ġinto":1351,"Ġthem":1352,"tember":1353,"Ġwhat":1354,"eptember":1355,"ĠInteractive":1356,"Ġearlier":1357,"Ġeven":1358,"day":1359,"lack":1360,"led":1361,"Ġthey":1362,"ĠLittle":1363,"Ġdisli":1364,"Man":1365,"ĠTeam":1366,"ĠInd":1367,"Madden":1368,"able":1369,"Ġmuch":1370,"Ġexam":1371,"Sid":1372,"rough":1373,"ĠTo":1374,"rif":1375,"2013":1376,"ivers":1377,"Ġexample":1378,"Bus":1379,"Far":1380,"FIFA":1381,"HL":1382,"Lara":1383,"back":1384,"ĠTru":1385,"ĠWond":1386,"ĠNorth":1387,"etal":1388,"oriz":1389,"ĠWonders":1390,"Craft":1391,"hia":1392,"nake":1393,"rone":1394,"sa":1395,"ua":1396,"uro":1397,"vers":1398,"zard":1399,"lade":1400,"enua":1401,"rathia":1402,"arCraft":1403,"ĠSac":1404,"ĠSimulator":1405,"ĠSnake":1406,"ĠSenua":1407,"ĠPur":1408,"ĠEater":1409,"ĠEff":1410,"ĠErathia":1411,"ĠTheft":1412,"ĠRest":1413,"ĠAut":1414,"ĠDaw":1415,"ift":1416,"rivial":1417,"ayers":1418,"ĠGear":1419,"ĠFear":1420,"etto":1421,"suit":1422,"ĠThrone":1423,"hot":1424,"ĠChronic":1425,"ĠWizard":1426,"ĠZero":1427,"ĠShift":1428,"ĠRevolution":1429,"ĠCorsa":1430,"ĠPayback":1431,"Rollcage":1432,"ĠUnivers":1433,"ĠAlone":1434,"ĠSolid":1435,"afia":1436,"ĠIndia":1437,"rifice":1438,"ĠTruck":1439,"orizon":1440,"ĠSacrifice":1441,"ĠPursuit":1442,"ĠEffect":1443,"ĠRestoration":1444,"ĠAuto":1445,"ĠDawn":1446,"ĠChronicles":1447,"ĠUniverse":1448,"Diablo":1449,"blade":1450,"Ġthrough":1451,"ĠSim":1452,"Ġwould":1453,"Ġtri":1454,"ellblade":1455,"Metroid":1456,"ĠSims":1457,"Dirt":1458,"MotorStorm":1459,"Ori":1460,"Ġhad":1461,"Ġ2013":1462,"llFor":1463,"Ġmusic":1464,"ience":1465,"llForce":1466,"Call":1467,"Football":1468,"esign":1469,"music":1470,"2009":1471,"ĠThere":1472,"omp":1473,"Ġ2009":1474,"Ġtried":1475,"Transport":1476,"aking":1477,"ite":1478,"Ġar":1479,"asy":1480,"ĠWorms":1481,"2001":1482,"Mass":1483,"bis":1484,"ities":1485,"Ġat":1486,"Ġhow":1487,"ĠMont":1488,"Ġfel":1489,"ĠCities":1490,"ĠDesign":1491,"platformer":1492,"Crysis":1493,"cient":1494,"bisoft":1495,"Ġfelt":1496,"Ġ2001":1497,"Ġexper":1498,"Ġwondering":1499,"Commandos":1500,"Outlast":1501,"Resident":1502,"Te":1503,"Tetris":1504,"19":1505,"Blizzard":1506,"Pay":1507,"has":1508,"ĠIllusion":1509,"Ġoffers":1510,"Sky":1511,"tic":1512,"Ġwere":1513,"Ġover":1514,"Payday":1515,"Skyforge":1516,"Since":1517,"Ġu":1518,"Ġgot":1519,"Ġcal":1520,"Ġfeat":1521,"Ġexperience":1522,"evers":1523,"ham":1524,"ither":1525,"ome":1526,"Ġexc":1527,"attle":1528,"ately":1529,"ĠSuper":1530,"Ġgenerally":1531,"Ġrun":1532,"eversoft":1533,"ways":1534,"Ġti":1535,"erri":1536,"Ġgenre":1537,"Ġbad":1538,"2012":1539,"riend":1540,"Ġfond":1541,"StarCraft":1542,"ider":1543,"Ġup":1544,"fort":1545,"ĠMetro":1546,"Ġ2012":1547,"ĠBioShock":1548,"Superhot":1549,"SpellForce":1550,"strategy":1551,"Ġcu":1552,"2004":1553,"Ġbet":1554,"unately":1555,"Ġcalled":1556,"Ġtitle":1557,"CS":1558,"Fire":1559,"Hero":1560,"Trivial":1561,"Ġright":1562,"arcade":1563,"Ġfriend":1564,"rose":1565,"icro":1566,"ĠHo":1567,"Ġwhy":1568,"Ġalways":1569,"ĠRoll":1570,"Ġarcade":1571,"Heroes":1572,"Driver":1573,"Prose":1574,"rious":1575,"Ġ2004":1576,"Ġpoorly":1577,"Ġoption":1578,"Ġcurious":1579,"icroProse":1580,"Horizon":1581,"Re":1582,"terest":1583,"Ġche":1584,"ports":1585,"1998":1586,"Assetto":1587,"Ġexpec":1588,"Dance":1589,"Grand":1590,"ures":1591,"ooter":1592,"ĠRed":1593,"shooter":1594,"1994":1595,"Ġ1994":1596,"platforms":1597,"Ġseem":1598,"Euro":1599,"NHL":1600,"lus":1601,"Ġthen":1602,"Ġwant":1603,"cep":1604,"Ġ1998":1605,"Hellblade":1606,"Metal":1607,"mer":1608,"nam":1609,"ĠNBA":1610,"fortunately":1611,"namic":1612,"Never":1613,"gen":1614,"oncep":1615,"ledge":1616,"ĠConcep":1617,"isual":1618,"ĠBlizzard":1619,"ĠFire":1620,"Ġdecent":1621,"hammer":1622,"genres":1623,"ledgehammer":1624,"ĠConcepts":1625,"Mafia":1626,"inal":1627,"Ġback":1628,"ĠCan":1629,"ise":1630,"Ġbeing":1631,"Ġfriends":1632,"Layers":1633,"uter":1634,"ĠTony":1635,"ity":1636,"Ġprefer":1637,"Ġsimulators":1638,"Ġway":1639,"Ġits":1640,"ĠAss":1641,"omputer":1642,"ine":1643,"ork":1644,"alf":1645,"stal":1646,"Ġeither":1647,"Ġwhen":1648,"ynamic":1649,"Ġlat":1650,"ĠComputer":1651,"rack":1652,"ĠFant":1653,"ĠVII":1654,"Ġopinion":1655,"ĠFantasy":1656,"),":1657,"17":1658,"RB":1659,"SRB":1660,"mare":1661,"sier":1662,"td":1663,"zing":1664,"eric":1665,"Ġama":1666,"arsier":1667,"Ġisn":1668,"ĠTur":1669,"oof":1670,"ĠIn":1671,"ĠMass":1672,"ada":1673,"ĠESRB":1674,"ĠCE":1675,"ĠWay":1676,"ĠWake":1677,"ĠWonder":1678,"ĠLtd":1679,"Ġ14":1680,"2002":1681,"ĠOut":1682,"Ġ2002":1683,"ormally":1684,"shade":1685,"ĠReign":1686,"ĠAmeric":1687,"ĠNightmare":1688,"Mania":1689,"ĠMontreal":1690,"ĠIllusions":1691,"ĠCanada":1692,"rackMania":1693,"Ġamazing":1694,"ĠTurbo":1695,"ĠAmerican":1696,"Naughty":1697,"ix":1698,"ul":1699,"ving":1700,"ĠSilent":1701,"ress":1702,"Ġshooting":1703,"Ġquite":1704,"ality":1705,"Ġinterest":1706,"Ġtend":1707,"Ġpuzzles":1708,"Ġnormally":1709,"Ġsupported":1710,"Ġfeatures":1711,"Ġruns":1712,"Ġsame":1713,"ĠTom":1714,"Ġcould":1715,"rank":1716,"Ġoverall":1717,"Ġus":1718,"Ġgam":1719,"Ġgive":1720,"ĠMirror":1721,"ield":1722,"ĠUndertale":1723,"Ġne":1724,"Ancient":1725,"Ġexpected":1726,"Half":1727,"In":1728,"War":1729,"ause":1730,"Ġpar":1731,"lect":1732,"Ġbest":1733,"light":1734,"Ġch":1735,"ically":1736,"2007":1737,"urt":1738,"mpress":1739,"Ġlot":1740,"Warcraft":1741,"lightly":1742,"86":1743,"MMORPG":1744,"field":1745,"furt":1746,"pr":1747,"rts":1748,"Ġad":1749,"them":1750,"ĠMad":1751,"adow":1752,"Ġinc":1753,"tek":1754,"ĠArts":1755,"ĠDynamic":1756,"Ġreleases":1757,"ĠGuitar":1758,"ĠFrank":1759,"tten":1760,"ĠCrew":1761,"attlefield":1762,"lectronic":1763,"proof":1764,"ĠDynamics":1765,"ĠFrankfurt":1766,"Night":1767,"ated":1768,"Ġperspectives":1769,"Ġ2007":1770,"ĠRocket":1771,"Ġdislike":1772,"Ġcheck":1773,"Ġlately":1774,"Nightshade":1775,"Alan":1776,"Rise":1777,"TrackMania":1778,"Ġtime":1779,"Ġam":1780,"Ġbec":1781,"Speaking":1782,"lusive":1783,"Final":1784,"sider":1785,"Ġplatformers":1786,"ĠSmall":1787,"ĠUncharted":1788,"ĠRPGs":1789,"God":1790,"Konami":1791,"ase":1792,"Ġexclusive":1793,"Valve":1794,"by":1795,"du":1796,"wn":1797,"ail":1798,"Ġcome":1799,"ĠNaughty":1800,"ĠValve":1801,"ĠRemedy":1802,"September":1803,"fore":1804,"fox":1805,"ful":1806,"sy":1807,"sem":1808,"Ġvery":1809,"onix":1810,"arre":1811,"ĠSeptember":1812,"Ġplayers":1813,"ĠBost":1814,"Ġsolid":1815,"Core":1816,"loober":1817,"kyo":1818,"ĠTokyo":1819,"ĠHole":1820,"Remedy":1821,"orks":1822,"Ġbecause":1823,"byfox":1824,"syonix":1825,"semble":1826,"ĠBoston":1827,"ab":1828,"ntly":1829,"Ġtyp":1830,"ĠWould":1831,"tale":1832,"sually":1833,"elltale":1834,"Ġquality":1835,"Ġconsider":1836,"Ġlack":1837,"2018":1838,"Ġnow":1839,"urre":1840,"ĠKonami":1841,"Ġloved":1842,")])\",\"":1843,"brand":1844,"cre":1845,"hack":1846,"Ġgo":1847,"Ġtru":1848,"Ġcont":1849,"Ġmight":1850,"ĠStronghold":1851,"Ġusually":1852,"urrently":1853,"Ubisoft":1854,"ile":1855,"ring":1856,"Ġwe":1857,"Ġbefore":1858,"etail":1859,"pect":1860,"Ġnice":1861,"Ġconso":1862,"aut":1863,"cas":1864,"dio":1865,"fly":1866,"xt":1867,"ĠPortal":1868,"Ġfam":1869,"Ġtheir":1870,"text":1871,"ĠAst":1872,"Ġmature":1873,"2000":1874,"Ġmedio":1875,"Ġmore":1876,"asters":1877,"ticular":1878,"ĠAssassin":1879,"Ġgaming":1880,"Ġparticular":1881,"Ġmediocre":1882,"'d":1883,"iMax":1884,"kill":1885,"lla":1886,"nation":1887,"son":1888,"uerri":1889,"yro":1890,"eniMax":1891,"verkill":1892,"eline":1893,"Ġcase":1894,"ĠDetail":1895,"Ġ2019":1896,"Ġrefer":1897,"Ġrecent":1898,"Ġdown":1899,"udson":1900,"ronaut":1901,"emasters":1902,"axis":1903,"ĠSoftworks":1904,"app":1905,"mpressed":1906,"ttention":1907,"Ġtypically":1908,"casual":1909,"ĠAstronaut":1910,"national":1911,"uerrilla":1912,"ĠAstronauts":1913,"By":1914,"Oh":1915,"lud":1916,"ersion":1917,"Ġoffer":1918,"Ġmake":1919,"Ġtold":1920,"Ġ2000":1921,"ĠInternational":1922,"Ġbetter":1923,"Ġinclud":1924,"pinball":1925,"Ġsince":1926,"Ġversion":1927,"Ġman":1928,"2008":1929,"ĠUbisoft":1930,"lore":1931,"ĠSkyforge":1932,"ĠRollerCoaster":1933,"Neversoft":1934,"Red":1935,"ls":1936,"Ġthan":1937,"ris":1938,"Ġcom":1939,"ĠResident":1940,"ĠNeversoft":1941,"Ġrecommend":1942,"ows":1943,"1993":1944,"Ġ1993":1945,"iliar":1946,"Ġfamiliar":1947,"ilar":1948,"Ġaw":1949,"Ġpinball":1950,"Ġgameplay":1951,"ĠCommandos":1952,"Ġcurrently":1953,"ĠOutlast":1954,"ĠTetris":1955,"Ġ2008":1956,"ously":1957,"Ġunfortunately":1958,"Ġsimilar":1959,"ĠMassive":1960,"Ġnew":1961,"Ġreferring":1962,"Sh":1963,"ece":1964,"Ġhate":1965,"ary":1966,"Ġteen":1967,"ĠOri":1968,"viously":1969,"Ġinterested":1970,"Ġrecently":1971,"Shadow":1972,"Battlefield":1973,"IE":1974,"Jun":1975,"MicroProse":1976,"SCS":1977,"Ware":1978,"ten":1979,"wood":1980,"Ġl":1981,"Ġla":1982,"onic":1983,"iraxis":1984,"ĠSant":1985,"ĠSho":1986,"ĠSCS":1987,"star":1988,"ĠMonic":1989,"nod":1990,"Ġplatforming":1991,"ĠCore":1992,"Ġ29":1993,"Ġ11":1994,"ĠBarre":1995,"ioWare":1996,"buron":1997,"ckstar":1998,"ower":1999,"ĠProdu":2000,"ĠCrysis":2001,"ontnod":2002,"rimlore":2003,"ĠTiburon":2004,"apcom":2005,"Anthem":2006,"ĠRedwood":2007,"ecember":2008,"June":2009,"ĠSanta":2010,"ĠShores":2011,"ĠMonica":2012,"ĠBarrels":2013,"ĠProduction":2014,"Sports":2015,"ting":2016,"ug":2017,"ward":2018,"Ġpro":2019,"ĠSports":2020,"ĠTransport":2021,"ĠMax":2022,"ĠMicroProse":2023,"Ġmind":2024,"Ġsomething":2025,"Ġcontent":2026,"Ġconsoles":2027,"Sledgehammer":2028,"Visual":2029,"Ġbit":2030,"Ġbig":2031,"Ġterri":2032,"Ġnothing":2033,"Ġenjoyable":2034,"turn":2035,"trivia":2036,"Ġle":2037,"ĠMotorStorm":2038,"Ġoften":2039,"ĠCall":2040,"lim":2041,"Ġwithout":2042,"ĠFootball":2043,"Ġsaying":2044,"Ġuni":2045,"Ġdisliked":2046,"Ġterrible":2047,"Ear":2048,"Team":2049,"ek":2050,"pp":2051,"Ġag":2052,"Ġset":2053,"ĠSledgehammer":2054,"Ġinvol":2055,"ĠDirt":2056,"ĠDiablo":2057,"ĠLife":2058,"ĠVisual":2059,"ĠRollcage":2060,"Earlier":2061,"Tarsier":2062,"ially":2063,"Ġsyst":2064,"not":2065,"pecially":2066,"Ġabs":2067,"1990":2068,"ĠMetroid":2069,"Ġparticularly":2070,"appoint":2071,"Ġsystem":2072,"Days":2073,"ED":2074,"Fuse":2075,"available":2076,"bru":2077,"cto":2078,"ebru":2079,"jek":2080,"uno":2081,"ween":2082,"zion":2083,"Ġes":2084,"lazion":2085,"tham":2086,"though":2087,"Ġsi":2088,"outham":2089,"ĠSimu":2090,"ĠSoutham":2091,"ĠRED":2092,"ĠDays":2093,"Ġwasn":2094,"Ġ22":2095,"Ġ16":2096,"2003":2097,"ĠBus":2098,"Ġ2003":2099,"ĠProjek":2100,"Ġfair":2101,"Ġbetween":2102,"Fireproof":2103,"Ġconsidered":2104,"limax":2105,"ctober":2106,"ebruary":2107,"unos":2108,"Ġespecially":2109,"lazioni":2110,"ĠSimulazioni":2111,"ĠProjekt":2112,"Tin":2113,"hat":2114,"ng":2115,"ty":2116,"erely":2117,"ĠTarsier":2118,"ĠLara":2119,"Ġmerely":2120,"ĠFar":2121,"Ġcannot":2122,"When":2123,"Ġ1990":2124,"Ġkind":2125,"Ġfeature":2126,"Ġnor":2127,"ĠUnfortunately":2128,"Ġmostly":2129,"Ġexclusively":2130,"Been":2131,"Electronic":2132,"How":2133,"TS":2134,"yle":2135,"ĠQuantum":2136,"lection":2137,"Ġyet":2138,"ĠSid":2139,"Ġcreat":2140,"Ġ19":2141,"ĠFIFA":2142,"Ġeveryone":2143,"ĠDoes":2144,"ose":2145,"ĠAncient":2146,"Crystal":2147,"Beenox":2148,"Slightly":2149,"Ġsti":2150,"Ġswitch":2151,"our":2152,"ĠSlightly":2153,"ĠMadden":2154,"elight":2155,"Ġcomm":2156,"ĠRTS":2157,"itable":2158,"Ġstand":2159,"Ġsol":2160,"Ġsuitable":2161,"ĠCrytek":2162,"Crytek":2163,"1986":2164,"abili":2165,"Ġcreated":2166,"Ġ1986":2167,"Ġcommon":2168,"Bloober":2169,"Telltale":2170,"call":2171,"rÃ":2172,"enox":2173,"leased":2174,"ĠTin":2175,"ĠElectronic":2176,"ĠLayers":2177,"Ġrecall":2178,"unch":2179,"ĠCrystal":2180,"ĠBeenox":2181,"Ġmany":2182,"Black":2183,"Psyonix":2184,"ey":2185,"her":2186,"ating":2187,"lass":2188,"thes":2189,"nder":2190,"Ġrather":2191,"ĠMafia":2192,"nother":2193,"ĠEx":2194,"Ġtell":2195,"ĠNever":2196,"Ġ13":2197,"coming":2198,"rong":2199,"Ġdisappoint":2200,"Ġhowever":2201,"thesda":2202,"En":2203,"Overkill":2204,"Pre":2205,"az":2206,"demasters":2207,"ja":2208,"ove":2209,"ull":2210,"vory":2211,"zero":2212,"©al":2213,"Ġ7":2214,"inja":2215,"oring":2216,"Ġspe":2217,"Ġim":2218,"ĠTower":2219,"Ġdes":2220,"ĠMetal":2221,"ĠAzero":2222,"Ġstyle":2223,"ĠHow":2224,"llod":2225,"idos":2226,"quare":2227,"Ġtobyfox":2228,"ĠBattle":2229,"ĠFuse":2230,"Ġwho":2231,"Ġnever":2232,"tobyfox":2233,"Codemasters":2234,"Ġallows":2235,"rum":2236,"ĠEnsemble":2237,"odus":2238,"ĠMontrÃ":2239,"ĠHolo":2240,"ĠFireproof":2241,"ĠInc":2242,"pectrum":2243,"ugust":2244,"Ġabsol":2245,"Ġstill":2246,"ĠExodus":2247,"Ensemble":2248,"Previously":2249,"azelight":2250,"ovember":2251,"ĠAzeroth":2252,"llods":2253,"ĠMontrÃ©al":2254,"Th":2255,"ces":2256,"ually":2257,"Ġsur":2258,"ĠPsyonix":2259,"Ġplayable":2260,"iffer":2261,"ĠNHL":2262,"ĠBlack":2263,"Ġchance":2264,"Ġadd":2265,"Ġtruly":2266,"Byte":2267,"Ġunimpressed":2268,"Ġsolving":2269,"lassic":2270,"ĠHowever":2271,"ĠHoloByte":2272,"ifferent":2273,"Evolution":2274,"One":2275,"ZeniMax":2276,"red":2277,"Ġspec":2278,"ĠEuro":2279,"Ġcomp":2280,"ĠHellblade":2281,"utely":2282,"ĠBloober":2283,"mply":2284,"Ġaren":2285,"Ġtrue":2286,"Ġdownlo":2287,"Ġsimply":2288,"Ġspeaking":2289,"Ġabsolutely":2290,"Ġspecial":2291,"Ad":2292,"Attention":2293,"Can":2294,"Did":2295,"Guerrilla":2296,"Hudson":2297,"Illusion":2298,"Pyro":2299,"Sp":2300,"Would":2301,"fa":2302,"other":2303,"pite":2304,"pris":2305,"Ġapp":2306,"leng":2307,"esome":2308,"ĠTelltale":2309,"ĠPyro":2310,"Ġba":2311,"ĠEvolution":2312,"ĠAttention":2313,"Ġplays":2314,"Ġstrateg":2315,"ĠHudson":2316,"Ġliking":2317,"ĠGrand":2318,"ĠGuerrilla":2319,"acked":2320,"ĠUncasual":2321,"ĠAdeline":2322,"Uncasual":2323,"Firebrand":2324,"Firefly":2325,"ĠFirebrand":2326,"ĠFirefly":2327,"Ġawesome":2328,"Ġlaunch":2329,"Ġinvolve":2330,"Adeline":2331,"Spider":2332,"'ll":2333,"Hit":2334,"Moon":2335,"SIE":2336,"fin":2337,"mers":2338,"Ġaud":2339,"lear":2340,"Ġthose":2341,"Ġcho":2342,"Ġcap":2343,"ick":2344,"ĠHorizon":2345,"uring":2346,"ĠThough":2347,"Ġwhile":2348,"ĠZeniMax":2349,"Ġmust":2350,"Ġfeaturing":2351,"ĠAssetto":2352,"Ġgiven":2353,"Ġgives":2354,"Ġincluding":2355,"Hitman":2356,"Ġchoice":2357,"Ġcapabili":2358,"BioWare":2359,"Capcom":2360,"Hey":2361,"ming":2362,"ni":2363,"Ġleas":2364,"inally":2365,"Ġper":2366,"Ġimpressed":2367,"Ġhel":2368,"Ġfo":2369,"Ġfull":2370,"Ġvia":2371,"iting":2372,"Ġwish":2373,"Ġtoward":2374,"Which":2375,"Ġfunction":2376,"Ġunder":2377,"Ġupcoming":2378,"Ġinteresting":2379,"Ġuses":2380,"Ġcoming":2381,"Ġsystems":2382,"Ġcapabilities":2383,"Ġleast":2384,"Dontnod":2385,"December":2386,"ER":2387,"Firaxis":2388,"Grimlore":2389,"HO":2390,"PER":2391,"UPER":2392,"bj":2393,"flection":2394,"ictive":2395,"yer":2396,"Ġjo":2397,"ĠJune":2398,"Ġgu":2399,"ount":2400,"ĠSaw":2401,"ĠTrivial":2402,"Ġolder":2403,"alleng":2404,"act":2405,"Ġfami":2406,"Ġinst":2407,"Ġdevelopers":2408,"ĠCod":2409,"ĠDontnod":2410,"ĠDecember":2411,"Ġtot":2412,"ĠBattlefield":2413,"ĠGrimlore":2414,"ĠOK":2415,"ĠOverkill":2416,"ĠFiraxis":2417,"Ġeasy":2418,"tional":2419,"host":2420,"Rockstar":2421,"lanced":2422,"ĠAnthem":2423,"ĠRockstar":2424,"cary":2425,"iences":2426,"Ġtitles":2427,"Ġago":2428,"Ġdespite":2429,"Ġsurpris":2430,"Ġdownload":2431,"Ġbalanced":2432,"HOT":2433,"UPERHOT":2434,"flections":2435,"ĠSawyer":2436,"allenging":2437,"Ġfamily":2438,"ĠCodemasters":2439,")?":2440,"be":2441,"ype":2442,"enti":2443,"Ġwor":2444,"Ġboring":2445,"ĠCapcom":2446,"Ġclassic":2447,"ĠBioWare":2448,"Ġenjoying":2449,"Ġanything":2450,"Ġkid":2451,"ĠShadow":2452,"Ġlook":2453,"Ġamount":2454,"Ġstrategic":2455,"mersive":2456,"Ġaudiences":2457,"Ġtotally":2458,"Be":2459,"Kunos":2460,"aving":2461,"cc":2462,"che":2463,"cus":2464,"iti":2465,"igh":2466,"ĠJ":2467,"Ġline":2468,"Ġact":2469,"Ġpos":2470,"less":2471,"Ġthing":2472,"ĠSIE":2473,"ĠMoon":2474,"ĠDid":2475,"Ġstory":2476,"Ġmay":2477,"tain":2478,"Ġknows":2479,"Ġsubj":2480,"ility":2481,"[]),\"":2482,"Ġdefin":2483,"Massive":2484,"ĠSuperhot":2485,"Ġseems":2486,"Ġsimilarly":2487,"Ġlu":2488,"Ġinvolves":2489,"Ġfocus":2490,"Ġtowards":2491,"Ġsubject":2492,")])\",":2493,"And":2494,"CD":2495,"Climax":2496,"February":2497,"October":2498,"il":2499,"iz":2500,"vo":2501,"rect":2502,"onest":2503,"Ġanother":2504,"orrect":2505,"ason":2506,"Ġhated":2507,"Ġworth":2508,"Ġbu":2509,"Ġfar":2510,"Ġind":2511,"Ġtype":2512,"gether":2513,"eveloped":2514,"ĠCD":2515,"ĠClimax":2516,"Ġcour":2517,"Ġcorrect":2518,"ĠWh":2519,"itely":2520,"Ġstrong":2521,"Ġreason":2522,"ĠOctober":2523,"ĠFebruary":2524,"ĠStarCraft":2525,"agers":2526,"Ġmoment":2527,"1997":2528,"Ġ1997":2529,"Ġcombin":2530,"ĠMMORPGs":2531,"Ġneither":2532,"Ġjob":2533,"Ġguess":2534,"Ġinstance":2535,"Ġlineup":2536,"Ġactually":2537,"Ġdefinitely":2538,"Ġcourse":2539,"August":2540,"bing":2541,"what":2542,"ying":2543,"erally":2544,"Ġable":2545,"lain":2546,"astic":2547,"tiful":2548,"ens":2549,"enerally":2550,"Ġhigh":2551,"ool":2552,"Ġble":2553,"Ġonline":2554,"tertain":2555,"lic":2556,"Ġcare":2557,"Ġma":2558,"istic":2559,"Ġtogether":2560,"ĠBut":2561,"Ġdoing":2562,"ĠGenerally":2563,"Ġorig":2564,"sual":2565,"Ġevery":2566,"Ġentertain":2567,"ĠSpellForce":2568,"ĠReleased":2569,"ĠKunos":2570,"Ġreviewed":2571,"autiful":2572,"ĠAlthough":2573,"Ġsee":2574,"Ġoptions":2575,"Ġexpect":2576,"Ġcommonly":2577,"Ġdisappointing":2578,"Bethesda":2579,"It":2580,"PS":2581,"Square":2582,"bility":2583,"eop":2584,"ible":2585,"rust":2586,"Ġrest":2587,"ative":2588,"Ġavo":2589,"Ġgra":2590,"Ġsaf":2591,"ening":2592,"Ġhu":2593,"Ġhaving":2594,"Ġwork":2595,"ĠIf":2596,"Ġfrequ":2597,"Ġfant":2598,"Ġcri":2599,"Ġcool":2600,"Ġmis":2601,"ĠFPS":2602,"While":2603,"Ġwhere":2604,"Ġpreviously":2605,"Ġmeans":2606,"Ġfavor":2607,"eptional":2608,"Ġsomewhat":2609,"Ġconve":2610,"Ġusers":2611,"Ġamong":2612,"ably":2613,"Ġversions":2614,"Ġteenagers":2615,"Ġlaunched":2616,"Ġkids":2617,"itive":2618,"Ġpositive":2619,"onestly":2620,"Ġindifferent":2621,"Ġblend":2622,"licated":2623,"eople":2624,"Ġavoid":2625,"Ġsafe":2626,"Ġfrequent":2627,"Ġfantastic":2628,"Allods":2629,"Eidos":2630,"Hazelight":2631,"Ivory":2632,"Ninja":2633,"November":2634,"Spectrum":2635,"cin":2636,"fun":2637,"ies":2638,"jer":2639,"ttle":2640,"usual":2641,"Ġend":2642,"Ġuse":2643,"erful":2644,"interest":2645,"Ġavaila":2646,"orbing":2647,"Ġplus":2648,"ascin":2649,"thers":2650,"ingham":2651,"Ġthings":2652,"ence":2653,"Ġimpress":2654,"Ġhit":2655,"ĠSpectrum":2656,"ĠIvory":2657,"Ġold":2658,"irdest":2659,"ritty":2660,"ĠEidos":2661,"2019":2662,"earjer":2663,"liest":2664,"Ġshort":2665,"ĠAllods":2666,"ĠDeveloped":2667,"ĠNinja":2668,"ĠNovember":2669,"ites":2670,"ĠHazelight":2671,"Ġlittle":2672,"Ġreg":2673,"ĠBirm":2674,"Ġmess":2675,"adeo":2676,"Ġasking":2677,"Ġtake":2678,"Ġmod":2679,"short":2680,"mpower":2681,"Ġneed":2682,"volting":2683,"Ġgetting":2684,"aps":2685,"apan":2686,"rightening":2687,"Ġcomes":2688,"Ġgotten":2689,"Ġincludes":2690,"Ġlong":2691,"warding":2692,"There":2693,"fair":2694,"learn":2695,"Ġhelp":2696,"ĠJapan":2697,"izarre":2698,"ensive":2699,"Ġoriginally":2700,"Ġfavorites":2701,"Ġfrequently":2702,"interesting":2703,"ascinating":2704,"earjerking":2705,"ĠBirmingham":2706,"mpowering":2707,"!\"":2708,"alent":2709,"bably":2710,"ieve":2711,"ler":2712,"ned":2713,"pleas":2714,"pos":2715,"rch":2716,"whe":2717,"Ġke":2718,"Ġpeople":2719,"Ġsad":2720,"ounter":2721,"Ġhard":2722,"ĠSquare":2723,"Ġbel":2724,"ventures":2725,"rive":2726,"Ġfact":2727,"ĠWhat":2728,"Ġviews":2729,"Ġpurch":2730,"sume":2731,"ĠThat":2732,"Ġassume":2733,"ivalent":2734,"Ġalthough":2735,"ĠBethesda":2736,"Released":2737,"Ġcheap":2738,"Ġuser":2739,"Ġadventures":2740,"Ġcomple":2741,"Ġprobably":2742,"Ġinvolving":2743,"Ġfairly":2744,"Ġimmersive":2745,"Ġfunctionality":2746,"Ġunderwhe":2747,"Ġhuge":2748,"Ġmiss":2749,"Ġavailability":2750,"pleasant":2751,"Ġunderwhel":2752,"Another":2753,"Ch":2754,"Ghost":2755,"bivalent":2756,"counter":2757,"ks":2758,"over":2759,"packed":2760,"war":2761,"Ġmulti":2762,"Ġlast":2763,"mes":2764,"Ġpic":2765,"Ġpacked":2766,"asi":2767,"Ġsm":2768,"Ġsenti":2769,"Ġhonestly":2770,"art":2771,"Ġdifferent":2772,"Ġwrong":2773,"noying":2774,"acular":2775,"Ġthemes":2776,"Ġtop":2777,"Ġcam":2778,"ĠAugust":2779,"egative":2780,"kewar":2781,"ĠNo":2782,"ited":2783,"Ġmat":2784,"Ġmix":2785,"idd":2786,"que":2787,"Ġlim":2788,"Ġpuzzler":2789,"ĠGod":2790,"ĠFinal":2791,"Ġmeant":2792,"comp":2793,"Ġencounter":2794,"]),\"":2795,"Ġnegative":2796,"Ġcombines":2797,"ĠPayday":2798,"Ġtrying":2799,"Ġfeeling":2800,"new":2801,"Ġaround":2802,"Ġpreference":2803,"Ġambivalent":2804,"pectacular":2805,"Ġwhole":2806,"Ġsurprising":2807,"Ġlukewar":2808,"ĠWhile":2809,"Ġmodes":2810,"Ġbelieve":2811,"Chris":2812,"Ġsentiment":2813,"Ġencountered":2814,"Ġlukewarm":2815,"SUPERHOT":2816,"ea":2817,"haps":2818,"ist":2819,"lust":2820,"ning":2821,"ock":2822,"ption":2823,"scary":2824,"try":2825,"vorite":2826,"Ġacc":2827,"orough":2828,"Ġput":2829,"Ġgritty":2830,"tire":2831,"Ġspecif":2832,"Ġsuper":2833,"Ġscary":2834,"Ġthorough":2835,"Ġimp":2836,"Ġhold":2837,"Ġhapp":2838,"ĠSUPERHOT":2839,"Ġdrive":2840,"Ġothers":2841,"rill":2842,"rop":2843,"Ġcertain":2844,"ĠWind":2845,"challenging":2846,"tactical":2847,"Ġenough":2848,"Ġentry":2849,"Ġentire":2850,"ared":2851,"Ġaspect":2852,"Ġalright":2853,"Ġsuggest":2854,"Ġcombine":2855,"ĠReflections":2856,"Ġsupports":2857,"Ġreception":2858,"Ġfans":2859,"addictive":2860,"Ġselection":2861,"Ġdisliking":2862,"Reflections":2863,"Ġchallenging":2864,"Ġlacklust":2865,"Ġgoing":2866,"Ġconsole":2867,"Ġdownright":2868,"Ġunique":2869,"Ġstandard":2870,"Ġaddictive":2871,"favorite":2872,"cheap":2873,"Ġcritic":2874,"posed":2875,"Ġmultiple":2876,"complicated":2877,"Ġthoroughly":2878,"rilling":2879,"ĠWindows":2880,"Ġlackluster":2881,"10":2882,"Ever":2883,"Just":2884,"Was":2885,"dic":2886,"jor":2887,"kes":2888,"ump":2889,"vant":2890,"Ġro":2891,"Ġpres":2892,"Ġplain":2893,"ĠTrackMania":2894,"oose":2895,"Ġday":2896,"Ġwanted":2897,"Ġbased":2898,"Ġblast":2899,"row":2900,"Ġclear":2901,"ĠIts":2902,"ĠRise":2903,"ĠAnd":2904,"ĠAlan":2905,"Ġstu":2906,"portant":2907,"Ġmaking":2908,"Ġmidd":2909,"Ġlive":2910,"Ġbeautiful":2911,"ĠGhost":2912,"pects":2913,"Ġtakes":2914,"Does":2915,"ĠChris":2916,"Ġlots":2917,"ĠWith":2918,"Ġsupposed":2919,"ĠOne":2920,"Ġext":2921,"Ġsometime":2922,"Ġunpleasant":2923,"Ġquick":2924,"Ġpreferred":2925,"Ġgamer":2926,"Ġchoose":2927,"Ġadore":2928,"Ġadvant":2929,"Ġlacking":2930,"Ġcontro":2931,"Ġcompe":2932,"Ġnewest":2933,"Ġlow":2934,"Ġprodu":2935,"Ġimportant":2936,"Ġperhaps":2937,"Ġsurprised":2938,"Ġworst":2939,"Ġcorrectly":2940,"Ġcombined":2941,"Ġmajor":2942,"rustrating":2943,"Ġregular":2944,"Ġpicked":2945,"Ġadvantage":2946,"fect":2947,"ffort":2948,"gn":2949,"ki":2950,"pai":2951,"put":2952,"Ġname":2953,"eren":2954,"ates":2955,"reci":2956,"onent":2957,"ord":2958,"med":2959,"lax":2960,"Ġgave":2961,"Ġsure":2962,"Ġspectacular":2963,"Ġide":2964,"irky":2965,"Ġhor":2966,"Ġdynamic":2967,"Ġown":2968,"Ġbl":2969,"Ġbro":2970,"ations":2971,"riate":2972,"ĠEve":2973,"Ġton":2974,"Ġtea":2975,"Ġones":2976,"ĠCurrently":2977,"Ġcup":2978,"Ġannoying":2979,"Ġmone":2980,"unning":2981,"Ġsimulations":2982,"Ġmem":2983,"Ġeasi":2984,"Ġeffort":2985,"using":2986,"Ġwhose":2987,"arely":2988,"Ġask":2989,"Ġaspects":2990,"asts":2991,"Ġmentioning":2992,"Ġfeelings":2993,"ĠNightshade":2994,"Ġrealistic":2995,"Ġthoughts":2996,"Ġdeal":2997,"Ġearned":2998,"Ġexceptional":2999}