{"<s>":0,"<pad>":1,"</s>":2,"<unk>":3,"<|available_on_steam|>":4,"<|da|>":5,"<|developer|>":6,"<|esrb|>":7,"<|exp_release_date|>":8,"<|genres|>":9,"<|has_linux_release|>":10,"<|has_mac_release|>":11,"<|has_multiplayer|>":12,"<|name|>":13,"<|platforms|>":14,"<|player_perspective|>":15,"<|rating|>":16,"<|release_year|>":17,"<|specifier|>":18,"!":19,"\"":20,"#":21,"$":22,"%":23,"&":24,"'":25,"(":26,")":27,"*":28,"+":29,",":30,"-":31,".":32,"/":33,"0":34,"1":35,"2":36,"3":37,"4":38,"5":39,"6":40,"7":41,"8":42,"9":43,":":44,";":45,"<":46,"=":47,">":48,"?":49,"@":50,"A":51,"B":52,"C":53,"D":54,"E":55,"F":56,"G":57,"H":58,"I":59,"J":60,"K":61,"L":62,"M":63,"N":64,"O":65,"P":66,"Q":67,"R":68,"S":69,"T":70,"U":71,"V":72,"W":73,"X":74,"Y":75,"Z":76,"[":77,"\\":78,"]":79,"^":80,"_":81,"`":82,"a":83,"b":84,"c":85,"d":86,"e":87,"f":88,"g":89,"h":90,"i":91,"j":92,"k":93,"l":94,"m":95,"n":96,"o":97,"p":98,"q":99,"r":100,"s":101,"t":102,"u":103,"v":104,"w":105,"x":106,"y":107,"z":108,"{":109,"|":110,"}":111,"~":112,"¡":113,"¢":114,"£":115,"¤":116,"¥":117,"¦":118,"§":119,"¨":120,"©":121,"ª":122,"«":123,"¬":124,"®":125,"¯":126,"°":127,"±":128,"²":129,"³":130,"´":131,"µ":132,"¶":133,"·":134,"¸":135,"¹":136,"º":137,"»":138,"¼":139,"½":140,"¾":141,"¿":142,"À":143,"Á":144,"Â":145,"Ã":146,"Ä":147,"Å":148,"Æ":149,"Ç":150,"È":151,"É":152,"Ê":153,"Ë":154,"Ì":155,"Í":156,"Î":157,"Ï":158,"Ð":159,"Ñ":160,"Ò":161,"Ó":162,"Ô":163,"Õ":164,"Ö":165,"×":166,"Ø":167,"Ù":168,"Ú":169,"Û":170,"Ü":171,"Ý":172,"Þ":173,"ß":174,"à":175,"á":176,"â":177,"ã":178,"ä":179,"å":180,"æ":181,"ç":182,"è":183,"é":184,"ê":185,"ë":186,"ì":187,"í":188,"î":189,"ï":190,"ð":191,"ñ":192,"ò":193,"ó":194,"ô":195,"õ":196,"ö":197,"÷":198,"ø":199,"ù":200,"ú":201,"û":202,"ü":203,"ý":204,"þ":205,"ÿ":206,"Ā":207,"ā":208,"Ă":209,"ă":210,"Ą":211,"ą":212,"Ć":213,"ć":214,"Ĉ":215,"ĉ":216,"Ċ":217,"ċ":218,"Č":219,"č":220,"Ď":221,"ď":222,"Đ":223,"đ":224,"Ē":225,"ē":226,"Ĕ":227,"ĕ":228,"Ė":229,"ė":230,"Ę":231,"ę":232,"Ě":233,"ě":234,"Ĝ":235,"ĝ":236,"Ğ":237,"ğ":238,"Ġ":239,"ġ":240,"Ģ":241,"ģ":242,"Ĥ":243,"ĥ":244,"Ħ":245,"ħ":246,"Ĩ":247,"ĩ":248,"Ī":249,"ī":250,"Ĭ":251,"ĭ":252,"Į":253,"į":254,"İ":255,"ı":256,"Ĳ":257,"ĳ":258,"Ĵ":259,"ĵ":260,"Ķ":261,"ķ":262,"ĸ":263,"Ĺ":264,"ĺ":265,"Ļ":266,"ļ":267,"Ľ":268,"ľ":269,"Ŀ":270,"ŀ":271,"Ł":272,"ł":273,"Ń":274,"<|":275,"|>":276,"er":277,"Ġ<|":278,"in":279,"re":280,"Ġa":281,"at":282,"on":283,"Ġt":284,"or":285,"Ġp":286,"me":287,"la":288,"Ġs":289,"le":290,"as":291,"ame":292,"ve":293,"Ġth":294,"lay":295,"Ġi":296,"for":297,"ti":298,"Ġg":299,"ing":300,"st":301,"en":302,"ers":303,"Ġm":304,"ou":305,"da":306,"Ġy":307,"ed":308,"play":309,"Ġgame":310,"Ġin":311,"form":312,"rat":313,"cti":314,"nt":315,"Ġw":316,"leas":317,"releas":318,"ir":319,"Ġb":320,"Ġn":321,"ion":322,"player":323,"name":324,"Ġan":325,"Ġ2":326,"Ġthe":327,"ea":328,"Ġis":329,"Ġc":330,"es":331,"Ġf":332,"ation":333,"Ġyou":334,"Ġd":335,"oo":336,"release":337,"res":338,"Ġpers":339,"Ġplay":340,"Ġo":341,"ul":342,"Ġe":343,"pe":344,"has":345,"ure":346,"Ġ20":347,"gen":348,"genres":349,"rating":350,"Ġit":351,"ro":352,"Ġperson":353,"al":354,"ver":355,"ac":356,"Ġand":357,"ird":358,"ri":359,"vent":360,"dvent":361,"Ġre":362,"dventure":363,"Ġof":364,"lat":365,"lo":366,"latform":367,"Ġno":368,"de":369,"an":370,"ctive":371,"Ġst":372,"ge":373,"Ġpc":374,"pective":375,"Ġinform":376,"ulti":377,"ultiplayer":378,"Ġon":379,"it":380,"ter":381,"Ġh":382,"Ġ201":383,"ie":384,"station":385,"Ġplaystation":386,"ear":387,"Ġl":388,"ai":389,"lop":390,"velop":391,"Ġgames":392,"ction":393,"Ġv":394,"latforms":395,"platforms":396,"'s":397,"Ġyes":398,"Ġthird":399,"Ġaction":400,"Ġsh":401,"pers":402,"bo":403,"perspective":404,"Ġthat":405,"Ġfor":406,"ble":407,"xbo":408,"Ġxbo":409,"Ġxbox":410,"year":411,"eam":412,"ce":413,"Ġsi":414,"veloper":415,"vai":416,"vaila":417,"vailable":418,"Ġshoo":419,"ar":420,"developer":421,"adventure":422,"if":423,"Ġ(":424,"ut":425,"Ġshooter":426,"inu":427,"inux":428,"age":429,"ood":430,"Ġgood":431,"om":432,"Ġwas":433,"iew":434,"ly":435,"multiplayer":436,"ort":437,"ic":438,"do":439,"Ġro":440,"Ġaver":441,"Ġaverage":442,"ll":443,"Ġadventure":444,"Ġ1":445,"Ġview":446,"ld":447,"Ġfir":448,"Ġex":449,"gh":450,"Ġfirst":451,"Ġsim":452,"port":453,"Ġmultiplayer":454,"Ġreleas":455,"is":456,"ke":457,"eg":458,"out":459,"Ġreleased":460,"rateg":461,"Ġwit":462,"int":463,"Ġen":464,"Ġstrateg":465,"lent":466,"Ġstrategy":467,"un":468,"rb":469,"esrb":470,"Ġpo":471,"Ġrole":472,"playing":473,"riv":474,"Ġby":475,"Ġsimul":476,"qu":477,"Ġto":478,"Ġdo":479,"Ġwith":480,"Ġr":481,"Ġsu":482,"th":483,"Ġbe":484,"Ġ200":485,"Ġexce":486,"Ġma":487,"Ġexcel":488,"Ġexcellent":489,"ive":490,"Ġha":491,"ght":492,"Ġli":493,"est":494,"Ġsport":495,"acing":496,"us":497,"Ġbird":498,"Ġte":499,"Ġavailable":500,"rated":501,"Ġsteam":502,"available":503,"steam":504,"Ġme":505,"Ġdriv":506,"Ġdriving":507,"ft":508,"Ġind":509,"endo":510,"intendo":511,"Ġnintendo":512,"Ġsimulation":513,"Ġrequ":514,"Ġrequest":515,"Ġmac":516,"mac":517,"tri":518,"Ġpoor":519,"Ġlike":520,"zz":521,"rom":522,"Ġfrom":523,"Ġlinux":524,"linux":525,"Ġrated":526,"Ġindie":527,"Ġpu":528,"99":529,"one":530,"Ġde":531,"os":532,"ute":533,"ch":534,"Ġso":535,"racing":536,"ature":537,"Ġnot":538,"Ġhave":539,"der":540,"trib":541,"tribute":542,"attribute":543,"Ġever":544,"Ġhas":545,"Ġmature":546,"Ġbut":547,"Ġpuzz":548,"Ġpuzzle":549,"Ġplatform":550,"li":551,"Ġplayed":552,"pin":553,"pinion":554,"ay":555,"ta":556,"Ġor":557,"Ġgive":558,"Ġmo":559,"Ġver":560,"lan":561,"Ġii":562,"Ġcan":563,"Ġout":564,"Ġperspective":565,"and":566,"omb":567,"Ġne":568,"opinion":569,"ify":570,"Ġverify":571,"Ġ3":572,"all":573,"Ġspe":574,"ight":575,"Ġcon":576,"Ġ199":577,"Ġwor":578,"di":579,"Ġreal":580,"Ġplatformer":581,"ry":582,"are":583,"Ġevery":584,"Ġas":585,"wh":586,"Ġrating":587,"ment":588,"Ġeveryone":589,"ier":590,"Ġteen":591,"nd":592,"ow":593,"Ġk":594,"ia":595,"Ġun":596,"Ġ2014":597,"Ġab":598,"Ġdevelop":599,"com":600,"ex":601,"cal":602,"exp":603,"pec":604,"Ġspeed":605,"Ġdeveloped":606,"Ġabout":607,"ur":608,"Ġsup":609,"ero":610,"ig":611,"'t":612,"udi":613,"ack":614,"ck":615,"Ġal":616,"id":617,"Ġstudi":618,"ant":619,"am":620,"tain":621,"pg":622,"tertain":623,"Ġentertain":624,"lin":625,"Ġ2015":626,"jo":627,"Ġentertainment":628,"ra":629,"Ġare":630,"Ġta":631,"mend":632,"Ġrecom":633,"Ġrecommend":634,"Ġwh":635,"Ġda":636,"ard":637,"the":638,"joy":639,"em":640,"Ġenjoy":641,"tion":642,"Ġch":643,"you":644,"Ġneed":645,"spec":646,"ifier":647,"specifier":648,"ctical":649,"so":650,"Ġtactical":651,"ass":652,"Ġrelease":653,"Ġworld":654,"what":655,"gest":656,"Ġconf":657,"ere":658,"irm":659,"Ġstudios":660,"cl":661,"lder":662,"lanation":663,"explanation":664,"Ġsug":665,"Ġconfirm":666,").":667,"Ġsuggest":668,"Ġsk":669,"Ġside":670,"ore":671,"ent":672,"king":673,"Ġfe":674,"Ġus":675,"Ġhero":676,"ad":677,"Ġla":678,"Ġany":679,"Ġthis":680,"tle":681,"Ġ10":682,"tt":683,"Ġ4":684,"se":685,"ust":686,"Ġwar":687,"time":688,"Ġcry":689,"ind":690,"Ġmost":691,"man":692,"Ġtur":693,"Ġcame":694,"Ġrai":695,"Ġraider":696,"mp":697,"ick":698,"Ġwi":699,"sh":700,"ball":701,"co":702,"Ġdoes":703,"Ġsc":704,"Ġ2016":705,"iv":706,"Ġam":707,"ho":708,"ally":709,"Ġj":710,"ber":711,"ol":712,"ron":713,"cra":714,"Ġpoint":715,"craft":716,"ould":717,"Ġ2011":718,"ag":719,"Ġage":720,"Ġthin":721,"mor":722,"Ġsuper":723,"click":724,"oom":725,"Ġthink":726,"tro":727,"Ġtomb":728,"Ġsm":729,"Ġmmor":730,"Ġ2018":731,"Ġmmorpg":732,"ran":733,"Ġvi":734,"ell":735,"lar":736,"Ġturn":737,"ased":738,"ittle":739,"Ġwon":740,"roll":741,"Ġratings":742,"Ġle":743,"Ġ2017":744,"ate":745,"Ġsports":746,"el":747,"based":748,"now":749,"Ġty":750,"Ġsing":751,"Ġsingle":752,"Ġjust":753,"ough":754,"ct":755,"Ġsoft":756,"Ġpre":757,"Ġpro":758,"Ġthere":759,"ther":760,"Ġwant":761,"Ġknow":762,"Ġhack":763,"sla":764,"Ġea":765,"Ġfore":766,"aid":767,"slash":768,"Ġforest":769,"Ġsaid":770,"Ġreally":771,"Ġgen":772,"uit":773,"Ġpay":774,"ne":775,"ular":776,"Ġonly":777,"Ġsimulat":778,"Ġlo":779,"Ġsimulator":780,"gic":781,"Ġmight":782,"lanc":783,"Ġrev":784,"ba":785,"ater":786,"tale":787,"Ġcre":788,"load":789,"Ġmagic":790,"line":791,"Ġyour":792,"'re":793,"Ġfun":794,"Ġlittle":795,"Ġscroll":796,"wn":797,"Ġse":798,"Ġcor":799,"Ġcom":800,"Ġcomb":801,"Ġelder":802,"Ġone":803,"Ġscrolls":804,"Ġracing":805,"Ġsky":806,"Ġ2005":807,"ms":808,"Ġclanc":809,"Ġmetro":810,"Ġsoftw":811,"Ġclancy":812,"Ġrun":813,"Ġother":814,"loaded":815,"ted":816,"Ġman":817,"Ġtriv":818,"Ġbi":819,"wit":820,"Ġ15":821,"river":822,"Ġreloaded":823,"ill":824,"inball":825,"Ġpinball":826,"Ġswit":827,"Ġbig":828,"Ġ2010":829,"Ġmade":830,"Ġheroes":831,"Ġswitch":832,"Ġtry":833,"ite":834,"oration":835,"Ġsupport":836,"Ġlast":837,"coon":838,"Ġtycoon":839,"Ġar":840,"Ġrece":841,"Ġ1999":842,"hic":843,"up":844,"Ġplaying":845,"Ġcombat":846,"ife":847,"Ġz":848,"Ġve":849,"Ġalso":850,"tty":851,"Ġvehic":852,"Ġhu":853,"ntion":854,"Ġmention":855,"Ġwanted":856,"Ġwarcraft":857,"Ġvehicular":858,"osho":859,"Ġreceive":860,"oshock":861,"ade":862,"Ġreceived":863,"oft":864,"Ġmode":865,"ma":866,"Ġthr":867,"Ġdriver":868,"Ġreme":869,"Ġ2013":870,"Ġmy":871,"Ġonline":872,"Ġnba":873,"Ġmean":874,"ue":875,"dertale":876,"Ġpretty":877,"ts":878,"yst":879,"Ġqu":880,"Ġhit":881,"Ġti":882,"Ġ2009":883,"ong":884,"Ġinter":885,"Ġworms":886,"Ġall":887,"et":888,"Ġnight":889,"Ġmentioned":890,"ory":891,"Ġfight":892,"Ġwonder":893,"aos":894,"Ġroll":895,"Ġchaos":896,"Ġrpg":897,"Ġsuch":898,"Ġfighting":899,"16":900,"Ġend":901,"Ġbeen":902,"Ġbo":903,"Ġgener":904,"nce":905,"Ġtr":906,"Ġfind":907,"assin":908,"Ġcreed":909,"Ġolder":910,"ich":911,"Ġsoftware":912,"ket":913,"Ġlove":914,"fer":915,"Ġamong":916,"ash":917,"ess":918,"Ġhill":919,"arted":920,"Ġfeel":921,"Ġsmash":922,"uitar":923,"Ġbioshock":924,"cket":925,"wk":926,"Ġmus":927,"Ġhear":928,"ague":929,"Ġleague":930,"Ġmusic":931,"ony":932,"Ġthie":933,"Ġcat":934,"Ġdid":935,"Ġhawk":936,"charted":937,"Ġiii":938,"Ġskater":939,"Ġhits":940,"Ġthief":941,"ror":942,"Ġtom":943,"orm":944,"Ġele":945,"xt":946,"Ġfa":947,"Ġheard":948,"Ġcatal":949,"Ġed":950,"rim":951,"Ġedge":952,"Ġwol":953,"irror":954,"Ġfan":955,"Ġ2012":956,"Ġtrivia":957,"Ġcatalyst":958,"Ġwolf":959,"'m":960,"Ġtext":961,"Ġreview":962,"ili":963,"Ġwhich":964,"Ġdance":965,"board":966,"Ġad":967,"Ġsay":968,"les":969,"Ġget":970,"Ġshoot":971,"Ġroom":972,"po":973,"Ġteam":974,"Ġundertale":975,"ds":976,"Ġ&":977,"Ġgo":978,"Ġdoom":979,"Ġemp":980,"rio":981,"Ġmario":982,"ave":983,"ked":984,"Ġsp":985,"ish":986,"Ġtime":987,"il":988,"led":989,"rk":990,"ings":991,"Ġdark":992,"zzard":993,"cher":994,"lizzard":995,"ign":996,"Ġwild":997,"ake":998,"ness":999,"Ġloo":1000,"dos":1001,"cade":1002,"date":1003,"kes":1004,"forge":1005,"Ġange":1006,"Ġwitcher":1007,"Ġ2004":1008,"Ġ1994":1009,"Ġarcade":1010,"Ġhunt":1011,"Ġdarkness":1012,"Ġangel":1013,"ire":1014,"Ġrocket":1015,"Ġ2001":1016,"Ġtony":1017,"Ġdis":1018,"Ġover":1019,"have":1020,"Ġguitar":1021,"Ġev":1022,"Ġsilent":1023,"Ġmad":1024,"ires":1025,"ice":1026,"mber":1027,"Ġdoesn":1028,"Ġreviews":1029,"Ġpri":1030,"Ġmon":1031,"Ġwould":1032,"Ġblizzard":1033,"Ġstran":1034,"Ġmakes":1035,"Ġstrange":1036,"sis":1037,"vor":1038,"Ġtheory":1039,"Ġkings":1040,"Ġuncharted":1041,"Ġempires":1042,"Ġprime":1043,"Ġtal":1044,"Ġdig":1045,"Ġlin":1046,"Ġass":1047,"Ġfavor":1048,"Ġmass":1049,"Ġfire":1050,"te":1051,"Ġthough":1052,"Ġcar":1053,"Ġenjoyed":1054,"'ve":1055,"old":1056,"Ġmirror":1057,"ital":1058,"Ġdeveloper":1059,"ishing":1060,"Ġdigital":1061,"33":1062,"erman":1063,"last":1064,"aster":1065,"ound":1066,"Ġbomb":1067,"Ġcro":1068,"Ġok":1069,"Ġos":1070,"Ġeth":1071,"Ġ2033":1072,"anishing":1073,"Ġvanishing":1074,"Ġ2002":1075,"why":1076,"ronic":1077,"Ġsmall":1078,"Ġcarter":1079,"Ġbomberman":1080,"Ġethan":1081,"Ġdon":1082,"Ġsoli":1083,"Ġtalking":1084,"Ġsolid":1085,"earli":1086,"ami":1087,"need":1088,"Ġmanag":1089,"earlier":1090,"fe":1091,"ince":1092,"Ġna":1093,"oot":1094,"Ġenem":1095,"Ġlooking":1096,"Ġassassin":1097,"den":1098,"poration":1099,"Ġnf":1100,"Ġdiv":1101,"ision":1102,"Ġdog":1103,"Ġcorporation":1104,"Ġskyrim":1105,"Ġfavorite":1106,"Ġdivision":1107,"hind":1108,"ox":1109,"rand":1110,"ught":1111,"erco":1112,"ought":1113,"iris":1114,"Ġblin":1115,"ghold":1116,"Ġbehind":1117,"Ġtemp":1118,"tris":1119,"mandos":1120,"hot":1121,"ronghold":1122,"Ġlines":1123,"Ġcroft":1124,"Ġosiris":1125,"Ġmanager":1126,"ootball":1127,"Ġenemy":1128,"Ġnfl":1129,"ughty":1130,"ercoaster":1131,"Ġblind":1132,"Ġtemple":1133,"cent":1134,"Ġsome":1135,"Ġ1998":1136,"Ġalone":1137,"ap":1138,"ced":1139,"ial":1140,"Ġtoo":1141,"Ġthought":1142,"Ġway":1143,"Ġshow":1144,"arcraft":1145,"Ġskyforge":1146,"pt":1147,"ple":1148,"um":1149,"ven":1150,"Ġred":1151,"use":1152,"Ġnaughty":1153,"cage":1154,"Ġri":1155,"Ġport":1156,"Ġliked":1157,"resid":1158,"Ġrest":1159,"Ġevil":1160,"resident":1161,"blo":1162,"pse":1163,"tor":1164,"ution":1165,"ypse":1166,"zation":1167,"Ġapo":1168,"layers":1169,"Ġill":1170,"storm":1171,"irt":1172,"Ġciv":1173,"Ġcell":1174,"Ġfear":1175,"Ġshif":1176,"ifa":1177,"down":1178,"Ġ12":1179,"Ġ2007":1180,"usion":1181,"Ġmeier":1182,"calypse":1183,"linter":1184,"olution":1185,"ilization":1186,"Ġadv":1187,"Ġsplinter":1188,"Ġshowdown":1189,"torstorm":1190,"Ġapocalypse":1191,"Ġillusion":1192,"Ġcivilization":1193,"Ġshift":1194,"her":1195,"ye":1196,"Ġu":1197,"ori":1198,"day":1199,"Ġfar":1200,"Ġef":1201,"by":1202,"ous":1203,"Ġnever":1204,"fect":1205,"Ġeye":1206,"Ġhow":1207,"Ġpur":1208,"Ġboth":1209,"to":1210,"ual":1211,"deo":1212,"anced":1213,"Ġcrysis":1214,"Ġvideo":1215,"Ġremember":1216,"Ġelement":1217,"Ġokay":1218,"Ġportal":1219,"hl":1220,"uck":1221,"Ġdes":1222,"Ġlife":1223,"Ġshould":1224,"Ġpayne":1225,"bis":1226,"ders":1227,"fare":1228,"ham":1229,"life":1230,"sa":1231,"sport":1232,"zard":1233,"onami":1234,"Ġif":1235,"Ġfound":1236,"Ġdut":1237,"ember":1238,"tto":1239,"Ġwarfare":1240,"Ġwizard":1241,"Ġwonders":1242,"Ġsept":1243,"Ġcorsa":1244,"Ġthrone":1245,"Ġdidn":1246,"Ġmont":1247,"Ġadvanced":1248,"Ġeffect":1249,"bisoft":1250,"Ġduty":1251,"Ġseptember":1252,"vers":1253,"reat":1254,"Ġgreat":1255,"orth":1256,"Ġexp":1257,"Ġ2000":1258,"Ġmetroid":1259,"Ġelements":1260,"si":1261,"sup":1262,"Ġwell":1263,"Ġkonami":1264,"Ġubisoft":1265,"super":1266,"ath":1267,"Ġeven":1268,"Ġval":1269,"Ġshooters":1270,"Ġdisli":1271,"Ġtri":1272,"Ġoc":1273,"back":1274,"ina":1275,"gend":1276,"Ġstronghold":1277,"arina":1278,"Ġmax":1279,"Ġlegend":1280,"elda":1281,"Ġcommandos":1282,"Ġzelda":1283,"Ġvalve":1284,"Ġocarina":1285,"fia":1286,"suit":1287,"uro":1288,"Ġer":1289,"force":1290,"ence":1291,"Ġyear":1292,"Ġco":1293,"Ġoff":1294,"llforce":1295,"Ġsims":1296,"Ġnevers":1297,"Ġ1993":1298,"ransport":1299,"Ġead":1300,"Ġpayback":1301,"mares":1302,"Ġnightmares":1303,"Ġtruck":1304,"Ġrestoration":1305,"Ġpursuit":1306,"athia":1307,"Ġerathia":1308,"Ġneversoft":1309,"Ġearlier":1310,"Ġtetris":1311,"Ġwill":1312,"vel":1313,"Ġthey":1314,"Ġfri":1315,"Ġoutlast":1316,"Ġthrough":1317,"Ġrollcage":1318,"ky":1319,"Ġup":1320,"Ġresident":1321,"rea":1322,"dy":1323,"Ġbrea":1324,"Ġfootball":1325,"Ġho":1326,"Ġori":1327,"Ġrollercoaster":1328,"Ġsen":1329,"Ġuniv":1330,"Ġremedy":1331,"Ġgenerally":1332,"Ġbreak":1333,"Ġunivers":1334,"active":1335,"able":1336,"Ġnorth":1337,"Ġcall":1338,"Ġrevel":1339,"Ġpoorly":1340,"antum":1341,"Ġrevolution":1342,"Ġinteractive":1343,"Ġgeneral":1344,"Ġuniverse":1345,"Ġrevelation":1346,"Ġlayers":1347,"Ġexam":1348,"Ġhad":1349,"Ġmotorstorm":1350,"Ġwhat":1351,"Ġlara":1352,"Ġsuperhot":1353,"Ġtried":1354,"no":1355,"Ġmu":1356,"Ġinto":1357,"Ġbus":1358,"Ġexample":1359,"ption":1360,"light":1361,"Ġmadden":1362,"Ġmuch":1363,"tal":1364,"eri":1365,"ties":1366,"Ġwere":1367,"Ġthem":1368,"Ġdia":1369,"ither":1370,"thing":1371,"Ġcomp":1372,"Ġdiablo":1373,"bla":1374,"nam":1375,"ynam":1376,"real":1377,"Ġsn":1378,"Ġdynam":1379,"rif":1380,"Ġvis":1381,"oriz":1382,"Ġdynamic":1383,"ua":1384,"wor":1385,"Ġaut":1386,"Ġsac":1387,"Ġgear":1388,"Ġtheft":1389,"Ġeater":1390,"Ġsid":1391,"Ġdawn":1392,"ellbla":1393,"Ġzero":1394,"max":1395,"Ġmontreal":1396,"Ġoffers":1397,"Ġsenua":1398,"Ġsnake":1399,"rifice":1400,"orizon":1401,"Ġauto":1402,"Ġsacrifice":1403,"ellblade":1404,"since":1405,"Ġdirt":1406,"ity":1407,"ks":1408,"Ġtit":1409,"Ġcal":1410,"Ġfifa":1411,"Ġmafia":1412,"Ġstudio":1413,"Ġfeat":1414,"ately":1415,"Ġexperi":1416,"Ġfrien":1417,"ci":1418,"Ġnhl":1419,"Ġbet":1420,"Ġwondering":1421,"Ġexperience":1422,"fort":1423,"stal":1424,"Ġtell":1425,"Ġdecent":1426,"Ġasse":1427,"Ġday":1428,"Ġright":1429,"Ġdesign":1430,"Ġassetto":1431,"17":1432,"uri":1433,"ated":1434,"ond":1435,"Ġfond":1436,"Ġits":1437,"rop":1438,"alf":1439,"cep":1440,"unately":1441,"Ġgenre":1442,"Ġgot":1443,"td":1444,"ures":1445,"attle":1446,"Ġtransport":1447,"Ġthen":1448,"Ġcuri":1449,"Ġreign":1450,"Ġltd":1451,"Ġindia":1452,"Ġconcep":1453,"Ġ1990":1454,"Ġche":1455,"Ġchronic":1456,"Ġscs":1457,"Ġvisual":1458,"Ġcurious":1459,"Ġconcepts":1460,"Ġchronicles":1461,"lt":1462,"ually":1463,"Ġoption":1464,"Ġwhy":1465,"Ġfelt":1466,"way":1467,"Ġat":1468,"tic":1469,"eaking":1470,"Ġeither":1471,"Ġseem":1472,"Ġcalled":1473,"Ġfriends":1474,"ever":1475,"Ġeuro":1476,"Ġexpec":1477,"Ġunfort":1478,"rank":1479,"Ġunfortunately":1480,"tom":1481,"Ġesrb":1482,"Ġcore":1483,"Ġfrank":1484,"Ġplayer":1485,"Ġtrivial":1486,"Ġsupported":1487,"az":1488,"Ġtin":1489,"urt":1490,"Ġamaz":1491,"Ġruns":1492,"Ġdays":1493,"Ġamazing":1494,"19":1495,"ada":1496,"fox":1497,"furt":1498,"hem":1499,"ix":1500,"ities":1501,"loo":1502,"mare":1503,"eric":1504,"metro":1505,"Ġmic":1506,"Ġwake":1507,"Ġbad":1508,"Ġcities":1509,"oof":1510,"rose":1511,"Ġ2019":1512,"ary":1513,"Ġ14":1514,"Ġtoby":1515,"Ġcanada":1516,"Ġallo":1517,"Ġcryte":1518,"Ġameric":1519,"Ġpayday":1520,"Ġnightmare":1521,"Ġdynamics":1522,"cient":1523,"roprose":1524,"Ġfrankfurt":1525,"loober":1526,"Ġmicroprose":1527,"Ġtobyfox":1528,"Ġcrytek":1529,"Ġamerican":1530,"),":1531,"pic":1532,"asy":1533,"Ġbattle":1534,"ress":1535,"dow":1536,"Ġ2008":1537,"Ġcrystal":1538,"Ġquantum":1539,"Ġoverall":1540,"ful":1541,"Ġback":1542,"Ġbloober":1543,"Ġperspectives":1544,"Ġspellforce":1545,"Ġwhen":1546,"Ġprefer":1547,"uter":1548,"erri":1549,"Ġgrand":1550,"end":1551,"Ġfuse":1552,"Ġopinion":1553,"Ġbest":1554,"Ġmassive":1555,"Ġfeatures":1556,"sp":1557,"Ġcould":1558,"Ġcap":1559,"Ġstarcraft":1560,"Ġhorizon":1561,"mpress":1562,"Ġdislike":1563,"Ġcomputer":1564,"aut":1565,"sy":1566,"Ġast":1567,"ast":1568,"Ġancient":1569,"Ġisn":1570,"usive":1571,"Ġmetal":1572,"clusive":1573,"ways":1574,"86":1575,"986":1576,"adow":1577,"mer":1578,"oc":1579,"pr":1580,"sier":1581,"Ġant":1582,"onix":1583,"orks":1584,"Ġslight":1585,"ston":1586,"Ġce":1587,"Ġfant":1588,"Ġplayers":1589,"geham":1590,"arre":1591,"arsier":1592,"Ġ1986":1593,"Ġexclusive":1594,"Ġbeing":1595,"ackman":1596,"Ġalways":1597,"Ġturbo":1598,"ronaut":1599,"ctronic":1600,"Ġsoftworks":1601,"Ġarts":1602,"Ġquite":1603,"Ġboston":1604,"ledgeham":1605,"Ġillusions":1606,"Ġhole":1607,"Ġcheck":1608,"syonix":1609,"Ġastronaut":1610,"proof":1611,"Ġanthem":1612,"Ġslightly":1613,"ackmania":1614,"ledgehammer":1615,"Ġastronauts":1616,"Ġtarsier":1617,"Ġplatforms":1618,"Ġpsyonix":1619,"lack":1620,"Ġsledgehammer":1621,"Ġgam":1622,"Ġblack":1623,"Ġhellblade":1624,"Ġbeenox":1625,"Ġelectronic":1626,"Ġshooting":1627,"Ġtitle":1628,"Ġtelltale":1629,"Ġexpected":1630,"little":1631,"Ġsame":1632,"ality":1633,"Ġreleases":1634,"assassin":1635,"Ġinterest":1636,"Ġrpgs":1637,"Ġfireproof":1638,"Ġhowever":1639,"ving":1640,"Ġconso":1641,"Ġtypic":1642,"Ġlot":1643,"du":1644,"od":1645,"ss":1646,"Ġade":1647,"ntly":1648,"Ġnorm":1649,"ris":1650,"Ġpuzzles":1651,"sider":1652,"tomb":1653,"Ġgu":1654,"Ġincl":1655,"Ġcur":1656,"Ġoffer":1657,"Ġnow":1658,"Ġconsider":1659,"Ġprodu":1660,"Ġsimulators":1661,"Ġinclu":1662,"Ġcurre":1663,"fore":1664,"je":1665,"kill":1666,"mast":1667,"nation":1668,"nba":1669,"sem":1670,"yro":1671,"Ġtend":1672,"Ġpyro":1673,"demast":1674,"Ġ11":1675,"Ġensem":1676,"Ġtow":1677,"Ġtoky":1678,"Ġ2003":1679,"Ġlack":1680,"Ġhuds":1681,"Ġinternation":1682,"Ġcome":1683,"speaking":1684,"Ġtypically":1685,"Ġadeline":1686,"Ġnormally":1687,"Ġcurrently":1688,"demasters":1689,"Ġensemble":1690,"Ġtokyo":1691,"Ġhudson":1692,"Ġinternational":1693,"Ġlat":1694,"Ġpar":1695,"ase":1696,"Ġloved":1697,"ely":1698,"Ġsince":1699,"Ġthan":1700,"lore":1701,"Ġmore":1702,"Ġcodemasters":1703,"ile":1704,"Ġcase":1705,"Ġrecent":1706,"Ġshadow":1707,"Ġbefore":1708,"Ġplatformers":1709,"Ġvery":1710,"Ġquality":1711,"Ġoverkill":1712,"'d":1713,"ca":1714,"call":1715,"ls":1716,"ug":1717,"inal":1718,"ersion":1719,"Ġwe":1720,"Ġhalf":1721,"ield":1722,"Ġdown":1723,"Ġmedi":1724,"tten":1725,"world":1726,"Ġbetter":1727,"mpressed":1728,"ocre":1729,"Ġlately":1730,"Ġmediocre":1731,"fly":1732,"oh":1733,"pay":1734,"Ġsa":1735,"Ġnice":1736,"Ġversion":1737,"Ġbeca":1738,"Ġnew":1739,"Ġvii":1740,"Ġfantasy":1741,"Ġgaming":1742,"Ġinclud":1743,"Ġbecause":1744,"ax":1745,"bur":1746,"brand":1747,"field":1748,"Ġalan":1749,"Ġsout":1750,"Ġgrim":1751,"Ġbarre":1752,"Ġtheir":1753,"Ġfirax":1754,"undertale":1755,"oware":1756,"Ġusually":1757,"shade":1758,"Ġcrew":1759,"Ġtibur":1760,"Ġfirefly":1761,"Ġfirebrand":1762,"Ġrise":1763,"Ġconsoles":1764,"Ġproduction":1765,"payday":1766,"Ġsoutham":1767,"Ġgrimlore":1768,"Ġbarrels":1769,"Ġfiraxis":1770,"Ġtiburon":1771,"pp":1772,"Ġinc":1773,"Ġtold":1774,"Ġbioware":1775,"Ġgod":1776,"Ġcapcom":1777,"ring":1778,"tent":1779,"Ġmind":1780,"ail":1781,"point":1782,"Ġdisap":1783,"Ġinterested":1784,"Ġrecently":1785,"Ġdisappoint":1786,"mad":1787,"lection":1788,"Ġdet":1789,"Ġspect":1790,"Ġsomething":1791,"worms":1792,"madden":1793,"bus":1794,"far":1795,"fifa":1796,"ilar":1797,"might":1798,"ru":1799,"spe":1800,"ten":1801,"ula":1802,"Ġag":1803,"Ġgameplay":1804,"Ġrefer":1805,"ance":1806,"Ġsimilar":1807,"Ġmake":1808,"Ġcanno":1809,"Ġfeature":1810,"ularly":1811,"Ġtrackmania":1812,"Ġpartic":1813,"spellforce":1814,"Ġcannot":1815,"bi":1816,"dirt":1817,"Ġatten":1818,"lara":1819,"Ġhate":1820,"Ġsur":1821,"though":1822,"Ġenjoyable":1823,"Ġmostly":1824,"superhot":1825,"metroid":1826,"Ġdetail":1827,"Ġreferring":1828,"Ġattention":1829,"bru":1830,"een":1831,"imax":1832,"kt":1833,"lla":1834,"mo":1835,"mass":1836,"sid":1837,"tno":1838,"vol":1839,"zion":1840,"zero":1841,"Ġrat":1842,"Ġazero":1843,"Ġsant":1844,"Ġsyst":1845,"enimax":1846,"Ġbit":1847,"Ġ22":1848,"Ġ29":1849,"Ġcd":1850,"Ġcli":1851,"Ġshort":1852,"ica":1853,"Ġexod":1854,"Ġsimula":1855,"une":1856,"unos":1857,"uncharted":1858,"Ġwithout":1859,"Ġspec":1860,"Ġcontent":1861,"Ġkunos":1862,"Ġwhile":1863,"Ġfebru":1864,"Ġjune":1865,"Ġproje":1866,"Ġmonica":1867,"Ġdontno":1868,"ously":1869,"Ġallow":1870,"Ġallods":1871,"errilla":1872,"Ġguerrilla":1873,"Ġconsidered":1874,"ugust":1875,"bioshock":1876,"zioni":1877,"Ġazeroth":1878,"Ġsanta":1879,"Ġsystem":1880,"Ġclimax":1881,"Ġexodus":1882,"Ġsimulazioni":1883,"Ġfebruary":1884,"Ġprojekt":1885,"Ġdontnod":1886,"cry":1887,"guitar":1888,"half":1889,"iously":1890,"mirror":1891,"viously":1892,"ween":1893,"Ġaw":1894,"ount":1895,"Ġinvol":1896,"Ġnor":1897,"Ġnothing":1898,"Ġsho":1899,"Ġwasn":1900,"coming":1901,"Ġzenimax":1902,"Ġaddi":1903,"silent":1904,"Ġdisliked":1905,"Ġbetween":1906,"Ġbattlefield":1907,"Ġexclusively":1908,"ablo":1909,"etto":1910,"football":1911,"nhl":1912,"triv":1913,"warcraft":1914,"yle":1915,"Ġaugust":1916,"lass":1917,"Ġsie":1918,"Ġim":1919,"starcraft":1920,"Ġmere":1921,"ull":1922,"Ġoften":1923,"portal":1924,"Ġplatforming":1925,"Ġmoon":1926,"diablo":1927,"assetto":1928,"rollercoaster":1929,"Ġcreated":1930,"Ġmany":1931,"Ġupcoming":1932,"crysis":1933,"trivial":1934,"Ġmerely":1935,"alan":1936,"euro":1937,"how":1938,"Ġterri":1939,"Ġyet":1940,"Ġclass":1941,"Ġfam":1942,"Ġfinal":1943,"Ġrock":1944,"Ġrts":1945,"Ġuni":1946,"Ġunder":1947,"never":1948,"Ġcomm":1949,"Ġcombin":1950,"Ġfair":1951,"Ġsaw":1952,"Ġsurp":1953,"Ġrather":1954,"driver":1955,"hero":1956,"ially":1957,"mall":1958,"sky":1959,"small":1960,"tony":1961,"Ġes":1962,"Ġsti":1963,"our":1964,"uly":1965,"rocket":1966,"Ġref":1967,"outlast":1968,"Ġsol":1969,"pecially":1970,"Ġtruly":1971,"iliar":1972,"Ġsaying":1973,"Ġdisappointing":1974,"Ġallows":1975,"Ġterrible":1976,"Ġclassic":1977,"Ġfamiliar":1978,"Ġcommon":1979,"Ġsurpris":1980,"heroes":1981,"skyforge":1982,"Ġespecially":1983,"ab":1984,"hellblade":1985,"ze":1986,"Ġapp":1987,"strateg":1988,"eap":1989,"rise":1990,"Ġstyle":1991,"itable":1992,"iffer":1993,"quantum":1994,"Ġsuitable":1995,"Ġcheap":1996,"Ġset":1997,"tetris":1998,"Ġparticularly":1999,"motorstorm":2000,"strategy":2001,"ifferent":2002,"alanc":2003,"ider":2004,"idos":2005,"ja":2006,"ober":2007,"pite":2008,"rÃ":2009,"rum":2010,"transport":2011,"vory":2012,"wood":2013,"yer":2014,"©al":2015,"Ġ7":2016,"inja":2017,"metal":2018,"Ġivory":2019,"star":2020,"Ġbalanc":2021,"Ġninja":2022,"Ġoct":2023,"Ġeidos":2024,"Ġrecall":2025,"loby":2026,"iest":2027,"Ġ16":2028,"Ġhaze":2029,"Ġalthough":2030,"sol":2031,"Ġscary":2032,"Ġnightshade":2033,"Ġevolution":2034,"Ġredwood":2035,"Ġdespite":2036,"ĠmontrÃ":2037,"Ġholoby":2038,"Ġtower":2039,"Ġtoward":2040,"lections":2041,"Ġspectrum":2042,"Ġshores":2043,"Ġaddictive":2044,"Ġimm":2045,"Ġrockstar":2046,"Ġsawyer":2047,"Ġstill":2048,"Ġreflections":2049,"Ġbalanced":2050,"Ġoctober":2051,"Ġhazelight":2052,"ĠmontrÃ©al":2053,"Ġholobyte":2054,"fin":2055,"ng":2056,"other":2057,"Ġimpressed":2058,"stronghold":2059,"ersive":2060,"unch":2061,"did":2062,"when":2063,"Ġkind":2064,"Ġabsol":2065,"commandos":2066,"Ġwho":2067,"Ġchris":2068,"ility":2069,"Ġago":2070,"Ġsystems":2071,"Ġsolving":2072,"Ġimmersive":2073,"Ġabsolute":2074,"ces":2075,"horizon":2076,"ome":2077,"ply":2078,"rackmania":2079,"trackmania":2080,"esome":2081,"Ġfami":2082,"Ġeasy":2083,"Ġsimply":2084,"Ġdevelopers":2085,"acked":2086,"rong":2087,"rollcage":2088,"Ġtitles":2089,"Ġincluding":2090,"Ġspecial":2091,"Ġawesome":2092,"Ġinvolve":2093,"Ġfamily":2094,"'ll":2095,")?":2096,"20":2097,"be":2098,"can":2099,"grand":2100,"ps":2101,"red":2102,"Ġaudi":2103,"Ġsad":2104,"lear":2105,"dance":2106,"Ġfull":2107,"ooter":2108,"Ġplays":2109,"Ġplayable":2110,"alle":2111,"act":2112,"Ġvia":2113,"Ġstrategic":2114,"ose":2115,"Ġchalle":2116,"shooter":2117,"Ġspeaking":2118,"Ġcapab":2119,"Ġunimpressed":2120,"Ġtowards":2121,"Ġabsolutely":2122,"bing":2123,"ep":2124,"ey":2125,"lic":2126,"would":2127,"ering":2128,"inally":2129,"Ġact":2130,"Ġpick":2131,"ences":2132,"Ġinst":2133,"right":2134,"Ġmay":2135,"Ġliking":2136,"Ġorig":2137,"Ġgiven":2138,"Ġmoment":2139,"which":2140,"Ġlaunch":2141,"Ġfunction":2142,"mafia":2143,"ilities":2144,"Ġlook":2145,"Ġdownload":2146,"Ġcapabilities":2147,"Ġactually":2148,"Ġoriginally":2149,"cas":2150,"god":2151,"sor":2152,"try":2153,"uti":2154,"Ġjo":2155,"oring":2156,"ening":2157,"Ġmust":2158,"Ġwish":2159,"Ġbea":2160,"esda":2161,"thesda":2162,"Ġdefin":2163,"Ġgives":2164,"Ġkid":2165,"Ġunus":2166,"uring":2167,"Ġtake":2168,"Ġuses":2169,"Ġquick":2170,"Ġreviewed":2171,"less":2172,"Ġfeaturing":2173,"Ġnewest":2174,"Ġsurprising":2175,"Ġaudiences":2176,"licated":2177,"Ġinstance":2178,"utiful":2179,"Ġbeautiful":2180,"bje":2181,"cc":2182,"jer":2183,"lde":2184,"mit":2185,"night":2186,"oice":2187,"per":2188,"pre":2189,"ting":2190,"tally":2191,"ying":2192,"zarre":2193,"Ġleas":2194,"Ġke":2195,"erful":2196,"Ġtear":2197,"Ġsqu":2198,"ason":2199,"astic":2200,"vember":2201,"Ġthing":2202,"Ġthose":2203,"tive":2204,"Ġgri":2205,"released":2206,"Ġboring":2207,"Ġnade":2208,"Ġcri":2209,"Ġolde":2210,"Ġreason":2211,"Ġnovember":2212,"Ġstand":2213,"cember":2214,"Ġ13":2215,"Ġtotally":2216,"ghtening":2217,"Ġlimit":2218,"Ġindifferent":2219,"Ġdecember":2220,"Ġ1997":2221,"owering":2222,"Ġuncas":2223,"Ġabsor":2224,"Ġaren":2225,"Ġchance":2226,"Ġchoice":2227,"Ġusers":2228,"Ġamount":2229,"Ġtype":2230,"Ġsee":2231,"Ġbizarre":2232,"itely":2233,"Ġempowering":2234,"Ġoverrated":2235,"Ġfrightening":2236,"Ġcheerful":2237,"Ġseems":2238,"Ġcomes":2239,"Ġincludes":2240,"Ġsimilarly":2241,"Ġshortest":2242,"Ġunderrated":2243,"nging":2244,"Ġinvolves":2245,"learn":2246,"Ġchallenging":2247,"Ġdefinitely":2248,"Ġunusual":2249,"jerking":2250,"nightshade":2251,"previously":2252,"Ġleast":2253,"Ġtearjerking":2254,"Ġsquare":2255,"Ġnadeo":2256,"Ġoldest":2257,"Ġuncasual":2258,"Ġabsorbing":2259,"bly":2260,"bility":2261,"hey":2262,"ies":2263,"ered":2264,"rect":2265,"ating":2266,"Ġimpress":2267,"Ġgho":2268,"Ġworth":2269,"Ġbu":2270,"Ġfre":2271,"ool":2272,"Ġreg":2273,"Ġstory":2274,"Ġstrong":2275,"ieve":2276,"Ġbethesda":2277,"Ġhaving":2278,"Ġaspec":2279,"Ġwhere":2280,"Ġenjoying":2281,"Ġuse":2282,"agers":2283,"Ġpreviously":2284,"Ġknows":2285,"Ġgenres":2286,"Ġcorrect":2287,"Ġcoming":2288,"Ġmeans":2289,"Ġtrue":2290,"Ġspider":2291,"Ġline":2292,"Ġfantastic":2293,"Ġkids":2294,"Ġgritty":2295,"Ġghost":2296,"final":2297,"igh":2298,"lus":2299,"platform":2300,"vo":2301,"ward":2302,"Ġable":2303,"onest":2304,"Ġper":2305,"Ġpla":2306,"Ġgra":2307,"Ġanother":2308,"Ġcour":2309,"Ġcool":2310,"Ġfoc":2311,"Ġfps":2312,"rive":2313,"Ġhated":2314,"Ġhigh":2315,"Ġexc":2316,"quent":2317,"Ġsubje":2318,"Ġneither":2319,"Ġworst":2320,"Ġteenagers":2321,"Ġtrying":2322,"Ġhuge":2323,"Ġfeeling":2324,"Ġoptions":2325,"Ġexpect":2326,"Ġinteresting":2327,"Ġguess":2328,"Ġsafe":2329,"Ġversions":2330,"Ġcommonly":2331,"Ġjob":2332,"Ġfrequent":2333,"Ġlineup":2334,"Ġcourse":2335,"Ġfocus":2336,"Ġsubject":2337,"chas":2338,"count":2339,"des":2340,"eo":2341,"lieve":2342,"ning":2343,"ume":2344,"uke":2345,"war":2346,"Ġadvent":2347,"Ġavo":2348,"Ġplus":2349,"Ġpeo":2350,"mes":2351,"Ġthri":2352,"tire":2353,"Ġmat":2354,"Ġbro":2355,"Ġanno":2356,"Ġthemes":2357,"eal":2358,"Ġcare":2359,"Ġeas":2360,"acular":2361,"gether":2362,"ites":2363,"Ġhel":2364,"Ġluke":2365,"lling":2366,"Ġviews":2367,"Ġenough":2368,"Ġencount":2369,"Ġentire":2370,"Ġposi":2371,"Ġdoing":2372,"Ġbelieve":2373,"Ġmodes":2374,"Ġconven":2375,"while":2376,"Ġuser":2377,"shadow":2378,"Ġmmorpgs":2379,"Ġsupports":2380,"Ġaround":2381,"Ġhitman":2382,"Ġfavorites":2383,"Ġpurchas":2384,"Ġconsole":2385,"Ġspectacular":2386,"Ġlaunched":2387,"Ġfrequently":2388,"warm":2389,"Ġadventures":2390,"Ġavoid":2391,"Ġpeople":2392,"Ġannoying":2393,"Ġlukewarm":2394,"Ġencountered":2395,"Ġpositive":2396,"Ġconveni":2397,"alent":2398,"ler":2399,"ned":2400,"packed":2401,"rust":2402,"Ġacc":2403,"ative":2404,"orough":2405,"Ġpres":2406,"Ġput":2407,"lend":2408,"Ġthorough":2409,"Ġmulti":2410,"Ġmis":2411,"Ġmid":2412,"Ġblend":2413,"Ġfact":2414,"Ġfrust":2415,"Ġdrive":2416,"Ġstun":2417,"ific":2418,"istic":2419,"Ġtogether":2420,"thers":2421,"there":2422,"Ġmeant":2423,"Ġmess":2424,"tactical":2425,"Ġwork":2426,"Ġasking":2427,"comp":2428,"Ġanything":2429,"ivalent":2430,"Ġproba":2431,"Ġselection":2432,"Ġcompe":2433,"Ġreception":2434,"Ġassume":2435,"Ġsometime":2436,"Ġdisliking":2437,"Ġpreference":2438,"Ġlacking":2439,"Ġspecific":2440,"Ġkeep":2441,"Ġlimiting":2442,"onestly":2443,"Ġthrilling":2444,"Ġthoroughly":2445,"Ġmidd":2446,"Ġfrustrating":2447,"Ġprobably":2448,"10":2449,"blizzard":2450,"battle":2451,"bivalent":2452,"ding":2453,"jor":2454,"lust":2455,"ming":2456,"pth":2457,"ump":2458,"ine":2459,"Ġavaila":2460,"Ġpacked":2461,"lax":2462,"Ġimp":2463,"tial":2464,"Ġge":2465,"ens":2466,"irky":2467,"Ġneg":2468,"Ġcol":2469,"Ġdull":2470,"Ġdifferent":2471,"Ġrelax":2472,"Ġnostal":2473,"another":2474,"Ġhor":2475,"Ġhold":2476,"Ġentry":2477,"Ġmajor":2478,"Ġhapp":2479,"using":2480,"Ġpuzzler":2481,"Ġrealistic":2482,"ared":2483,"Ġunin":2484,"Ġalright":2485,"Ġconfusing":2486,"Ġused":2487,"sel":2488,"Ġambivalent":2489,"Ġquirky":2490,"Ġfans":2491,"Ġgotten":2492,"Ġsomewhat":2493,"Ġcomplicated":2494,"Ġpreferred":2495,"spider":2496,"Ġoffering":2497,"Ġlacklust":2498,"Ġweird":2499,"Ġdownright":2500,"Ġmindless":2501,"Ġparticular":2502,"Ġinvolving":2503,"Ġcombine":2504,"Ġfairly":2505,"Ġsurprised":2506,"Ġsadly":2507,"Ġpicked":2508,"Ġfunctionality":2509,"Ġsurprisingly":2510,"Ġbuy":2511,"Ġregularly":2512,"Ġaspect":2513,"Ġhelp":2514,"Ġpresent":2515,"Ġmultiple":2516,"Ġstunning":2517,"battlefield":2518,"Ġnegative":2519,"Ġlackluster":2520,"air":2521,"bor":2522,"ether":2523,"ff":2524,"fair":2525,"gl":2526,"hi":2527,"hap":2528,"ist":2529,"iac":2530,"just":2531,"ki":2532,"ken":2533,"na":2534,"ny":2535,"niac":2536,"put":2537,"som":2538,"was":2539,"reci":2540,"ates":2541,"ongest":2542,"Ġton":2543,"orful":2544,"larating":2545,"labor":2546,"asts":2547,"Ġio":2548,"timent":2549,"tical":2550,"Ġgory":2551,"Ġgoof":2552,"ingham":2553,"Ġmaster":2554,"Ġbirm":2555,"Ġbased":2556,"Ġblast":2557,"Ġdone":2558,"oose":2559,"Ġothers":2560,"Ġepic":2561,"Ġelabor":2562,"Ġreward":2563,"lated":2564,"depth":2565,"Ġones":2566,"terest":2567,"Ġhe":2568,"Ġlive":2569,"Ġlong":2570,"Ġlongest":2571,"Ġsill":2572,"does":2573,"Ġext":2574,"Ġexhi":2575,"lented":2576,"que":2577,"thus":2578,"Ġlik":2579,"Ġunfair":2580,"antage":2581,"anthem":2582,"Ġtalented":2583,"Ġwhether":2584,"Ġchoose":2585,"Ġjap":2586,"olting":2587,"Ġlow":2588,"Ġloki":2589,"Ġrevolting":2590,"Ġfunky":2591,"Ġfunny":2592,"Ġboard":2593,"Ġnause":2594,"Ġadvantage":2595,"Ġugl":2596,"Ġexpens":2597,"Ġtriump":2598,"Ġmaxis":2599,"Ġupper":2600,"Ġsentiment":2601,"Ġvisually":2602,"Ġcalming":2603,"Ġfriend":2604,"Ġgamer":2605,"Ġinclude":2606,"Ġpart":2607,"Ġthanks":2608,"Ġincre":2609,"Ġappreci":2610,"Ġwhole":2611,"Ġcritic":2612,"Ġcritical":2613,"Ġimpressive":2614,"Ġplain":2615,"Ġbroken":2616,"Ġeasiest":2617,"Ġconvenient":2618,"Ġmiss":2619,"complicated":2620,"Ġsometimes":2621,"Ġmiddle":2622,"Ġavailability":2623,"Ġcolorful":2624,"Ġrelaxing":2625,"Ġnostalgic":2626,"Ġuninterest":2627,"Ġweirdest":2628,"somniac":2629,"Ġgoofy":2630,"Ġbirmingham":2631,"Ġelaborate":2632,"Ġrewarding":2633,"Ġsilliest":2634,"Ġexhilarating":2635,"Ġjapan":2636,"Ġnauseating":2637,"Ġugliest":2638,"Ġexpensive":2639,"Ġtriumph":2640,"Ġuninteresting":2641,"ain":2642,"core":2643,"gn":2644,"gle":2645,"of":2646,"ped":2647,"pleas":2648,"pos":2649,"rd":2650,"uff":2651,"Ġear":2652,"eren":2653,"indow":2654,"Ġado":2655,"Ġatt":2656,"Ġtea":2657,"ording":2658,"Ġsure":2659,"Ġslated":2660,"Ġthings":2661,"Ġid":2662,"Ġmix":2663,"dard":2664,"Ġinsomniac":2665,"Ġwrong":2666,"Ġweren":2667,"Ġwindow":2668,"Ġbas":2669,"Ġcam":2670,"Ġfol":2671,"Ġdate":2672,"Ġdug":2673,"although":2674,"low":2675,"ancient":2676,"andard":2677,"Ġstandard":2678,"Ġhard":2679,"Ġhonestly":2680,"Ġluck":2681,"blem":2682,"uted":2683,"Ġrare":2684,"this":2685,"Ġmemor":2686,"Ġsimulations":2687,"Ġsoon":2688,"Ġworks":2689,"Ġsuppos":2690,"Ġentertaining":2691,"Ġtakes":2692,"Ġanyone":2693,"Ġanyway":2694,"tting":2695,"Ġthinking":2696,"Ġlet":2697,"Ġproblem":2698,"Ġcomple":2699,"Ġmentioning":2700,"Ġgoing":2701,"illed":2702,"Ġeffort":2703,"Ġcompared":2704,"Ġchecked":2705,"Ġlacks":2706,"Ġdisappointed":2707,"Ġaware":2708,"Ġaddition":2709,"Ġunique":2710,"Ġcombined":2711,"200":2712,"201":2713,"Ġmaybe":2714,"Ġcorrectly":2715,"platformer":2716,"Ġgrab":2717,"Ġexcit":2718,"Ġentirely":2719,"Ġpurchase":2720,"Ġhorror":2721,"self":2722,"Ġpresented":2723,"Ġheld":2724,"thusi":2725,"Ġfriendly":2726,"Ġearned":2727,"Ġwindows":2728,"Ġsupposed":2729,"+.":2730,"ah":2731,"ari":2732,"bel":2733,"dd":2734,"din":2735,"fter":2736,"gag":2737,"ily":2738,"op":2739,"por":2740,"pai":2741,"tunately":2742,"Ġour":2743,"ertain":2744,"erms":2745,"Ġac":2746,"Ġaway":2747,"only":2748,"onent":2749,"Ġtw":2750,"Ġtra":2751,"Ġterms":2752,"orpor":2753,"med":2754,"lain":2755,"Ġsort":2756,"Ġthus":2757,"Ġname":2758,"Ġangle":2759,"eability":2760,"Ġcup":2761,"Ġcertain":2762,"Ġfla":2763,"Ġyoung":2764,"Ġdue":2765,"Ġdeal":2766,"Ġown":2767,"role":2768,"ace":2769,"riate":2770,"Ġrede":2771,"Ġstore":2772,"Ġstuff":2773,"Ġhea":2774,"Ġvari":2775,"Ġfortunately":2776,"art":2777,"around":2778,"ically":2779,"portant":2780,"Ġenthusi":2781,"Ġengag":2782,"Ġstrategies":2783,"Ġpoten":2784,"that":2785,"Ġmaking":2786,"ush":2787,"ched":2788,"Ġhaven":2789,"Ġcontro":2790,"Ġworse":2791,"dible":2792,"dition":2793,"Ġeverything":2794,"Ġask":2795,"who":2796,"whel":2797,"Ġunen":2798,"Ġunpleas":2799,"Ġalong":2800,"ides":2801,"Ġchar":2802,"Ġfew":2803,"Ġusing":2804,"ady":2805,"Ġlabel":2806,"Ġlets":2807,"Ġleave":2808,"cted":2809,"Ġseen":2810,"Ġended":2811,"Ġadul":2812,"Ġthoughts":2813,"Ġexplore":2814,"Ġexplain":2815,"Ġhome":2816,"Ġcomponent":2817,"Ġtelling":2818,"ropriate":2819,"Ġgotta":2820,"Ġgamers":2821,"Ġconsidering":2822,"Ġdownloaded":2823,"Ġincorpor":2824,"Ġagain":2825,"Ġshot":2826,"Ġimportant":2827,"Ġunderwhel":2828,"Ġcombines":2829,"Ġappropriate":2830,"Ġlimited":2831,"Ġaspects":2832,"Ġperfect":2833,"Ġperhap":2834,"Ġhighly":2835,"Ġfocused":2836,"Ġmatter":2837,"Ġaccording":2838,"Ġcompetent":2839,"Ġgetting":2840,"Ġhappy":2841,"putting":2842,"Ġlikeability":2843,"Ġincredible":2844,"Ġappreciate":2845,"Ġcritics":2846,"Ġidea":2847,"Ġbasically":2848,"Ġcampai":2849,"Ġexcited":2850,"dinary":2851,"Ġtradition":2852,"Ġredefin":2853,"Ġenthusiasts":2854,"Ġengaging":2855,"Ġpotential":2856,"Ġunpleasant":2857,"Ġincorporates":2858,"Ġperhaps":2859,"Ġcampaign":2860,")-":2861,"+,":2862,".,":2863,"aus":2864,"dic":2865,"fri":2866,"fuse":2867,"game":2868,"hit":2869,"honestly":2870,"ip":2871,"ied":2872,"ible":2873,"ild":2874,"ker":2875,"lse":2876,"lick":2877,"mis":2878,"may":2879,"more":2880,"mately":2881,"nge":2882,"over":2883,"py":2884,"pes":2885,"pie":2886,"phic":2887,"rpg":2888,"sw":2889,"tend":2890,"uled":2891,"viv":2892,"vides":2893,"wd":2894,"were":2895,"zed":2896,"ready":2897,"Ġafter":2898,"atis":2899,"onus":2900,"onna":2901,"Ġpleas":2902,"Ġplan":2903,"Ġpast":2904,"Ġsong":2905,"Ġsound":2906,"Ġseri":2907,"ley":2908,"titive":2909,"Ġgr":2910,"Ġgonna":2911,"stand":2912,"style":2913,"Ġmone":2914,"Ġmine":2915,"Ġboo":2916,"Ġbare":2917,"Ġbalan":2918,"Ġbunch":2919,"Ġbonus":2920,"Ġnon":2921,"Ġansw":2922,"Ġclo":2923,"Ġclear":2924,"Ġcaus":2925,"Ġclick":2926,"Ġfall":2927,"Ġfig":2928,"Ġfine":2929,"Ġfilled":2930,"ations":2931,"Ġdated":2932,"Ġdrop":2933,"Ġoh":2934,"Ġold":2935,"Ġoper":2936,"Ġodd":2937,"Ġevent":2938,"Ġelse":2939,"ured":2940,"rove":2941,"ross":2942,"get":2943,"Ġhy":2944,"Ġhand":2945,"Ġhour":2946,"Ġforward":2947,"Ġwaste":2948,"Ġroad":2949,"Ġreleasing":2950,"Ġenh":2951,"quate":2952,"Ġtoday":2953,"Ġrave":2954,"Ġrace":2955,"Ġsucc":2956,"Ġmain":2957,"Ġmeh":2958,"Ġdelight":2959,"che":2960,"Ġsold":2961,"Ġconst":2962,"Ġteens":2963,"Ġunless":2964,"Ġalmo":2965,"Ġalready":2966,"Ġwhose":2967,"empt":2968,"Ġchild":2969,"Ġlapt":2970,"Ġanymore":2971,"iving":2972,"Ġturns":2973,"Ġturned":2974,"Ġprovides":2975,"Ġknown":2976,"Ġlots":2977,"Ġlovers":2978,"Ġscrolling":2979,"with":2980,"Ġvehicle":2981,"ety":2982,"Ġfeels":2983,"Ġcateg":2984,"Ġwouldn":2985,"Ġtalk":2986,"Ġtalked":2987,"Ġcrowd":2988,"Ġmanaged":2989,"Ġenemies":2990,"Ġshows":2991,"sports":2992,"Ġtrick":2993,"Ġyears":2994,"Ġthroughout":2995,"endly":2996,"Ġmassively":2997,"Ġcouldn":2998,"Ġtypical":2999,"Ġincluded":3000,"Ġsurviv":3001,"Ġrate":3002,"Ġunderstand":3003,"Ġcombination":3004,"Ġsolve":3005,"ability":3006,"Ġappeal":3007,"Ġchallenge":3008,"Ġlaunching":3009,"Ġjoin":3010,"Ġkept":3011,"Ġstrongly":3012,"Ġgraphic":3013,"Ġexpectations":3014,"Ġmatch":3015,"Ġeasily":3016,"Ġconvenience":3017,"Ġimpact":3018,"Ġimprove":3019,"Ġgets":3020,"naughty":3021,"Ġtons":3022,"Ġmasterpie":3023,"Ġextra":3024,"Ġadore":3025,"Ġattempt":3026,"Ġmixed":3027,"Ġfollow":3028,"Ġcomplete":3029,"Ġacross":3030,"Ġtwo":3031,"Ġflaw":3032,"Ġyounger":3033,"Ġheaven":3034,"Ġvariety":3035,"ushed":3036,"Ġcontrol":3037,"Ġadult":3038,"Ġunderwhelmed":3039,"Ġtraditional":3040,"Ġredefined":3041,"friendly":3042,"hitman":3043,"maybe":3044,"overkill":3045,"atisf":3046,"Ġmoney":3047,"Ġbarely":3048,"Ġbalance":3049,"Ġclose":3050,"Ġfigured":3051,"Ġhours":3052,"Ġsuccess":3053,"Ġalmost":3054,"Ġlaptop":3055,"Ġsurvival":3056,"Ġgraphics":3057,"Ġmasterpiece":3058,"199":3059,"ait":3060,"august":3061,"bl":3062,"bt":3063,"bed":3064,"but":3065,"bloober":3066,"cy":3067,"cri":3068,"cess":3069,"cuted":3070,"don":3071,"eye":3072,"ecuted":3073,"fire":3074,"filled":3075,"ged":3076,"ior":3077,"kay":3078,"know":3079,"konami":3080,"kful":3081,"ling":3082,"my":3083,"nintendo":3084,"nered":3085,"og":3086,"okay":3087,"pc":3088,"sed":3089,"sion":3090,"sie":3091,"sic":3092,"say":3093,"sum":3094,"ty":3095,"tin":3096,"team":3097,"tinu":3098,"tell":3099,"uin":3100,"ude":3101,"ubisoft":3102,"vin":3103,"via":3104,"vated":3105,"wis":3106,"wap":3107,"yled":3108,"Ġ-":3109,"Ġform":3110,"Ġulti":3111,"inda":3112,"ree":3113,"ren":3114,"ret":3115,"reme":3116,"rend":3117,"atch":3118,"atur":3119,"atible":3120,"Ġtame":3121,"Ġten":3122,"Ġtrend":3123,"orge":3124,"ordinary":3125,"Ġsle":3126,"Ġsal":3127,"Ġspo":3128,"Ġsour":3129,"Ġsched":3130,"Ġsatisf":3131,"Ġswap":3132,"aste":3133,"ves":3134,"vey":3135,"til":3136,"Ġgea":3137,"Ġgar":3138,"Ġgorge":3139,"step":3140,"Ġmar":3141,"oubt":3142,"playstation":3143,"Ġincom":3144,"Ġintend":3145,"rative":3146,"Ġwea":3147,"Ġwatch":3148,"Ġbl":3149,"Ġbri":3150,"Ġboot":3151,"Ġbought":3152,"Ġbug":3153,"Ġbring":3154,"Ġnear":3155,"Ġnar":3156,"Ġnatur":3157,"ead":3158,"estion":3159,"Ġfit":3160,"Ġfut":3161,"Ġfur":3162,"Ġfield":3163,"Ġdil":3164,"Ġdist":3165,"Ġdoubt":3166,"ooth":3167,"Ġobje":3168,"Ġomis":3169,"Ġequ":3170,"Ġitself":3171,"row":3172,"roac":3173,"road":3174,"acter":3175,"acts":3176,"rid":3177,"rible":3178,"ricted":3179,"vented":3180,"Ġreput":3181,"lot":3182,"Ġnovel":3183,"develop":3184,"anic":3185,"Ġstarted":3186,"Ġstart":3187,"iting":3188,"Ġhey":3189,"Ġhating":3190,"Ġhonest":3191,"person":3192,"Ġforget":3193,"Ġsight":3194,"ified":3195,"Ġviewed":3196,"Ġexact":3197,"key":3198,"uncher":3199,"Ġpop":3200,"Ġtop":3201,"Ġtopic":3202,"Ġbeco":3203,"Ġexception":3204,"Ġmaker":3205,"Ġlist":3206,"Ġmech":3207,"Ġrequires":3208,"Ġlikely":3209,"Ġdec":3210,"Ġdep":3211,"Ġdev":3212,"Ġdeci":3213,"dern":3214,"Ġhasn":3215,"like":3216,"table":3217,"tably":3218,"Ġordinary":3219,"Ġmodern":3220,"Ġoutdid":3221,"anding":3222,"Ġnext":3223,"Ġconvers":3224,"Ġconsum":3225,"Ġcontinu":3226,"Ġreali":3227,"arently":3228,"Ġkinda":3229,"iant":3230,"Ġunhap":3231,"Ġuntil":3232,"Ġability":3233,"Ġalley":3234,"Ġentertained":3235,"ractive":3236,"Ġtaking":3237,"Ġwhate":3238,"joyable":3239,"your":3240,"Ġneeded":3241,"some":3242,"Ġusual":3243,"aded":3244,"Ġlame":3245,"Ġlauncher":3246,"Ġwide":3247,"codemasters":3248,"Ġsmooth":3249,"Ġleg":3250,"Ġlevel":3251,"Ġless":3252,"Ġpredic":3253,"Ġprevented":3254,"Ġproper":3255,"Ġgenuin":3256,"Ġloaded":3257,"Ġyourself":3258,"Ġsees":3259,"Ġotherwis":3260,"Ġswitched":3261,"Ġarrive":3262,"Ġreceiving":3263,"Ġboast":3264,"Ġboasts":3265,"Ġtrust":3266,"Ġloves":3267,"Ġfeelings":3268,"Ġhearing":3269,"Ġelevated":3270,"Ġcatalog":3271,"Ġfancy":3272,"Ġreviewers":3273,"Ġadd":3274,"Ġadding":3275,"Ġgoes":3276,"ils":3277,"ired":3278,"Ġcross":3279,"Ġported":3280,"Ġrestricted":3281,"Ġdescri":3282,"Ġgreatly":3283,"Ġexpanding":3284,"side":3285,"sible":3286,"Ġvalue":3287,"Ġhopes":3288,"Ġthemsel":3289,"Ġcompatible":3290,"Ġdecently":3291,"Ġtiny":3292,"Ġamazingly":3293,"Ġchecking":3294,"Ġadequate":3295,"Ġnormal":3296,"Ġguy":3297,"Ġoffered":3298,"Ġproduct":3299,"Ġproduced":3300,"Ġpartial":3301,"Ġthankful":3302,"Ġnicely":3303,"Ġnewer":3304,"pped":3305,"Ġdisappointment":3306,"ructed":3307,"Ġages":3308,"Ġagree":3309,"Ġfeatured":3310,"moon":3311,"Ġallowing":3312,"Ġallowed":3313,"Ġawful":3314,"Ġcombining":3315,"Ġstick":3316,"Ġapproac":3317,"Ġapparently":3318,"2016":3319,"2010":3320,"before":3321,"bethesda":3322,"Ġaudience":3323,"acters":3324,"Ġreasons":3325,"Ġstands":3326,"Ġstanding":3327,"Ġimpression":3328,"Ġregret":3329,"Ġstoryline":3330,"ieved":3331,"platforming":3332,"Ġplace":3333,"Ġplaced":3334,"Ġexcpec":3335,"Ġexcuse":3336,"Ġbrothers":3337,"Ġhelps":3338,"Ġpurchasing":3339,"Ġpurchased":3340,"Ġaccess":3341,"Ġmisstep":3342,"Ġblends":3343,"Ġmessed":3344,"Ġcompete":3345,"Ġcompetitive":3346,"Ġspecifically":3347,"Ġmiddling":3348,"Ġhorrible":3349,"Ġholds":3350,"Ġhappen":3351,"Ġextreme":3352,"Ġlikability":3353,"Ġappreciated":3354,"Ġadored":3355,"Ġattractive":3356,"Ġfolks":3357,"Ġrarely":3358,"Ġmemory":3359,"Ġmemories":3360,"2005":3361,"2013":3362,"Ġgrabbing":3363,"Ġunenjoyable":3364,"Ġcharacter":3365,"Ġcharacters":3366,"Ġleaves":3367,"games":3368,"Ġplease":3369,"Ġplanning":3370,"Ġsongs":3371,"Ġseries":3372,"Ġgrou":3373,"Ġbook":3374,"Ġanswer":3375,"Ġcauses":3376,"Ġdropped":3377,"Ġeventually":3378,"Ġhype":3379,"Ġenhanced":3380,"Ġdelightful":3381,"Ġconstructed":3382,"Ġchildren":3383,"Ġcategory":3384,"Ġappealing":3385,"Ġextraordinary":3386,"Ġfollowing":3387,"Ġflawless":3388,"fireproof":3389,"Ġultimately":3390,"Ġtends":3391,"Ġspoils":3392,"Ġscheduled":3393,"Ġswaps":3394,"asteful":3395,"Ġgeared":3396,"Ġgarnered":3397,"Ġgorgeous":3398,"Ġmarket":3399,"Ġweak":3400,"Ġnarrative":3401,"Ġnaturally":3402,"estions":3403,"Ġfuture":3404,"Ġfurther":3405,"Ġdiluted":3406,"Ġdistasteful":3407,"Ġomission":3408,"Ġreputation":3409,"developed":3410,"anics":3411,"Ġbecome":3412,"Ġmechanics":3413,"Ġdecide":3414,"Ġconversation":3415,"Ġunhappy":3416,"Ġwhatever":3417,"Ġpredictably":3418,"Ġproperly":3419,"Ġgenuinely":3420,"Ġotherwise":3421,"Ġarrived":3422,"Ġdescribe":3423,"Ġthemselves":3424,"Ġthankfully":3425,"Ġapproach":3426}