{"<s>":0,"<pad>":1,"</s>":2,"<unk>":3,"<|area|>":4,"<|customerrating|>":5,"<|eattype|>":6,"<|familyfriendly|>":7,"<|food|>":8,"<|name|>":9,"<|near|>":10,"<|pricerange|>":11,"!":12,"\"":13,"#":14,"$":15,"%":16,"&":17,"'":18,"(":19,")":20,"*":21,"+":22,",":23,"-":24,".":25,"/":26,"0":27,"1":28,"2":29,"3":30,"4":31,"5":32,"6":33,"7":34,"8":35,"9":36,":":37,";":38,"<":39,"=":40,">":41,"?":42,"@":43,"A":44,"B":45,"C":46,"D":47,"E":48,"F":49,"G":50,"H":51,"I":52,"J":53,"K":54,"L":55,"M":56,"N":57,"O":58,"P":59,"Q":60,"R":61,"S":62,"T":63,"U":64,"V":65,"W":66,"X":67,"Y":68,"Z":69,"[":70,"\\":71,"]":72,"^":73,"_":74,"`":75,"a":76,"b":77,"c":78,"d":79,"e":80,"f":81,"g":82,"h":83,"i":84,"j":85,"k":86,"l":87,"m":88,"n":89,"o":90,"p":91,"q":92,"r":93,"s":94,"t":95,"u":96,"v":97,"w":98,"x":99,"y":100,"z":101,"{":102,"|":103,"}":104,"~":105,"¡":106,"¢":107,"£":108,"¤":109,"¥":110,"¦":111,"§":112,"¨":113,"©":114,"ª":115,"«":116,"¬":117,"®":118,"¯":119,"°":120,"±":121,"²":122,"³":123,"´":124,"µ":125,"¶":126,"·":127,"¸":128,"¹":129,"º":130,"»":131,"¼":132,"½":133,"¾":134,"¿":135,"À":136,"Á":137,"Â":138,"Ã":139,"Ä":140,"Å":141,"Æ":142,"Ç":143,"È":144,"É":145,"Ê":146,"Ë":147,"Ì":148,"Í":149,"Î":150,"Ï":151,"Ð":152,"Ñ":153,"Ò":154,"Ó":155,"Ô":156,"Õ":157,"Ö":158,"×":159,"Ø":160,"Ù":161,"Ú":162,"Û":163,"Ü":164,"Ý":165,"Þ":166,"ß":167,"à":168,"á":169,"â":170,"ã":171,"ä":172,"å":173,"æ":174,"ç":175,"è":176,"é":177,"ê":178,"ë":179,"ì":180,"í":181,"î":182,"ï":183,"ð":184,"ñ":185,"ò":186,"ó":187,"ô":188,"õ":189,"ö":190,"÷":191,"ø":192,"ù":193,"ú":194,"û":195,"ü":196,"ý":197,"þ":198,"ÿ":199,"Ā":200,"ā":201,"Ă":202,"ă":203,"Ą":204,"ą":205,"Ć":206,"ć":207,"Ĉ":208,"ĉ":209,"Ċ":210,"ċ":211,"Č":212,"č":213,"Ď":214,"ď":215,"Đ":216,"đ":217,"Ē":218,"ē":219,"Ĕ":220,"ĕ":221,"Ė":222,"ė":223,"Ę":224,"ę":225,"Ě":226,"ě":227,"Ĝ":228,"ĝ":229,"Ğ":230,"ğ":231,"Ġ":232,"ġ":233,"Ģ":234,"ģ":235,"Ĥ":236,"ĥ":237,"Ħ":238,"ħ":239,"Ĩ":240,"ĩ":241,"Ī":242,"ī":243,"Ĭ":244,"ĭ":245,"Į":246,"į":247,"İ":248,"ı":249,"Ĳ":250,"ĳ":251,"Ĵ":252,"ĵ":253,"Ķ":254,"ķ":255,"ĸ":256,"Ĺ":257,"ĺ":258,"Ļ":259,"ļ":260,"Ľ":261,"ľ":262,"Ŀ":263,"ŀ":264,"Ł":265,"ł":266,"Ń":267,"<|":268,"|>":269,"Ġ<|":270,"er":271,"ri":272,"an":273,"Ġc":274,"th":275,"at":276,"Ġi":277,"en":278,"Ġth":279,"re":280,"ly":281,"am":282,"Ġf":283,"st":284,"od":285,"Ġa":286,"Ġthe":287,"in":288,"ood":289,"Ġo":290,"ge":291,"es":292,"ric":293,"ing":294,"ea":295,"Ġis":296,"Ġp":297,"rat":298,"end":299,"riend":300,"riendly":301,"om":302,"id":303,"rating":304,"nam":305,"name":306,"ver":307,"ust":308,"ustom":309,"ustomer":310,"Ġh":311,"Ġs":312,"ear":313,"ty":314,"near":315,"Ġb":316,"ange":317,"ami":318,"amily":319,"Ġl":320,"food":321,"Ġof":322,"Ġin":323,"li":324,"friendly":325,"ed":326,"Ġri":327,"Ġriver":328,"pric":329,"ide":330,"rea":331,"Ġ5":332,"side":333,"Ġriverside":334,"erange":335,"pricerange":336,"Ġit":337,"customer":338,"customerrating":339,"Ġlo":340,"family":341,"Ġfood":342,"familyfriendly":343,"Ġco":344,"ur":345,"Ġm":346,"area":347,"ut":348,"ee":349,"ho":350,"ent":351,"Ġw":352,"Ġan":353,"ff":354,"Ġout":355,"Ġy":356,"eat":357,"rest":358,"Â£":359,"Ġch":360,"ĠÂ£":361,"ffee":362,"Ġsho":363,"Ġcoffee":364,"Ġshop":365,"pe":366,"gh":367,"type":368,"Ġr":369,"eattype":370,"Ġn":371,"rice":372,"igh":373,"Ġnear":374,"Ġhigh":375,"Ġrest":376,"Ġyes":377,"ant":378,"Ġand":379,"aur":380,"aurant":381,"Ġrestaurant":382,"ch":383,"ity":384,"Ġcity":385,"Ġcent":386,"Ġrating":387,"ese":388,"il":389,"the":390,"Ġno":391,"Ġcentre":392,"Ġpu":393,"Ġca":394,"Ġfriendly":395,"Ġcustomer":396,"Ġthan":397,"20":398,"ated":399,"cated":400,"ren":401,"Ġha":402,"Ġpub":403,"ll":404,"Ġg":405,"Ġlocated":406,"Ġt":407,"ou":408,"ast":409,"ali":410,"ve":411,"ap":412,"ro":413,"vera":414,"verage":415,"fÃ":416,"fÃ©":417,"Ġlow":418,"ĠcafÃ©":419,"Ġaverage":420,"Ġprice":421,"Ġj":422,"alian":423,"Ġfast":424,"apan":425,"Ġitalian":426,"apanese":427,"Ġfamily":428,"ate":429,"Ġjapanese":430,"oder":431,"oderate":432,"Ġhas":433,"rench":434,"Ġmoderate":435,"di":436,"Ġfrench":437,"ol":438,"or":439,"Ġser":440,"um":441,"ers":442,"dian":443,"Ġrange":444,"Ġindian":445,"ith":446,"ar":447,"Ġserv":448,"Ġwith":449,"sh":450,"ne":451,"ild":452,"la":453,"eap":454,"ce":455,"Ġcheap":456,"ess":457,"Ġless":458,"le":459,"Ġk":460,"Ġbo":461,"lish":462,"Ġen":463,"Ġrice":464,"Ġboat":465,"Ġ3":466,"Ġpric":467,"Ġ1":468,"glish":469,"Ġenglish":470,"ore":471,"Ġmore":472,"ra":473,"30":474,"Ġe":475,"Ġserves":476,"Ġthat":477,"Ġby":478,"dge":479,"amb":480,"Ġchild":481,"ridge":482,"Ġcamb":483,"Ġcambridge":484,"25":485,"old":486,"row":487,"Ġgold":488,"Ġgolden":489,"xp":490,"inese":491,"Ġchinese":492,"Ġbar":493,"lo":494,"it":495,"Ġnot":496,"Ġexp":497,"ater":498,"Ġwater":499,"man":500,"Ġwaterman":501,"Ġkid":502,"Ġst":503,"ns":504,"ere":505,"ue":506,"Ġarea":507,"Ġtw":508,"Ġpla":509,"Ġar":510,"ment":511,"lies":512,"Ġpriced":513,"ry":514,"ay":515,"Ġrat":516,"Ġcall":517,"Ġcalled":518,"lue":519,"se":520,"zi":521,"ss":522,"Ġrou":523,"Ġrouge":524,"Ġrated":525,"Ġcur":526,"ress":527,"Ġhol":528,"iday":529,"Ġholiday":530,"Ġinn":531,"Ġcurry":532,"Ġexpress":533,"ix":534,"zb":535,"itzb":536,"illies":537,"itzbillies":538,"Ġat":539,"Ġto":540,"Ġra":541,"Ġea":542,"Ġeag":543,"Ġeagle":544,"Ġone":545,"Ġfor":546,"da":547,"rowns":548,"Ġblue":549,"mentum":550,"Ġoff":551,"Ġall":552,"ic":553,"is":554,"ow":555,"ot":556,"Ġhou":557,"Ġhouse":558,"Ġd":559,"rada":560,"ort":561,"ms":562,"and":563,"ice":564,"Ġv":565,"Ġchildren":566,"land":567,"Ġport":568,"Ġarms":569,"Ġportland":570,"ul":571,"Ġwrest":572,"Ġwrestl":573,"Ġwrestlers":574,"there":575,"enix":576,"Ġpho":577,"Ġphoenix":578,"Ġsp":579,"get":580,"el":581,"ult":582,"Ġprices":583,"Ġfy":584,"Ġfyne":585,"Ġfitzbillies":586,"Ġspice":587,"Ġbe":588,"ari":589,"urg":590,"Ġare":591,"rov":592,"Ġburg":593,"Ġprov":594,"pp":595,"Ġve":596,"Ġveget":597,"bow":598,"inbow":599,"arian":600,"Ġvegetarian":601,"Ġrainbow":602,"Ġoffers":603,"nt":604,"to":605,"ive":606,"Ġnood":607,"Ġburger":608,"Ġprovid":609,"Ġnoodle":610,"ipp":611,"ippee":612,"Ġyippee":613,"ine":614,"Ġpunt":615,"Ġpunter":616,"Ġking":617,"Ġali":618,"Ġalimentum":619,"ults":620,"Ġhot":621,"Ġhotel":622,"za":623,"Ġbrowns":624,"enty":625,"Ġplaza":626,"Ġtwenty":627,"Ġcrow":628,"Ġstar":629,"Ġtwo":630,"wood":631,"ildwood":632,"Ġstrada":633,"Ġran":634,"Ġgre":635,"cum":636,"Ġcrowne":637,"Ġva":638,"Ġon":639,"Ġman":640,"Ġplace":641,"ree":642,"Ġvaults":643,"ili":644,"Ġsic":645,"Ġsicili":646,"Ġsicilia":647,"ak":648,"ill":649,"zzi":650,"zizzi":651,"Ġmid":652,"Ġwh":653,"Ġranch":654,"Ġcu":655,"Ġcuis":656,"Ġserving":657,"Ġcuisine":658,"Ġoli":659,"Ġolive":660,"rove":661,"mer":662,"Ġgrove":663,"ummer":664,"summer":665,"Ġloch":666,"Ġbut":667,"Ġpa":668,"lace":669,"Ġthey":670,"Ġpalace":671,"Ġmoderately":672,"omi":673,"tto":674,"Ġcotto":675,"Ġbak":676,"Ġbakers":677,"Ġclo":678,"Ġcla":679,"Ġkids":680,"Ġmill":681,"Ġhall":682,"Ġclare":683,"Ġwildwood":684,"ough":685,"nd":686,"Ġits":687,"ling":688,"ens":689,"ump":690,"Ġtree":691,"Ġdump":692,"Ġdumpling":693,"ensive":694,"Ġgreen":695,"rent":696,"et":697,"Ġsor":698,"rento":699,"Ġsorrento":700,"ich":701,"Ġwhich":702,"Ġratings":703,"bi":704,"lls":705,"Ġad":706,"Ġprovides":707,"'s":708,"Ġcocum":709,"Ġzizzi":710,"Ġpl":711,"wns":712,"Ġyou":713,"Ġname":714,"ffe":715,"ira":716,"iraffe":717,"Ġmidsummer":718,"ound":719,"Ġplough":720,"ket":721,"Ġcustomers":722,"Ġcric":723,"keters":724,"Ġcricketers":725,"Ġaromi":726,"Ġnamed":727,"ab":728,"Ġbra":729,"located":730,"mb":731,"Ġhighly":732,"Ġexpensive":733,"zil":734,"Ġbrazil":735,"bimb":736,"bimbap":737,"on":738,"Ġre":739,"fitzbillies":740,"Ġcan":741,"Ġthere":742,"Ġcenter":743,"ja":744,"Ġraja":745,"Ġhave":746,"Ġgiraffe":747,"aste":748,"browns":749,"Ġclowns":750,"priced":751,"Ġsix":752,"lon":753,"Ġbells":754,"ls":755,"eater":756,"Ġsu":757,"Ġcost":758,"alimentum":759,"vi":760,"Ġproviding":761,"Ġ20":762,"strada":763,"Ġbi":764,"Ġthis":765,"Ġbibimbap":766,"co":767,"riat":768,"Ġadriat":769,"Ġadriatic":770,"Ġoffer":771,"va":772,"Ġava":773,"Ġtaste":774,"loch":775,"blue":776,"Ġfr":777,"Ġse":778,"com":779,"Ġclose":780,"Ġfrom":781,"Ġavalon":782,"cot":783,"for":784,"cotto":785,"cocum":786,"rave":787,"llers":788,"Ġbee":789,"Ġbeef":790,"ravellers":791,"Ġbeefeater":792,"os":793,"Ġfive":794,"ti":795,"Ġu":796,"shi":797,"Ġoffering":798,"Ġsushi":799,"ew":800,"Ġfound":801,"lso":802,"Ġalso":803,"Ġnon":804,"Ġgood":805,"Ġstars":806,"Ġest":807,"ablish":808,"Ġestablish":809,"iv":810,"Ġestablishment":811,"wildwood":812,"amilies":813,"ir":814,"xt":815,"Ġmea":816,"Ġgreat":817,"Ġtravellers":818,"Ġven":819,"Ġvenue":820,"Ġsells":821,"Ġfamilies":822,"Ġpound":823,"Ġne":824,"Ġserve":825,"mid":826,"Ġsit":827,"with":828,"midsummer":829,"aromi":830,"Ġpounds":831,"if":832,"able":833,"Ġnext":834,"ron":835,"Ġas":836,"Ġenvi":837,"ronment":838,"Ġenvironment":839,"Ġonly":840,"clo":841,"Ġ30":842,"qu":843,"uated":844,"very":845,"gre":846,"Ġeat":847,"ind":848,"green":849,"al":850,"here":851,"ok":852,"Ġwe":853,"Ġqu":854,"Ġvery":855,"view":856,"mos":857,"phere":858,"ceiv":859,"Ġatmos":860,"elcom":861,"Ġatmosphere":862,"Ġsituated":863,"Ġtry":864,"Ġfind":865,"Ġpo":866,"Ġreceiv":867,"Ġthree":868,"Ġreview":869,"clowns":870,"Ġadult":871,"star":872,"Ġwelcom":873,"Ġdo":874,"xpensive":875,"expensive":876,"oking":877,"Ġinexpensive":878,"giraffe":879,"'t":880,"Ġde":881,"rin":882,"Ġfa":883,"Ġnor":884,"bibimbap":885,"yle":886,"Ġrea":887,"Ġtheir":888,"Ġmeals":889,"Ġhigher":890,"edi":891,"Ġnorth":892,"Ġreceived":893,"Ġlooking":894,"Ġche":895,"Ġmedi":896,"Ġloc":897,"Ġreviews":898,"ble":899,"Ġeater":900,"Ġex":901,"Ġeatery":902,"ality":903,"we":904,"Ġmedium":905,"Ġcosts":906,"son":907,"Ġwine":908,"rated":909,"Ġbet":910,"tion":911,"Ġreason":912,"bo":913,"ffor":914,"fforda":915,"Ġquality":916,"ween":917,"Ġafforda":918,"Ġbetween":919,"our":920,"long":921,"Ġstyle":922,"Ġaffordable":923,"Ġwill":924,"Ġabo":925,"Ġadults":926,"Ġover":927,"Ġpoor":928,"ion":929,"Ġwelcome":930,"Ġrate":931,"own":932,"Ġdoes":933,"Ġservice":934,"nder":935,"Ġyour":936,"Ġdin":937,"Ġeur":938,"taste":939,"Ġgo":940,"Ġalong":941,"Ġget":942,"ation":943,"enu":944,"Ġmenu":945,"Ġdeli":946,"riti":947,"ritish":948,"Ġbritish":949,"ome":950,"Ġsuit":951,"Ġdi":952,"ake":953,"Ġunder":954,"Ġhow":955,"Ġexce":956,"ever":957,"Ġ.":958,"Ġhowever":959,"by":960,"Ġmeal":961,"comm":962,"Ġlocation":963,"ci":964,"Ġeuros":965,"Ġwho":966,"isit":967,"Ġwhere":968,"commend":969,"llent":970,"Ġrecommend":971,"Ġsuitable":972,"Ġserved":973,"Ġdining":974,"Ġexcellent":975,"fast":976,"Ġtake":977,"as":978,"ging":979,"Ġthen":980,"Ġabove":981,"though":982,"Ġisn":983,"Ġbeen":984,"Ġup":985,"ct":986,"jo":987,"-Â£":988,"ck":989,"Ġal":990,"Ġvisit":991,"Ġ,":992,"joy":993,"ting":994,"Ġwell":995,"Ġcrown":996,"Ġallow":997,"Ġam":998,"'re":999,"Ġjust":1000,"Ġranging":1001,"Ġper":1002,"rink":1003,"Ġfoods":1004,"Ġdrink":1005,"Ġrecommended":1006,"ght":1007,"Ġop":1008,"int":1009,"way":1010,"Ġ-":1011,"child":1012,"ring":1013,"Ġwithin":1014,"ven":1015,"Ġwhole":1016,"Ġenjoy":1017,"Ġend":1018,"Ġgiv":1019,"ite":1020,"Ġdish":1021,"Ġbrea":1022,"ving":1023,"ous":1024,"Ġcheese":1025,"Ġreasonable":1026,"rient":1027,"Ġpricing":1028,"Ġfair":1029,"Ġdishes":1030,"ad":1031,"ĠĠ":1032,"Ġaround":1033,"ably":1034,"eri":1035,"Ġside":1036,"Ġbreak":1037,"ca":1038,"high":1039,"Ġgiven":1040,"ence":1041,"Ġreasonably":1042,"Ġour":1043,"Ġbu":1044,"low":1045,"Ġexperi":1046,"ts":1047,"Ġorient":1048,"Ġbreakfast":1049,"you":1050,"Ġexperience":1051,"Ġoutside":1052,"eatu":1053,"Ġranges":1054,"Ġkn":1055,"Ġfeatu":1056,"Ġor":1057,"Ġcosting":1058,"Ġdeliver":1059,"Ġsell":1060,"Ġalthough":1061,"ally":1062,"ction":1063,"Ġset":1064,"Ġpast":1065,"Ġ25":1066,"Ġnice":1067,"Ġknown":1068,"kid":1069,"Ġsome":1070,"Ġtow":1071,"Ġli":1072,"Ġcons":1073,"ile":1074,"Ġjo":1075,"Ġbest":1076,"Ġsat":1077,"Ġgive":1078,"Ġpoorly":1079,"Ġfine":1080,"Ġspe":1081,"isf":1082,"Ġpricey":1083,"Ġsetting":1084,"res":1085,"Ġwant":1086,"Ġaveragely":1087,"Ġpasta":1088,"cent":1089,"Ġ'":1090,"Ġright":1091,"Ġsatisf":1092,"travellers":1093,"Ġnearby":1094,"Ġfare":1095,"japanese":1096,"ther":1097,"Ġthough":1098,"ient":1099,"Ġbeing":1100,"Ġoriented":1101,"un":1102,"Ġtype":1103,"river":1104,"price":1105,"Ġspeci":1106,"Ġsatisfa":1107,"ser":1108,"ries":1109,"riverside":1110,"Ġfriend":1111,"Ġdown":1112,"Ġtown":1113,"cious":1114,"venient":1115,"Ġvi":1116,"Ġcheck":1117,"one":1118,"Ġpre":1119,"Ġgets":1120,"Ġsatisfaction":1121,"Ġcon":1122,"Ġwas":1123,"cost":1124,"Ġdelicious":1125,"ilable":1126,"Ġdrinks":1127,"Ġview":1128,"Ġso":1129,"serving":1130,"Ġac":1131,"Ġavailable":1132,"children":1133,"Ġconvenient":1134,"ld":1135,"op":1136,"Ġwelcomes":1137,"away":1138,"french":1139,"Ġcho":1140,"Ġif":1141,"Ġfries":1142,"Ġburgers":1143,"range":1144,"Ġwhile":1145,"Ġbudge":1146,"Ġjoint":1147,"Ġvari":1148,"tional":1149,"Ġallowed":1150,"Ġdine":1151,"Ġbudget":1152,"ies":1153,"ider":1154,"Ġlower":1155,"umer":1156,"Ġboast":1157,"italian":1158,"Ġus":1159,"Ġspeciali":1160,"ines":1161,"Ġsc":1162,"ould":1163,"Ġfairly":1164,"Ġconsider":1165,"zing":1166,"Ġwould":1167,"Ġranged":1168,"Ġun":1169,"Ġbring":1170,"itt":1171,"Ġdecent":1172,"Ġlove":1173,"ight":1174,"radi":1175,"Ġquite":1176,"Ġfeatures":1177,"Ġselling":1178,"ety":1179,"Ġcom":1180,"eside":1181,"lic":1182,"ased":1183,"fe":1184,"Ġtradi":1185,"Ġvariety":1186,"cheap":1187,"uld":1188,"Ġoption":1189,"Ġconsidered":1190,"Ġreceives":1191,"ular":1192,"Ġlik":1193,"Ġtraditional":1194,"eric":1195,"Ġbelow":1196,"Ġprovide":1197,"Ġabout":1198,"erican":1199,"Ġbased":1200,"Ġite":1201,"close":1202,"Ġboasts":1203,"Ġhea":1204,"Ġnew":1205,"Ġconveniently":1206,"Ġitems":1207,"eses":1208,"Ġtoo":1209,"Ġrank":1210,"Ġamerican":1211,"Ġty":1212,"Ġbeside":1213,"highly":1214,"Ġdeliveries":1215,"Ġtyp":1216,"ain":1217,"Ġwines":1218,"ard":1219,"Ġmidd":1220,"Ġperfe":1221,"Ġchoice":1222,"Ġperfect":1223,"lly":1224,"this":1225,"Ġpop":1226,"Ġcome":1227,"english":1228,"come":1229,"Ġscore":1230,"Ġmiddle":1231,"Ġcheeses":1232,"Ġtypic":1233,"pect":1234,"Ġcostumer":1235,"Ġlike":1236,"moderate":1237,"aters":1238,"Ġpublic":1239,"Ġhead":1240,"im":1241,"us":1242,"Ġcaters":1243,"style":1244,"cale":1245,"all":1246,"Ġear":1247,"ons":1248,"llar":1249,"Ġcheaply":1250,"Ġpopular":1251,"out":1252,"Ġcater":1253,"Ġpay":1254,"Ġeating":1255,"Ġpoint":1256,"Ġlitt":1257,"orth":1258,"next":1259,"Ġdollar":1260,"Ġdelivers":1261,"Ġlittle":1262,"azing":1263,"cl":1264,"customers":1265,"Ġro":1266,"although":1267,"red":1268,"Ġthem":1269,"Ġamazing":1270,"Ġroad":1271,"Ġfar":1272,"indian":1273,"sit":1274,"ffer":1275,"Ġvalue":1276,"ter":1277,"Ġgot":1278,"moderately":1279,"kir":1280,"ud":1281,"ull":1282,"yes":1283,"Ġstarting":1284,"Ġplea":1285,"Ġearn":1286,"Ġdollars":1287,"kirts":1288,"ps":1289,"skirts":1290,"eal":1291,"Ġoutskirts":1292,"ices":1293,"Ġexpect":1294,"ople":1295,"Ġearned":1296,"Ġfull":1297,"Ġbad":1298,"Ġmay":1299,"ross":1300,"Ġspend":1301,"tions":1302,"situated":1303,"Ġpe":1304,"Ġhad":1305,"ately":1306,"Ġplac":1307,"Ġacross":1308,"ian":1309,"scale":1310,"Ġid":1311,"Ġage":1312,"Ġlook":1313,"chinese":1314,"Ġtast":1315,"looking":1316,"Ġstart":1317,"Ġupscale":1318,"iri":1319,"ose":1320,"Ġbit":1321,"Ġservices":1322,"Ġeven":1323,"Ġdes":1324,"Ġspiri":1325,"Ġclass":1326,"Ġdoesn":1327,"Ġspecializ":1328,"Ġpeople":1329,"Ġspirits":1330,"ner":1331,"Ġlocal":1332,"Ġopen":1333,"fort":1334,"ub":1335,"Ġhome":1336,"Ġrates":1337,"Ġfriends":1338,"average":1339,"ack":1340,"pite":1341,"Ġaway":1342,"Ġsli":1343,"let":1344,"ick":1345,"Ġdon":1346,"offer":1347,"use":1348,"wh":1349,"Ġincl":1350,"Ġworth":1351,"Ġgr":1352,"Ġboth":1353,"Ġreally":1354,"ghtly":1355,"offering":1356,"Ġinclud":1357,"Ġother":1358,"eaut":1359,"iful":1360,"Ġdist":1361,"Ġspecializes":1362,"Ġslightly":1363,"eautiful":1364,"uit":1365,"ative":1366,"Ġhear":1367,"Ġbeautiful":1368,"Ġyet":1369,"Ġserver":1370,"coffee":1371,"Ġsele":1372,"Ġfeaturing":1373,"unately":1374,"Ġtypically":1375,"Ġideal":1376,"fortunately":1377,"Ġent":1378,"Ġasian":1379,"Ġunfortunately":1380,"Ġplease":1381,"'ll":1382,"est":1383,"not":1384,"Ġpar":1385,"Ġhere":1386,"Ġcould":1387,"Ġspa":1388,"Ġbeca":1389,"Ġbecause":1390,"along":1391,"ost":1392,"Ġsm":1393,"Ġshould":1394,"Ġoptions":1395,"Ġusu":1396,"ener":1397,"Ġthose":1398,"Ġtop":1399,"Ġsmall":1400,"try":1401,"Ġhamb":1402,"Ġnight":1403,"Ġhaving":1404,"ront":1405,"Ġeuro":1406,"Ġhamburg":1407,"ank":1408,"Ġmone":1409,"Ġmoney":1410,"..":1411,"Ġsou":1412,"only":1413,"Ġlovely":1414,"ful":1415,"front":1416,"tty":1417,"Ġapp":1418,"Ġpers":1419,"Ġoutlet":1420,"Ġchar":1421,"Ġgener":1422,"Ġlowly":1423,"Ġbeverage":1424,"Ġfav":1425,"Ġpretty":1426,"Ġperson":1427,"'.":1428,"Ġstop":1429,"Ġquick":1430,"kids":1431,"Ġplaced":1432,"down":1433,"led":1434,"Ġaw":1435,"Ġsh":1436,"Ġsee":1437,"Ġmost":1438,"Ġranked":1439,"Ġscores":1440,"Ġusually":1441,"les":1442,"Ġfur":1443,"Ġovera":1444,"ghet":1445,"Ġstore":1446,"ong":1447,"Ġcostly":1448,"Ġfruit":1449,"Ġsits":1450,"Ġsited":1451,"Ġlocate":1452,"Ġspaghet":1453,"Ġoverall":1454,"Ġspaghetti":1455,".,":1456,"per":1457,"welcom":1458,"stand":1459,"Ġmar":1460,"Ġwo":1461,"Ġrestaurants":1462,"Ġwhat":1463,"cafÃ©":1464,"Ġservers":1465,"cket":1466,"fter":1467,"ance":1468,"ates":1469,"Ġfo":1470,"Ġlea":1471,"Ġoutstand":1472,"che":1473,"Ġspot":1474,"Ġsure":1475,"Ġamong":1476,"Ġfurther":1477,"Ġoutstanding":1478,"city":1479,"uc":1480,"visit":1481,"coho":1482,"Ġalcoho":1483,"Ġdespite":1484,"acks":1485,"Ġhamburgers":1486,"check":1487,"king":1488,"enjoy":1489,"Ġok":1490,"Ġpr":1491,"Ġsea":1492,"Ġbank":1493,"Ġmat":1494,"Ġwide":1495,"Ġneat":1496,"Ġcentra":1497,"Ġevery":1498,"Ġbracket":1499,"Ġreg":1500,"Ġsuper":1501,"Ġoffered":1502,"Ġeats":1503,"Ġreviewed":1504,"ards":1505,"Ġselection":1506,"welcome":1507,"resh":1508,"Ġfant":1509,"Ġaren":1510,"Ġafter":1511,"omew":1512,"Ġsa":1513,"restaurant":1514,"Ġga":1515,"astic":1516,"room":1517,"Ġplus":1518,"Ġdinner":1519,"Ġallows":1520,"Ġages":1521,"Ġgenerally":1522,"Ġbeverages":1523,"Ġwonder":1524,"Ġfantastic":1525,"00":1526,"ip":1527,"of":1528,"rt":1529,"te":1530,"Ġau":1531,"Ġsn":1532,"Ġsomew":1533,"Ġriverfront":1534,"Ġmight":1535,"Ġshort":1536,"vel":1537,"Ġwithout":1538,"Ġdue":1539,"Ġmany":1540,"Ġoriental":1541,"Ġprem":1542,"Ġspecializing":1543,"Ġcomes":1544,"Ġtypical":1545,"Ġheart":1546,"cili":1547,"ele":1548,"pa":1549,"pub":1550,"ves":1551,"yled":1552,"Ġ4":1553,"Ġmak":1554,"uton":1555,"Ġrel":1556,"Ġfacili":1557,"Ġperm":1558,"Ġopened":1559,"Ġsnacks":1560,"no":1561,"ori":1562,"Ġpro":1563,"Ġhold":1564,"Ġrestroom":1565,"Ġnow":1566,"Ġcurrent":1567,"Ġwelcomed":1568,"Ġviews":1569,"while":1570,"Ġship":1571,"Ġwonderful":1572,"Ġrelative":1573,"ire":1574,"tit":1575,"rict":1576,"Ġnone":1577,"Ġeast":1578,"Ġlies":1579,"Ġconsumer":1580,"unch":1581,"Ġunfriendly":1582,"Ġdistrict":1583,"Ġalcohol":1584,"Ġcurrently":1585,"families":1586,"ning":1587,"Ġnam":1588,"thent":1589,"Ġluton":1590,"ents":1591,"entele":1592,"ors":1593,"Ġneed":1594,"quality":1595,"Ġwhose":1596,"Ġord":1597,"Ġacc":1598,"itted":1599,"Ġthemed":1600,"Ġtasty":1601,"Ġdistance":1602,"Ġpart":1603,"Ġcharge":1604,"Ġfavori":1605,"Ġsuperb":1606,"Ġauthent":1607,"Ġpermitted":1608,"Ġnames":1609,"Ġauthentic":1610,"are":1611,"bp":1612,"eed":1613,"xim":1614,"ans":1615,"Ġcli":1616,"thing":1617,"Ġfree":1618,"Ġle":1619,"Ġlunch":1620,"Ġcheaper":1621,"Ġthats":1622,"vious":1623,"Ġsuited":1624,"imed":1625,"Ġtasting":1626,"Ġcentrally":1627,"Ġgave":1628,"Ġmakes":1629,"Ġrestrooms":1630,"Ġrelatively":1631,"Ġfavorite":1632,"free":1633,"found":1634,"gin":1635,"ium":1636,"iet":1637,"uch":1638,"Ġcl":1639,"ames":1640,"odest":1641,"Ġhe":1642,"Ġmuch":1643,"Ġmodest":1644,"eep":1645,"Ġtak":1646,"Ġstand":1647,"Ġstyled":1648,"Ġres":1649,"Ġquiet":1650,"Ġnorm":1651,"cts":1652,"Ġbuy":1653,"Ġspecial":1654,"Ġprevious":1655,"arded":1656,"Ġgrub":1657,"Ġincludes":1658,"Ġsouth":1659,"Ġseafood":1660,"Ġpremium":1661,"ng":1662,"su":1663,"ure":1664,"Ġthir":1665,"Ġthames":1666,"Ġsay":1667,"Ġlight":1668,"pper":1669,"Ġgreater":1670,"Ġupper":1671,"Ġdis":1672,"Ġbus":1673,"Ġjoin":1674,"Ġcompe":1675,"Ġgrou":1676,"Ġappro":1677,"Ġleave":1678,"Ġclentele":1679,"',":1680,"be":1681,"cre":1682,"mp":1683,"Ġfeed":1684,"Ġsear":1685,"Ġlu":1686,"Ġmust":1687,"Ġwere":1688,"Ġshops":1689,"ching":1690,"Ġnote":1691,"Ġste":1692,"ways":1693,"adult":1694,"Ġlist":1695,"Ġplaces":1696,"Ġclassic":1697,"when":1698,"Ġentire":1699,"Ġfond":1700,"Ġprod":1701,"Ġholds":1702,"Ġorder":1703,"Ġthirty":1704,"cy":1705,"des":1706,"met":1707,"north":1708,"orient":1709,"pri":1710,"tain":1711,"Ġed":1712,"ancy":1713,"Ġfresh":1714,"Ġint":1715,"Ġmoder":1716,"Ġmind":1717,"Ġmake":1718,"Ġta":1719,"Ġsuch":1720,"ties":1721,"Ġsite":1722,"Ġfalls":1723,"Ġalways":1724,"Ġincluding":1725,"Ġbanks":1726,"Ġregarded":1727,"pared":1728,"Ġcharges":1729,"Ġcompetit":1730,"despite":1731,"Ġedge":1732,"con":1733,"find":1734,"ist":1735,"ired":1736,"ved":1737,"Ġfun":1738,"ster":1739,"Ġbite":1740,"Ġinside":1741,"Ġme":1742,"Ġmain":1743,"Ġchain":1744,"Ġgour":1745,"Ġaveraged":1746,"Ġrang":1747,"Ġwhen":1748,"Ġplates":1749,"Ġred":1750,"Ġfall":1751,"Ġexcl":1752,"usive":1753,"Ġmature":1754,"Ġgroups":1755,"Ġsearching":1756,"Ġlux":1757,"oriented":1758,"Ġgourmet":1759,"Ġexclusive":1760,"bring":1761,"even":1762,"ha":1763,"ish":1764,"ocre":1765,"prov":1766,"rner":1767,"sing":1768,"up":1769,"Ġz":1770,"Ġamb":1771,"ery":1772,"review":1773,"Ġfew":1774,"Ġavera":1775,"Ġsam":1776,"Ġscale":1777,"Ġcorner":1778,"Ġwal":1779,"Ġany":1780,"Ġgra":1781,"ities":1782,"Ġstill":1783,"Ġatt":1784,"Ġrather":1785,"Ġyoung":1786,"Ġrecent":1787,"Ġsomething":1788,"Ġcomp":1789,"uced":1790,"Ġsomewhere":1791,"Ġfacility":1792,"Ġsteps":1793,"Ġprodu":1794,"Ġreduced":1795,"reviewed":1796,"Ġaveraging":1797,"cri":1798,"five":1799,"ible":1800,"ips":1801,"po":1802,"Ġ2":1803,"erri":1804,"Ġcra":1805,"Ġfancy":1806,"Ġaimed":1807,"iness":1808,"eals":1809,"eaway":1810,"Ġlic":1811,"Ġwar":1812,"Ġchips":1813,"Ġterri":1814,"umers":1815,"lax":1816,"Ġstay":1817,"Ġprovided":1818,"Ġwhy":1819,"ensed":1820,"Ġrelax":1821,"Ġuns":1822,"Ġmediocre":1823,"Ġknow":1824,"Ġtowards":1825,"Ġprepared":1826,"ains":1827,"Ġokay":1828,"Ġlevel":1829,"Ġtakeaway":1830,"Ġstandard":1831,"Ġtag":1832,"Ġcompetitive":1833,"Ġzone":1834,"Ġproducts":1835,"Ġlicensed":1836,"aint":1837,"bly":1838,"ctions":1839,"ds":1840,"din":1841,"eu":1842,"ege":1843,"he":1844,"iz":1845,"just":1846,"lf":1847,"oeu":1848,"Ġate":1849,"Ġap":1850,"Ġass":1851,"esome":1852,"Ġpur":1853,"ides":1854,"iding":1855,"Ġhors":1856,"Ġsur":1857,"Ġblo":1858,"Ġinto":1859,"Ġloves":1860,"Ġcoll":1861,"Ġcook":1862,"Ġcoup":1863,"Ġwin":1864,"Ġwon":1865,"Â£.":1866,"Ġgbp":1867,"ount":1868,"Ġaverages":1869,"ory":1870,"level":1871,"self":1872,"Ġrage":1873,"Ġday":1874,"Ġdeals":1875,"ton":1876,"Ġsorry":1877,"Ġrep":1878,"Ġreceiving":1879,"Ġwelcoming":1880,"Ġdoor":1881,"Ġbetter":1882,"Ġgoing":1883,"Ġalter":1884,"Ġgives":1885,"ade":1886,"Ġbreakfasts":1887,"Ġscored":1888,"Ġapprov":1889,"Ġaware":1890,"Ġawesome":1891,"Ġrecently":1892,"Ġterrible":1893,"oeuv":1894,"Ġblock":1895,"Ġcollege":1896,"Ġaltern":1897,"go":1898,"gs":1899,"hat":1900,"ied":1901,"me":1902,"sp":1903,"right":1904,"Ġcam":1905,"enities":1906,"Ġthing":1907,"Ġpri":1908,"Ġbill":1909,"Ġchines":1910,"Ġhighest":1911,"Ġtr":1912,"Ġtend":1913,"ownt":1914,"Ġstarts":1915,"coring":1916,"Ġuse":1917,"Ġneigh":1918,"Ġyourself":1919,"Ġdiner":1920,"Ġamenities":1921,"Ġboasting":1922,"Ġcatering":1923,"uitable":1924,"Ġselections":1925,"Ġseeking":1926,"Ġfruits":1927,"Ġmarket":1928,"Ġmargin":1929,"Ġmatch":1930,"Ġeveryone":1931,"Ġsomewhat":1932,"Ġproxim":1933,"Ġnormal":1934,"priate":1935,"providing":1936,"Ġgrab":1937,"dining":1938,"Ġappe":1939,"Ġalternative":1940,"owntown":1941,"Ġproximity":1942,"fin":1943,"fresh":1944,"hn":1945,"iring":1946,"less":1947,"nic":1948,"ses":1949,"ern":1950,"erts":1951,"ertain":1952,"ating":1953,"receiv":1954,"Ġfee":1955,"ince":1956,"Ġprin":1957,"Ġsold":1958,"Ġindi":1959,"prices":1960,"Ġmy":1961,"Ġmade":1962,"Ġwor":1963,"Ġhight":1964,"Ġcasu":1965,"ary":1966,"cep":1967,"Ġext":1968,"look":1969,"Ġdowntown":1970,"Ġnoodles":1971,"Ġpolic":1972,"Ġnorthern":1973,"Ġchester":1974,"Ġwilling":1975,"Ġgoes":1976,"Ġdelica":1977,"Ġdiffer":1978,"Ġexceed":1979,"commod":1980,"cies":1981,"Ġupw":1982,"Ġjohn":1983,"unning":1984,"Ġaccep":1985,"Ġaccommod":1986,"Ġuni":1987,"Ġpleas":1988,"Ġfacilities":1989,"Ġneeds":1990,"Ġbusiness":1991,"Ġappropriate":1992,"Ġfondue":1993,"having":1994,"Ġwarm":1995,"Ġassort":1996,"Ġcouples":1997,"Ġwinery":1998,"Ġprince":1999,"Ġcasual":2000,"Ġpolicy":2001,"Ġchesterton":2002,"Ġdelicacies":2003,"Ġdifferent":2004,"bed":2005,"back":2006,"crow":2007,"ft":2008,"ggs":2009,"lth":2010,"ptional":2011,"que":2012,"sy":2013,"ug":2014,"Ġes":2015,"atro":2016,"Ġimp":2017,"amous":2018,"Ġfit":2019,"Ġfish":2020,"sts":2021,"Ġpic":2022,"Ġpatro":2023,"Ġscoring":2024,"Ġsince":2025,"nearby":2026,"amili":2027,"Ġlet":2028,"Ġloved":2029,"Ġmin":2030,"Ġmood":2031,"Ġwron":2032,"Ġwall":2033,"Ġhapp":2034,"Ġtap":2035,"Ġtim":2036,"Ġkeep":2037,"Ġwaterfront":2038,"Ġplay":2039,"Ġpairing":2040,"jacent":2041,"Ġsupp":2042,"tiz":2043,"within":2044,"Ġdefin":2045,"Ġexceptional":2046,"Ġamount":2047,"itely":2048,"Ġsoft":2049,"Ġchop":2050,"Ġdecently":2051,"Ġhealth":2052,"pected":2053,"Ġtheme":2054,"Ġdescri":2055,"Ġinclude":2056,"Ġheard":2057,"Ġhamburger":2058,"Ġsaid":2059,"Ġspecialty":2060,"Ġfeedback":2061,"Ġsame":2062,"Ġattra":2063,"Ġcraving":2064,"Ġunsuitable":2065,"spired":2066,"Ġappetiz":2067,"Ġfeel":2068,"Ġupwards":2069,"Ġpatrons":2070,"Ġwrong":2071,"Ġdefinitely":2072,"'ve":2073,"als":2074,"bs":2075,"beside":2076,"ding":2077,"gbp":2078,"iss":2079,"lb":2080,"round":2081,"uri":2082,"want":2083,"stro":2084,"Ġopp":2085,"Ġpos":2086,"vers":2087,"Ġhis":2088,"Ġlot":2089,"Ġcool":2090,"Ġcond":2091,"ury":2092,"Ġmom":2093,"Ġmee":2094,"utation":2095,"Ġpup":2096,"Ġtea":2097,"aps":2098,"lare":2099,"Ġkind":2100,"Ġstree":2101,"Ġstunning":2102,"erest":2103,"ises":2104,"Ġdate":2105,"ulous":2106,"Ġbegin":2107,"inexpensive":2108,"Ġbistro":2109,"Ġuk":2110,"Ġquaint":2111,"Ġgetting":2112,"ctive":2113,"ctory":2114,"ĠĠĠĠ":2115,"Ġconsumers":2116,"veniently":2117,"Ġchoose":2118,"Ġliked":2119,"iance":2120,"Ġtastes":2121,"Ġentries":2122,"Ġspace":2123,"Ġsoup":2124,"Ġmostly":2125,"Ġmark":2126,"ucive":2127,"Ġaccess":2128,"Ġclient":2129,"Ġnormally":2130,"Ġbusy":2131,"Ġinterest":2132,"Ġmoderated":2133,"conveniently":2134,"Ġluxury":2135,"Ġambiance":2136,"Ġwalking":2137,"Ġstaying":2138,"Ġpurch":2139,"Ġreputation":2140,"Ġapproval":2141,"oeuvres":2142,"receiving":2143,"amiliar":2144,"Ġwallet":2145,"Ġtapas":2146,"Ġtime":2147,"Ġpairings":2148,"Ġhealthy":2149,"Ġdescribed":2150,"Ġappetizers":2151,"Ġposit":2152,"Ġconducive":2153,"Ġstreet":2154,"ase":2155,"burg":2156,"dine":2157,"don":2158,"ex":2159,"haps":2160,"kn":2161,"other":2162,"ple":2163,"ran":2164,"ten":2165,"Ġge":2166,"erling":2167,"Ġthin":2168,"reat":2169,"reme":2170,"Ġfab":2171,"oday":2172,"inity":2173,"ination":2174,"Ġsim":2175,"Ġbel":2176,"Ġla":2177,"Ġinspired":2178,"Ġlots":2179,"Ġcont":2180,"Ġmil":2181,"ute":2182,"Ġshow":2183,"they":2184,"Ġgue":2185,"Ġtoday":2186,"Ġjapan":2187,"ording":2188,"laimed":2189,"esserts":2190,"Ġever":2191,"Ġeggs":2192,"its":2193,"ited":2194,"Ġsterling":2195,"Ġrave":2196,"Ġeasy":2197,"icinity":2198,"Ġdesserts":2199,"Ġvicinity":2200,"Ġsport":2201,"Ġaddi":2202,"Ġadjacent":2203,"osite":2204,"stars":2205,"Ġlocates":2206,"Ġaffordably":2207,"Ġalongside":2208,"Ġdelivery":2209,"Ġenjoyed":2210,"Ġbread":2211,"Ġbuild":2212,"respected":2213,"theres":2214,"Ġsatisfactory":2215,"Ġspecialises":2216,"Ġscen":2217,"Ġspending":2218,"Ġclassy":2219,"Ġentertain":2220,"Ġpark":2221,"Ġusual":2222,"Ġeurope":2223,"Ġsoups":2224,"Ġcharging":2225,"Ġcentral":2226,"Ġregular":2227,"Ġsafe":2228,"Ġaccording":2229,"ximately":2230,"Ġclients":2231,"Ġapproximately":2232,"Ġmeans":2233,"Ġluxuri":2234,"Ġextreme":2235,"Ġpleasant":2236,"crowne":2237,"uga":2238,"Ġpicnic":2239,"Ġopposite":2240,"Ġaccessible":2241,"Ġpositive":2242,"known":2243,"Ġfabulous":2244,"Ġbeluga":2245,"Ġextremely":2246,"50":2247,"age":2248,"ared":2249,"bor":2250,"cus":2251,"ek":2252,"fer":2253,"good":2254,"gge":2255,"gain":2256,"hood":2257,"ie":2258,"ier":2259,"ions":2260,"ke":2261,"lea":2262,"ming":2263,"past":2264,"rd":2265,"take":2266,"ues":2267,"vid":2268,"Ġ:":2269,"any":2270,"Ġcant":2271,"three":2272,"Ġfry":2273,"stination":2274,"Ġach":2275,"Ġold":2276,"ead":2277,"Ġput":2278,"Ġpick":2279,"rate":2280,"omic":2281,"Ġsod":2282,"Ġsing":2283,"Ġbeat":2284,"reason":2285,"Ġmix":2286,"Ġmiss":2287,"Ġwit":2288,"peci":2289,"llo":2290,"Ġgla":2291,"Ġtreat":2292,"appo":2293,"orly":2294,"ither":2295,"Ġboard":2296,"Ġequ":2297,"Ġecon":2298,"Ġchildless":2299,"Ġgreek":2300,"Ġcotton":2301,"Ġplate":2302,"Ġsugge":2303,"Ġofferings":2304,"Ġsitting":2305,"great":2306,"Ġposs":2307,"starred":2308,"Ġdestination":2309,"Ġdelight":2310,"Ġvisiting":2311,"Ġperhaps":2312,"Ġdrinking":2313,"ĠĠĠ":2314,"Ġorientated":2315,"Ġfeature":2316,"Ġwanting":2317,"Ġprefer":2318,"costing":2319,"Ġsoon":2320,"Ġspecialising":2321,"Ġcoming":2322,"ude":2323,"Ġfavor":2324,"Ġfocus":2325,"Ġalcoholic":2326,"Ġpremises":2327,"Ġacclaimed":2328,"Ġresides":2329,"sushi":2330,"Ġdisappo":2331,"tained":2332,"Ġambient":2333,"Ġwalk":2334,"poorly":2335,"Ġcooks":2336,"Ġneighbor":2337,"Ġindivid":2338,"Ġaccept":2339,"Ġassorted":2340,"Ġmoment":2341,"Ġmeet":2342,"Ġinterested":2343,"Ġpurchase":2344,"Ġgeared":2345,"Ġthink":2346,"Ġjapaneses":2347,"Ġaddition":2348,"Ġeuropean":2349,"leave":2350,"Ġachie":2351,"Ġglass":2352,"Ġeconomic":2353,"Ġindividu":2354,"35":2355,"ava":2356,"cc":2357,"clare":2358,"famous":2359,"familiar":2360,"gry":2361,"head":2362,"ib":2363,"med":2364,"mar":2365,"ny":2366,"over":2367,"ping":2368,"rum":2369,"sho":2370,"vice":2371,"yippee":2372,"eres":2373,"ried":2374,"than":2375,"enny":2376,"Ġtheres":2377,"styled":2378,"Ġob":2379,"east":2380,"Ġpenny":2381,"omis":2382,"ratings":2383,"Ġhan":2384,"Ġhun":2385,"Ġba":2386,"Ġbes":2387,"Ġbear":2388,"Ġback":2389,"Ġoften":2390,"Ġrivers":2391,"Ġma":2392,"Ġmere":2393,"hool":2394,"ently":2395,"ention":2396,"Ġwent":2397,"Ġanother":2398,"Ġshopping":2399,"Ġrun":2400,"Ġnative":2401,"Ġcar":2402,"Ġcare":2403,"Ġhard":2404,"Ġgain":2405,"Ġte":2406,"Ġtri":2407,"Ġtrave":2408,"ouri":2409,"asting":2410,"astro":2411,"Ġindiana":2412,"around":2413,"ceive":2414,"ray":2415,"rainbow":2416,"Ġeither":2417,"rown":2418,"iting":2419,"Ġwatermans":2420,"Ġsteep":2421,"Ġarray":2422,"ments":2423,"Ġattit":2424,"Ġform":2425,"ised":2426,"Ġdeal":2427,"Ġvary":2428,"Ġbeans":2429,"Ġprovider":2430,"Ġstarred":2431,"Ġsicilian":2432,"Ġwhit":2433,"Ġrefresh":2434,"Ġreceive":2435,"Ġcostumers":2436,"quisit":2437,"Ġdec":2438,"Ġnorthwe":2439,"Ġexquisit":2440,"boasting":2441,"Ġoverlooking":2442,"Ġdiners":2443,"Ġexcellently":2444,"Ġvisited":2445,"Ġopin":2446,"Ġenjoying":2447,"Ġgiving":2448,"Ġbreads":2449,"adults":2450,"Ġfeatured":2451,"Ġpastas":2452,"Ġfinest":2453,"Ġspect":2454,"ranged":2455,"Ġvarious":2456,"Ġschool":2457,"Ġtypes":2458,"Ġcatered":2459,"Ġmaybe":2460,"Ġdesired":2461,"Ġspecialized":2462,"lete":2463,"icks":2464,"....":2465,"Ġleaves":2466,"Ġgather":2467,"pass":2468,"Ġprof":2469,"Ġmodern":2470,"Ġmainly":2471,"singly":2472,"Ġanyone":2473,"Ġcompany":2474,"Ġcomplete":2475,"hello":2476,"Ġsurpri":2477,"Ġsurround":2478,"Ġblocks":2479,"Ġtends":2480,"Ġneighbo":2481,"Ġaccommodate":2482,"Ġunique":2483,"Ġunivers":2484,"Ġespeci":2485,"Ġimpress":2486,"Ġsupplies":2487,"burger":2488,"Ġmiles":2489,"Ġguests":2490,"Ġentertainment":2491,"Ġluxurious":2492,"Ġmixed":2493,"Ġequally":2494,"Ġsuggest":2495,"shop":2496,"Ġhungry":2497,"Ġattitude":2498,"Ġexquisite":2499,"Ġsurrounding":2500,"Ġuniversity":2501,"Ġespecially":2502,"10":2503,"ber":2504,"based":2505,"bank":2506,"can":2507,"de":2508,"day":2509,"exp":2510,"equ":2511,"giv":2512,"has":2513,"hib":2514,"ily":2515,"ise":2516,"ious":2517,"non":2518,"pop":2519,"rom":2520,"tu":2521,"teri":2522,"vents":2523,"wine":2524,"Ġric":2525,"rimp":2526,"Ġcre":2527,"thers":2528,"ations":2529,"rees":2530,"Ġfamous":2531,"stled":2532,"eak":2533,"eally":2534,"Ġpea":2535,"Ġpra":2536,"Ġpres":2537,"Ġpiz":2538,"endy":2539,"Ġhel":2540,"Ġhost":2541,"Ġhist":2542,"Ġsort":2543,"Ġsiz":2544,"Ġbough":2545,"Ġbab":2546,"Ġbas":2547,"Ġlate":2548,"Ġlar":2549,"Ġlacks":2550,"Ġind":2551,"Ġrive":2552,"Ġriverbank":2553,"Ġmo":2554,"Ġmer":2555,"Ġway":2556,"Ġwish":2557,"Ġans":2558,"Ġcheep":2559,"Ġshot":2560,"people":2561,"Ġrd":2562,"Ġru":2563,"Ġrant":2564,"ilet":2565,"their":2566,"Ġcal":2567,"Ġpubs":2568,"Ġgu":2569,"Ġgri":2570,"Ġgastro":2571,"Ġgrown":2572,"oud":2573,"rop":2574,"ĠcafÃ©teri":2575,"dic":2576,"dience":2577,"umber":2578,"Ġpricier":2579,"Ġemer":2580,"Ġevents":2581,"Ġstat":2582,"Ġaromis":2583,"Ġrough":2584,"Ġtoilet":2585,"Ġeagles":2586,"Ġforget":2587,"Ġdid":2588,"Ġdear":2589,"Ġcup":2590,"Ġpass":2591,"Ġadequ":2592,"Ġsub":2593,"Ġbig":2594,"coming":2595,"Ġclosest":2596,"Ġgoods":2597,"Ġestablishments":2598,"Ġeaten":2599,"Ġfact":2600,"Ġexc":2601,"Ġoverpriced":2602,"Ġdire":2603,"Ġtakeout":2604,"ctly":2605,"Ġenjoys":2606,"higher":2607,"centre":2608,"unfriendly":2609,"service":2610,"Ġcombo":2611,"Ġcomfort":2612,"cheaply":2613,"Ġranking":2614,"Ġperfectly":2615,"usage":2616,"outside":2617,"Ġpaying":2618,"Ġexpected":2619,"Ġselect":2620,"Ġentrees":2621,"Ġparents":2622,"Ġparties":2623,"Ġcharming":2624,"Ġgeneral":2625,"Ġquickly":2626,"Ġshrimp":2627,"Ġwont":2628,"Ġamongst":2629,"Ġproud":2630,"Ġregion":2631,"Ġsale":2632,"Ġaudience":2633,"Ġmaking":2634,"Ġprohib":2635,"Ġleg":2636,"Ġmodestly":2637,"Ġtaking":2638,"Ġstandards":2639,"Ġsays":2640,"Ġordered":2641,"Ġfreshly":2642,"Ġfalling":2643,"have":2644,"Ġsample":2645,"Ġattention":2646,"Ġrelaxed":2647,"Ġcooked":2648,"Ġreport":2649,"Ġapproved":2650,"oeuvre":2651,"freshly":2652,"Ġexceeding":2653,"Ġaccepts":2654,"Ġassortment":2655,"Ġminors":2656,"Ġhappy":2657,"Ġhappen":2658,"Ġattracts":2659,"expect":2660,"Ġsports":2661,"Ġscenic":2662,"pasta":2663,"Ġolder":2664,"reasonably":2665,"Ġpossible":2666,"Ġfavorable":2667,"Ġfocused":2668,"Ġdisappoint":2669,"Ġindividuals":2670,"mark":2671,"Ġobtained":2672,"Ġtell":2673,"Ġtrip":2674,"Ġtraveling":2675,"Ġrefreshments":2676,"Ġimpressive":2677,"Ġsurroundings":2678,"express":2679,"given":2680,"Ġpraised":2681,"Ġpizza":2682,"Ġhosts":2683,"Ġbought":2684,"Ġbaby":2685,"ĠcafÃ©teria":2686,"Ġtoilets":2687,"Ġprohibited":2688,"'m":2689,"--":2690,"ac":2691,"ale":2692,"also":2693,"air":2694,"afforda":2695,"after":2696,"brea":2697,"cur":2698,"car":2699,"cif":2700,"count":2701,"do":2702,"dy":2703,"ded":2704,"ey":2705,"ean":2706,"eur":2707,"fore":2708,"fic":2709,"featu":2710,"fancy":2711,"from":2712,"gn":2713,"gan":2714,"got":2715,"gative":2716,"gains":2717,"ground":2718,"ires":2719,"ibly":2720,"luton":2721,"my":2722,"min":2723,"more":2724,"medi":2725,"oric":2726,"oid":2727,"peri":2728,"rank":2729,"sat":2730,"ters":2731,"void":2732,"where":2733,"yor":2734,"your":2735,"zy":2736,"Ġ6":2737,"Ġ;":2738,"ĠĊ":2739,"Ġedi":2740,"Ġ-Â£":2741,"erate":2742,"erran":2743,"rive":2744,"Ġcate":2745,"Ġcele":2746,"Ġcertain":2747,"Ġcute":2748,"throom":2749,"thnic":2750,"atters":2751,"Ġice":2752,"enc":2753,"enance":2754,"ams":2755,"american":2756,"Ġfin":2757,"Ġfus":2758,"Ġfront":2759,"Ġflare":2760,"Ġfamiliar":2761,"Ġfried":2762,"Ġabs":2763,"Ġavoid":2764,"inary":2765,"Ġow":2766,"Ġore":2767,"Ġothers":2768,"eape":2769,"Ġprest":2770,"ended":2771,"ided":2772,"named":2773,"ustenance":2774,"Ġher":2775,"Ġsol":2776,"Ġsens":2777,"Ġsad":2778,"Ġsca":2779,"Ġsustenance":2780,"Ġbrin":2781,"Ġland":2782,"Ġliv":2783,"Ġlack":2784,"Ġinc":2785,"Ġinv":2786,"Ġincre":2787,"Ġinfamous":2788,"lite":2789,"edit":2790,"Ġcore":2791,"Ġcour":2792,"Ġcoast":2793,"Ġcoffe":2794,"Ġcous":2795,"Ġmile":2796,"Ġmaint":2797,"Ġmedit":2798,"eemed":2799,"Ġwa":2800,"Ġanti":2801,"ffers":2802,"eaters":2803,"Ġcheat":2804,"Ġcheape":2805,"ĠÂ£,":2806,"ĠÂ£.":2807,"Ġnumber":2808,"antic":2809,"ilst":2810,"ilar":2811,"Ġgains":2812,"Ġtab":2813,"Ġtouri":2814,"veyor":2815,"apes":2816,"veral":2817,"Ġlowest":2818,"olute":2819,"arant":2820,"lain":2821,"cellent":2822,"lect":2823,"ored":2824,"raja":2825,"Ġeffe":2826,"Ġbargain":2827,"Ġbargains":2828,"itch":2829,"Ġstro":2830,"Ġsteak":2831,"Ġareas":2832,"Ġraving":2833,"ically":2834,"Ġhouses":2835,"Ġdeemed":2836,"Ġares":2837,"pping":2838,"Ġalike":2839,"Ġcrowd":2840,"Ġcrowds":2841,"Ġcuisines":2842,"Ġpal":2843,"Ġmills":2844,"Ġzizzis":2845,"Ġplatters":2846,"ounds":2847,"Ġref":2848,"Ġrem":2849,"Ġsuperi":2850,"Ġseveral":2851,"Ġbeefeaters":2852,"tiv":2853,"Ġgreatly":2854,"Ġnestled":2855,"Ġnegative":2856,"ales":2857,"Ġquid":2858,"Ġquali":2859,"Ġreviewers":2860,"Ġinexpensively":2861,"Ġlocale":2862,"Ġexist":2863,"Ġoverlook":2864,"join":2865,"Ġvisitors":2866,"Ġoperate":2867,"Ġenjoyable":2868,"ously":2869,"Ġbuck":2870,"Ġconsist":2871,"Ġspecif":2872,"resque":2873,"Ġsatisfied":2874,"unity":2875,"pricey":2876,"costs":2877,"Ġactiv":2878,"Ġchoices":2879,"Ġvaried":2880,"Ġscener":2881,"Ġwouldn":2882,"Ġbrings":2883,"Ġcomm":2884,"Ġcompared":2885,"Ġtradition":2886,"Ġmiddling":2887,"Ġlikely":2888,"imum":2889,"Ġpoints":2890,"Ġbadly":2891,"Ġideally":2892,"Ġbites":2893,"Ġevening":2894,"Ġdeserts":2895,"Ġgrapes":2896,"Ġhearty":2897,"Ġenter":2898,"Ġgenerated":2899,"Ġfavored":2900,"Ġawful":2901,"Ġawarded":2902,"Ġseek":2903,"Ġseems":2904,"Ġleast":2905,"uces":2906,"Ġprams":2907,"Ġafterno":2908,"Ġsausage":2909,"Ġnowhere":2910,"Ġorders":2911,"Ġpartner":2912,"Ġclientele":2913,"Ġlunches":2914,"Ġresult":2915,"Ġdiscri":2916,"Ġgroup":2917,"being":2918,"Ġclassics":2919,"Ġproduces":2920,"Ġintended":2921,"Ġminded":2922,"stern":2923,"Ġexclusively":2924,"Ġanything":2925,"Ġanywhere":2926,"Ġ23":2927,"Ġpurveyor":2928,"Ġthings":2929,"Ġtrendy":2930,"Ġindia":2931,"Ġwork":2932,"Ġextra":2933,"Ġpleased":2934,"Ġescar":2935,"Ġminimum":2936,"Ġplayground":2937,"Ġsupport":2938,"Ġkinds":2939,"Ġbeginning":2940,"excellent":2941,"ranch":2942,"Ġsimilar":2943,"Ġlaid":2944,"Ġcontains":2945,"Ġsporting":2946,"Ġbuilding":2947,"Ġscene":2948,"Ġregularly":2949,"Ġsoda":2950,"Ġsodas":2951,"Ġsingle":2952,"Ġsingles":2953,"Ġwitch":2954,"Ġpreferred":2955,"Ġneighborhood":2956,"Ġadditionally":2957,"Ġachieved":2958,"available":2959,"Ġhandic":2960,"Ġbathroom":2961,"Ġbesides":2962,"Ġgained":2963,"Ġnorthwest":2964,"Ġopinion":2965,"Ġspectrum":2966,"Ġsurprisingly":2967,"Ġneighbour":2968,"popular":2969,"turesque":2970,"Ġrich":2971,"Ġcream":2972,"Ġpeace":2973,"Ġhistoric":2974,"Ġbasic":2975,"Ġlarge":2976,"Ġindeed":2977,"Ġruns":2978,"Ġranting":2979,"Ġcalm":2980,"Ġguarant":2981,"Ġemerging":2982,"Ġstatus":2983,"Ġadequate":2984,"Ġlegal":2985,"Ġdisappointed":2986,"affordable":2987,"featuring":2988,"minating":2989,"ranked":2990,"erranean":2991,"Ġceleb":2992,"Ġcertainly":2993,"Ġfusion":2994,"Ġabsolute":2995,"Ġpresti":2996,"Ġsadly":2997,"Ġbringing":2998,"Ġincredi":2999,"Ġcourse":3000,"Ġcoffees":3001,"Ġcousin":3002,"Ġmaintains":3003,"Ġmediterranean":3004,"Ġcheapest":3005,"Ġeffective":3006,"Ġsuperior":3007,"Ġoverlooks":3008,"Ġscenery":3009,"Ġafternoon":3010,"Ġdiscriminating":3011,"Ġescargot":3012,"Ġhandicap":3013,"Ġabsolutely":3014,"'d":3015,",,":3016,".'":3017,".Â£":3018,"19":3019,"32":3020,"33":3021,"99":3022,"aff":3023,"actly":3024,"bu":3025,"ban":3026,"but":3027,"bar":3028,"british":3029,"best":3030,"cery":3031,"due":3032,"drink":3033,"drop":3034,"ees":3035,"eggs":3036,"ethnic":3037,"fit":3038,"fare":3039,"fair":3040,"ger":3041,"gory":3042,"gious":3043,"hist":3044,"icated":3045,"ilies":3046,"ksh":3047,"kfast":3048,"lust":3049,"liness":3050,"mpe":3051,"mari":3052,"mal":3053,"most":3054,"nit":3055,"nice":3056,"ope":3057,"ove":3058,"oon":3059,"pan":3060,"ply":3061,"par":3062,"port":3063,"place":3064,"pons":3065,"pounds":3066,"phist":3067,"rant":3068,"rough":3069,"so":3070,"sitt":3071,"sons":3072,"sides":3073,"scoring":3074,"suitable":3075,"sily":3076,"tes":3077,"ted":3078,"tic":3079,"trada":3080,"tite":3081,"tradi":3082,"uff":3083,"vate":3084,"vor":3085,"ware":3086,"ym":3087,"ying":3088,"yling":3089,"čĊ":3090,"Ġod":3091,"Ġur":3092,"erves":3093,"rity":3094,"ritic":3095,"another":3096,"Ġcut":3097,"Ġcul":3098,"Ġcritic":3099,"that":3100,"thos":3101,"atisf":3102,"Ġimpe":3103,"ene":3104,"Ġthrough":3105,"reco":3106,"recommend":3107,"amed":3108,"amazing":3109,"among":3110,"ample":3111,"Ġfla":3112,"Ġfitzb":3113,"Ġfour":3114,"Ġfans":3115,"Ġfamed":3116,"stop":3117,"sticks":3118,"Ġable":3119,"Ġaffor":3120,"Ġactive":3121,"Ġahead":3122,"inting":3123,"inspired":3124,"gether":3125,"ington":3126,"earest":3127,"omantic":3128,"verthe":3129,"Ġhi":3130,"Ġhat":3131,"Ġhope":3132,"Ġsw":3133,"earning":3134,"Ġblow":3135,"Ġbare":3136,"Ġlend":3137,"Ġlast":3138,"Ġlay":3139,"Ġlad":3140,"Ġinst":3141,"lie":3142,"liss":3143,"reasy":3144,"reasingly":3145,"Ġlose":3146,"Ġlong":3147,"Ġcove":3148,"urn":3149,"urpass":3150,"Ġmeat":3151,"Ġmild":3152,"utes":3153,"house":3154,"Ġwat":3155,"Ġwise":3156,"ffes":3157,"Ġouter":3158,"Ġouting":3159,"Ġyear":3160,"Â£-":3161,"Ġchill":3162,"Ġshoo":3163,"Ġshores":3164,"Ġrood":3165,"Ġromantic":3166,"antly":3167,"themed":3168,"Ġnothing":3169,"Ġnoise":3170,"Ġcast":3171,"lling":3172,"Ġgod":3173,"Ġgro":3174,"Ġgate":3175,"Ġgar":3176,"Ġgas":3177,"Ġgym":3178,"Ġgliss":3179,"Ġgreasy":3180,"Ġtable":3181,"Ġtad":3182,"Ġtuc":3183,"Ġturn":3184,"vels":3185,"rocious":3186,"Ġfastfood":3187,"dish":3188,"Ġservic":3189,"new":3190,"esses":3191,"essment":3192,"ession":3193,"leg":3194,"lets":3195,"Ġkey":3196,"Ġkitch":3197,"Ġboats":3198,"rally":3199,"Ġethos":3200,"dget":3201,"loc":3202,"Ġnoted":3203,"Ġnotch":3204,"Ġexpans":3205,"Ġwaterside":3206,"Ġstake":3207,"Ġstud":3208,"Ġsticks":3209,"Ġstaff":3210,"Ġstuff":3211,"Ġstyling":3212,"nsider":3213,"ryout":3214,"Ġrater":3215,"Ġratting":3216,"set":3217,"Ġattained":3218,"Ġatrocious":3219,"Ġtoy":3220,"Ġtoast":3221,"Ġtogether":3222,"Ġeach":3223,"Ġeasily":3224,"icult":3225,"icular":3226,"iske":3227,"otic":3228,"Ġdra":3229,"Ġdet":3230,"Ġdrop":3231,"Ġdrive":3232,"Ġspent":3233,"Ġspite":3234,"Ġspoon":3235,"Ġbecome":3236,"Ġbecoming":3237,"Ġbeware":3238,"Ġproves":3239,"ively":3240,"Ġpunters":3241,"Ġval":3242,"Ġones":3243,"akes":3244,"zizzis":3245,"Ġwhine":3246,"Ġwhet":3247,"Ġwhiske":3248,"Ġolives":3249,"Ġbaked":3250,"ensales":3251,"umpington":3252,"bies":3253,"Ġadv":3254,"Ġadded":3255,"iraffes":3256,"above":3257,"mber":3258,"mbing":3259,"Ġrequ":3260,"Ġremark":3261,"Ġtherefore":3262,"Ġsuffers":3263,"cond":3264,"consider":3265,"Ġfrance":3266,"Ġsevers":3267,"Ġsecond":3268,"compan":3269,"tim":3270,"Ġune":3271,"Ġuser":3272,"Ġestablished":3273,"Ġvenues":3274,"Ġneverthe":3275,"ified":3276,"oks":3277,"Ġtrying":3278,"Ġfinding":3279,"Ġpocket":3280,"Ġpolite":3281,"Ġdone":3282,"Ġdogs":3283,"Ġdelect":3284,"Ġfares":3285,"Ġrear":3286,"Ġready":3287,"Ġreasons":3288,"Ġnortheast":3289,"Ġmedian":3290,"Ġlocating":3291,"Ġlocals":3292,"blem":3293,"Ġexactly":3294,"Ġexample":3295,"Ġexotic":3296,"well":3297,"both":3298,"ourable":3299,"Ġdinning":3300,"Ġmenus":3301,"Ġdiet":3302,"akey":3303,"cted":3304,"cker":3305,"Ġalbe":3306,"Ġalmost":3307,"Ġ--":3308,"adent":3309,"adjacent":3310,"Ġbreaking":3311,"Ġbuds":3312,"Ġexperienc":3313,"Ġorgan":3314,"Ġpastries":3315,"Ġlim":3316,"Ġsettings":3317,"Ġwants":3318,"centrally":3319,"Ġsatisfying":3320,"riversides":3321,"Ġspecials":3322,"Ġvibe":3323,"Ġprepa":3324,"Ġviewed":3325,"Ġsophist":3326,"Ġaccompan":3327,"open":3328,"Ġchopping":3329,"Ġbudgets":3330,"Ġvaries":3331,"Ġconsidering":3332,"Ġconsiderable":3333,"Ġunable":3334,"Ġcomensales":3335,"Ġranks":3336,"Ġearth":3337,"Ġearns":3338,"outs":3339,"Ġfarm":3340,"sited":3341,"Ġgotten":3342,"Ġpleasing":3343,"Ġlooks":3344,"Ġdeserves":3345,"Ġclassified":3346,"averagely":3347,"why":3348,"whilst":3349,"Ġgrand":3350,"Ġbeautifully":3351,"Ġentree":3352,"Ġparking":3353,"Ġshouldn":3354,"...":3355,"Ġappear":3356,"Ġappeal":3357,"Ġfavouri":3358,"Ġseem":3359,"Ġfurnit":3360,"welcoming":3361,"Ġfoe":3362,"Ġfool":3363,"Ġleaving":3364,"visiting":3365,"Ġprom":3366,"Ġeveryday":3367,"Ġpermits":3368,"ority":3369,"Ġproblem":3370,"Ġparticular":3371,"ansport":3372,"Ġclimbing":3373,"Ġlevels":3374,"Ġtastings":3375,"Ġtakes":3376,"Ġresults":3377,"Ġrespons":3378,"Ġspecialties":3379,"Ġdisco":3380,"Ġdiscount":3381,"Ġluck":3382,"Ġstellar":3383,"Ġfondues":3384,"Ġmoderates":3385,"Ġtail":3386,"Ġcompetitor":3387,"Ġmeant":3388,"proved":3389,"Ġgrade":3390,"Ġ21":3391,"Ġ24":3392,"Ġcrazy":3393,"Ġcracker":3394,"Ġrelaxing":3395,"Ġunsatisf":3396,"Ġunsurpass":3397,"Ġcompetitively":3398,"ized":3399,"Ġassessment":3400,"Ġcoupled":3401,"Ġdays":3402,"Ġpried":3403,"Ġprime":3404,"Ġprimari":3405,"Ġprivate":3406,"Ġpriority":3407,"Ġtrue":3408,"Ġtrumpington":3409,"Ġtransport":3410,"Ġuseful":3411,"Ġappetite":3412,"received":3413,"Ġworry":3414,"Ġworse":3415,"Ġworld":3416,"Ġaccommodations":3417,"crown":3418,"Ġimprove":3419,"Ġfits":3420,"Ġpicturesque":3421,"Ġminutes":3422,"Ġkeeping":3423,"Ġchopsticks":3424,"Ġattraction":3425,"Ġattractive":3426,"Ġmarks":3427,"Ġmarked":3428,"Ġinteresting":3429,"Ġpurchased":3430,"burgers":3431,"Ġsimply":3432,"Ġlaw":3433,"Ġcontin":3434,"Ġmilksh":3435,"Ġshown":3436,"Ġguest":3437,"Ġluxuriant":3438,"pasto":3439,"reasonable":3440,"Ġtreats":3441,"Ġpossesses":3442,"Ġdelights":3443,"Ġdisappointing":3444,"Ġachieving":3445,"Ġindividual":3446,"avalon":3447,"ccable":3448,"Ġhang":3449,"Ġbabies":3450,"Ġmaxim":3451,"Ġcarries":3452,"Ġcarryout":3453,"Ġgaining":3454,"Ġvarying":3455,"Ġdecided":3456,"Ġdecadent":3457,"Ġnorthwestern":3458,"Ġopinions":3459,"Ġspectac":3460,"passing":3461,"Ġprofile":3462,"Ġprofession":3463,"Ġneighboring":3464,"Ġpresently":3465,"Ġhelp":3466,"Ġsizes":3467,"Ġmoved":3468,"Ġmerits":3469,"Ġgrill":3470,"Ġgrills":3471,"Ġroughly":3472,"Ġdidn":3473,"Ġexciting":3474,"Ġdirectly":3475,"Ġcomfortable":3476,"Ġproudly":3477,"Ġbabysitt":3478,"breakfast":3479,"curried":3480,"euros":3481,"fication":3482,"gnized":3483,"medium":3484,"Ġedible":3485,"Ġcategory":3486,"Ġherbs":3487,"Ġsensibly":3488,"Ġscare":3489,"Ġlandmark":3490,"Ġlives":3491,"Ġlacklust":3492,"Ġincreasingly":3493,"Ġantipasto":3494,"Ġtourists":3495,"Ġstrollers":3496,"Ġpalates":3497,"Ġqualification":3498,"Ġconsistently":3499,"Ġspecifically":3500,"Ġactivities":3501,"Ġcommunity":3502,"Ġsausages":3503,"Ġbathrooms":3504,"Ġpeaceful":3505,"Ġhistorical":3506,"Ġguarantee":3507,"Ġcelebrating":3508,"Ġprestigious":3509,"Ġincredibly":3510,"budget":3511,"bargain":3512,"drinks":3513,"fairly":3514,"traditional":3515,"vorful":3516,"Ġurban":3517,"Ġculinary":3518,"Ġcritics":3519,"Ġimpeccable":3520,"recognized":3521,"recommended":3522,"Ġflavorful":3523,"Ġfitzbilies":3524,"Ġactively":3525,"Ġbarely":3526,"Ġcoveted":3527,"Ġmildly":3528,"Ġgrocery":3529,"Ġglisson":3530,"Ġtucson":3531,"dishes":3532,"Ġservicing":3533,"Ġkitchen":3534,"Ġexpansive":3535,"Ġstudents":3536,"Ġwhiskey":3537,"Ġremarkable":3538,"considered":3539,"Ġnevertheless":3540,"Ġalbeit":3541,"Ġorganiz":3542,"Ġsophisticated":3543,"Ġaccompanied":3544,"Ġfavourite":3545,"Ġfurniture":3546,"Ġresponse":3547,"Ġunsurpassed":3548,"Ġprimarily":3549,"Ġmilkshakes":3550,"Ġspectacular":3551,"Ġprofessionally":3552,"Ġbabysitter":3553,"Ġlackluster":3554}