#version: 0.2 - Trained by `huggingface/tokenizers`
Ġ =
i n
e r
Ġ |
Ġ p
Ġ a
e n
r e
a t
o n
Ġ t
o r
Ġ s
l a
a m
Ġ g
a s
en t
am e
l e
Ġt h
la y
Ġ n
Ġ m
Ġ i
in g
f or
t i
Ġ re
Ġ y
Ġ r
v e
in t
s t
er s
e d
o u
Ġ h
Ġ d
Ġp ers
Ġp lay
Ġg ame
int ent
Ġ e
for m
Ġ in
c ti
Ġr at
Ġ w
le as
i on
Ġre leas
i r
Ġ b
Ġn ame
Ġa n
Ġ 2
Ġth e
Ġi s
Ġ c
Ġrat ing
Ġ f
Ġ o
a r
Ġy e
at ion
Ġy ou
p lay
Ġreleas e
p e
o o
re s
u l
u re
Ġh as
Ġg en
Ġs t
Ġ2 0
l l
Ġgen res
Ġ on
Ġ l
Ġi t
a n
Ġpers on
v er
a c
Ġan d
d v
ir d
dv ent
dvent ure
Ġo f
play er
l at
lat form
Ġp latform
Ġn o
r i
cti ve
g e
Ġp c
Ġpers pe
Ġperspe ctive
Ġin form
ul ti
Ġm ulti
Ġmulti player
l o
i t
i e
Ġ20 1
Ġd e
o m
st ation
Ġplay station
a i
lo p
ve lop
Ġde velop
Ġgame s
cti on
Ġ v
Ġplatform s
' s
Ġye s
a l
Ġth ird
Ġa ction
Ġplay er
Ġs h
b o
Ġth at
Ġ for
Ġye ar
b le
t er
x bo
Ġ xbo
Ġxbo x
e am
c e
Ġs i
Ġa v
Ġdevelop er
Ġe x
ai la
Ġav aila
Ġavaila ble
Ġst eam
Ġsh oo
Ġl in
a dventure
Ġm ac
i f
Ġ (
u t
en d
Ġshoo ter
u x
Ġlin ux
a ge
oo d
Ġg ood
Ġw as
ie w
at e
or t
l d
i c
Ġr o
Ġa ver
Ġaver age
Ġa dventure
Ġst r
Ġ 1
Ġv iew
k e
Ġf ir
g h
Ġfir st
Ġsi m
i s
u n
p ort
d e
ou t
ate g
Ġreleas ed
Ġw it
r o
Ġstr ateg
a ll
Ġe s
Ġstrateg y
r b
Ġes rb
Ġp o
Ġro le
play ing
ri v
Ġb y
Ġsim ul
t h
q u
Ġt o
Ġd o
Ġwit h
t t
Ġs u
Ġb e
Ġ20 0
Ġex ce
Ġexce ll
Ġexcell ent
Ġs pe
Ġh a
i ve
e s
gh t
e st
Ġl i
l y
Ġs port
ac ing
u s
Ġt e
Ġb ird
Ġf r
o s
Ġd riv
Ġdriv ing
f t
Ġin d
int end
Ġm a
intend o
Ġn intendo
Ġsimul ation
Ġre qu
Ġrequ est
Ġpo or
Ġli ke
a y
z z
Ġfr om
Ġrat ed
Ġind ie
Ġp u
9 9
on e
Ġa tt
an d
c h
ut e
m e
r acing
Ġo p
at ure
Ġno t
i ght
ri b
d er
Ġha ve
rib ute
Ġatt ribute
Ġe ver
o w
Ġm ature
Ġb ut
Ġpu zz
t a
Ġpuzz le
Ġplay ed
in ion
Ġop inion
Ġ or
Ġm e
Ġ ver
la n
Ġi i
Ġc an
Ġ out
Ġg ive
i er
Ġm o
Ġs o
Ġn e
om b
if y
Ġver ify
Ġ 3
i d
Ġc on
Ġ1 99
Ġ en
Ġw or
Ġplatform er
r y
a re
ar d
Ġever y
i os
Ġa s
w h
i a
Ġevery one
a d
om m
all y
Ġte en
m ent
Ġ k
u d
Ġ un
Ġ201 4
t ed
Ġa b
c al
Ġspe ed
Ġdevelop ed
Ġab out
u r
Ġre c
Ġsu p
er o
i g
th e
Ġex p
' t
ac k
Ġ ent
c k
Ġspe c
Ġf e
Ġst ud
ta in
in d
er tain
p g
Ġent ertain
Ġ201 5
j o
Ġentertain ment
omm end
Ġrec ommend
r a
Ġw h
Ġt a
jo y
Ġa re
Ġen joy
Ġspec if
Ġc h
l i
y ou
Ġne ed
Ġspecif ier
cti cal
s o
Ġa l
as s
Ġta ctical
Ġwor ld
wh at
ge st
Ġcon f
er e
ir m
c l
Ġstud ios
ld er
lan ation
Ġexp lanation
o re
Ġsu g
Ġconf irm
) .
Ġsug gest
Ġs k
Ġsi de
k ing
Ġ us
Ġh ero
e m
Ġ la
Ġan y
Ġth is
t le
Ġ1 0
Ġ 4
Ġre al
u st
Ġw ar
i v
Ġc ry
Ġmo st
Ġt ur
Ġc ame
ti me
Ġr ai
d o
Ġrai der
m p
ic k
Ġw i
s h
b all
Ġs c
Ġdo es
Ġ201 6
c o
Ġa m
h o
Ġ j
b er
o l
s e
c ra
Ġpo int
cra ft
ou ld
Ġ201 1
Ġa ge
a g
Ġth in
m or
int er
Ġsup er
cl ick
la r
oo m
Ġthin k
Ġt omb
Ġs m
Ġm mor
Ġ201 8
Ġmmor pg
t ro
Ġv i
as ed
e ll
Ġtur n
it tle
Ġw on
Ġrating s
ro ll
Ġ201 7
Ġ le
Ġsport s
b ased
n ow
Ġt y
Ġs ing
Ġsing le
Ġj ust
ou gh
Ġso ft
Ġp re
Ġp ro
Ġth ere
th er
Ġw an
Ġk now
i o
Ġh ack
s la
Ġf ore
ai d
sla sh
Ġfore st
c t
Ġs aid
Ġre ally
in e
u it
Ġp ay
n e
u lar
Ġon ly
Ġsimul at
Ġt r
Ġsimulat or
g ic
Ġm ight
lan c
Ġre v
b a
Ġa ll
at er
Ġl o
ta le
Ġc re
lo ad
Ġma gic
l ine
Ġg e
Ġyou r
' re
Ġe v
Ġf un
Ġl ittle
Ġsc roll
Ġs e
Ġe lder
Ġc or
Ġc omb
Ġon e
Ġscroll s
ent ion
Ġr acing
Ġsk y
Ġ200 5
m an
m s
Ġa r
Ġc lanc
Ġme tro
Ġsoft w
Ġclanc y
Ġr un
Ġo ther
load ed
Ġm an
Ġt riv
pe c
w it
Ġ1 5
i ll
in ball
Ġre loaded
ri ver
Ġp inball
Ġs wit
Ġb ig
Ġ201 0
Ġma de
Ġhero es
Ġswit ch
Ġt ry
it e
e l
or ation
Ġsup port
Ġla st
co on
Ġty coon
Ġre ce
Ġf an
Ġ199 9
r on
an ce
h ic
u p
Ġplay ing
Ġcomb at
ti on
Ġmo de
if e
Ġ z
Ġ ve
tt y
Ġal so
Ġve hic
Ġm ention
Ġme an
Ġwan ted
on g
Ġwar craft
Ġvehic ular
ios ho
Ġrece ive
iosho ck
a de
Ġreceive d
o ft
pec ted
Ġex pected
Ġth r
Ġd river
Ġ201 3
m a
Ġm y
Ġon line
u e
Ġn ba
Ġb l
der tale
Ġpre tty
y st
Ġ qu
Ġh it
Ġt i
Ġ200 9
Ġ inter
Ġwor ms
p t
Ġn ight
Ġmention ed
or y
Ġh e
Ġf ight
Ġwon der
a os
at ed
Ġro ll
Ġch aos
om e
Ġr pg
Ġsu ch
Ġfight ing
1 6
i l
Ġ end
Ġbe en
Ġb o
Ġgen er
Ġf ind
ass in
Ġcre ed
Ġo lder
ic h
Ġsoftw are
Ġe a
ke t
es s
Ġlo ve
f er
Ġma ke
Ġam ong
as h
Ġh ill
Ġb ioshock
ar ted
ri s
Ġfe el
Ġsm ash
uit ar
c ket
w k
Ġm us
ag ue
Ġle ague
Ġmus ic
on y
Ġth ie
Ġd id
Ġha wk
ch arted
Ġii i
Ġsk ater
Ġhit s
Ġthie f
r or
Ġt om
x t
or m
Ġe le
Ġc at
Ġf a
ri m
Ġhe ard
Ġ ed
Ġed ge
Ġw ol
ir ror
Ġ201 2
al yst
Ġtriv ia
Ġcat alyst
Ġwol f
' m
ou n
Ġte xt
Ġrev iew
Ġge t
i li
Ġd ance
Ġwh ich
bo ard
i re
Ġs ay
le s
Ġm ar
Ġr oom
Ġshoo t
p o
Ġt eam
Ġso l
Ġun dertale
o d
Ġ &
Ġd oom
Ġe mp
Ġmar io
a ve
k ed
Ġd ate
is h
le d
Ġti me
ing s
Ġd ar
Ġdar k
zz ard
ch er
ig n
li zzard
Ġwi ld
a ke
n ess
Ġl oo
c ade
for ge
Ġh un
Ġan ge
Ġwit cher
Ġ200 4
Ġ199 4
Ġar cade
Ġdark ness
Ġhun t
Ġange l
a p
Ġt al
Ġro cket
Ġ200 1
l ent
Ġt ony
Ġd is
Ġo ver
a u
h ave
i ce
Ġg uitar
Ġsi lent
Ġma d
i res
m ber
an ge
Ġdoes n
Ġreview s
Ġm on
Ġw ould
Ġb lizzard
Ġstr ange
Ġmake s
s is
v or
Ġp ri
Ġthe ory
Ġk ings
Ġun charted
Ġemp ires
Ġpri me
o t
Ġd ig
Ġas s
Ġfa vor
t e
Ġm ass
Ġf ire
p l
Ġth ough
Ġc ar
Ġc om
Ġenjoy ed
' ve
o ld
w n
Ġm irror
it al
ish ing
Ġdig ital
3 3
er man
la st
as ter
Ġe th
Ġb omb
Ġc ro
Ġo k
Ġo s
Ġ20 33
an ishing
Ġv anishing
Ġ200 2
wh y
Ġsm all
ron ic
oun d
Ġcar ter
Ġeth an
Ġbomb erman
Ġd on
Ġsol id
Ġtal king
l ier
am i
Ġc omm
ar lier
ne ed
f e
i al
s id
in ce
oo t
ay s
Ġen em
Ġman ag
Ġloo king
Ġass assin
d en
p oration
Ġn f
Ġd iv
is ion
Ġdo g
Ġcor poration
Ġsky rim
Ġfavor ite
Ġdiv ision
h ind
o x
r and
t ris
er co
ou ght
ir is
Ġlin es
ate ly
gh old
Ġbe hind
ght y
Ġte mp
and os
ho t
Ġbl ind
au ghty
Ġcro ft
Ġos iris
oot ball
Ġenem y
Ġmanag er
Ġnf l
erco aster
Ġtemp le
Ġs ome
Ġ199 8
Ġal one
c ed
Ġt oo
Ġth ought
Ġw ay
ar craft
Ġsh ow
Ġsky forge
p le
u m
Ġn aughty
Ġre d
us e
c age
Ġp ort
en ce
Ġli ked
Ġre st
Ġev il
b lo
d ow
p se
u tion
y pse
z ation
Ġa dv
Ġa po
or st
Ġs pl
lay ers
Ġi ll
ir t
Ġc iv
Ġc ell
an t
Ġsh if
if a
Ġ1 2
Ġ200 7
us ion
Ġme ier
ia blo
cal ypse
Ġfe ar
ol ution
ili zation
Ġshow dow
Ġapo calypse
orst orm
Ġspl inter
Ġill usion
Ġciv ilization
Ġshif t
Ġshowdow n
h er
r ated
y e
Ġ u
or i
Ġe f
Ġf ar
b y
d ay
t s
ou s
Ġne ver
fe ct
Ġre me
Ġh ow
Ġe ye
Ġpu r
Ġbo th
u al
an ced
de o
Ġcry sis
Ġvi deo
Ġele ment
Ġok ay
Ġport al
Ġreme mber
h l
u ck
Ġl ife
Ġde s
Ġsh ould
Ġpay ne
b is
d ers
f are
h am
l ife
s a
s port
z ard
on ami
ent ly
Ġi f
Ġd ut
Ġf ound
tt o
em ber
Ġwar fare
Ġwi zard
Ġwon ders
Ġse pt
Ġcor sa
Ġthr one
Ġdid n
Ġmon t
Ġadv anced
Ġef fect
bis oft
Ġdut y
Ġsept ember
v ers
Ġg re
ort h
Ġ200 0
Ġmetro id
Ġelement s
s up
Ġw ell
Ġk onami
Ġu bisoft
Ġgre at
sup er
i ence
at h
Ġv al
Ġle g
Ġev en
Ġshoot ers
Ġdis li
Ġt ri
Ġo c
Ġstr on
b ack
e ld
in a
ar ina
Ġma x
Ġch e
Ġz eld
Ġcomm andos
Ġval ve
Ġleg end
Ġoc arina
Ġstron ghold
Ġzeld a
f ia
s uit
u ro
Ġ er
for ce
Ġe ad
ll force
an sport
Ġof f
Ġsim s
Ġne vers
Ġ199 3
Ġpay back
Ġtr uck
ma res
Ġnight mares
Ġrest oration
Ġpur suit
ath ia
Ġer athia
Ġnevers oft
a k
Ġe arlier
Ġthe m
Ġte tris
Ġwi ll
m ed
ve l
Ġthe y
Ġf ri
Ġout last
Ġthr ough
Ġroll cage
k y
Ġ up
Ġre sid
Ġresid ent
a ble
re ak
Ġf ootball
Ġor i
Ġroll ercoaster
Ġre med
Ġb reak
Ġun iv
Ġgener ally
Ġremed y
Ġuniv ers
a ctive
Ġn orth
Ġre vel
Ġc all
Ġpoor ly
Ġrev olution
Ġinter active
Ġgener al
ant um
Ġunivers e
Ġrevel ation
t orstorm
Ġ int
Ġ layers
Ġex am
Ġha d
Ġmo torstorm
Ġwh at
Ġla ra
Ġsuper hot
Ġtri ed
Ġm u
Ġh o
Ġb us
Ġint o
Ġexam ple
c om
s pe
t al
Ġmad den
Ġmu ch
ti es
Ġd iablo
Ġw ere
it her
th ing
b la
n am
y nam
re al
Ġs en
Ġd ynam
ri f
Ġv is
ori z
Ġdynam ic
a wn
n ake
u a
w or
Ġa ut
Ġs ac
Ġs nake
Ġd awn
Ġe ater
Ġthe ft
Ġde c
Ġsi d
ell bla
Ġge ar
Ġz ero
ma x
Ġmont real
Ġoff ers
Ġsen ua
rif ice
oriz on
Ġaut o
Ġsac rifice
ellbla de
s ince
st ron
Ġd irt
an k
it y
Ġt it
Ġc al
Ġf ifa
Ġma fia
Ġexp er
Ġfe at
Ġstud io
Ġfri end
Ġn hl
Ġbe t
Ġwonder ing
Ġexper ience
i der
for t
Ġr ight
st al
Ġte ll
Ġas se
Ġdes ign
Ġasse tto
1 7
c i
u ri
on d
Ġf ond
Ġgen re
Ġit s
al f
un ately
ro p
Ġcom p
t d
u res
at tle
Ġth en
Ġre ign
Ġc uri
Ġl td
ce pt
Ġind ia
Ġcon cept
Ġ199 0
Ġch ronic
Ġsc s
Ġtr ansport
Ġvis ual
Ġdec ent
Ġcuri ous
Ġconcept s
Ġchronic les
a king
l t
t r
u ally
ti c
Ġop tion
Ġfe lt
Ġwh y
Ġwan t
Ġse em
Ġe ither
Ġcal led
Ġfriend s
e ver
k s
Ġa t
Ġg ot
Ġe uro
Ġun fort
Ġunfort unately
t om
Ġc ore
Ġfr ank
Ġtriv ial
Ġsupport ed
a z
Ġt in
Ġd ays
ur t
Ġam az
Ġrun s
Ġamaz ing
1 9
f ox
f urt
i x
i ties
m are
er ic
Ġm ic
Ġw ake
Ġb ad
Ġc ities
ar y
oo f
oo ber
Ġ201 9
Ġ1 4
ro se
Ġto by
me tro
Ġcan ad
the m
Ġcry te
Ġam eric
Ġpay day
Ġnight mare
Ġdynamic s
ci ent
rop rose
Ġfrank furt
Ġmic roprose
Ġtoby fox
Ġcanad a
Ġcryte k
Ġameric an
) ,
p ic
as y
Ġb attle
res s
Ġ200 8
Ġcry stal
Ġqu antum
Ġover all
f ul
Ġb ack
Ġperspective s
Ġspe llforce
Ġwh en
Ġpre fer
Ġbl oober
l ight
u ter
Ġg rand
Ġf use
Ġbe st
Ġmass ive
Ġfeat ures
er ri
Ġh orizon
Ġc ould
Ġc ap
Ġst arcraft
mp ress
Ġdisli ke
Ġcomp uter
a ut
w ays
as t
st on
Ġan cient
Ġis n
us ive
Ġme tal
cl usive
8 6
9 86
m er
p r
s y
s ier
Ġa stron
on ix
or ks
Ġs light
Ġplay ers
Ġan them
Ġc e
ar re
ar sier
ge ham
Ġex clusive
Ġ1 986
Ġbe ing
ad ow
ack man
Ġal ways
Ġtur bo
ct ronic
Ġar ts
Ġsoftw orks
Ġfan t
Ġqu ite
Ġbo ston
led geham
Ġillusion s
Ġche ck
Ġho le
aut s
pr oof
sy onix
Ġastron auts
Ġslight ly
ackman ia
ledgeham mer
Ġp syonix
Ġt arsier
Ġs ledgehammer
la ck
Ġg am
Ġh ellblade
Ġb i
Ġb lack
Ġbeen ox
Ġele ctronic
Ġshoot ing
Ġtit le
Ġtell tale
l ittle
Ġs ame
as e
Ġrelease s
al ity
ass assin
Ġinter est
Ġrpg s
Ġfire proof
Ġhow ever
v ing
Ġcon s
Ġcon so
Ġty pic
Ġlo t
c re
d u
s s
Ġa de
Ġt end
Ġn orm
Ġin cl
Ġpuzzle s
a use
t omb
Ġa d
Ġg u
Ġc ur
Ġof fer
Ġno w
Ġpro du
Ġsimulator s
Ġcons ider
Ġcur r
f ore
j e
k ill
m ast
n ation
n ba
s on
s em
y ro
Ġp yro
Ġh ud
Ġc o
Ġ1 1
de mast
Ġto w
Ġto ky
Ġ200 3
Ġen sem
Ġla ck
Ġinter nation
spe aking
Ġtypic ally
Ġade line
Ġnorm ally
Ġcurr ently
Ġhud son
demast ers
Ġtoky o
Ġensem ble
Ġinternation al
Ġp ar
Ġlove d
Ġs ince
Ġg o
Ġw e
lo re
Ġbe c
Ġmo re
Ġco demasters
i le
Ġc ase
Ġplatform ers
Ġsh adow
is e
Ġbe fore
Ġver y
Ġqu ality
Ġover kill
' d
i lar
l s
t ent
in al
Ġm ed
ers ion
Ġh alf
Ġl ately
ie ld
Ġdo wn
io cre
wor ld
Ġbet ter
mpress ed
Ġmed iocre
f ly
o h
p ay
Ġs a
Ġn ice
Ġv ersion
Ġne w
Ġvi i
Ġfant asy
Ġgam ing
Ġbec ause
a x
b ur
b rand
f ield
u g
Ġa lan
en i
Ġs out
Ġg rim
Ġr ise
Ġb arre
Ġthe ir
Ġfir ax
un dertale
ow are
Ġus ually
sh ade
Ġcre w
Ġti bur
Ġfire fly
Ġfire brand
Ġconso les
Ġprodu ction
pay day
Ġsout ham
Ġgrim lore
Ġbarre ls
Ġfirax is
Ġtibur on
Ġg od
Ġto ld
Ġcap com
Ġbi oware
r ing
Ġm ind
ai l
Ġrec ently
po int
ap point
Ġdis appoint
Ġinterest ed
Ġad d
m ad
Ġa w
le ction
Ġsome thing
wor ms
mad den
b us
f ar
f ifa
m ight
n ot
r u
t ail
u la
v i
at ing
Ġth an
Ġre fer
Ġgame play
Ġsim ilar
ow s
Ġcan not
Ġfe ature
ular ly
Ġtr ackmania
spe llforce
Ġpar tic
d irt
k t
la ra
Ġh ate
Ġde tail
th ough
Ġsu r
Ġatt ention
Ġenjoy able
Ġmost ly
super hot
metro id
Ġrefer ring
b ioshock
b ru
e en
l la
m ass
n od
p p
t nod
v ol
z ion
z ero
Ġa g
Ġa zero
Ġs an
Ġs yst
Ġb it
Ġ2 2
Ġ2 9
Ġc d
Ġc li
Ġc ome
Ġsh ort
Ġex od
ic a
Ġsim ula
un e
un os
un charted
Ġwith out
Ġcon tent
Ġk unos
Ġfe bru
Ġwh ile
Ġj une
Ġpro je
Ġall od
Ġmon ica
Ġdon tnod
ous ly
erri lla
Ġgu errilla
Ġconsider ed
eni max
zion i
Ġazero th
Ġsan ta
Ġsyst em
Ġcli max
Ġexod us
Ġsimula zioni
Ġfebru ary
Ġproje kt
Ġallod s
a b
c ry
e arlier
g uitar
h alf
m irror
s il
w een
Ġn or
Ġin vol
Ġno thing
Ġwas n
Ġz enimax
Ġdisli ked
com ing
Ġbet ween
Ġbattle field
Ġexclusive ly
Ġadd i
vi ously
sil ent
d iablo
e tto
f ootball
n hl
t en
t riv
w arcraft
y le
Ġa ug
Ġs ie
la ss
Ġm ere
Ġi m
st arcraft
Ġin c
pe ct
ul l
Ġof ten
Ġplatform ing
port al
Ġmo on
ass etto
roll ercoaster
Ġcre ated
Ġman y
Ġup coming
cry sis
triv ial
Ġaug ust
Ġmere ly
a lan
e uro
h ow
Ġr ts
Ġrat her
Ġc lass
Ġf am
Ġf inal
Ġye t
Ġro ck
Ġun i
Ġun der
ne ver
Ġfa ir
Ġsa w
Ġsur p
d river
h ero
i ally
m all
o res
s ky
s mall
t ony
u de
Ġt erri
Ġs ti
Ġre f
ou r
ul y
out last
ro cket
Ġes pec
Ġtr uly
Ġall ows
ili ar
Ġsay ing
Ġcomm on
Ġdisappoint ing
Ġclass ic
Ġfam iliar
Ġsurp ris
hero es
sky forge
Ġterri ble
Ġespec ially
h ellblade
m ot
r ateg
st rateg
ar n
Ġst yle
ri se
it able
if fer
qu antum
Ġsu itable
Ġk ind
Ġse t
te tris
Ġche ap
Ġincl ud
Ġpartic ularly
mot orstorm
strateg y
a lanc
j a
o ber
p ite
p ider
r Ã
v ory
w ood
y er
z el
© al
Ġ 7
in ja
Ġn inja
Ġi vory
st ar
Ġe id
Ġb alanc
Ġo ct
lo by
ie st
Ġsh ores
Ġ1 6
Ġha zel
me tal
Ġrec all
Ġspec tr
Ġta ke
so l
Ġal though
Ġsc ary
Ġev olution
Ġnight shade
Ġred wood
Ġdes pite
Ġmont rÃ
Ġho loby
tr ansport
Ġincl ude
Ġtow er
Ġtow ard
lection s
Ġaddi ctive
Ġim m
Ġrock star
Ġsaw yer
Ġsti ll
Ġref lections
iffer ent
Ġeid os
Ġbalanc ed
Ġoct ober
Ġhazel ight
Ġspectr um
ĠmontrÃ ©al
Ġholoby te
c omm
d id
f in
o ther
Ġi mpressed
ers ive
Ġst and
un ch
wh en
Ġab sol
Ġwh o
Ġch ris
il ity
Ġsol ving
stron ghold
Ġag o
Ġsystem s
Ġimm ersive
comm andos
Ġabsol ute
h orizon
p ly
Ġe asy
Ġf ami
res id
Ġdevelop ers
Ġsim ply
es ome
ack ed
Ġspec ial
roll cage
Ġtit les
tr ackmania
Ġaw esome
Ġinvol ve
Ġinclud ing
Ġfami ly
resid ent
' ll
) ?
2 0
c an
d ance
g rand
p s
s i
t o
Ġa ud
Ġa pp
Ġs ad
Ġg iv
Ġm om
Ġplay s
Ġplay able
Ġf ull
Ġo ld
oo ter
ac t
Ġv ia
Ġstrateg ic
all en
Ġspe aking
os e
Ġch allen
sh ooter
Ġcap ab
Ġuni mpressed
Ġtoward s
Ġabsolute ly
Ġaud ience
b ing
c all
d a
e p
h e
n o
w ould
in ally
er ing
Ġp ick
Ġa ct
Ġin st
ri ght
ie s
ic ated
Ġli king
Ġma y
Ġor ig
wh ich
Ġla unch
Ġfun ction
Ġcomb in
ma fia
ili ties
Ġloo k
Ġdown load
Ġgiv en
Ġmom ent
Ġcapab ilities
Ġact ually
Ġorig inally
b e
c as
g od
s or
Ġ jo
en ing
re leas
or ing
ent ed
Ġm ust
ti ful
Ġw ish
Ġf o
Ġde fin
th es
Ġbe au
Ġgive s
Ġk id
Ġun us
ur ing
Ġus es
Ġty pe
Ġqu ick
oun t
Ġreview ed
les s
pl icated
Ġfeat uring
Ġnew est
Ġsurpris ing
Ġaudience s
Ġinst ance
thes da
Ġbeau tiful
b je
g ing
j er
m it
n ight
o ice
p re
t ing
t ally
y ing
z arre
Ġ leas
Ġ ke
er ful
Ġa c
Ġs qu
Ġg ri
as on
as tic
le arn
Ġth ing
Ġth ose
Ġn ade
ti ve
Ġre ason
ve mber
Ġb oring
Ġc ri
ar jer
Ġno vember
Ġde ce
Ġ1 3
Ġto tally
ght ening
Ġli mit
Ġte arjer
Ġind ifferent
ow ering
Ġ199 7
Ġun cas
Ġab sor
Ġch ance
Ġch oice
Ġus ers
Ġam ount
Ġar en
ite ly
Ġemp owering
Ġover rated
Ġcom es
Ġche erful
Ġfri ghtening
Ġseem s
Ġbi zarre
Ġsimilar ly
Ġshort est
Ġunder rated
Ġinclude s
Ġinvolve s
Ġold est
Ġchallen ging
releas ed
Ġdefin itely
Ġunus ual
night shade
pre viously
Ġleas t
Ġsqu are
Ġnade o
Ġdece mber
Ġtearjer king
Ġuncas ual
Ġabsor bing
Ġp er
re d
re ct
Ġs pider
Ġg ho
Ġi mpress
Ġre g
Ġh u
Ġw orth
Ġb u
Ġf re
oo l
Ġst ory
ie ve
Ġlin e
Ġstr ong
Ġbe thesda
Ġha ving
Ġas pect
Ġwh ere
Ġenjoy ing
Ġus e
iv al
ag ers
Ġpre viously
Ġknow s
Ġtr ue
Ġse e
Ġcor rect
Ġmean s
Ġcom ing
Ġfant astic
Ġgo tt
he y
Ġkid s
Ġgri tty
Ġgho st
b ly
c us
f inal
i gh
p latform
p tion
v en
w ard
Ġp la
Ġa ble
at ive
on est
or ate
Ġg ra
Ġh ated
Ġh igh
Ġan other
Ġc our
Ġc ool
Ġf ps
ri ve
Ġex c
Ġex pect
Ġsu bje
Ġne ither
Ġwor st
Ġteen agers
Ġtry ing
Ġfeel ing
oun ter
Ġoption s
Ġinterest ing
Ġgu ess
Ġsa fe
Ġversion s
Ġcommon ly
Ġjo b
Ġfo cus
Ġhu ge
Ġfre qu
Ġline up
Ġcour se
Ġsubje ct
c ounter
e o
l us
l ieve
n ing
o id
p er
r ating
t ac
u ke
u me
w ar
Ġp eo
Ġp lus
Ġa dvent
Ġth ri
Ġm at
Ġm ess
Ġh el
Ġe as
Ġb ro
Ġan no
Ġc are
Ġl uke
ge ther
it es
Ġav oid
Ġview s
Ġpo si
Ġdo ing
Ġbe lieve
Ġen ough
Ġen counter
are d
wh ile
Ġent ire
Ġspec tac
Ġus er
sh adow
Ġmmorpg s
Ġar ound
Ġsupport s
Ġmode s
Ġhit man
Ġfavor ites
Ġpur ch
Ġthem es
Ġconso le
Ġlaunch ed
Ġfrequ ently
war m
Ġpeo ple
Ġadvent ures
Ġanno ying
Ġluke warm
Ġposi tive
Ġencounter ed
Ġspectac ular
e a
i ble
l er
m es
p acked
Ġp res
Ġp ut
or ough
Ġth ank
Ġth orough
Ġm is
Ġm id
Ġd rive
Ġf act
Ġst un
ll ing
is tic
th ers
th ere
Ġto gether
Ġfr ust
ta ctical
Ġwor k
Ġas king
Ġspecif ic
Ġany thing
Ġpro ba
Ġse lection
Ġrece ption
Ġmean t
Ġbl end
Ġass ume
Ġcom pe
Ġdisli king
Ġprefer ence
Ġlack ing
Ġke ep
Ġlimit ing
ival ent
onest ly
Ġthri lling
Ġthorough ly
Ġmid d
Ġfrust rating
Ġproba bly
1 0
b lizzard
b attle
b ility
b ivalent
g ative
j or
l ust
m ing
p th
s pider
u mp
Ġp acked
en s
or d
la x
Ġi mp
ti mes
Ġre lax
Ġh or
Ġh old
Ġd ay
Ġd ull
ir ky
Ġc ol
an other
Ġno stal
Ġmulti ple
ce ss
Ġha pp
us ing
Ġma jor
Ġpuzz ler
Ġne gative
Ġcon v
Ġent ry
Ġal right
Ġconf using
Ġus ed
Ġreal istic
Ġam bivalent
se l
Ġcomb ine
Ġfan s
Ġqu irky
Ġcom plicated
Ġsome what
Ġprefer red
Ġoffer ing
Ġlack lust
Ġwe ird
Ġdown right
Ġmind less
Ġpartic ular
ab ility
Ġinvol ving
Ġfair ly
Ġsurpris ed
Ġsad ly
Ġpick ed
Ġfunction ality
Ġsurprising ly
Ġcri tic
Ġreg ularly
Ġbu y
Ġgott en
Ġhel p
Ġstun ning
battle field
Ġlacklust er
a in
a ir
b orate
e ther
f f
f air
g l
h us
h ap
h ilar
i st
i ac
i ment
j ust
k i
k en
n y
n iac
p ut
p os
s om
t ry
w as
re ci
on gest
Ġt on
or ful
Ġs ent
la borate
Ġg ory
Ġg oof
as ts
Ġn ause
Ġm aster
Ġi o
ing ham
Ġre ward
Ġd one
Ġd ifferent
Ġe pic
Ġe laborate
Ġin cre
Ġb irm
Ġb ased
Ġb last
Ġo thers
oo se
ll iest
Ġon es
Ġl ive
Ġl ow
Ġl ong
Ġl ongest
an them
lat ed
Ġsi lliest
Ġex t
Ġex hilar
Ġavaila bility
de pth
qu e
est ing
Ġun inter
Ġun fair
Ġexp ens
Ġwh ether
Ġch oose
do es
Ġj ap
ol ting
Ġrev olting
Ġlo ki
Ġfun ky
Ġfun ny
Ġbo ard
Ġtal ented
Ġsome times
Ġadv ant
Ġu gl
Ġtri ump
Ġmax is
Ġup per
com plicated
Ġvis ually
Ġcal ming
Ġgam er
Ġpar t
eni ent
Ġwho le
Ġapp reci
Ġac c
Ġimpress ive
Ġpla in
Ġeas iest
Ġbro ken
Ġthank s
Ġmis s
Ġmidd le
Ġrelax ing
Ġcol orful
Ġnostal gic
Ġconv enient
Ġweird est
som niac
Ġsent iment
Ġgoof y
Ġnause ating
Ġreward ing
Ġbirm ingham
Ġexhilar ating
Ġuninter esting
Ġexpens ive
Ġjap an
Ġadvant age
Ġugl iest
Ġtriump h
a h
c ore
g n
g le
i ly
m o
o f
o p
p ed
p leas
t y
u ff
w ay
er en
Ġt er
Ġs ure
Ġs lated
Ġth ings
Ġm ix
Ġi de
ti cal
Ġr are
Ġh ard
Ġh onestly
Ġd ug
Ġe arn
Ġin somniac
Ġw ind
Ġw ron
Ġw eren
Ġb as
Ġc am
Ġyou n
Ġl uck
an cient
ac e
al though
ble m
ut ed
th is
tt ing
Ġsimulation s
Ġme mor
Ġso on
Ġwor ks
Ġrec ent
Ġsup pos
Ġentertain ing
Ġany one
Ġany way
Ġthin king
Ġle t
Ġpro blem
Ġmention ing
Ġhe ar
Ġhe ld
il led
Ġcom ple
Ġef fort
Ġfriend ly
Ġcomp ared
Ġcheck ed
Ġad ore
Ġlack s
Ġgo ing
Ġdisappoint ed
Ġaw are
Ġaddi tion
Ġuni que
Ġtake s
Ġstand ard
20 0
20 1
Ġmay be
Ġcombin ed
Ġcri tical
Ġcorrect ly
platform er
Ġgra b
Ġexc it
Ġentire ly
Ġpurch ase
Ġpres ented
ord ing
Ġhor ror
sel f
hus i
Ġearn ed
Ġwind ows
Ġwron g
Ġsuppos ed
+ .
b l
b el
c ted
d d
d ible
f ter
g er
g ag
i tion
p ai
p orate
t in
t unately
Ġ our
in ary
Ġa p
on ent
on ly
Ġt w
or porate
Ġs er
Ġs ort
la in
Ġth us
Ġre de
Ġh ome
Ġd ue
Ġan gle
Ġc le
Ġc ertain
Ġc up
Ġf la
Ġo wn
ar t
ar ound
pe al
Ġst ore
Ġst uff
ri ate
Ġde al
Ġv ar
Ġsh ot
Ġfor tunately
ic ally
port ant
de s
ro le
Ġstrateg ies
Ġpo tent
th at
Ġha ven
us h
Ġte a
Ġma king
Ġlike ability
ch ed
ow ing
Ġcon tro
Ġen gag
Ġwor se
Ġevery thing
Ġas k
wh o
wh el
ad y
ad ition
Ġun pleas
Ġexp lore
Ġexp lain
Ġent husi
Ġfe w
Ġch ar
Ġal ong
Ġus ing
Ġla bel
Ġle ave
Ġle ts
Ġtr adition
Ġge tting
Ġse en
Ġend ed
Ġthought s
Ġtell ing
rop riate
Ġcomp onent
Ġgam ers
Ġad ul
Ġconsider ing
Ġdown loaded
Ġaw ay
Ġag ain
Ġim portant
Ġinc orporate
Ġunder whel
Ġapp ropriate
Ġcombin es
Ġlimit ed
Ġper fect
Ġper hap
Ġaspect s
Ġgott a
Ġhigh ly
Ġfocus ed
Ġmat ter
Ġcompe tent
Ġhapp y
Ġcritic s
put ting
Ġincre dible
Ġappreci ate
Ġacc ording
Ġter ms
Ġide a
Ġbas ically
Ġcam pai
Ġexcit ed
Ġrede fin
Ġpotent ial
Ġengag ing
Ġunpleas ant
Ġenthusi asts
Ġincorporate s
Ġperhap s
Ġcampai gn
) -
+ ,
. ,
a us
a ven
c cess
f r
f ri
f use
g ame
h as
h it
h onestly
i p
i ed
i ld
i ant
l ick
l se
m ay
m ore
m ately
n a
n ed
n aughty
o ver
p y
p ie
p hic
r pg
s w
u led
v ival
w d
w ere
z ed
Ġp leas
Ġp lan
Ġp ast
Ġa fter
re ady
at is
on us
on na
Ġs ong
Ġs ound
Ġg r
Ġg onna
le y
Ġn on
Ġm one
Ġm ine
ti tive
Ġr ave
Ġr ace
st and
st yle
Ġh y
Ġh and
Ġh our
Ġd ated
Ġd rop
Ġe lse
Ġin com
Ġrat e
Ġreleas ing
Ġb oo
Ġb are
Ġb alan
Ġb unch
Ġb onus
Ġan sw
Ġc lo
Ġc ateg
Ġc aus
Ġc lick
Ġf all
Ġf ig
Ġf ine
Ġf illed
Ġo h
Ġo dd
ation s
ure d
ac h
lo g
ie ty
Ġde v
Ġde light
Ġfor ward
Ġyear s
end ly
Ġwas te
Ġro ad
ro ve
ro ss
qu ate
Ġto day
Ġsu ccess
Ġma in
Ġatt em
Ġop er
Ġme h
Ġso ld
Ġcon st
Ġcon ven
Ġen h
Ġteen s
Ġun less
Ġwh ose
Ġch ild
Ġal mo
Ġal ready
Ġla pt
Ġany more
Ġturn s
Ġturn ed
Ġpro vi
Ġknow n
Ġlo ts
Ġlo vers
Ġev ent
Ġscroll ing
wit h
Ġvehic le
Ġhe aven
Ġfeel s
Ġget s
Ġsol ve
Ġtal k
Ġtal ked
Ġwould n
Ġcro wd
Ġenem ies
Ġmanag ed
Ġshow s
sport s
Ġtri ck
Ġthrough out
Ġmassive ly
Ġcould n
Ġtypic al
Ġsur vival
Ġunder stand
Ġinclud ed
Ġchallen ge
Ġlaunch ing
Ġcombin ation
Ġjo in
Ġfo ll
Ġke pt
Ġac ross
Ġstrong ly
Ġgra phic
Ġexpect ations
Ġmat ch
Ġeas ily
Ġimp act
Ġimp rove
Ġton s
Ġmaster pie
Ġext ra
Ġmix ed
Ġyoun ger
Ġcomple te
Ġap peal
Ġtw o
Ġcle ar
Ġfla w
Ġvar iety
ush ed
Ġcontro l
Ġtradition al
Ġadul t
Ġunderwhel med
Ġredefin ed
fri endly
hit man
may be
over kill
atis f
Ġmone y
Ġhour s
Ġbare ly
Ġbalan ce
Ġclo se
Ġfig ured
Ġattem pt
Ġconven ience
Ġalmo st
Ġlapt op
Ġprovi des
Ġgraphic s
Ġmasterpie ce
1 99
a v
a it
a log
b t
b ed
b ut
c y
c er
c rib
c uted
d on
d ic
d inary
e x
e ye
e cuted
f ire
f illed
g ed
g ust
i or
i de
k er
k ay
k now
k onami
k ability
l ing
l led
m y
m ulti
m is
n intendo
o kay
p c
p ers
p ar
p end
r en
r ative
s ed
s ion
s ie
s ic
s ay
s ome
t eam
t ell
u ine
u bisoft
v ated
v ented
w ap
w ise
y led
Ġ -
Ġ form
Ġ ulti
Ġ intend
in s
er ed
en joy
re e
re t
re me
at ch
at ur
at ible
Ġt ame
or ge
Ġs le
Ġs al
Ġs po
Ġs our
Ġs ched
Ġs atisf
Ġs wap
Ġg arn
Ġg orge
as ing
as te
Ġn ar
Ġn atur
ti l
ti al
Ġre put
ve s
ve y
st ro
st ep
ou bt
Ġh ating
Ġh onest
Ġd il
Ġd ist
Ġd oubt
Ġe qu
cti c
Ġw atch
Ġb ri
Ġb lo
Ġb oot
Ġb ought
Ġb ug
Ġb ring
Ġf it
Ġf ut
Ġf ur
Ġf ol
Ġf ield
Ġo bje
Ġo mis
ar ently
play station
pe s
oo th
Ġhas n
Ġgen uine
Ġst arted
Ġst art
Ġl ate
Ġit self
an ic
ac ter
ac ts
Ġno vel
ri d
ri ble
ri cted
ge t
lo t
it ing
velop ed
Ġsi ght
Ġex act
if ied
ate s
ate ver
Ġview ed
ke y
un cher
de veloped
ro w
ro ad
ro ach
Ġpo p
Ġto p
Ġto pic
Ġexce ption
Ġli st
Ġli kability
Ġma ker
Ġrequ ires
Ġlike ly
Ġatt ra
and ing
ch e
ch anic
der n
ow ed
ta bly
Ġor dinary
Ġme chanic
Ġout did
Ġmo dern
Ġne ar
Ġne xt
Ġcon t
Ġcon vers
Ġcon tin
ad ed
Ġun ent
Ġun hap
Ġun enjoy
Ġun til
Ġab ility
Ġexp l
Ġexp anding
Ġentertain ed
Ġwh atever
Ġta king
Ġta ctic
li ke
you r
Ġneed ed
Ġal ley
Ġus ual
Ġla me
Ġla uncher
Ġreal i
iv ing
Ġwi de
co demasters
Ġage s
Ġsm ooth
Ġle vel
Ġle ss
Ġpre dic
Ġpre vented
Ġpro per
Ġtr end
Ġtr ust
Ġall owing
Ġall owed
Ġlo aded
Ġge ared
Ġyour self
Ġse es
Ġar rive
Ġother wise
Ġman age
Ġswitch ed
Ġrece iving
Ġfan cy
tion s
Ġhe y
il s
Ġbo ast
Ġbo asts
Ġlove s
Ġfeel ings
Ġele vated
Ġcat alog
Ġreview ers
ire d
Ġmar ket
au gust
Ġcro ss
Ġsome time
um er
Ġport ed
Ġrest ricted
Ġdes crib
Ġgreat ly
Ġval ue
Ġthem sel
Ġho pes
Ġdec ently
Ġdec ide
Ġcomp atible
Ġtin y
Ġamazing ly
ful ly
Ġcheck ing
Ġade quate
Ġtend s
Ġnorm al
Ġgu y
Ġoffer ed
Ġprodu ce
Ġprodu ct
Ġprodu ced
Ġpar tial
Ġgo es
Ġwe ak
Ġbec ome
Ġnice ly
Ġnew er
Ġdisappoint ment
Ġadd ing
Ġaw ful
ru cted
Ġfeature d
pp ed
Ġag ree
Ġsti ck
Ġkind a
Ġstand s
Ġstand ing
20 16
20 10
si de
Ġapp arently
Ġapp roach
act ers
Ġcombin ing
be fore
be thesda
Ġac cess
Ġreason s
Ġimpress ion
Ġreg ret
Ġstory line
ieve d
platform ing
Ġpla ce
Ġpla ced
Ġexc use
Ġmess ed
Ġhel ps
Ġbro thers
Ġpurch ased
Ġpurch asing
Ġpres ent
Ġthank fully
Ġmis step
Ġspecific ally
Ġblend s
Ġcompe te
Ġcompe titive
Ġmidd ling
ord inary
Ġhor rible
Ġhold s
Ġhapp en
Ġext reme
Ġappreci ated
mo on
Ġrare ly
Ġmemor y
Ġmemor ies
Ġhear ing
Ġadore d
200 5
201 3
Ġgrab bing
bl oober
Ġser ies
Ġchar acter
Ġchar acters
Ġleave s
game s
Ġpleas e
Ġplan ning
Ġsong s
Ġgr ou
Ġhy pe
Ġdrop ped
Ġboo k
Ġansw er
Ġcateg ory
Ġcaus es
Ġdelight ful
Ġconst ructed
Ġenh anced
Ġchild ren
Ġevent ually
Ġfoll owing
Ġextra ordinary
Ġappeal ing
Ġflaw less
av aila
fire proof
multi player
pers on
Ġulti mately
Ġspo ils
Ġsched uled
Ġswap s
Ġgarn ered
Ġgorge ous
aste ful
Ġnar rative
Ġnatur ally
Ġreput ation
Ġdil uted
Ġdist asteful
Ġfut ure
Ġfur ther
Ġfol ks
Ġomis sion
Ġgenuine ly
Ġattra ctive
Ġmechanic s
Ġconvers ation
Ġunhap py
Ġunenjoy able
Ġpredic tably
Ġproper ly
Ġarrive d
Ġdescrib e
Ġthemsel ves
