{"<s>":0,"<pad>":1,"</s>":2,"<unk>":3,"!":4,"\"":5,"#":6,"$":7,"%":8,"&":9,"'":10,"(":11,")":12,"*":13,"+":14,",":15,"-":16,".":17,"/":18,"0":19,"1":20,"2":21,"3":22,"4":23,"5":24,"6":25,"7":26,"8":27,"9":28,":":29,";":30,"<":31,"=":32,">":33,"?":34,"@":35,"A":36,"B":37,"C":38,"D":39,"E":40,"F":41,"G":42,"H":43,"I":44,"J":45,"K":46,"L":47,"M":48,"N":49,"O":50,"P":51,"Q":52,"R":53,"S":54,"T":55,"U":56,"V":57,"W":58,"X":59,"Y":60,"Z":61,"[":62,"\\":63,"]":64,"^":65,"_":66,"`":67,"a":68,"b":69,"c":70,"d":71,"e":72,"f":73,"g":74,"h":75,"i":76,"j":77,"k":78,"l":79,"m":80,"n":81,"o":82,"p":83,"q":84,"r":85,"s":86,"t":87,"u":88,"v":89,"w":90,"x":91,"y":92,"z":93,"{":94,"|":95,"}":96,"~":97,"¡":98,"¢":99,"£":100,"¤":101,"¥":102,"¦":103,"§":104,"¨":105,"©":106,"ª":107,"«":108,"¬":109,"®":110,"¯":111,"°":112,"±":113,"²":114,"³":115,"´":116,"µ":117,"¶":118,"·":119,"¸":120,"¹":121,"º":122,"»":123,"¼":124,"½":125,"¾":126,"¿":127,"À":128,"Á":129,"Â":130,"Ã":131,"Ä":132,"Å":133,"Æ":134,"Ç":135,"È":136,"É":137,"Ê":138,"Ë":139,"Ì":140,"Í":141,"Î":142,"Ï":143,"Ð":144,"Ñ":145,"Ò":146,"Ó":147,"Ô":148,"Õ":149,"Ö":150,"×":151,"Ø":152,"Ù":153,"Ú":154,"Û":155,"Ü":156,"Ý":157,"Þ":158,"ß":159,"à":160,"á":161,"â":162,"ã":163,"ä":164,"å":165,"æ":166,"ç":167,"è":168,"é":169,"ê":170,"ë":171,"ì":172,"í":173,"î":174,"ï":175,"ð":176,"ñ":177,"ò":178,"ó":179,"ô":180,"õ":181,"ö":182,"÷":183,"ø":184,"ù":185,"ú":186,"û":187,"ü":188,"ý":189,"þ":190,"ÿ":191,"Ā":192,"ā":193,"Ă":194,"ă":195,"Ą":196,"ą":197,"Ć":198,"ć":199,"Ĉ":200,"ĉ":201,"Ċ":202,"ċ":203,"Č":204,"č":205,"Ď":206,"ď":207,"Đ":208,"đ":209,"Ē":210,"ē":211,"Ĕ":212,"ĕ":213,"Ė":214,"ė":215,"Ę":216,"ę":217,"Ě":218,"ě":219,"Ĝ":220,"ĝ":221,"Ğ":222,"ğ":223,"Ġ":224,"ġ":225,"Ģ":226,"ģ":227,"Ĥ":228,"ĥ":229,"Ħ":230,"ħ":231,"Ĩ":232,"ĩ":233,"Ī":234,"ī":235,"Ĭ":236,"ĭ":237,"Į":238,"į":239,"İ":240,"ı":241,"Ĳ":242,"ĳ":243,"Ĵ":244,"ĵ":245,"Ķ":246,"ķ":247,"ĸ":248,"Ĺ":249,"ĺ":250,"Ļ":251,"ļ":252,"Ľ":253,"ľ":254,"Ŀ":255,"ŀ":256,"Ł":257,"ł":258,"Ń":259,"Ġ=":260,"Ġ|":261,"er":262,"an":263,"ri":264,"Ġf":265,"at":266,"Ġc":267,"Ġr":268,"en":269,"he":270,"ly":271,"Ġa":272,"am":273,"in":274,"es":275,"od":276,"Ġt":277,"ea":278,"ood":279,"Ġp":280,"is":281,"ge":282,"ce":283,"Ġfood":284,"Ġo":285,"st":286,"The":287,"Ġn":288,"ing":289,"Ġis":290,"Ġrat":291,"end":292,"Ġpri":293,"riend":294,"riendly":295,"om":296,"id":297,"Ġprice":298,"Ġrating":299,"ame":300,"ver":301,"Ġcu":302,"stom":303,"stomer":304,"ĠThe":305,"Ġcustomer":306,"name":307,"ĠC":308,"ear":309,"Ġran":310,"Ġnear":311,"Ġrange":312,"ĠI":313,"ami":314,"Ġfami":315,"it":316,"Ġfamily":317,"Ġof":318,"Ġs":319,"Ġl":320,"re":321,"ta":322,"friendly":323,"ide":324,"Ġh":325,"Ġ5":326,"side":327,"Ġar":328,"verside":329,"Ġarea":330,"Ġri":331,"ĠB":332,"Ġriverside":333,"Ġthe":334,"ater":335,"ent":336,"ate":337,"ur":338,"ut":339,"ho":340,"Ġlo":341,"ee":342,"ĠF":343,"Ġth":344,"Ġan":345,"li":346,"Ġe":347,"ff":348,"Ġout":349,"Ġco":350,"Â£":351,"ĠR":352,"ĠÂ£":353,"ffee":354,"Ġcoffee":355,"hop":356,"pe":357,"atery":358,"Ġeatery":359,"Ġshop":360,"gh":361,"ap":362,"Ġty":363,"Ġtype":364,"Ġm":365,"Ġy":366,"Ġin":367,"igh":368,"Ġhigh":369,"esta":370,"Ġyes":371,"ant":372,"Ġand":373,"ity":374,"urant":375,"estaurant":376,"Ġrestaurant":377,"ch":378,"ese":379,"il":380,"Ġcent":381,"Ġcity":382,"Ġno":383,"Ġcentre":384,"ĠE":385,"ĠP":386,"Ġfriendly":387,"Ġthan":388,"ated":389,"20":390,"cated":391,"ĠIn":392,"ĠIt":393,"ren":394,"Ġw":395,"ub":396,"ll":397,"Ġpub":398,"Ġlocated":399,"ast":400,"ess":401,"ou":402,"ĠA":403,"ĠH":404,"Ġha":405,"ro":406,"Ġb":407,"vera":408,"af":409,"Ã©":410,"afÃ©":411,"verage":412,"ĠCafÃ©":413,"Ġlow":414,"gl":415,"Ġaverage":416,"ice":417,"ĠG":418,"lian":419,"talian":420,"Jap":421,"Japan":422,"ĠItalian":423,"Japanese":424,"ĠJapanese":425,"ĠW":426,"ed":427,"oder":428,"oderate":429,"Ġhas":430,"rench":431,"Ġmoderate":432,"ĠS":433,"ĠFrench":434,"or":435,"ol":436,"erv":437,"ian":438,"um":439,"dian":440,"ĠIndian":441,"ers":442,"Ġserv":443,"ith":444,"ar":445,"Ġwith":446,"ne":447,"ild":448,"ve":449,"ĠT":450,"Ġche":451,"la":452,"Ġcheap":453,"Ġless":454,"ish":455,"oat":456,"ĠRice":457,"ĠBoat":458,"Ġ3":459,"Ġ1":460,"ĠFast":461,"ngl":462,"nglish":463,"ĠEnglish":464,"ore":465,"Ġmore":466,"30":467,"ra":468,"Ġserves":469,"Ġthat":470,"hild":471,"dge":472,"Ġby":473,"tl":474,"amb":475,"ridge":476,"ĠCamb":477,"ĠCambridge":478,"all":479,"25":480,"Ġchild":481,"old":482,"row":483,"olden":484,"ĠGolden":485,"hin":486,"xp":487,"hinese":488,"ĠChinese":489,"ĠBar":490,"ĠM":491,"ot":492,"Ġnot":493,"Ġk":494,"man":495,"aterman":496,"ĠWaterman":497,"ns":498,"ĠO":499,"Ġkid":500,"ow":501,"ere":502,"ue":503,"ĠV":504,"ĠTw":505,"ment":506,"lies":507,"Ġpriced":508,"Ġit":509,"ry":510,"Lo":511,"ĠAr":512,"ay":513,"Ġcall":514,"lue":515,"Ġcalled":516,"se":517,"le":518,"lace":519,"ĠRou":520,"ĠRouge":521,"ress":522,"ĠExp":523,"olid":524,"ĠHolid":525,"ĠHoliday":526,"ĠInn":527,"ĠCur":528,"ĠExpress":529,"ĠCurry":530,"ix":531,"zb":532,"itzb":533,"illies":534,"itzbillies":535,"Ġrated":536,"Ġat":537,"here":538,"agl":539,"ĠEagl":540,"ĠRa":541,"ĠEagle":542,"Ġto":543,"Ġfor":544,"da":545,"rowns":546,"ĠBlue":547,"liment":548,"limentum":549,"Ġoff":550,"Ġfast":551,"ic":552,"ouse":553,"tra":554,"trada":555,"ĠHouse":556,"ms":557,"and":558,"res":559,"ĠPor":560,"tland":561,"ĠArms":562,"ĠPortland":563,"ul":564,"restl":565,"restlers":566,"ĠWrestlers":567,"ĠOne":568,"ĠAll":569,"Ġchildren":570,"There":571,"el":572,"un":573,"enix":574,"hoenix":575,"ĠPhoenix":576,"ult":577,"ĠN":578,"Ġst":579,"ces":580,"yne":581,"Loch":582,"ĠFyne":583,"ĠFitzbillies":584,"ĠY":585,"ĠSp":586,"ĠSpice":587,"urg":588,"rov":589,"Ġare":590,"ege":591,"Ġprov":592,"ĠVege":593,"ĠVegeta":594,"bow":595,"rian":596,"inbow":597,"ĠVegetarian":598,"ĠRainbow":599,"pp":600,"Ġprices":601,"ĠK":602,"to":603,"ter":604,"ive":605,"Ġoffers":606,"urger":607,"oodle":608,"otto":609,"ĠNoodle":610,"ipp":611,"ippee":612,"Ġprovid":613,"ĠYippee":614,"ine":615,"ĠPun":616,"ĠPunter":617,"ĠKing":618,"ĠBurger":619,"ĠAlimentum":620,"ults":621,"otel":622,"za":623,"ĠBrowns":624,"enty":625,"ĠPla":626,"ĠHotel":627,"ĠPlaza":628,"ĠCrow":629,"Ġstar":630,"ĠTwenty":631,"ĠTwo":632,"wood":633,"ildwood":634,"hi":635,"ĠStrada":636,"oc":637,"ocum":638,"ĠCrowne":639,"on":640,"ĠRan":641,"Ġplace":642,"ree":643,"Ġon":644,"aults":645,"ĠVaults":646,"ĠMan":647,"reen":648,"ĠSic":649,"ĠSici":650,"lia":651,"ĠSicilia":652,"iz":653,"ak":654,"ill":655,"Ziz":656,"Zizz":657,"Zizzi":658,"ids":659,"mer":660,"et":661,"ĠRanch":662,"isine":663,"live":664,"rove":665,"ĠOlive":666,"Ġg":667,"ĠGrove":668,"ummer":669,"idsummer":670,"Ġserving":671,"ĠLoch":672,"ell":673,"Ġbut":674,"alace":675,"ĠPalace":676,"iverside":677,"Ġmoderately":678,"omi":679,"ĠCotto":680,"Ġd":681,"ĠBak":682,"ĠBakers":683,"ĠRiverside":684,"ĠMill":685,"lare":686,"ĠHall":687,"ĠClare":688,"ĠWildwood":689,"Ġkids":690,"ĠD":691,"pl":692,"ens":693,"umpl":694,"umpling":695,"ĠTree":696,"Located":697,"ĠDumpling":698,"ĠCu":699,"ensive":700,"ĠGreen":701,"xpensive":702,"rent":703,"ĠSor":704,"rento":705,"ĠSorrento":706,"hich":707,"Ġwhich":708,"Ġratings":709,"ells":710,"Ġprovides":711,"'s":712,"ck":713,"ĠCocum":714,"ĠZizzi":715,"low":716,"lowns":717,"al":718,"ffe":719,"ira":720,"Ġname":721,"iraffe":722,"nd":723,"ĠMidsummer":724,"ĠPl":725,"ough":726,"ound":727,"ĠPlough":728,"ĠThey":729,"cket":730,"ricket":731,"ĠCricket":732,"ĠCricketers":733,"im":734,"Ġyou":735,"ĠAromi":736,"Ġnamed":737,"rice":738,"ib":739,"raz":740,"ĠBraz":741,"ĠBrazil":742,"bap":743,"imbap":744,"ibimbap":745,"Ġexpensive":746,"Ġhighly":747,"Ġriver":748,"Near":749,"Fitzbillies":750,"In":751,"Ġcan":752,"Ġbe":753,"Ġcenter":754,"ĠCuisine":755,"Ġre":756,"ja":757,"price":758,"ĠRaja":759,"Ġthere":760,"Ġhave":761,"Ġcustomers":762,"ĠGiraffe":763,"aste":764,"Browns":765,"vi":766,"ĠClowns":767,"priced":768,"ĠBells":769,"ĠSix":770,"ls":771,"Alimentum":772,"Ġcost":773,"ĠIts":774,"Ġproviding":775,"Ġsu":776,"Ġ20":777,"Ġv":778,"Strada":779,"est":780,"ĠBibimbap":781,"ĠAd":782,"riat":783,"ĠAdriat":784,"ĠAdriatic":785,"ĠCity":786,"lo":787,"Ġoffer":788,"ble":789,"Ġcuisine":790,"lose":791,"ĠTaste":792,"Blue":793,"Ġfr":794,"fe":795,"Ġits":796,"val":797,"valon":798,"Ġfrom":799,"ĠAvalon":800,"Cotto":801,"Ġclose":802,"Ġad":803,"Cocum":804,"rave":805,"For":806,"llers":807,"ĠBee":808,"ĠRest":809,"feater":810,"ravellers":811,"ĠBeefeater":812,"os":813,"com":814,"Ġfive":815,"Ġen":816,"shi":817,"ew":818,"Ġoffering":819,"lso":820,"Ġfound":821,"his":822,"Ġnon":823,"Ġalso":824,"iv":825,"Ġstars":826,"bl":827,"establ":828,"Ġestabl":829,"Ġone":830,"ishment":831,"Ġgood":832,"Ġestablishment":833,"Ġsushi":834,"reat":835,"Wildwood":836,"Ġmid":837,"ir":838,"xt":839,"ion":840,"ĠTravellers":841,"ext":842,"Ġven":843,"Ġvenue":844,"Ġsells":845,"Ġgreat":846,"Ġpound":847,"ĠThis":848,"Ġserve":849,"Ġmea":850,"ron":851,"Midsummer":852,"Ar":853,"Aromi":854,"view":855,"Ġpounds":856,"Ġsit":857,"Ġfamilies":858,"able":859,"With":860,"Ġnext":861,"Ġthey":862,"ĠCustomer":863,"viron":864,"vironment":865,"Ġenvironment":866,"th":867,"Ġ30":868,"Ġonly":869,"uated":870,"qu":871,"Ġas":872,"very":873,"Green":874,"Ġeat":875,"ind":876,"ok":877,"If":878,"Ġqu":879,"entre":880,"Ġvery":881,"mos":882,"phere":883,"ceiv":884,"elcom":885,"mosphere":886,"Ġatmosphere":887,"ĠCentre":888,"Ġtry":889,"Ġreceiv":890,"Clowns":891,"ĠFriendly":892,"Ġfind":893,"Ġpo":894,"Ġthree":895,"Ġreview":896,"Ġsituated":897,"Ġadult":898,"ĠLocated":899,"star":900,"Ġwelcom":901,"Ġdo":902,"own":903,"oking":904,"Ġal":905,"expensive":906,"Ġinexpensive":907,"Giraffe":908,"ating":909,"Ġall":910,"'t":911,"Bibimbap":912,"amily":913,"yle":914,"ct":915,"Ġrea":916,"Ġde":917,"rin":918,"Ġthis":919,"ium":920,"Ġhigher":921,"Ġreceived":922,"Ġlooking":923,"Ġfa":924,"ĠRating":925,"rit":926,"ong":927,"Ġrang":928,"Ġmed":929,"Ġnor":930,"Ġmeals":931,"Ġu":932,"Ġreviews":933,"ality":934,"Ġcosts":935,"son":936,"Ġex":937,"hou":938,"Ġloc":939,"Ġmedium":940,"hough":941,"Ġbet":942,"ffor":943,"Ġwine":944,"Ġreason":945,"Ġnorth":946,"een":947,"fforda":948,"ome":949,"our":950,"ween":951,"Ġun":952,"Ġquality":953,"Ġbetween":954,"bo":955,"Ġafforda":956,"Ġstyle":957,"jo":958,"der":959,"Ġaffordable":960,"Ġwill":961,"Ġabo":962,"Ġover":963,"Ġpoor":964,"Ġwelcome":965,"Ġrate":966,"Ġadults":967,"Ġdoes":968,"Ġservice":969,"ĠCustomers":970,"Ġyour":971,"Ġdin":972,"Taste":973,"as":974,"Ġgo":975,"ĠFood":976,"get":977,"ation":978,"Ġalong":979,"enu":980,"Ġget":981,"Ġmenu":982,"An":983,"Ġdeli":984,"ritish":985,"ĠBritish":986,"ever":987,"Ġsuit":988,"ake":989,"Ġunder":990,"Ġ.":991,"Ġexce":992,"owever":993,"comm":994,"ci":995,"rated":996,"Ġlocation":997,"uros":998,"Ġmeal":999,"isit":1000,"Ġwho":1001,"Ġwhere":1002,"commend":1003,"rices":1004,"llent":1005,"Ġrecommend":1006,"Ġserved":1007,"Ġdining":1008,"Ġexcellent":1009,"ust":1010,"Ġsuitable":1011,"Ġtake":1012,"ĠPrices":1013,"Ġdis":1014,"Ġthen":1015,"Ġtheir":1016,"Ġabove":1017,"ad":1018,"Ġisn":1019,"Ġbeen":1020,"ĠPub":1021,"Ġup":1022,"ting":1023,"family":1024,"ĠL":1025,"-Â£":1026,"though":1027,"Ġ,":1028,"joy":1029,"Ġwell":1030,"Ġvisit":1031,"ĠCrown":1032,"Ġallow":1033,"'re":1034,"ĠRange":1035,"Ġranging":1036,"food":1037,"rink":1038,"co":1039,"Ġper":1040,"Ġdrink":1041,"Ġrecommended":1042,"Ġeuros":1043,"Ġfoods":1044,"Ġop":1045,"ring":1046,"Ġsp":1047,"just":1048,"way":1049,"Ġ-":1050,"Ġjust":1051,"rea":1052,"eat":1053,"Ġwithin":1054,"ven":1055,"int":1056,"ite":1057,"Ġwhole":1058,"hildren":1059,"Ġend":1060,"hes":1061,"ght":1062,"ous":1063,"Ġgiv":1064,"ab":1065,"Ġenjoy":1066,"cing":1067,"ĠShop":1068,"Ġreasonable":1069,"Ġfair":1070,"Ġbrea":1071,"ĠNot":1072,"Ġpricing":1073,"Ġhowever":1074,"Ġdishes":1075,"ĠĠ":1076,"Ġaround":1077,"ably":1078,"Ġside":1079,"ĠTheir":1080,"Ġcheese":1081,"ien":1082,"Ġexp":1083,"Ġva":1084,"Ġgiven":1085,"if":1086,"Ġreasonably":1087,"ience":1088,"fast":1089,"kfast":1090,"Ġexper":1091,"Ġbu":1092,"Ġexperience":1093,"Ġoutside":1094,"High":1095,"Ġwe":1096,"Ġkn":1097,"You":1098,"Ġhe":1099,"At":1100,"Ġor":1101,"Ġranges":1102,"Ġdeliver":1103,"Ġbreakfast":1104,"Ġfeat":1105,"Ġori":1106,"ally":1107,"Ġcosting":1108,"Ġsell":1109,"ction":1110,"Ġset":1111,"erving":1112,"ĠYou":1113,"ies":1114,"ĠPrice":1115,"by":1116,"Ġ25":1117,"Ġnice":1118,"Ġpast":1119,"Ġam":1120,"Ġcater":1121,"ented":1122,"ĠWe":1123,"urgers":1124,"Ġknown":1125,"lthough":1126,"ile":1127,"Ġbest":1128,"Ġopt":1129,"ca":1130,"ĠWith":1131,"Ġsat":1132,"peci":1133,"Ġgive":1134,"Ġpoorly":1135,"isf":1136,"Ġwh":1137,"Ġcons":1138,"Ġdown":1139,"Ġsetting":1140,"Ġpricey":1141,"Ġwant":1142,"Ġ'":1143,"Ġaveragely":1144,"Ġsatisf":1145,"Travellers":1146,"Ġso":1147,"Ġright":1148,"Ġfare":1149,"By":1150,"ient":1151,"Ġfine":1152,"ĠChildren":1153,"Ġnearby":1154,"Ġpasta":1155,"Ġspeci":1156,"Ġbeing":1157,"Ġoriented":1158,"On":1159,"ries":1160,"Ġsatisfa":1161,"cent":1162,"Ġbar":1163,"Ġtown":1164,"Ġsome":1165,"cious":1166,"venient":1167,"ran":1168,"Ġour":1169,"Che":1170,"ail":1171,"Ġfriend":1172,"Ġwas":1173,"Ġgets":1174,"Ġsatisfaction":1175,"ss":1176,"Ġjo":1177,"ts":1178,"vail":1179,"Ġview":1180,"Ġdrinks":1181,"vailable":1182,"Riverside":1183,"Ġcon":1184,"Ġpre":1185,"Ġdelicious":1186,"Ġavailable":1187,"Ġbo":1188,"Ġcheck":1189,"Ġwelcomes":1190,"French":1191,"ight":1192,"orth":1193,"cost":1194,"away":1195,"ustomer":1196,"Ġfries":1197,"ld":1198,"Ġbudge":1199,"range":1200,"Ġjoint":1201,"Ġac":1202,"Ġthough":1203,"Ġburgers":1204,"Friendly":1205,"ĠRated":1206,"ional":1207,"Ġallowed":1208,"Ġprovide":1209,"Ġvari":1210,"Ġbudget":1211,"dit":1212,"ider":1213,"umer":1214,"Ġdine":1215,"Family":1216,"Italian":1217,"Serving":1218,"op":1219,"ĠHowever":1220,"Ġlower":1221,"Ġconvenient":1222,"ould":1223,"Ġboast":1224,"ges":1225,"zing":1226,"Ġsc":1227,"ures":1228,"Ġwould":1229,"Ġfairly":1230,"Ġconsider":1231,"lu":1232,"Ġranged":1233,"Ġdecent":1234,"Ġus":1235,"Customer":1236,"Ġcho":1237,"eside":1238,"Ġbel":1239,"radit":1240,"Ġfeatures":1241,"Ġlove":1242,"lic":1243,"ety":1244,"Ġquite":1245,"ased":1246,"Ġcom":1247,"Ġsho":1248,"ard":1249,"Ġselling":1250,"Ġvariety":1251,"Ġli":1252,"ĠFamily":1253,"child":1254,"Ġwin":1255,"uld":1256,"Ġoption":1257,"raditional":1258,"ali":1259,"Ġif":1260,"ther":1261,"Ġreceives":1262,"Ġconsidered":1263,"Rated":1264,"Ġbring":1265,"ular":1266,"ican":1267,"merican":1268,"Ġabout":1269,"Ġbelow":1270,"Ġlik":1271,"Ġtraditional":1272,"Ġite":1273,"Ġboasts":1274,"Fast":1275,"for":1276,"Ġnew":1277,"Ġbased":1278,"Ġitems":1279,"Close":1280,"iver":1281,"eses":1282,"Ġtw":1283,"Ġrank":1284,"ĠAmerican":1285,"ĠHigh":1286,"ĠThere":1287,"Ġtoo":1288,"Ġbeside":1289,"Ġdeliveries":1290,"Cheap":1291,"fect":1292,"Ġpop":1293,"Highly":1294,"Ġspeciali":1295,"Ġchoice":1296,"Ġwines":1297,"lly":1298,"ty":1299,"Ġmo":1300,"Ġalthough":1301,"English":1302,"dle":1303,"amilies":1304,"This":1305,"ons":1306,"pect":1307,"Ġperfect":1308,"pic":1309,"ituated":1310,"ele":1311,"ffer":1312,"ĠRiver":1313,"Ġcheeses":1314,"Ġmiddle":1315,"Ġconveniently":1316,"Come":1317,"Ġlike":1318,"ving":1319,"style":1320,"ĠAlthough":1321,"Ġhead":1322,"Ġcaters":1323,"cale":1324,"Ġtwenty":1325,"Ġear":1326,"ĠIs":1327,"oderately":1328,"ĠYes":1329,"Ġcostumer":1330,"ĠNear":1331,"Ġpopular":1332,"Ġcome":1333,"Ġpay":1334,"Ġcheaply":1335,"tle":1336,"hile":1337,"ittle":1338,"Ġlittle":1339,"llar":1340,"Ġeating":1341,"Ġpoint":1342,"Ġdollar":1343,"azing":1344,"clu":1345,"there":1346,"Ġtypic":1347,"Ġdelivers":1348,"Customers":1349,"Next":1350,"the":1351,"Ġfar":1352,"eal":1353,"ĠNo":1354,"Although":1355,"ions":1356,"oad":1357,"ushi":1358,"Ġthem":1359,"Ġburger":1360,"Indian":1361,"Ġamazing":1362,"Low":1363,"Ġpl":1364,"red":1365,"Ġvalue":1366,"Ġwhile":1367,"ffering":1368,"ave":1369,"oth":1370,"Ġgot":1371,"Children":1372,"kir":1373,"ull":1374,"ĠChe":1375,"ĠEuros":1376,"Ġstarting":1377,"Ġearn":1378,"Ġdollars":1379,"kirts":1380,"Kid":1381,"ain":1382,"eop":1383,"ps":1384,"skirts":1385,"Ġch":1386,"Ġoutskirts":1387,"ices":1388,"Ġearned":1389,"eople":1390,"Moderately":1391,"Ġpublic":1392,"ross":1393,"Ġbad":1394,"art":1395,"Ġspend":1396,"Ġfeatu":1397,"Situated":1398,"Ġroad":1399,"ately":1400,"ĠAs":1401,"Ġhad":1402,"ĠSushi":1403,"ĠKids":1404,"Ġacross":1405,"Chinese":1406,"scale":1407,"Ġfull":1408,"Ġtast":1409,"Ġmay":1410,"ĠAverage":1411,"Ġupscale":1412,"Yes":1413,"irit":1414,"uit":1415,"Ġcla":1416,"ĠFamilies":1417,"Ġbit":1418,"Ġservices":1419,"Ġlocal":1420,"irits":1421,"ner":1422,"Ġid":1423,"esp":1424,"Ġdoesn":1425,"Ġopen":1426,"Ġspecializ":1427,"Ġclass":1428,"ag":1429,"Ġpeople":1430,"Ġhome":1431,"Ġfriends":1432,"ack":1433,"Ġrates":1434,"Ġsli":1435,"Ġlook":1436,"ick":1437,"espite":1438,"tun":1439,"Ġaway":1440,"Ġinclu":1441,"Ġgr":1442,"Ġreally":1443,"ghtly":1444,"Ġinclud":1445,"eaut":1446,"Ġser":1447,"eed":1448,"Ġworth":1449,"ĠKid":1450,"Ġdist":1451,"iful":1452,"children":1453,"Ġspecializes":1454,"Ġslightly":1455,"eautiful":1456,"Offering":1457,"use":1458,"ĠU":1459,"Ġfan":1460,"ative":1461,"Ġsele":1462,"Ġhouse":1463,"uth":1464,"Ġwon":1465,"ĠOur":1466,"coffee":1467,"fortun":1468,"Ġserver":1469,"fortunately":1470,"ease":1471,"Ġyet":1472,"Ġboth":1473,"ĠAsian":1474,"Ġideal":1475,"'ll":1476,"long":1477,"ames":1478,"Ġeven":1479,"Ġcould":1480,"Ġbeautiful":1481,"Looking":1482,"Ġbeca":1483,"Ġexpect":1484,"Ġspirits":1485,"Ġfeaturing":1486,"Ġbecause":1487,"Along":1488,"ti":1489,"Ġsm":1490,"Ġsom":1491,"hose":1492,"let":1493,"Ġoptions":1494,"Ġusu":1495,"Ġshould":1496,"Child":1497,"Not":1498,"kid":1499,"ener":1500,"Ġthose":1501,"Ġother":1502,"uro":1503,"verages":1504,"Ġtop":1505,"Ġstart":1506,"ĠLow":1507,"Ġsmall":1508,"Try":1509,"Ġent":1510,"eals":1511,"Ġnight":1512,"Ġhaving":1513,"ĠWhile":1514,"Ġdon":1515,"ront":1516,"Ġtypically":1517,"rt":1518,"ĠChild":1519,"Ġhamb":1520,"ney":1521,"Ġmoney":1522,"..":1523,"near":1524,"Ġea":1525,"ĠNorth":1526,"Ġspecial":1527,"Ġscore":1528,"Ġlovely":1529,"ful":1530,"front":1531,"tty":1532,"ĠJ":1533,"ank":1534,"Ġapp":1535,"Ġpers":1536,"Ġoutlet":1537,"Ġlowly":1538,"Ġgener":1539,"Ġfav":1540,"Ġpretty":1541,"Ġperson":1542,"'.":1543,"one":1544,"het":1545,"ist":1546,"ores":1547,"ark":1548,"Ġplaced":1549,"Ġquick":1550,"One":1551,"out":1552,"per":1553,"Ġaw":1554,"Ġsee":1555,"ĠServing":1556,"Ġranked":1557,"Ġchar":1558,"Ġusually":1559,"njoy":1560,"ted":1561,"ates":1562,"Ġwit":1563,"ĠHas":1564,"verall":1565,"ĠTh":1566,"Ġstore":1567,"only":1568,"Ġcostly":1569,"Ġsited":1570,"Ġscores":1571,"aghet":1572,"aghetti":1573,".,":1574,"CafÃ©":1575,"with":1576,"Ġfur":1577,"Ġfall":1578,"stand":1579,"Ġhere":1580,"Ġrestaurants":1581,"Ġbra":1582,"Ġsuper":1583,"Ġsits":1584,"Ġmost":1585,"Ġservers":1586,"It":1587,"fter":1588,"pet":1589,"Ġsure":1590,"Ġfruit":1591,"Ġspot":1592,"Ġspaghetti":1593,"Ġamong":1594,"Ġwhat":1595,"standing":1596,"Visit":1597,"king":1598,"Ġrest":1599,"Ġoutstanding":1600,"Ġstop":1601,"Ġreg":1602,"elcome":1603,"coho":1604,"Check":1605,"acks":1606,"Ġhamburgers":1607,"Ġfurther":1608,"City":1609,"Enjoy":1610,"Welcome":1611,"are":1612,"ging":1613,"enta":1614,"Ġneat":1615,"Ġsea":1616,"Ġevery":1617,"Ġmat":1618,"Ġcentra":1619,"Ġwide":1620,"Ġbank":1621,"Ġoffered":1622,"Ġeats":1623,"Ġreviewed":1624,"Ġalcoho":1625,"ards":1626,"ĠUn":1627,"Ġselection":1628,"Ġbracket":1629,"ental":1630,"Average":1631,"restaurant":1632,"ance":1633,"Ġages":1634,"Ġpr":1635,"Ġpla":1636,"stic":1637,"Ġcur":1638,"tastic":1639,"Ġaren":1640,"room":1641,"ĠSta":1642,"resh":1643,"Ġbeverages":1644,"Ġdinner":1645,"Ġallows":1646,"Ġfantastic":1647,"Ġwonder":1648,"Ġgenerally":1649,"00":1650,"her":1651,"ire":1652,"led":1653,"of":1654,"us":1655,"Ġafter":1656,"Ġok":1657,"Ġsn":1658,"hout":1659,"Ġeuro":1660,"Ġmight":1661,"vel":1662,"akes":1663,"Ġriverfront":1664,"Ġheart":1665,"Ġprem":1666,"Ġcomes":1667,"Ġshort":1668,"Ġsomew":1669,"Ġwithout":1670,"cil":1671,"mit":1672,"Ġ4":1673,"any":1674,"eave":1675,"Ġplu":1676,"Ġpart":1677,"Ġoverall":1678,"ities":1679,"uton":1680,"ĠMeals":1681,"Ġdue":1682,"Ġpermit":1683,"Ġspecializing":1684,"Ġopened":1685,"ĠUnfortunately":1686,"Ġsnacks":1687,"Ġplus":1688,"While":1689,"orit":1690,"yled":1691,"Ġrel":1692,"Ġpro":1693,"Ġshi":1694,"Ġhold":1695,"rently":1696,"located":1697,"Ġwelcomed":1698,"Ġfacil":1699,"Ġviews":1700,"Ġrestroom":1701,"Ġwonderful":1702,"Ġship":1703,"ost":1704,"rating":1705,"ĠLo":1706,"rict":1707,"Ġage":1708,"Ġlies":1709,"tain":1710,"Ġnow":1711,"Ġnone":1712,"Ġwater":1713,"oups":1714,"ĠHave":1715,"ĠPlease":1716,"Ġtypical":1717,"ĠCheap":1718,"Ġdistrict":1719,"Ġeast":1720,"Ġalcohol":1721,"Families":1722,"Wh":1723,"iet":1724,"ning":1725,"ves":1726,"Ġauth":1727,"Ġneed":1728,"Ġnames":1729,"itive":1730,"entic":1731,"entele":1732,"ors":1733,"ond":1734,"Ġdespite":1735,"Ġwhose":1736,"ĠLuton":1737,"Ġconsumer":1738,"Ġthemed":1739,"Ġtasty":1740,"Ġdistance":1741,"Ġfavorit":1742,"Ġsuperb":1743,"Ġpermitted":1744,"Ġrelative":1745,"Ġauthentic":1746,"BP":1747,"Price":1748,"xim":1749,"ery":1750,"Ġfree":1751,"Ġcli":1752,"Ġle":1753,"Ġlun":1754,"ents":1755,"Ġmakes":1756,"ĠAlso":1757,"ĠThough":1758,"Ġcheaper":1759,"Ġthats":1760,"Ġgave":1761,"imed":1762,"vious":1763,"quality":1764,"ĠRatings":1765,"Ġlocate":1766,"Ġunfriendly":1767,"Ġsuited":1768,"Ġtasting":1769,"ĠJo":1770,"Ġcentrally":1771,"Ġcurrently":1772,"Ġrestrooms":1773,"Ġfavorite":1774,"Found":1775,"No":1776,"Pub":1777,"average":1778,"free":1779,"gin":1780,"ure":1781,"uch":1782,"Ġcl":1783,"odest":1784,"ĠBut":1785,"Ġmark":1786,"Ġmany":1787,"Ġmuch":1788,"Ġmodest":1789,"ĠAnd":1790,"Ġstand":1791,"Ġquiet":1792,"cts":1793,"Ġbuy":1794,"Ġsouth":1795,"Ġacc":1796,"arded":1797,"Ġplease":1798,"Ġgrub":1799,"Ġincludes":1800,"Ġseafood":1801,"Ġpremium":1802,"Ad":1803,"Down":1804,"Kids":1805,"pa":1806,"Ġres":1807,"odu":1808,"Ġsa":1809,"Ġsay":1810,"Ġlight":1811,"reater":1812,"Ġthir":1813,"Ġmain":1814,"ching":1815,"ĠAt":1816,"erves":1817,"Ġstyled":1818,"pper":1819,"Ġgreater":1820,"Ġdes":1821,"Ġnorm":1822,"Ġupper":1823,"Ġbus":1824,"Ġoriental":1825,"Ġappro":1826,"ĠThames":1827,"Ġrelatively":1828,"Ġclentele":1829,"',":1830,"Expensive":1831,"ling":1832,"ng":1833,"sive":1834,"xpect":1835,"Ġfond":1836,"Ġtak":1837,"Ġsear":1838,"Ġlist":1839,"Ġshops":1840,"app":1841,"Ġwere":1842,"ĠSt":1843,"onvenient":1844,"Ġunfortunately":1845,"ways":1846,"Ġorder":1847,"Ġcompet":1848,"uitable":1849,"Ġentire":1850,"Ġprodu":1851,"Ġplaces":1852,"Ġholds":1853,"When":1854,"Ġlunch":1855,"Ġthirty":1856,"Despite":1857,"Eat":1858,"North":1859,"cy":1860,"gg":1861,"hing":1862,"met":1863,"pt":1864,"pri":1865,"ual":1866,"riented":1867,"Ġfeed":1868,"Ġfresh":1869,"Ġtow":1870,"ĠClose":1871,"Ġlu":1872,"Ġedge":1873,"Ġmind":1874,"Ġmake":1875,"Ġmust":1876,"ĠSituated":1877,"Ġnote":1878,"ible":1879,"Ġsuch":1880,"Ġsite":1881,"Ġclassic":1882,"Ġincluding":1883,"Ġcharges":1884,"Ġfalls":1885,"Ġregarded":1886,"Ġbanks":1887,"ĠLoc":1888,"pared":1889,"onveniently":1890,"Find":1891,"age":1892,"down":1893,"ig":1894,"ired":1895,"kids":1896,"ved":1897,"Ġred":1898,"Ġtaste":1899,"ises":1900,"ced":1901,"ĠIf":1902,"Ġme":1903,"Ġmoder":1904,"Ġinside":1905,"Ġbite":1906,"Ġaveraged":1907,"ĠServes":1908,"ort":1909,"tern":1910,"Ġgour":1911,"Ġexclu":1912,"ass":1913,"Ġprevious":1914,"Ġchain":1915,"Ġgroups":1916,"Ġselect":1917,"Ġmature":1918,"ĠStar":1919,"Ġsearching":1920,"Ġlux":1921,"Ġgourmet":1922,"Ġexclusive":1923,"Bring":1924,"Even":1925,"eps":1926,"ioc":1927,"les":1928,"oe":1929,"rner":1930,"uced":1931,"Ġz":1932,"ans":1933,"Ġfun":1934,"Ġfew":1935,"Ġavera":1936,"Ġpos":1937,"Ġne":1938,"ĠCo":1939,"Ġscale":1940,"review":1941,"Ġhotel":1942,"eep":1943,"ĠFor":1944,"Ġany":1945,"Ġcorner":1946,"Ġwar":1947,"Ġwal":1948,"ĠTy":1949,"ĠOn":1950,"Ġstill":1951,"Ġsteps":1952,"ock":1953,"ething":1954,"Ġgra":1955,"Ġyoung":1956,"Ġalways":1957,"ĠPublic":1958,"Ġamb":1959,"Ġwhen":1960,"Ġsomething":1961,"Ġsomewhere":1962,"Ġfacility":1963,"Ġreduced":1964,"iocre":1965,"Ġaveraging":1966,"reviewed":1967,"cri":1968,"hat":1969,"ud":1970,"Ġ2":1971,"erri":1972,"Ġchi":1973,"Ġaimed":1974,"iness":1975,"Ġtag":1976,"Ġterri":1977,"eas":1978,"eaway":1979,"Ġrather":1980,"Ġleave":1981,"ffers":1982,"ĠGreat":1983,"umers":1984,"lax":1985,"ĠModerate":1986,"ĠArea":1987,"icens":1988,"Ġstay":1989,"Ġrelax":1990,"Ġmediocre":1991,"Ġknow":1992,"Ġwhy":1993,"Ġprepared":1994,"Ġprovided":1995,"Ġcomp":1996,"Ġfancy":1997,"ĠJust":1998,"Ġokay":1999,"Ġlevel":2000,"Ġstandard":2001,"Ġtakeaway":2002,"Ġcompetitive":2003,"Ġproducts":2004,"Ġtowards":2005,"Ġzone":2006,"Ġchips":2007,"icensed":2008,"All":2009,"We":2010,"aving":2011,"ds":2012,"din":2013,"ied":2014,"lf":2015,"lock":2016,"uv":2017,"upl":2018,"Ġate":2019,"Ġrage":2020,"hest":2021,"Ġaverages":2022,"esome":2023,"Ġpur":2024,"ster":2025,"ides":2026,"iding":2027,"Ġsur":2028,"Ġlicensed":2029,"Ġhors":2030,"Ġrice":2031,"Ġloves":2032,"ĠFind":2033,"Ġcook":2034,"Ġcoupl":2035,"Â£.":2036,"Ġinto":2037,"ĠEuro":2038,"ĠExpect":2039,"llege":2040,"oun":2041,"ĠAn":2042,"Ġblock":2043,"ĠGBP":2044,"ory":2045,"self":2046,"level":2047,"ton":2048,"Ġdi":2049,"Ġday":2050,"Ġdeals":2051,"Ġrep":2052,"Ġrecent":2053,"Ġass":2054,"Ġreceiving":2055,"Ġdoor":2056,"Ġaltern":2057,"Ġuns":2058,"Ġbetter":2059,"Ġgoing":2060,"ade":2061,"Ġgives":2062,"ĠPriced":2063,"Ġplates":2064,"Ġpleas":2065,"Ġapprov":2066,"Ġaware":2067,"Ġawesome":2068,"Adult":2069,"ighest":2070,"oeuv":2071,"ĠCollege":2072,"Ġterrible":2073,"Just":2074,"Mid":2075,"Right":2076,"customer":2077,"ely":2078,"hn":2079,"ppet":2080,"sp":2081,"town":2082,"Ġim":2083,"ern":2084,"Ġcra":2085,"enities":2086,"Ġappet":2087,"Ġtend":2088,"Ġlea":2089,"Ġhighest":2090,"Ġthing":2091,"Ġmar":2092,"Ġind":2093,"oup":2094,"Ġboat":2095,"Ġbill":2096,"alled":2097,"hines":2098,"ĠOffering":2099,"roviding":2100,"Ġstarts":2101,"Ġgu":2102,"Ġuse":2103,"Ġyourself":2104,"Ġdiner":2105,"coring":2106,"Ġamenities":2107,"Ġcatering":2108,"ĠCheese":2109,"Ġscored":2110,"Ġseeking":2111,"Ġeveryone":2112,"ĠStart":2113,"Ġsomewhat":2114,"Ġproxim":2115,"Ġmarket":2116,"Ġnormal":2117,"priate":2118,"ĠLocate":2119,"Ġselections":2120,"Ġneigh":2121,"Ġgrab":2122,"dining":2123,"ount":2124,"Ġrecently":2125,"Ġalternative":2126,"Ġmargin":2127,"Ġproximity":2128,"Go":2129,"Having":2130,"Providing":2131,"Though":2132,"ai":2133,"be":2134,"ft":2135,"nce":2136,"oriented":2137,"serving":2138,"uc":2139,"ug":2140,"up":2141,"erts":2142,"ertain":2143,"Ġcas":2144,"ince":2145,"oodles":2146,"Ġpat":2147,"Ġprince":2148,"ĠCam":2149,"ĠCalled":2150,"ĠChines":2151,"Ġsold":2152,"Ġhis":2153,"Ġmy":2154,"Ġmade":2155,"Ġhight":2156,"Ġwor":2157,"ĠHere":2158,"ĠWine":2159,"ary":2160,"ĠMed":2161,"ĠOffers":2162,"Ġatt":2163,"ĠAdults":2164,"looking":2165,"Ġpolic":2166,"Ġwelcoming":2167,"Ġwilling":2168,"Ġgoes":2169,"Ġdelica":2170,"Ġexceed":2171,"commod":2172,"cies":2173,"Ġupw":2174,"Ġbreakfasts":2175,"Ġdowntown":2176,"Ġacce":2177,"Ġaccommod":2178,"ĠHighly":2179,"fferent":2180,"ĠChester":2181,"Ġmatch":2182,"Ġneeds":2183,"ĠJoin":2184,"ĠJohn":2185,"Ġbusiness":2186,"Ġappropriate":2187,"Ġfondue":2188,"Ġwarm":2189,"Ġcouples":2190,"Ġdifferent":2191,"Ġcasual":2192,"Ġpolicy":2193,"Ġdelicacies":2194,"ĠChesterton":2195,"Crow":2196,"Get":2197,"Re":2198,"ace":2199,"aint":2200,"bs":2201,"bed":2202,"back":2203,"che":2204,"fin":2205,"five":2206,"gain":2207,"less":2208,"nic":2209,"ose":2210,"ping":2211,"sy":2212,"Ġes":2213,"Ġfit":2214,"Ġfee":2215,"Ġchop":2216,"amous":2217,"Ġtim":2218,"Ġpic":2219,"Ġpai":2220,"Ġnoodle":2221,"amed":2222,"ited":2223,"Ġsame":2224,"Ġsince":2225,"Ġlet":2226,"ĠBring":2227,"ĠFound":2228,"Ġmin":2229,"Ġmood":2230,"Ġint":2231,"Ġwall":2232,"Ġwron":2233,"rons":2234,"ĠModerately":2235,"Ġattra":2236,"unning":2237,"alth":2238,"Nearby":2239,"jacent":2240,"Ġsupp":2241,"Within":2242,"Ġdefin":2243,"Ġexcept":2244,"rings":2245,"reakfast":2246,"itely":2247,"Ġheard":2248,"Ġhealth":2249,"Ġamount":2250,"Ġsoft":2251,"Ġboasting":2252,"Ġdecently":2253,"Ġtwo":2254,"Ġinclude":2255,"Ġspecialty":2256,"Ġfruits":2257,"Ġplay":2258,"Ġfacilities":2259,"Ġwaterfront":2260,"Ġsaid":2261,"ggs":2262,"Ġfeedback":2263,"spired":2264,"Ġcraving":2265,"Ġappetiz":2266,"Ġneighb":2267,"Ġpatrons":2268,"Ġupwards":2269,"Ġwrong":2270,"Ġdefinitely":2271,"Ġexceptional":2272,"'ve":2273,"Beside":2274,"Conveniently":2275,"Food":2276,"GBP":2277,"Here":2278,"Let":2279,"Moderate":2280,"Ra":2281,"Sta":2282,"Want":2283,"ding":2284,"fresh":2285,"high":2286,"ia":2287,"ke":2288,"lb":2289,"nown":2290,"oast":2291,"que":2292,"round":2293,"uri":2294,"Ġgl":2295,"riverside":2296,"riental":2297,"Ġfin":2298,"Ġfish":2299,"Ġtea":2300,"Ġpup":2301,"iss":2302,"ĠCan":2303,"ĠCome":2304,"ĠConveniently":2305,"Ġsoup":2306,"Ġscoring":2307,"Ġhapp":2308,"ury":2309,"utation":2310,"Ġlot":2311,"Ġloved":2312,"liar":2313,"Ġcool":2314,"Ġcond":2315,"aps":2316,"apas":2317,"Ġmom":2318,"Ġmee":2319,"Ġinter":2320,"ĠEven":2321,"Ġbist":2322,"ĠGood":2323,"orted":2324,"iance":2325,"Ġkind":2326,"ulous":2327,"Ġstree":2328,"Ġstunning":2329,"ĠSpirits":2330,"Ġgain":2331,"Ġdate":2332,"Ġdish":2333,"ĠDon":2334,"ĠSorry":2335,"Ġbeverage":2336,"Ġbegin":2337,"ceiving":2338,"ctory":2339,"Ġnorthern":2340,"Ġgetting":2341,"Ġspace":2342,"ĠĠĠĠ":2343,"Ġhear":2344,"Ġjoin":2345,"Ġchoose":2346,"Ġliked":2347,"pected":2348,"Ġtheme":2349,"Ġtastes":2350,"ĠUK":2351,"Ġentries":2352,"Ġhamburger":2353,"Ġmostly":2354,"osting":2355,"Priced":2356,"Ġclient":2357,"Ġaccess":2358,"Ġbusy":2359,"Ġluxury":2360,"Ġwalking":2361,"ĠTypic":2362,"ĠOnly":2363,"Ġambiance":2364,"cribed":2365,"Ġstaying":2366,"Ġpurch":2367,"Ġreputation":2368,"Ġunsuitable":2369,"Ġapproval":2370,"oeuvres":2371,"Ġimp":2372,"ucive":2373,"Receiving":2374,"Ġfeel":2375,"Ġtime":2376,"Ġpairings":2377,"Ġwallet":2378,"Ġhealthy":2379,"Ġappetizers":2380,"Ġconducive":2381,"Ġinterest":2382,"Ġbistro":2383,"Ġstreet":2384,"Dine":2385,"Don":2386,"Th":2387,"ase":2388,"bly":2389,"bulous":2390,"cc":2391,"con":2392,"haps":2393,"ie":2394,"mp":2395,"mely":2396,"oor":2397,"ple":2398,"rum":2399,"ues":2400,"Ġi":2401,"ĠJapan":2402,"erling":2403,"Ġrave":2404,"inity":2405,"ination":2406,"oday":2407,"Ġtoday":2408,"eason":2409,"Ġpar":2410,"Ġpres":2411,"Ġpark":2412,"Ġopp":2413,"Ġnoodles":2414,"Ġse":2415,"Ġsh":2416,"Ġsaf":2417,"Ġsim":2418,"Ġsoups":2419,"remely":2420,"ĠBreakfast":2421,"Ġlots":2422,"Ġthin":2423,"Ġext":2424,"Ġeggs":2425,"ĠRe":2426,"ĠRoad":2427,"Ġmil":2428,"Ġinspired":2429,"asta":2430,"esserts":2431,"ĠWhich":2432,"ording":2433,"laimed":2434,"Ġkeep":2435,"ĠOverall":2436,"ĠOriental":2437,"Look":2438,"icinity":2439,"respected":2440,"Ġsterling":2441,"top":2442,"Ġdesserts":2443,"ĠDespite":2444,"Ġvicinity":2445,"ests":2446,"Ġadjacent":2447,"osite":2448,"Ġquaint":2449,"stars":2450,"ctive":2451,"Ġfabulous":2452,"Ġaffordably":2453,"Ġalongside":2454,"Ġdelivery":2455,"ĠLess":2456,"Ġenjoyed":2457,"Ġbread":2458,"Ġbreak":2459,"Ġbuild":2460,"Ġsatisfactory":2461,"Ġscen":2462,"Ġshow":2463,"ivers":2464,"other":2465,"ĠCheck":2466,"Ġspending":2467,"Ġclassy":2468,"Ġusual":2469,"Ġentertain":2470,"Ġeasy":2471,"Ġspecialises":2472,"Ġregular":2473,"Ġcentral":2474,"ximately":2475,"Ġclients":2476,"Ġnormally":2477,"Ġapproximately":2478,"Ġmeans":2479,"Ġmoderated":2480,"Ġluxuri":2481,"Ġpositive":2482,"ĠEurope":2483,"Ġpleasant":2484,"uga":2485,"ĠMedium":2486,"Crowne":2487,"cheap":2488,"Ġpicnic":2489,"Star":2490,"oasting":2491,"Ġaccessible":2492,"Ġsafe":2493,"Ġextremely":2494,"50":2495,"Costing":2496,"Good":2497,"Ine":2498,"Leave":2499,"Poor":2500,"Qu":2501,"Reason":2502,"To":2503,"Take":2504,"ber":2505,"fer":2506,"fic":2507,"hood":2508,"ming":2509,"prices":2510,"rd":2511,"sing":2512,"ten":2513,"Ġ:":2514,"Ġfry":2515,"Ġfoc":2516,"ather":2517,"Ġcant":2518,"Ġcrow":2519,"Ġclo":2520,"Ġach":2521,"ample":2522,"Ġtr":2523,"Ġtapas":2524,"ead":2525,"Ġput":2526,"Ġpick":2527,"ising":2528,"ishes":2529,"omic":2530,"idual":2531,"eared":2532,"Ġsod":2533,"Ġsing":2534,"Ġla":2535,"ĠBe":2536,"entated":2537,"ĠFive":2538,"Ġever":2539,"Ġequ":2540,"Ġecon":2541,"Ġmix":2542,"Ġmiss":2543,"Ġinc":2544,"Ġbab":2545,"ĠGree":2546,"ĠSuitable":2547,"orts":2548,"ither":2549,"ĠTry":2550,"Ġchildless":2551,"ĠMeal":2552,"ĠExpensive":2553,"ĠMany":2554,"Ġgeared":2555,"ĠCotton":2556,"Ġdest":2557,"Ġbeat":2558,"Ġrem":2559,"Ġsugg":2560,"Ġofferings":2561,"ividual":2562,"ionally":2563,"starred":2564,"ffordable":2565,"Ġdelight":2566,"Ġdisapp":2567,"Ġvisiting":2568,"Ġperhaps":2569,"Ġdrinking":2570,"ĠĠĠ":2571,"Ġorientated":2572,"Ġwanting":2573,"Ġsoon":2574,"Ġbargain":2575,"Ġprefer":2576,"Ġboard":2577,"Ġbeluga":2578,"Ġcoming":2579,"Ġwinery":2580,"Ġplate":2581,"Ġfeature":2582,"Ġspecialising":2583,"Ġfavor":2584,"Ġcharging":2585,"Ġpremises":2586,"osts":2587,"tains":2588,"tained":2589,"Ġacclaimed":2590,"Ġresides":2591,"Ġdescribed":2592,"Ġposs":2593,"Ġwalk":2594,"ĠType":2595,"Ġambient":2596,"ude":2597,"Ġcooks":2598,"Ġassorted":2599,"Ġindividual":2600,"Ġneighbor":2601,"Ġglass":2602,"Ġmoment":2603,"Ġmeet":2604,"Ġpurchase":2605,"Ġinterested":2606,"Three":2607,"ĠJapaneses":2608,"Ġopposite":2609,"Ġthink":2610,"ĠEuropean":2611,"Inexpensive":2612,"Poorly":2613,"Ġfocus":2614,"Ġclos":2615,"Ġachie":2616,"Ġeconomic":2617,"ĠGreek":2618,"Ġdestination":2619,"Ġdisappo":2620,"35":2621,"Burger":2622,"Boasting":2623,"Clare":2624,"Great":2625,"Over":2626,"Oriented":2627,"Sushi":2628,"Ther":2629,"Yippee":2630,"cta":2631,"ep":2632,"eli":2633,"fami":2634,"gry":2635,"ily":2636,"ique":2637,"med":2638,"ny":2639,"oon":2640,"pes":2641,"pub":2642,"rate":2643,"shop":2644,"ters":2645,"uring":2646,"yes":2647,"you":2648,"eres":2649,"ried":2650,"Ġcare":2651,"Ġrun":2652,"enny":2653,"Ġtri":2654,"Ġtrave":2655,"Ġtreat":2656,"Ġpenny":2657,"ise":2658,"ised":2659,"ceive":2660,"Ġob":2661,"styled":2662,"Ġnative":2663,"omis":2664,"Ġcut":2665,"ĠCons":2666,"ĠIT":2667,"its":2668,"iting":2669,"itude":2670,"Ġhot":2671,"Ġhun":2672,"Ġarra":2673,"ently":2674,"ention":2675,"hool":2676,"Ġanother":2677,"Ġeither":2678,"Ġshopping":2679,"Ġtypes":2680,"Ġman":2681,"Ġmere":2682,"Ġwent":2683,"Ġwrestlers":2684,"astro":2685,"Ġhard":2686,"Ġbes":2687,"Ġbear":2688,"Ġback":2689,"ĠSo":2690,"ĠStop":2691,"ĠIndiana":2692,"tled":2693,"rown":2694,"ĠMid":2695,"ĠWatermans":2696,"ĠOther":2697,"ĠVery":2698,"ments":2699,"Ġform":2700,"ĠNO":2701,"Ġsteep":2702,"Ġprovider":2703,"Ġstarred":2704,"ĠSicilian":2705,"Zizzis":2706,"Ġgather":2707,"Ġdear":2708,"Ġdeal":2709,"ounds":2710,"ibly":2711,"Ġrivers":2712,"Ġbeans":2713,"Ġrefresh":2714,"Ġreceive":2715,"Ġcostumers":2716,"Ġvary":2717,"iven":2718,"Around":2719,"Ġsitting":2720,"than":2721,"quisit":2722,"oks":2723,"Ġdec":2724,"Ġexquisit":2725,"Ġlocates":2726,"Ġunivers":2727,"Ġunique":2728,"bove":2729,"Ġoverlooking":2730,"Ġexcellently":2731,"adult":2732,"ĠLeave":2733,"Ġvisited":2734,"Ġopin":2735,"eaturing":2736,"Ġgiving":2737,"Ġenjoying":2738,"Ġbreads":2739,"Ġpastas":2740,"Ġcatered":2741,"pecially":2742,"Ġwhit":2743,"Ġconsumers":2744,"ranged":2745,"Ġvarious":2746,"Ġschool":2747,"Ġfeatured":2748,"icks":2749,"ĠUs":2750,"lete":2751,"....":2752,"Ġcharge":2753,"ĠThree":2754,"Ġalcoholic":2755,"Ġcurry":2756,"Ġprof":2757,"Ġaccording":2758,"Ġmainly":2759,"Ġdesired":2760,"Ġmodern":2761,"Ġanyone":2762,"Ġcompany":2763,"Ġcomplete":2764,"Ġsurpri":2765,"Ġsurround":2766,"Ġblocks":2767,"Ġtends":2768,"Ġleaves":2769,"Ġguests":2770,"Ġattitude":2771,"Ġaccep":2772,"Ġaccept":2773,"Ġaccommodate":2774,"Ġespecially":2775,"Ġsupplies":2776,"Rainbow":2777,"Ġfinest":2778,"ĠTypically":2779,"Ġimpress":2780,"ĠReview":2781,"Ġmiles":2782,"Ġentertainment":2783,"Ġluxurious":2784,"singly":2785,"Ġequally":2786,"Ġmixed":2787,"Ġsuggest":2788,"Theres":2789,"familiar":2790,"Ġhungry":2791,"Ġarray":2792,"Ġexquisite":2793,"Ġuniversity":2794,"Ġsurrounding":2795,"10":2796,"AG":2797,"Am":2798,"As":2799,"Be":2800,"ER":2801,"Exp":2802,"Expect":2803,"Five":2804,"Given":2805,"Have":2806,"Non":2807,"Out":2808,"Prices":2809,"People":2810,"Ran":2811,"Rating":2812,"VER":2813,"ari":2814,"ale":2815,"air":2816,"bank":2817,"bited":2818,"can":2819,"centre":2820,"ches":2821,"equ":2822,"has":2823,"ior":2824,"ious":2825,"known":2826,"lder":2827,"mb":2828,"nvironment":2829,"serv":2830,"uns":2831,"vents":2832,"xce":2833,"Ġentre":2834,"ĠQu":2835,"ric":2836,"rill":2837,"ricing":2838,"rimp":2839,"Ġfo":2840,"Ġfamous":2841,"ath":2842,"ations":2843,"Ġcar":2844,"Ġcal":2845,"hed":2846,"Ġact":2847,"Ġaud":2848,"ines":2849,"inery":2850,"estled":2851,"Ġtou":2852,"Ġtell":2853,"eak":2854,"eally":2855,"Ġpra":2856,"Ġpiz":2857,"Ġpass":2858,"Ġolder":2859,"They":2860,"Their":2861,"endy":2862,"Ġprim":2863,"Ġprici":2864,"Ġcup":2865,"Ġoften":2866,"Ġsub":2867,"Ġsor":2868,"Ġsiz":2869,"Ġsample":2870,"Ġlar":2871,"Ġlacks":2872,"ream":2873,"revious":2874,"Ġhosts":2875,"Ġrive":2876,"ĠFriend":2877,"Ġans":2878,"Ġemer":2879,"Ġevents":2880,"ĠRd":2881,"Ġmak":2882,"ilet":2883,"ĠEnjoy":2884,"ĠEnvironment":2885,"ĠPricing":2886,"ĠPrevious":2887,"Ġwish":2888,"Ġway":2889,"llo":2890,"Ġpubs":2891,"oud":2892,"ĠAl":2893,"ĠAVER":2894,"rop":2895,"Ġbak":2896,"Ġbough":2897,"Ġbas":2898,"ĠCafÃ©ter":2899,"ĠWinery":2900,"umber":2901,"Ġcheep":2902,"ored":2903,"ĠAromis":2904,"ĠEagles":2905,"Ġtoilet":2906,"Ġforget":2907,"unfriendly":2908,"ĠNext":2909,"ĠNamed":2910,"Ġstat":2911,"hibited":2912,"Ġgastro":2913,"Ġgrown":2914,"Ġdid":2915,"Ġdire":2916,"ĠDeli":2917,"Ġriverbank":2918,"Ġbecom":2919,"Ġadd":2920,"Ġaddit":2921,"Ġadequ":2922,"Ġgoods":2923,"Ġestablishments":2924,"thing":2925,"Ġeaten":2926,"elcoming":2927,"ctly":2928,"Ġfact":2929,"Ġexc":2930,"Ġnorthw":2931,"Ġoverpriced":2932,"Ġdiners":2933,"Ġtakeout":2934,"Ġdisc":2935,"Ġsports":2936,"Ġenjoys":2937,"Only":2938,"Ġcont":2939,"Ġcombo":2940,"Ġcomfor":2941,"Ġshot":2942,"Ġranking":2943,"Cheaply":2944,"Ġperfectly":2945,"Ġpaying":2946,"Ġmaybe":2947,"Ġspecialized":2948,"Ġwont":2949,"Ġexpected":2950,"Ġgeneral":2951,"Ġquickly":2952,"Ġcharming":2953,"ĠThat":2954,"Ġamongst":2955,"Ġregion":2956,"Ġproud":2957,"Ġparties":2958,"Ġprohibited":2959,"ĠLook":2960,"Ġleg":2961,"Ġmodestly":2962,"Ġstandards":2963,"Adults":2964,"Ġsale":2965,"Ġsays":2966,"Ġtaking":2967,"Ġordered":2968,"Ġfreshly":2969,"ortment":2970,"Ġrelaxed":2971,"Ġcooked":2972,"Ġassortment":2973,"Ġapproved":2974,"oeuvre":2975,"Ġattention":2976,"Ġexceeding":2977,"Ġminors":2978,"Ġattracts":2979,"Ġhappen":2980,"Ġparents":2981,"Ġscenic":2982,"Reasonably":2983,"Ġbaby":2984,"Ġfavorable":2985,"Ġpossible":2986,"Ġindividuals":2987,"Ġfocused":2988,"Ġclosest":2989,"Ġdisappoint":2990,"Ġtrip":2991,"Ġtraveling":2992,"Ġobtained":2993,"ĠNOT":2994,"Ġrefreshments":2995,"Ġaccepts":2996,"Ġimpressive":2997,"ĠReviews":2998,"Ġsurroundings":2999,"AGE":3000,"Express":3001,"Outside":3002,"service":3003,"xcellent":3004,"Ġentrees":3005,"Ġaudience":3006,"Ġpraised":3007,"Ġpizza":3008,"Ġpricier":3009,"Ġsorry":3010,"Ġmaking":3011,"ĠAVERAGE":3012,"Ġbought":3013,"ĠCafÃ©teria":3014,"Ġtoilets":3015,"'m":3016,"--":3017,"Also":3018,"Available":3019,"American":3020,"After":3021,"Affordable":3022,"Based":3023,"Com":3024,"Cur":3025,"Do":3026,"Fr":3027,"Fan":3028,"Featuring":3029,"Head":3030,"Jo":3031,"Known":3032,"Luton":3033,"Med":3034,"Named":3035,"Pop":3036,"Pasta":3037,"Sat":3038,"Your":3039,"car":3040,"de":3041,"dy":3042,"day":3043,"dling":3044,"dia":3045,"ean":3046,"famous":3047,"gan":3048,"got":3049,"gative":3050,"ground":3051,"ires":3052,"ks":3053,"min":3054,"moderate":3055,"moderately":3056,"mark":3057,"noon":3058,"oid":3059,"pass":3060,"tures":3061,"void":3062,"where":3063,"yor":3064,"Ġ6":3065,"Ġ;":3066,"ĠĊ":3067,"Ġice":3068,"Ġ-Â£":3069,"ĠZizzis":3070,"erate":3071,"erran":3072,"erfect":3073,"ang":3074,"rist":3075,"rive":3076,"Ġflare":3077,"Ġfront":3078,"Ġfus":3079,"Ġfried":3080,"atters":3081,"Ġca":3082,"Ġcate":3083,"Ġcele":3084,"Ġcertain":3085,"Ġcream":3086,"Ġrough":3087,"Ġruns":3088,"enance":3089,"hello":3090,"Ġali":3091,"Ġabs":3092,"Ġavoid":3093,"ams":3094,"estern":3095,"Ġtab":3096,"Ġtradit":3097,"eace":3098,"Ġpal":3099,"Ġpeace":3100,"ished":3101,"isines":3102,"Ġow":3103,"Ġore":3104,"Ġoth":3105,"stenance":3106,"Ġnumber":3107,"ended":3108,"omant":3109,"Ġcuisines":3110,"ĠCost":3111,"Ġfamiliar":3112,"itting":3113,"iterran":3114,"Ġsix":3115,"Ġsens":3116,"Ġsad":3117,"Ġsca":3118,"Ġsort":3119,"Ġlate":3120,"Ġland":3121,"Ġliv":3122,"Ġlack":3123,"table":3124,"ided":3125,"Ġhand":3126,"Ġhous":3127,"Ġares":3128,"Ġareas":3129,"Ġrich":3130,"ĠBy":3131,"ĠBoth":3132,"urse":3133,"utely":3134,"eemed":3135,"Ġanti":3136,"Ġed":3137,"Ġet":3138,"Ġeffe":3139,"Ġcore":3140,"Ġcoast":3141,"Ġcoffe":3142,"Ġcous":3143,"Ġcourse":3144,"ĠÂ£,":3145,"ĠÂ£.":3146,"pecta":3147,"apes":3148,"Ġma":3149,"Ġmer":3150,"Ġmile":3151,"Ġinv":3152,"Ġinfamous":3153,"ilst":3154,"ilar":3155,"ĠEat":3156,"ĠPasta":3157,"ĠPerfect":3158,"ĠIndia":3159,"Ġwaterman":3160,"ĠAffordable":3161,"ĠAbove":3162,"ĠHe":3163,"roll":3164,"Ġbig":3165,"Ġbath":3166,"veral":3167,"Ġlowest":3168,"ĠSome":3169,"orting":3170,"olutely":3171,"area":3172,"arant":3173,"veyor":3174,"Ġcheat":3175,"lain":3176,"Ġcheapest":3177,"ĠMenu":3178,"ĠVisit":3179,"icap":3180,"ĠNoodles":3181,"toric":3182,"ĠRanges":3183,"Ġgolden":3184,"Ġgrill":3185,"elling":3186,"Ġdeemed":3187,"ĠMills":3188,"ĠDo":3189,"ĠDishes":3190,"ales":3191,"ĠPlates":3192,"imum":3193,"Ġref":3194,"Ġsustenance":3195,"looks":3196,"Ġadv":3197,"ĠBeefeaters":3198,"Ġmiddling":3199,"Ġgreatly":3200,"Ġquali":3201,"Ġinexpensively":3202,"Ġdele":3203,"Ġextra":3204,"Ġlocale":3205,"Ġoverlooks":3206,"akey":3207,"Ġdiscri":3208,"Ġvisitors":3209,"Ġoperate":3210,"ously":3211,"Ġenjoyable":3212,"Ġbuck":3213,"Ġhel":3214,"peciali":3215,"Ġconsist":3216,"Ġsatisfied":3217,"Ġspecific":3218,"rance":3219,"Ġcontains":3220,"costs":3221,"Ġvaried":3222,"idered":3223,"Ġscener":3224,"Ġwouldn":3225,"Ġchoices":3226,"Ġcomm":3227,"Ġbrings":3228,"ĠHigher":3229,"pectrum":3230,"Ġlikely":3231,"Ġpoints":3232,"they":3233,"Ġplatters":3234,"Ġbadly":3235,"Ġbites":3236,"Ġgroup":3237,"Ġgrapes":3238,"Ġevening":3239,"Ġenter":3240,"Ġgenerated":3241,"Ġfavored":3242,"Ġawful":3243,"Ġawarded":3244,"Ġseek":3245,"Ġseems":3246,"Ġwitch":3247,"ĠTheres":3248,"Ġfalling":3249,"Ġsuperior":3250,"Ġprams":3251,"Ġafternoon":3252,"Ġpartner":3253,"ratings":3254,"Ġnowhere":3255,"Pricey":3256,"Ġclientele":3257,"Ġlunches":3258,"Ġresult":3259,"Ġsaus":3260,"Ġmaintains":3261,"Ġdeserts":3262,"Ġcompetit":3263,"Ġproduces":3264,"Ġminded":3265,"Ġclassics":3266,"Ġexclusively":3267,"Ġnegative":3268,"Ġanything":3269,"Ġanywhere":3270,"Ġ23":3271,"Ġpurveyor":3272,"Ġpleased":3273,"Ġleast":3274,"Ġthings":3275,"Ġindeed":3276,"Ġguarant":3277,"Ġhistoric":3278,"Ġwork":3279,"ĠMediterran":3280,"Ġescar":3281,"Ġminimum":3282,"Ġintended":3283,"Ġplayground":3284,"Ġneighbour":3285,"Raja":3286,"freshly":3287,"Ġhappy":3288,"Ġkinds":3289,"Ġgains":3290,"Ġgained":3291,"Ġbeginning":3292,"Ġhearty":3293,"ĠTypical":3294,"Ġpresti":3295,"Ġseveral":3296,"Ġshrimp":3297,"Ġsimilar":3298,"Ġbuilding":3299,"Ġscene":3300,"Ġregularly":3301,"Ġcrowd":3302,"Ġcrowds":3303,"Ġtrendy":3304,"Ġsoda":3305,"Ġsodas":3306,"Ġsingle":3307,"Ġsingles":3308,"Ġlaid":3309,"Ġincred":3310,"Ġbargains":3311,"Ġpreferred":3312,"Ġneighborhood":3313,"Ġachieved":3314,"Ġcute":3315,"ĠConsumers":3316,"Ġbesides":3317,"Ġopinion":3318,"Ġsurprisingly":3319,"Being":3320,"Ranch":3321,"airly":3322,"Ġcalm":3323,"Ġactiv":3324,"Ġtourist":3325,"Ġlarge":3326,"Ġemerging":3327,"Ġbasic":3328,"Ġstatus":3329,"ĠDelicious":3330,"Ġaddition":3331,"Ġadequate":3332,"Ġlegal":3333,"Ġdisappointed":3334,"From":3335,"Fancy":3336,"Join":3337,"minating":3338,"turesque":3339,"Ġfusion":3340,"Ġcateg":3341,"Ġceleb":3342,"Ġcertainly":3343,"Ġalike":3344,"Ġabsolutely":3345,"Ġothers":3346,"omantic":3347,"ĠCostumer":3348,"Ġsadly":3349,"Ġhouses":3350,"Ġeffective":3351,"Ġcoffees":3352,"Ġcousin":3353,"Ġbathroom":3354,"Ġdiscriminating":3355,"Ġscenery":3356,"ĠMediterranean":3357,"Ġescargot":3358,"'d":3359,",,":3360,".'":3361,".Â£":3362,"19":3363,"32":3364,"33":3365,"99":3366,"Avalon":3367,"Above":3368,"Bar":3369,"Best":3370,"British":3371,"Both":3372,"Cent":3373,"Cons":3374,"Due":3375,"Dishes":3376,"Drop":3377,"Ear":3378,"Excellent":3379,"Fresh":3380,"Famous":3381,"Fairly":3382,"Hell":3383,"Id":3384,"Is":3385,"My":3386,"More":3387,"Nice":3388,"Our":3389,"Pass":3390,"Rivers":3391,"Suitable":3392,"Scoring":3393,"Sited":3394,"Stop":3395,"Traditional":3396,"Wine":3397,"Well":3398,"aff":3399,"ages":3400,"actly":3401,"ban":3402,"but":3403,"close":3404,"cular":3405,"cond":3406,"cery":3407,"ders":3408,"drink":3409,"ey":3410,"ees":3411,"eve":3412,"euros":3413,"eggs":3414,"emp":3415,"fore":3416,"fare":3417,"gn":3418,"gs":3419,"gious":3420,"hakes":3421,"ip":3422,"ier":3423,"ich":3424,"ilies":3425,"ked":3426,"lin":3427,"lis":3428,"lust":3429,"liness":3430,"mal":3431,"most":3432,"mber":3433,"nit":3434,"not":3435,"ope":3436,"offering":3437,"pan":3438,"ply":3439,"past":3440,"par":3441,"phis":3442,"pounds":3443,"rant":3444,"rough":3445,"ruit":3446,"so":3447,"sit":3448,"sons":3449,"sily":3450,"this":3451,"ties":3452,"uff":3453,"udge":3454,"vate":3455,"vor":3456,"wine":3457,"welcoming":3458,"ym":3459,"ying":3460,"yling":3461,"čĊ":3462,"Ġod":3463,"Ġge":3464,"Ġing":3465,"Ġur":3466,"Ġvi":3467,"Ġest":3468,"erbs":3469,"ansive":3470,"Ġfla":3471,"Ġfyne":3472,"Ġfour":3473,"Ġfoe":3474,"Ġfamed":3475,"atisf":3476,"Ġcast":3477,"Ġcraz":3478,"Ġcrit":3479,"Ġrood":3480,"Ġrear":3481,"Ġresp":3482,"Ġraving":3483,"Ġromantic":3484,"ene":3485,"head":3486,"Ġai":3487,"Ġable":3488,"Ġaffor":3489,"Ġactive":3490,"Ġahead":3491,"iners":3492,"inting":3493,"inspired":3494,"escribed":3495,"Ġtur":3496,"Ġtree":3497,"Ġtable":3498,"Ġtad":3499,"Ġtran":3500,"Ġtakes":3501,"east":3502,"Ġpol":3503,"Ġphoenix":3504,"Ġpalace":3505,"Ġpock":3506,"gether":3507,"Ġoli":3508,"Ġolive":3509,"Ġold":3510,"sticks":3511,"Ġnever":3512,"Ġnestled":3513,"Ġrater":3514,"Ġratting":3515,"Ġpried":3516,"Ġpriorit":3517,"Ġprivate":3518,"vers":3519,"Ġculin":3520,"ĠChop":3521,"ĠCosting":3522,"ĠCosts":3523,"Ġranch":3524,"Ġranting":3525,"ĠId":3526,"itch":3527,"Ġsw":3528,"Ġsol":3529,"Ġsever":3530,"Ġspecta":3531,"Ġspectrum":3532,"Ġlend":3533,"Ġlay":3534,"Ġlim":3535,"Ġlad":3536,"receiv":3537,"recommend":3538,"reco":3539,"Ġhi":3540,"Ġhat":3541,"Ġhang":3542,"Ġhope":3543,"Ġherbs":3544,"Ġrid":3545,"ĠBurgers":3546,"ĠBeautiful":3547,"ĠBoasting":3548,"urther":3549,"urpass":3550,"utes":3551,"hos":3552,"Ġlose":3553,"Ġlong":3554,"ĠFitzb":3555,"ĠFull":3556,"ĠFeaturing":3557,"ĠFrance":3558,"ĠFruit":3559,"Ġtheres":3560,"Ġthrough":3561,"Ġeater":3562,"ffes":3563,"Ġouter":3564,"Ġouting":3565,"Ġcove":3566,"Â£-":3567,"ĠRel":3568,"ped":3569,"pecc":3570,"Ġmis":3571,"Ġmild":3572,"Ġmeat":3573,"Ġyear":3574,"Ġinst":3575,"antly":3576,"Ġnoise":3577,"ĠEatery":3578,"ĠPlace":3579,"ĠPeople":3580,"ĠPark":3581,"ĠPounds":3582,"Ġwat":3583,"Ġwhe":3584,"Ġwhin":3585,"Ġwhis":3586,"Ġwhet":3587,"Ġwise":3588,"esses":3589,"essment":3590,"essionally":3591,"ourit":3592,"ĠAcc":3593,"ĠHot":3594,"rollers":3595,"rocious":3596,"rocery":3597,"Ġblue":3598,"Ġbare":3599,"gle":3600,"ĠGo":3601,"ĠGlis":3602,"ĠWh":3603,"ĠWelcoming":3604,"ĠSc":3605,"ĠSelling":3606,"ĠSpeciali":3607,"ole":3608,"Ġservic":3609,"next":3610,"vels":3611,"ĠTo":3612,"ĠTraditional":3613,"ĠTuc":3614,"ĠTapas":3615,"ĠTrum":3616,"rally":3617,"ĠMa":3618,"ĠMore":3619,"ĠMay":3620,"ĠMost":3621,"otic":3622,"Ġnotch":3623,"Ġnoted":3624,"Ġnothing":3625,"Ġkitch":3626,"ĠOK":3627,"ĠOf":3628,"ryout":3629,"ĠCurrently":3630,"Ġattained":3631,"Ġatrocious":3632,"Ġtoy":3633,"Ġtoast":3634,"Ġtogether":3635,"ics":3636,"ict":3637,"icult":3638,"icular":3639,"unity":3640,"ĠNon":3641,"Ġstell":3642,"Ġstake":3643,"Ġstud":3644,"Ġsticks":3645,"Ġsteak":3646,"Ġstaff":3647,"Ġstuff":3648,"Ġstyling":3649,"Ġstrollers":3650,"ĠYour":3651,"ĠSpaghetti":3652,"roved":3653,"Ġproves":3654,"ĠKeep":3655,"tons":3656,"inexpensive":3657,"ĠPunters":3658,"ĠRang":3659,"Ġones":3660,"ized":3661,"Ġgod":3662,"Ġgate":3663,"Ġgar":3664,"Ġgrove":3665,"Ġgas":3666,"Ġgrea":3667,"Ġgym":3668,"Ġgrocery":3669,"Ġdra":3670,"Ġdiet":3671,"Ġdrive":3672,"ĠDE":3673,"ĠDescribed":3674,"ples":3675,"ensales":3676,"cker":3677,"iraffes":3678,"ĠPlus":3679,"imate":3680,"ibe":3681,"Ġrequ":3682,"Ġtherefore":3683,"Ġsuffers":3684,"Ġval":3685,"Ġvibe":3686,"ĠAddit":3687,"blem":3688,"compan":3689,"Ġestablished":3690,"Ġvenues":3691,"thnic":3692,"Ġtrying":3693,"Ġfinding":3694,"Ġreviewers":3695,"Ġdone":3696,"Ġalbe":3697,"cted":3698,"Ġready":3699,"Ġreasons":3700,"rity":3701,"Ġmedian":3702,"Ġnorthe":3703,"Ġune":3704,"Ġexist":3705,"Ġexample":3706,"Ġexactly":3707,"Ġexotic":3708,"house":3709,"Ġlocating":3710,"ourable":3711,"Ġunable":3712,"boring":3713,"Ġdinning":3714,"ĠFoods":3715,"Ġmenus":3716,"Another":3717,"adent":3718,"ĠRanged":3719,"Ġspent":3720,"Ġspite":3721,"Ġspoon":3722,"Ġsporting":3723,"Ġ--":3724,"reasingly":3725,"Ġbreaking":3726,"Ġexpansive":3727,"Ġvaries":3728,"ified":3729,"Ġexperien":3730,"Ġbuds":3731,"Higher":3732,"Ġorgan":3733,"Ġorders":3734,"Ġpastries":3735,"Ġsettings":3736,"Ġwants":3737,"Ġsatisfying":3738,"Ġsophis":3739,"ranked":3740,"Ġviewed":3741,"Ġbudgets":3742,"Ġaccompan":3743,"Ġconsidering":3744,"Ġconsiderable":3745,"Ġuser":3746,"Ġcompared":3747,"Ġcomensales":3748,"Ġshoo":3749,"Ġshores":3750,"theres":3751,"Ġbringing":3752,"Ġranks":3753,"type":3754,"Ġmoved":3755,"onse":3756,"Ġearns":3757,"Ġearth":3758,"theless":3759,"themed":3760,"Ġfarm":3761,"Ġfares":3762,"Ġgotten":3763,"Ġchill":3764,"Ġlocals":3765,"Ġideally":3766,"Ġclassified":3767,"Ġlooks":3768,"Ġfans":3769,"atively":3770,"Ġbeautifully":3771,"ticated":3772,"Ġshouldn":3773,"Ġentree":3774,"...":3775,"Ġeach":3776,"Ġeasily":3777,"Ġeagle":3778,"ĠNorthern":3779,"Ġspecials":3780,"Ġspecialties":3781,"Ġappear":3782,"Ġappeal":3783,"Ġfavourit":3784,"arkable":3785,"outs":3786,"Ġseem":3787,"Ġfurnit":3788,"Visiting":3789,"Ġeveryday":3790,"ĠUnfriendly":3791,"Averagely":3792,"Ġprom":3793,"Ġparticular":3794,"Ġpermits":3795,"Ġproblem":3796,"Ġwaterside":3797,"Why":3798,"Whilst":3799,"Ġclimb":3800,"Ġlevels":3801,"Ġtastings":3802,"Ġmarks":3803,"Ġmarked":3804,"Adjacent":3805,"Ġresults":3806,"Ġdeserves":3807,"Ġfondues":3808,"ĠStyle":3809,"ĠLocation":3810,"ĠLocates":3811,"Ġmeant":3812,"Ġmoderates":3813,"ĠCoffee":3814,"Ġgrade":3815,"Ġ21":3816,"Ġ24":3817,"Ġrelaxing":3818,"Ġcompetitively":3819,"Ġcoupled":3820,"Ġdays":3821,"Ġreport":3822,"Ġassessment":3823,"Ġunsatisf":3824,"Ġunsurpass":3825,"Ġpleasing":3826,"sport":3827,"Ġimpecc":3828,"Ġcracker":3829,"Ġappetite":3830,"Ġleaving":3831,"Ġboats":3832,"Ġguest":3833,"Ġuseful":3834,"Ġneighboring":3835,"Ġworry":3836,"Ġworse":3837,"Ġaccommodations":3838,"Crown":3839,"pington":3840,"Ġfits":3841,"Ġchopping":3842,"Ġpicturesque":3843,"Ġminutes":3844,"Ġattraction":3845,"Ġattractive":3846,"Ġsupport":3847,"Lets":3848,"higher":3849,"key":3850,"Ġgaining":3851,"Ġpurchased":3852,"Ġimprove":3853,"Ġinteresting":3854,"Ġpresently":3855,"Ġsecond":3856,"Ġsimply":3857,"ĠBreakfasts":3858,"ĠRecent":3859,"Ġmilks":3860,"Ġkeeping":3861,"Ġshown":3862,"Ġluxuriant":3863,"Reasonable":3864,"fication":3865,"Ġtrue":3866,"Ġlaw":3867,"Ġincreasingly":3868,"Ġbabies":3869,"Ġremain":3870,"Ġremarkable":3871,"Ġdelights":3872,"Ġpossesses":3873,"Ġachieving":3874,"Ġdisappointing":3875,"Ġtreats":3876,"ĠMiddle":3877,"Ġvarying":3878,"Ġdecided":3879,"Ġdecadent":3880,"Ġopinions":3881,"Ġprofile":3882,"Ġprofessionally":3883,"Among":3884,"Amazing":3885,"Ratings":3886,"arily":3887,"ĠQuid":3888,"Ġfool":3889,"Ġcarries":3890,"Ġprime":3891,"Ġprimarily":3892,"Ġsizes":3893,"ĠAlways":3894,"Ġbaked":3895,"Ġdidn":3896,"Ġdirectly":3897,"Ġbecome":3898,"Ġbecoming":3899,"Ġadded":3900,"Ġexciting":3901,"Ġnorthwest":3902,"Ġnorthwestern":3903,"Ġdiscount":3904,"Ġcontin":3905,"Ġcomfort":3906,"Ġcomfortable":3907,"Ġproudly":3908,"Ġbabysit":3909,"Coming":3910,"Curried":3911,"Medium":3912,"Popular":3913,"Ġroughly":3914,"Ġtradition":3915,"Ġpalates":3916,"Ġpeaceful":3917,"Ġsensibly":3918,"Ġscare":3919,"Ġlandmark":3920,"Ġlives":3921,"Ġlacklust":3922,"Ġhandicap":3923,"Ġantipast":3924,"Ġedible":3925,"Ġethos":3926,"Ġmaxim":3927,"Ġmerits":3928,"Ġgrills":3929,"ĠDogs":3930,"Ġrefle":3931,"Ġqualification":3932,"Ġdelecta":3933,"Ġhelp":3934,"Ġconsistently":3935,"Ġspecifically":3936,"Ġcommunity":3937,"Ġsausages":3938,"Ġcompetitor":3939,"Ġguarantee":3940,"Ġhistorical":3941,"Ġprestigious":3942,"Ġincredibly":3943,"Ġactivities":3944,"Ġtourists":3945,"Ġcategory":3946,"Ġcelebrating":3947,"Ġbathrooms":3948,"Bargain":3949,"Centrally":3950,"Considered":3951,"Earning":3952,"Hello":3953,"Passing":3954,"Riversides":3955,"drinks":3956,"gnized":3957,"udget":3958,"vorful":3959,"Ġurban":3960,"Ġflavorful":3961,"Ġcrazy":3962,"Ġcritics":3963,"Ġresponse":3964,"Ġactively":3965,"Ġturn":3966,"Ġtransport":3967,"Ġpolite":3968,"Ġpocket":3969,"Ġolives":3970,"Ġnevertheless":3971,"Ġpriority":3972,"Ġculinary":3973,"ĠChopsticks":3974,"Ġsevers":3975,"Ġspectacular":3976,"received":3977,"recommended":3978,"recognized":3979,"ĠFitzbilies":3980,"ĠFruits":3981,"Ġcoveted":3982,"ĠRelatively":3983,"Ġmildly":3984,"Ġwhine":3985,"Ġwhiskey":3986,"ĠAccording":3987,"Ġbarely":3988,"ĠGlisson":3989,"Ġservicing":3990,"ĠTucson":3991,"ĠTrumpington":3992,"Ġkitchen":3993,"Ġstellar":3994,"Ġstudents":3995,"Ġgreasy":3996,"ĠAdditionally":3997,"Ġalbeit":3998,"Ġnortheast":3999,"Ġorganiz":4000,"Ġsophisticated":4001,"Ġaccompanied":4002,"Ġfavourite":4003,"Ġfurniture":4004,"Ġclimbing":4005,"Ġunsurpassed":4006,"Ġimpeccable":4007,"Ġmilkshakes":4008,"Ġbabysitter":4009,"Ġlackluster":4010,"Ġantipasto":4011}