{"<s>":0,"<pad>":1,"</s>":2,"<unk>":3,"!":4,"\"":5,"#":6,"$":7,"%":8,"&":9,"'":10,"(":11,")":12,"*":13,"+":14,",":15,"-":16,".":17,"/":18,"0":19,"1":20,"2":21,"3":22,"4":23,"5":24,"6":25,"7":26,"8":27,"9":28,":":29,";":30,"<":31,"=":32,">":33,"?":34,"@":35,"A":36,"B":37,"C":38,"D":39,"E":40,"F":41,"G":42,"H":43,"I":44,"J":45,"K":46,"L":47,"M":48,"N":49,"O":50,"P":51,"Q":52,"R":53,"S":54,"T":55,"U":56,"V":57,"W":58,"X":59,"Y":60,"Z":61,"[":62,"\\":63,"]":64,"^":65,"_":66,"`":67,"a":68,"b":69,"c":70,"d":71,"e":72,"f":73,"g":74,"h":75,"i":76,"j":77,"k":78,"l":79,"m":80,"n":81,"o":82,"p":83,"q":84,"r":85,"s":86,"t":87,"u":88,"v":89,"w":90,"x":91,"y":92,"z":93,"{":94,"|":95,"}":96,"~":97,"¡":98,"¢":99,"£":100,"¤":101,"¥":102,"¦":103,"§":104,"¨":105,"©":106,"ª":107,"«":108,"¬":109,"®":110,"¯":111,"°":112,"±":113,"²":114,"³":115,"´":116,"µ":117,"¶":118,"·":119,"¸":120,"¹":121,"º":122,"»":123,"¼":124,"½":125,"¾":126,"¿":127,"À":128,"Á":129,"Â":130,"Ã":131,"Ä":132,"Å":133,"Æ":134,"Ç":135,"È":136,"É":137,"Ê":138,"Ë":139,"Ì":140,"Í":141,"Î":142,"Ï":143,"Ð":144,"Ñ":145,"Ò":146,"Ó":147,"Ô":148,"Õ":149,"Ö":150,"×":151,"Ø":152,"Ù":153,"Ú":154,"Û":155,"Ü":156,"Ý":157,"Þ":158,"ß":159,"à":160,"á":161,"â":162,"ã":163,"ä":164,"å":165,"æ":166,"ç":167,"è":168,"é":169,"ê":170,"ë":171,"ì":172,"í":173,"î":174,"ï":175,"ð":176,"ñ":177,"ò":178,"ó":179,"ô":180,"õ":181,"ö":182,"÷":183,"ø":184,"ù":185,"ú":186,"û":187,"ü":188,"ý":189,"þ":190,"ÿ":191,"Ā":192,"ā":193,"Ă":194,"ă":195,"Ą":196,"ą":197,"Ć":198,"ć":199,"Ĉ":200,"ĉ":201,"Ċ":202,"ċ":203,"Č":204,"č":205,"Ď":206,"ď":207,"Đ":208,"đ":209,"Ē":210,"ē":211,"Ĕ":212,"ĕ":213,"Ė":214,"ė":215,"Ę":216,"ę":217,"Ě":218,"ě":219,"Ĝ":220,"ĝ":221,"Ğ":222,"ğ":223,"Ġ":224,"ġ":225,"Ģ":226,"ģ":227,"Ĥ":228,"ĥ":229,"Ħ":230,"ħ":231,"Ĩ":232,"ĩ":233,"Ī":234,"ī":235,"Ĭ":236,"ĭ":237,"Į":238,"į":239,"İ":240,"ı":241,"Ĳ":242,"ĳ":243,"Ĵ":244,"ĵ":245,"Ķ":246,"ķ":247,"ĸ":248,"Ĺ":249,"ĺ":250,"Ļ":251,"ļ":252,"Ľ":253,"ľ":254,"Ŀ":255,"ŀ":256,"Ł":257,"ł":258,"Ń":259,"Ġ=":260,"Ġ|":261,"nt":262,"re":263,"Ġi":264,"Ġt":265,"Ġa":266,"ic":267,"ent":268,"op":269,"ra":270,"ou":271,"Ġint":272,"opic":273,"Ġintent":274,"st":275,"in":276,"he":277,"or":278,"Ġre":279,"Ġn":280,"topic":281,"er":282,"Ġb":283,"on":284,"Ġc":285,"Ġp":286,"Ġy":287,"oo":288,"Ġyou":289,"for":290,"Ġin":291,"ge":292,"el":293,"ing":294,"Ġw":295,"me":296,"est":297,"Ġh":298,"ve":299,"at":300,"Ġthe":301,"ook":302,"form":303,"Ġinform":304,"Ġl":305,"mb":306,"uest":307,"Ġbook":308,"Ġtopic":309,"nd":310,"Ġm":311,"ne":312,"Ġis":313,"Ġd":314,"se":315,"ĠI":316,"ice":317,"ot":318,"Ġare":319,"ar":320,"Ġreq":321,"Ġrequest":322,"ral":323,"Ġto":324,"ay":325,"Ġge":326,"mber":327,"Ġnu":328,"Ġnumber":329,"Ġf":330,"neral":331,"Ġgeneral":332,"th":333,"an":334,"ion":335,"ave":336,"ĠC":337,"Ġo":338,"ri":339,"Ġof":340,"Ġat":341,"Ġtra":342,"Ġs":343,"ce":344,"otel":345,"The":346,"ura":347,"urant":348,"aurant":349,"le":350,"Ġtrain":351,"ke":352,"Ġrest":353,"Ġhotel":354,"Ġrestaurant":355,"co":356,"Ġand":357,"Ġmo":358,"ld":359,"Ġ1":360,"ed":361,"ere":362,"hat":363,"Ġarea":364,"Ġpr":365,"ct":366,"ame":367,"Ġg":368,"ould":369,"Ġfor":370,"one":371,"Ġname":372,"Ġprice":373,"fere":374,"nce":375,"de":376,"ss":377,"Ġbooking":378,"pe":379,"Ġ0":380,"ĠW":381,"Ġra":382,"Ġwi":383,"Ġli":384,"ference":385,"Ġmore":386,"ll":387,"Ġlike":388,"Ġan":389,"Ġch":390,"it":391,"ood":392,"Ġhave":393,"Ġle":394,"ation":395,"ree":396,"Ġday":397,"nge":398,"ye":399,"ĠH":400,"Ġrange":401,"23":402,"ction":403,"ĠT":404,"tra":405,"Ġcho":406,"Ġchoice":407,"traction":408,"Ġattraction":409,"Ġreference":410,"dge":411,"Ġany":412,"Ġthat":413,"art":414,"Ġst":415,"hone":416,"ouse":417,"Ġty":418,"Ġtype":419,"thing":420,"Ġe":421,"12":422,"Ġphone":423,"Ġel":424,"Ġar":425,"dd":426,"fer":427,"entre":428,"ress":429,"ridge":430,"Ġelse":431,"ĠThe":432,"Ġleave":433,"amb":434,"Ġadd":435,"Ġaddress":436,"Ġbye":437,"es":438,"ambridge":439,"Ġwith":440,"Ġfood":441,"Ġthere":442,"Ġhe":443,"ĠA":444,"ĠG":445,"ĠS":446,"Ġarri":447,"You":448,"1223":449,"ow":450,"Ġanything":451,"Ġ01223":452,"Ġoffer":453,"Ġwel":454,"Ġyour":455,"lp":456,"ĠWould":457,"ĠR":458,"Ġcan":459,"come":460,"Ġhelp":461,"Ġwelcome":462,"Ġpo":463,"ime":464,"Ġwould":465,"Ġbe":466,"Ġtime":467,"as":468,"ep":469,"Ġcentre":470,"ĠB":471,"Ġarrive":472,"Ġta":473,"ry":474,"ĠCambridge":475,"day":476,"al":477,"Ġpost":478,"epart":479,"Ġdepart":480,"ble":481,"code":482,"Ġme":483,"ark":484,"Ġno":485,"Ġpostcode":486,"Ġ2":487,"wn":488,"Ġguest":489,"com":490,"Ġco":491,"ĠTR":492,"reet":493,"Ġtown":494,"Ġ4":495,"comme":496,"commend":497,"Ġrecommend":498,"ro":499,"si":500,"Ġcb":501,"ĠD":502,"ĠP":503,"There":504,"ad":505,"ity":506,"Ġon":507,"Ġlo":508,"Ġfe":509,"ut":510,"is":511,"ure":512,"Ġne":513,"Ġwill":514,"house":515,"ul":516,"Ġit":517,"Ġ3":518,"ĠL":519,"ast":520,"Ġbooked":521,"Ġdo":522,"ĠIs":523,"ur":524,"her":525,"ton":526,"ch":527,"ap":528,"ket":529,"la":530,"ĠM":531,"Ġu":532,"'s":533,"Ġth":534,"ination":535,"estination":536,"Ġdestination":537,"Ġex":538,"rat":539,"Ġneed":540,"Ġ5":541,"xi":542,"Ġloc":543,"Ġpark":544,"derat":545,"Ġor":546,"Ġguesthouse":547,"Ġmoderat":548,"Ġtaxi":549,"Ġfree":550,"orth":551,"Ġ012233":552,"Ġres":553,"Ġfee":554,"ir":555,"Ġpe":556,"Ġche":557,"ound":558,"Ġwas":559,"pen":560,"pensi":561,"reat":562,"ople":563,"Ġstay":564,"Ġpeople":565,"pensive":566,"icket":567,"Ġreser":568,"Ġticket":569,"ai":570,"ank":571,"gh":572,"Your":573,"Ġse":574,"Ġexpensive":575,"ĠSt":576,"Ġ07":577,"lle":578,"ĠDo":579,"ated":580,"Ġone":581,"Ġlocated":582,"ely":583,"Ġsu":584,"ĠID":585,"ver":586,"ting":587,"our":588,"Ġmin":589,"all":590,"ĠIt":591,"Ġcheap":592,"ful":593,"Ġpre":594,"Ġparking":595,"Ġman":596,"ooking":597,"ine":598,"ect":599,"00":600,"um":601,"Ġmany":602,"hank":603,"Ġnone":604,"Ġnorth":605,"if":606,"Ġrating":607,"Ġtoday":608,"Ġpart":609,"Ġgreat":610,"ĠCan":611,"cce":612,"'re":613,"ĠE":614,"ĠRo":615,"ĠF":616,"Ok":617,"ccess":618,"en":619,"ian":620,"ol":621,"rom":622,"Ġhouse":623,"Ġ15":624,"21":625,"ounds":626,"Ġfrom":627,"ell":628,"ĠN":629,"Ġsel":630,"Ġselect":631,"ill":632,"erne":633,"Ġwhat":634,"ccessful":635,"Ġminut":636,"ernet":637,"Thank":638,"other":639,"11":640,"ĠCentre":641,"vation":642,"Ġpounds":643,"ist":644,"Ġ7":645,"Ġreservation":646,"Yes":647,"act":648,"ĠYour":649,"Ġminutes":650,"use":651,"Ġwest":652,"ĠStreet":653,"ght":654,"ĠRoad":655,"ĠHouse":656,"ĠRe":657,"ia":658,"ntact":659,"wo":660,"ter":661,"Ġsuccessful":662,"useum":663,"Ġk":664,"Ġrestaurants":665,"llege":666,"Ġeast":667,"ĠWhat":668,"Ġus":669,"Ġpriced":670,"here":671,"24":672,"Ġcar":673,"Ġ:":674,"ving":675,"Ġmoderately":676,"Ġstar":677,"58":678,"BP":679,"ĠCity":680,"ant":681,"out":682,"Sure":683,"Ġby":684,"outh":685,"ly":686,"ĠHave":687,"Ġent":688,"Ġser":689,"ĠCh":690,"Ġtable":691,"ĠGBP":692,"Ġtwo":693,"bye":694,"orry":695,"Ġ10":696,"Ġ8":697,"Ġcontact":698,"Ġhotels":699,"51":700,"Ġmoderate":701,"Okay":702,"Ġsouth":703,"ain":704,"Ġmuseum":705,"oy":706,"Ġ6":707,"oodbye":708,"and":709,"'m":710,"Ġwant":711,"ck":712,"Ġcambridge":713,"Ġ13":714,"ĠK":715,"Ġinformation":716,"Ġseve":717,"66":718,"ich":719,"Ġass":720,"Ġso":721,"Ġ9":722,"Ġab":723,"Ġgreet":724,"Ġassist":725,"Ġro":726,"ert":727,"ĠInt":728,"oom":729,"ight":730,"30":731,"Ġ11":732,"ĠReference":733,"Ġ17":734,"ak":735,"ĠInternet":736,"Ġabout":737,"Ġtrav":738,"Ġsorry":739,"tion":740,"own":741,"Ġseveral":742,"os":743,"What":744,"lace":745,"07":746,"Booking":747,"Ġall":748,"joy":749,"et":750,"Ġr":751,"lu":752,"Ġhas":753,"orn":754,"Ġtravel":755,"Ġwh":756,"Ġma":757,"Ġroad":758,"Ġv":759,"ertain":760,"Ġop":761,"Ġpreference":762,"ng":763,"20":764,"njoy":765,"Ġnot":766,"ish":767,"il":768,"ond":769,"Ġprefer":770,"Ġtry":771,"Ġguesthouses":772,"17":773,"Ġleaves":774,"ĠHotel":775,"ite":776,"Ġcollege":777,"Ġplace":778,"50":779,"Ġcity":780,"Ġav":781,"ha":782,"Ġdif":783,"ferent":784,"Ġdifferent":785,"aila":786,"Ġlooking":787,"ĠPark":788,"Ġoption":789,"88":790,"Ġtrains":791,"Ġstreet":792,"54":793,"Ġnight":794,"Ġavaila":795,"ment":796,"ool":797,"Ġ16":798,"Ġsi":799,"Ġarrives":800,"rance":801,"us":802,"'t":803,"Ġleng":804,"Ġlength":805,"inese":806,"ny":807,"ĠCB":808,"corn":809,"Ġanother":810,"aint":811,"ĠGoodbye":812,"Ġreserve":813,"Ġstation":814,"Ġentrance":815,"60":816,"29":817,"It":818,"sted":819,"Ġavailable":820,"Ġtheir":821,"Ġ12":822,"10":823,"Ġoptions":824,"fi":825,"Ġbut":826,"ase":827,"fast":828,"Ġthis":829,"reak":830,"very":831,"Ġif":832,"reakfast":833,"ork":834,"Ġusing":835,"08":836,"Ġ19":837,"ind":838,"un":839,"Ġcri":840,"teria":841,"Ġcriteria":842,"Ġ14":843,"ĠU":844,"ope":845,"ĠV":846,"erton":847,"ĠCo":848,"Ġsome":849,"fo":850,"able":851,"iz":852,"Ġroom":853,"Ġun":854,"aving":855,"ilton":856,"iver":857,"ĠAr":858,"Ġkn":859,"ĠJ":860,"15":861,"Ġnice":862,"ĠO":863,"Ġleaving":864,"Ġknow":865,"52":866,"sterton":867,"59":868,"Ġgood":869,"ĠAny":870,"Ġwe":871,"Ġother":872,"We":873,"40":874,"27":875,"Ġhow":876,"Ġside":877,"vi":878,"46":879,"lease":880,"side":881,"aller":882,"Ġgo":883,"Ġmake":884,"ĠInd":885,"39":886,"enter":887,"ĠGuest":888,"ort":889,"'d":890,"Ġas":891,"rit":892,"osp":893,"otal":894,"ital":895,"How":896,"ospital":897,"alian":898,"qu":899,"int":900,"izz":901,"ĠIndian":902,"da":903,"Ġwork":904,"Ġintere":905,"Ġserve":906,"Ġcenter":907,"Ġtotal":908,"che":909,"Ġspe":910,"den":911,"ĠRest":912,"Ġmat":913,"Ġsh":914,"ular":915,"35":916,"Ġam":917,"ings":918,"sday":919,"34":920,"Ġspec":921,"Ġable":922,"Ġget":923,"id":924,"Ġour":925,"sity":926,"Ġ18":927,"Ġreserved":928,"Ġspecif":929,"ĠLo":930,"ĠAnything":931,"bs":932,"rip":933,"Ġ21":934,"41":935,"Ġpay":936,"01":937,"Ġdeparting":938,"ĠRestaurant":939,"ane":940,"Ġcould":941,"urch":942,"57":943,"Ġfind":944,"inton":945,"herry":946,"Ġwhich":947,"Ġtickets":948,"Ġspecific":949,"32":950,"icular":951,"Ġparticular":952,"ritish":953,"TR":954,"Ġ20":955,"ĠTheir":956,"Ġmeet":957,"ĠLe":958,"vice":959,"Ġfound":960,"Ġthree":961,"Ġservice":962,"ĠChinese":963,"ĠChe":964,"ville":965,"Ġpayable":966,"43":967,"Ġj":968,"In":969,"Ġenjoy":970,"iversity":971,"Ġwhere":972,"90":973,"ive":974,"ms":975,"Ġup":976,"Ġtrip":977,"Ġstars":978,"ĠTh":979,"ough":980,"Ġthem":981,"Ġdeparture":982,"56":983,"Ġhospital":984,"Ġfour":985,"Ġvery":986,"ĠParkside":987,"Ġmuseums":988,"Ġcall":989,"riday":990,"80":991,"onville":992,"36":993,"ĠChesterton":994,"Ġ23":995,"lex":996,"oth":997,"Ġthey":998,"unt":999,"Ġinternet":1000,"allery":1001,"ander":1002,"oat":1003,"ĠHill":1004,"lexander":1005,"age":1006,"Ġbed":1007,"li":1008,"ose":1009,"45":1010,"Ġinterested":1011,"38":1012,"ĠTown":1013,"Have":1014,"Great":1015,"mp":1016,"19":1017,"Ġmind":1018,"uis":1019,"app":1020,"ĠThey":1021,"appy":1022,"16":1023,"09":1024,"ĠBed":1025,"clu":1026,"Ġbar":1027,"Ġdon":1028,"ĠCollege":1029,"arden":1030,"ĠHow":1031,"ĠThere":1032,"Ġwifi":1033,"Ġsomething":1034,"lad":1035,"Ġ05":1036,"af":1037,"ue":1038,"hen":1039,"Ġper":1040,"ĠItalian":1041,"Ġbreakfast":1042,"Ġarriving":1043,"Info":1044,"ĠAcorn":1045,"ĠTownInfo":1046,"53":1047,"og":1048,"Ġfit":1049,"ven":1050,"ma":1051,"'ve":1052,"ther":1053,"ĠHills":1054,"urope":1055,"Ġmatch":1056,"uropean":1057,"Ġcertain":1058,"ĠNe":1059,"ĠLodge":1060,"Ġfew":1061,"ĠUn":1062,"87":1063,"bu":1064,"Ġlook":1065,"Ġpol":1066,"Ġcon":1067,"06":1068,"gent":1069,"Ġpro":1070,"Ġthose":1071,"Ġcuis":1072,"Ġqu":1073,"Ġplaces":1074,"Ġplease":1075,"ard":1076,"unting":1077,"Ġdoes":1078,"ĠY":1079,"Ġnights":1080,"Ġpolice":1081,"ĠFriday":1082,"Ġserves":1083,"urry":1084,"Ġsaint":1085,"ĠSaint":1086,"val":1087,"ĠThank":1088,"Ġcuisine":1089,"rey":1090,"Is":1091,"ĠBar":1092,"Ġcode":1093,"nday":1094,"Ġ0122324":1095,"Ġhappy":1096,"Ġarch":1097,"Ġlocation":1098,"ately":1099,"966":1100,"oor":1101,"Ġfur":1102,"Ġfurther":1103,"55":1104,"QQ":1105,"44":1106,"atre":1107,"Ġdown":1108,"arket":1109,"onder":1110,"ina":1111,"onderful":1112,"ĠMay":1113,"izza":1114,"42":1115,"row":1116,"fort":1117,"hich":1118,"fortun":1119,"ĠCherry":1120,"isit":1121,"rin":1122,"Ġal":1123,"fortunately":1124,"Ġvisit":1125,"No":1126,"ley":1127,"ust":1128,"ĠBritish":1129,"mm":1130,"ĠHinton":1131,"right":1132,"ues":1133,"ĠRd":1134,"hley":1135,"Where":1136,"Ġaf":1137,"atur":1138,"aturday":1139,"iss":1140,"Ġnar":1141,"ott":1142,"Ġ09":1143,"Ġnarrow":1144,"em":1145,"Ġpool":1146,"ĠNorth":1147,"Ġwhite":1148,"77":1149,"Ġboth":1150,"elf":1151,"13":1152,"ern":1153,"ellow":1154,"Ġpic":1155,"ĠBreakfast":1156,"Ġbeen":1157,"Ġwonderful":1158,"lack":1159,"ĠEnjoy":1160,"Ġquite":1161,"Ġcolleges":1162,"49":1163,"Do":1164,"itton":1165,"llen":1166,"olog":1167,"ip":1168,"ĠWhere":1169,"ance":1170,"Ġyellow":1171,"ĠWill":1172,"ĠSu":1173,"Ġcost":1174,"llenb":1175,"JG":1176,"sfi":1177,"onday":1178,"eld":1179,"Ġhour":1180,"Ġlodge":1181,"ĠSunday":1182,"sfield":1183,"Ġ01223358":1184,"Ġacorn":1185,"Ġchoo":1186,"ches":1187,"Ġattractions":1188,"gge":1189,"Ġsugge":1190,"llenbell":1191,"rist":1192,"Ġsuggest":1193,"ĠYou":1194,"ican":1195,"bury":1196,"Ġblack":1197,"ult":1198,"Ġassistance":1199,"Ġind":1200,"lue":1201,"ham":1202,"ĠUniversity":1203,"Ġ01223358966":1204,"ies":1205,"ondon":1206,"elfry":1207,"ĠSh":1208,"28":1209,"ok":1210,"Ġstart":1211,"ĠRegent":1212,"Ġneeds":1213,"untingd":1214,"Ġgrey":1215,"sian":1216,"Ġcontacting":1217,"oodle":1218,"ĠAs":1219,"untingdon":1220,"Ġonly":1221,"48":1222,"ĠSaturday":1223,"Un":1224,"Ġred":1225,"Ġnightclu":1226,"arli":1227,"ab":1228,"ursday":1229,"Ġtraveling":1230,"tle":1231,"so":1232,"ĠGood":1233,"Ġblue":1234,"Ġchinese":1235,"Ġhope":1236,"nesday":1237,"ednesday":1238,"ĠGonville":1239,"Ġlet":1240,"ertainment":1241,"78":1242,"ire":1243,"olk":1244,"ate":1245,"Unfortunately":1246,"itect":1247,"uck":1248,"Ġentertainment":1249,"ĠKings":1250,"port":1251,"ers":1252,"18":1253,"rew":1254,"uesday":1255,"Ġfive":1256,"Would":1257,"lif":1258,"isure":1259,"lifton":1260,"Ġgoodbye":1261,"Ġevery":1262,"ĠMar":1263,"Ġindian":1264,"26":1265,"79":1266,"ĠFen":1267,"ĠMonday":1268,"Ġcour":1269,"ĠWhich":1270,"Ġcomp":1271,"Ġarchitect":1272,"Ġchoose":1273,"ĠAnd":1274,"ĠAlexander":1275,"Ġarrival":1276,"milton":1277,"Ġlot":1278,"ĠLane":1279,"raf":1280,"press":1281,"Ġad":1282,"ie":1283,"way":1284,"arch":1285,"33":1286,"are":1287,"ĠChurch":1288,"ĠNew":1289,"ted":1290,"yst":1291,"Ġtell":1292,"Ġ012234":1293,"Ġset":1294,"market":1295,"Ġcourse":1296,"ystem":1297,"Ġ.":1298,"ĠZ":1299,"Ġtheatre":1300,"Ġ0122336":1301,"Ġsearch":1302,"ĠArms":1303,"ĠDitton":1304,"ĠBridge":1305,"ĠWednesday":1306,"ount":1307,"Ġsystem":1308,"ĠThursday":1309,"leas":1310,"reen":1311,"ĠGarden":1312,"Ġ22":1313,"Ġpleas":1314,"rinity":1315,"Ġboat":1316,"lden":1317,"Ġproble":1318,"Ġpick":1319,"Ġ33":1320,"ĠWay":1321,"Ġproblem":1322,"ĠAshley":1323,"Ġri":1324,"Their":1325,"Ġgallery":1326,"irst":1327,"Ġmay":1328,"Ġarchitecture":1329,"Ġ?":1330,"ĠTuesday":1331,"ĠKing":1332,"Certain":1333,"nn":1334,"ĠCurry":1335,"Ġchurch":1336,"ĠEuropean":1337,"Ġcomple":1338,"Certainly":1339,"Ġglad":1340,"Ġalso":1341,"rain":1342,"miss":1343,"ĠQ":1344,"oomz":1345,"Ġstaying":1346,"mission":1347,"Al":1348,"riott":1349,"25":1350,"rough":1351,"inema":1352,"ĠArt":1353,"Ġdeparts":1354,"Ġstarting":1355,"irm":1356,"ford":1357,"afe":1358,"Ġwhen":1359,"ĠAre":1360,"Ġgoing":1361,"That":1362,"ĠX":1363,"5151":1364,"onda":1365,"Alright":1366,"'ll":1367,"ĠMilton":1368,"led":1369,"Ġdays":1370,"ĠGallery":1371,"sa":1372,"Ġthank":1373,"Ġ01223245151":1374,"Of":1375,"rop":1376,"37":1377,"ko":1378,"Ġpl":1379,"roomz":1380,"Ġway":1381,"ross":1382,"Ġpleasure":1383,"the":1384,"Ġrequ":1385,"Ġsee":1386,"koda":1387,"89":1388,"ĠLen":1389,"Ġrequire":1390,"ray":1391,"xus":1392,"ĠEast":1393,"ĠLensfield":1394,"Ġap":1395,"hadd":1396,"Ġcalling":1397,"Ġafter":1398,"esla":1399,"ĠPizza":1400,"Ġconf":1401,"Ġchesterton":1402,"ack":1403,"Ġ08":1404,"Ġdepartment":1405,"bray":1406,"ong":1407,"haddai":1408,"ara":1409,"oh":1410,"vell":1411,"ĠIf":1412,"Ġsure":1413,"Ġwell":1414,"ca":1415,"Ġart":1416,"ĠEx":1417,"22":1418,"ota":1419,"They":1420,"oori":1421,"ĠPlease":1422,"ĠMill":1423,"64":1424,"Ġmy":1425,"istro":1426,"gain":1427,"Ġthing":1428,"Ġfirst":1429,"ĠPe":1430,"ology":1431,"Ġadmission":1432,"Ġseat":1433,"Ġpreferences":1434,"ĠNewmarket":1435,"99":1436,"ub":1437,"Ġcal":1438,"ĠHo":1439,"Ġcalled":1440,"ange":1441,"ĠClifton":1442,"Ġcl":1443,"Ġlane":1444,"14":1445,"ag":1446,"70":1447,"amilton":1448,"Ġagain":1449,"Ġjust":1450,"di":1451,"Ġitalian":1452,"Ġcheck":1453,"OK":1454,"yle":1455,"esus":1456,"ĠLeisure":1457,"ĠLondon":1458,"Ġmatching":1459,"ost":1460,"Ġlisted":1461,"Ġreservations":1462,"ĠHuntingdon":1463,"even":1464,"Ġmar":1465,"ĠLa":1466,"roughton":1467,"68":1468,"Ġmade":1469,"ither":1470,"Ġtake":1471,"ester":1472,"Ġhinton":1473,"ĠMuseum":1474,"ourne":1475,"sw":1476,"chool":1477,"dern":1478,"Ġgive":1479,"ĠBelfry":1480,"astle":1481,"icester":1482,"Ġrea":1483,"Ġ0122330":1484,"lene":1485,"ĠAllenbell":1486,"Can":1487,"olden":1488,"rook":1489,"Ġ0122333":1490,"dalene":1491,"olut":1492,"brook":1493,"king":1494,"ental":1495,"Ġresult":1496,"ex":1497,"olutely":1498,"Train":1499,"udi":1500,"Ġwere":1501,"Ġthese":1502,"olksw":1503,"ĠPol":1504,"ĠChrist":1505,"ments":1506,"69":1507,"iday":1508,"Ġgarden":1509,"arade":1510,"ountry":1511,"Ġ0122390":1512,"umn":1513,"oliday":1514,"andos":1515,"Ġmeets":1516,"hap":1517,"sbray":1518,"Ġnow":1519,"Ġ24":1520,"haps":1521,"Ġearli":1522,"utumn":1523,"Ġcherry":1524,"ĠDoes":1525,"Ġ079":1526,"agen":1527,"olkswagen":1528,"su":1529,"Ġeuropean":1530,"ons":1531,"ĠAll":1532,"ĠDid":1533,"Ġking":1534,"Ġ-":1535,"Ġeither":1536,"ĠStation":1537,"86":1538,"Ġsound":1539,"Ġ79":1540,"Ġshould":1541,"ally":1542,"Ġresults":1543,"eria":1544,"ĠContact":1545,"Ġuniversity":1546,"bsolutely":1547,"star":1548,"Ġchoices":1549,"izzeria":1550,"ug":1551,"wi":1552,"Ġbritish":1553,"Absolutely":1554,"pool":1555,"worth":1556,"yal":1557,"Ġnightclub":1558,"oul":1559,"Ġgot":1560,"arkworth":1561,"Ġgonville":1562,"Ġhere":1563,"ci":1564,"Ġ154":1565,"Ġrequirements":1566,"ling":1567,"Ġout":1568,"az":1569,"ater":1570,"igh":1571,"Ġcompleted":1572,"bor":1573,"71":1574,"ĠOne":1575,"ylesbray":1576,"wich":1577,"Ġkind":1578,"Ġkings":1579,"ĠNoodle":1580,"ĠShall":1581,"borough":1582,"orwich":1583,"Ġmilton":1584,"ĠGraf":1585,"vely":1586,"Sorry":1587,"ynn":1588,"Ġinfo":1589,"ĠGolden":1590,"Ġparty":1591,"Ġswi":1592,"Ġnew":1593,"lub":1594,"Ġ076":1595,"ouin":1596,"vo":1597,"ooked":1598,"Ġbet":1599,"olvo":1600,"Thanks":1601,"mming":1602,"Ġdid":1603,"Ġ40":1604,"terborough":1605,"Ġswimming":1606,"Ġalexander":1607,"Ġhonda":1608,"888":1609,"76":1610,"be":1611,"Ġ01223334":1612,"ĠMarriott":1613,"Ġ30":1614,"dden":1615,"Ġskoda":1616,"ello":1617,"ĠTrinity":1618,"Ġpools":1619,"inci":1620,"Ġserving":1621,"Ġback":1622,"Ġinterest":1623,"brookes":1624,"ef":1625,"Ġford":1626,"Ġunsu":1627,"Ġservices":1628,"uese":1629,"work":1630,"bsons":1631,"ĠPolice":1632,"uguese":1633,"works":1634,"iet":1635,"ull":1636,"Ġnoodle":1637,"Ġlexus":1638,"Ġunsuccessful":1639,"astrop":1640,"Ġok":1641,"ĠTwo":1642,"ked":1643,"Ġmodern":1644,"ĠHospital":1645,"irport":1646,"ortuguese":1647,"Ġshow":1648,"ĠExpress":1649,"ddenbrookes":1650,"Ġho":1651,"rican":1652,"Ġ0122335":1653,"Ġ06":1654,"ĠBye":1655,"ala":1656,"Ġ51":1657,"Ġ01223353":1658,"ore":1659,"Ġcinema":1660,"ĠArch":1661,"Ġriver":1662,"ĠWe":1663,"Ġlist":1664,"Ġover":1665,"Ġandrew":1666,"lare":1667,"inches":1668,"Ġunable":1669,"84":1670,"Ġtesla":1671,"Ġ077":1672,"ĠAsian":1673,"een":1674,"yota":1675,"Ġthen":1676,"Ġtoyota":1677,"evenage":1678,"Re":1679,"Ġ36":1680,"Ġprovi":1681,"Ġnightclubs":1682,"Ġmult":1683,"Ġmatches":1684,"Ġconfirm":1685,"ĠGreen":1686,"96":1687,"Glad":1688,"na":1689,"elep":1690,"ational":1691,"elephone":1692,"Ġarms":1693,"ĠEly":1694,"ĠLeicester":1695,"ernational":1696,"ang":1697,"iple":1698,"Ġmultiple":1699,"Ġbelfry":1700,"Ġ37":1701,"ĠMag":1702,"andoori":1703,"Ġdes":1704,"ĠSp":1705,"Ġfun":1706,"ĠHut":1707,"ĠHamilton":1708,"ĠGuesthouse":1709,"Ġfa":1710,"Reference":1711,"72":1712,"jo":1713,"mw":1714,"Ġsport":1715,"Ġlovely":1716,"Ġparks":1717,"ĠAndrew":1718,"iqu":1719,"Ġgreen":1720,"itche":1721,"ĠLovell":1722,"astropub":1723,"bourne":1724,"xbourne":1725,"ops":1726,"Ġbmw":1727,"ansted":1728,"4646":1729,"arlie":1730,"Ġapolog":1731,"fit":1732,"ĠShaddai":1733,"roxbourne":1734,"Ġ47":1735,"000":1736,"Ġ75":1737,"itchen":1738,"ĠTandoori":1739,"Ġhall":1740,"ishops":1741,"ĠJesus":1742,"Ġlots":1743,"mer":1744,"Ġallenbell":1745,"ĠWest":1746,"ĠMagdalene":1747,"Ġsports":1748,"wnham":1749,"31":1750,"67":1751,"Ġaudi":1752,"Ġ28":1753,"ĠEl":1754,"Ġprovide":1755,"ions":1756,"Ġ35":1757,"Ġperhaps":1758,"ĠBistro":1759,"ĠLynn":1760,"Ġ50":1761,"olina":1762,"Ġ98":1763,"ĠPool":1764,"ns":1765,"red":1766,"erie":1767,"Ġpizza":1768,"Ġlondon":1769,"Ġ44":1770,"Ġ49":1771,"Ġori":1772,"Ġ078":1773,"olia":1774,"Ġ60":1775,"fiti":1776,"dy":1777,"chools":1778,"quest":1779,"Ġtoo":1780,"atolia":1781,"Ġsame":1782,"Ġsuccess":1783,"ortford":1784,"Ġquest":1785,"ition":1786,"ittle":1787,"Ġ0122321":1788,"Ġits":1789,"ĠNorwich":1790,"ostcode":1791,"inh":1792,"ĠAutumn":1793,"Ġthan":1794,"Ġvolkswagen":1795,"alleries":1796,"Ġfits":1797,"ully":1798,"Ġoriental":1799,"ren":1800,"Ġasian":1801,"63":1802,"sure":1803,"ict":1804,"iston":1805,"Ġearliest":1806,"47":1807,"ched":1808,"Ġreach":1809,"ning":1810,"Ġinternational":1811,"Ġmost":1812,"ĠTheatre":1813,"Ġvolvo":1814,"Ġconc":1815,"nsfield":1816,"Ġ#":1817,"oria":1818,"orter":1819,"Ġlensfield":1820,"ĠSouth":1821,"Ġsuit":1822,"ĠRoyal":1823,"Ġshorter":1824,"rench":1825,"ictoria":1826,"Ġtelephone":1827,"lpha":1828,"ĠThanks":1829,"ucky":1830,"900":1831,"Ġinclu":1832,"anish":1833,"Ġokay":1834,"iral":1835,"Ġright":1836,"Ġexpress":1837,"ĠCityroomz":1838,"Ġ88":1839,"fore":1840,"valon":1841,"irala":1842,"rass":1843,"ĠCross":1844,"Ġchange":1845,"240":1846,"ĠSaints":1847,"ĠPeterborough":1848,"fe":1849,"erra":1850,"Ġ01223353888":1851,"100":1852,"73":1853,"Ġsp":1854,"Ġvar":1855,"98":1856,"pee":1857,"ĠRiver":1858,"ĠPlace":1859,"ĠFun":1860,"venue":1861,"149":1862,"MW":1863,"Ġtrinity":1864,"thank":1865,"ĠWorth":1866,"ĠAf":1867,"Ġoffers":1868,"Ġthin":1869,"verton":1870,"Ġquestions":1871,"boat":1872,"fully":1873,"ĠWarkworth":1874,"ĠPrin":1875,"ĠPrince":1876,"91":1877,"Ġinto":1878,"org":1879,"Ġhuntingdon":1880,"ĠMo":1881,"ghna":1882,"Ġpreferred":1883,"Ġunit":1884,"ippee":1885,"Ġ012239021":1886,"rasserie":1887,"All":1888,"Enjoy":1889,"hal":1890,"Ġcurry":1891,"Ġ070":1892,"Ġ70":1893,"owning":1894,"94":1895,"name":1896,"ymm":1897,"Ġcross":1898,"Ġgastropub":1899,"Ġhead":1900,"ĠAvalon":1901,"liment":1902,"orgina":1903,"ymmoy":1904,"My":1905,"ĠWhen":1906,"Ġrated":1907,"ĠBroughton":1908,"ĠBooked":1909,"Ġfen":1910,"ietname":1911,"ietnamese":1912,"enty":1913,"Ġlong":1914,"ĠMe":1915,"Ġenter":1916,"Ġsuccessfully":1917,"74":1918,"ae":1919,"ĠCafe":1920,"ĠCastle":1921,"Ġ56":1922,"Ġlooks":1923,"92":1924,"Ġsite":1925,"ito":1926,"ĠPostcode":1927,"Ġ52":1928,"ĠBedouin":1929,"iquito":1930,"ghe":1931,"zz":1932,"ĠWok":1933,"ĠHall":1934,"Ġcosts":1935,"Ġcare":1936,"ingham":1937,"ĠCinema":1938,"ations":1939,"Ġend":1940,"ĠLet":1941,"ĠStevenage":1942,"ize":1943,"ĠNewnham":1944,"ĠArtworks":1945,"Ġclos":1946,"limentum":1947,"ping":1948,"Ġac":1949,"Ġhigh":1950,"Ġdin":1951,"ĠNandos":1952,"irmingham":1953,"aj":1954,"cell":1955,"inoor":1956,"Ġpizzeria":1957,"andle":1958,"rita":1959,"Ġpers":1960,"Ġapologize":1961,"gherita":1962,"cellent":1963,"And":1964,"ĠCountry":1965,"ĠSo":1966,"Ġpostal":1967,"ĠParade":1968,"urk":1969,"Ġ53":1970,"ĠFor":1971,"Ġhours":1972,"Ġplenty":1973,"ĠAfrican":1974,"zzo":1975,"Ġperson":1976,"Ġact":1977,"Ġla":1978,"ĠPortuguese":1979,"Ġ105":1980,"Ġseven":1981,"ohinoor":1982,"nab":1983,"ĠCould":1984,"Ġsaints":1985,"Ġ01223446":1986,"Ġride":1987,"urkish":1988,"nabas":1989,"iverpool":1990,"ky":1991,"Ġten":1992,"ĠBishops":1993,"Ġ38":1994,"ĠLiverpool":1995,"ĠRosa":1996,"change":1997,"umping":1998,"Ġwanting":1999,"akk":2000,"Ġ163":2001,"andlebury":2002,"DC":2003,"Ġinn":2004,"Ġholiday":2005,"ĠCar":2006,"ooms":2007,"osa":2008,"oats":2009,"itional":2010,"Ġclosest":2011,"Goodbye":2012,"sh":2013,"Ġdine":2014,"ĠClub":2015,"Ġchrist":2016,"ĠHiston":2017,"ĠBroxbourne":2018,"ĠDowning":2019,"issing":2020,"ohns":2021,"akka":2022,"gly":2023,"natolia":2024,"te":2025,"ually":2026,"ĠHobsons":2027,"When":2028,"Ġbistro":2029,"Ġcafe":2030,"ote":2031,"Ġfriday":2032,"Ġshaddai":2033,"amboats":2034,"Ġ01223336":2035,"anese":2036,"Ġpicked":2037,"Ġthink":2038,"566":2039,"62":2040,"fect":2041,"there":2042,"Ġlit":2043,"Ġeat":2044,"Ġashley":2045,"wel":2046,"Ġairport":2047,"ĠHoliday":2048,"alsa":2049,"uckling":2050,"Ġlittle":2051,"Ġaren":2052,"ĠStortford":2053,"Ġregent":2054,"Ġleisure":2055,"bill":2056,"hi":2057,"kok":2058,"nean":2059,"Ġ087":2060,"iterra":2061,"Ġhouses":2062,"ĠChan":2063,"Ġmarriott":2064,"angkok":2065,"billies":2066,"iterranean":2067,"gon":2068,"ln":2069,"looms":2070,"Ġparade":2071,"Ġhut":2072,"anh":2073,"ĠCorn":2074,"ĠAylesbray":2075,"ĠBoth":2076,"ĠArchway":2077,"rice":2078,"zbillies":2079,"Ġcountry":2080,"Ġmeal":2081,"Ġsuch":2082,"oly":2083,"If":2084,"pin":2085,"Ġbest":2086,"ĠInn":2087,"ĠClare":2088,"Ġold":2089,"ĠLittle":2090,"aigon":2091,"ĠStansted":2092,"ĠCharlie":2093,"Ġseats":2094,"ĠGrafton":2095,"Are":2096,"Ch":2097,"od":2098,"ince":2099,"Ġmight":2100,"Ġadditional":2101,"ĠSe":2102,"Ġbefore":2103,"Ġtand":2104,"82":2105,"der":2106,"uch":2107,"raina":2108,"Ġmuch":2109,"Ġdate":2110,"ĠPhone":2111,"ail":2112,"Ġ074":2113,"Ġminute":2114,"ĠOr":2115,"ĠShould":2116,"loomsbury":2117,"ran":2118,"Ġclifton":2119,"otan":2120,"ĠChop":2121,"279":2122,"alace":2123,"otanic":2124,"ween":2125,"Ġsix":2126,"Ġ01223334900":2127,"rim":2128,"Ġ012233149":2129,"Ġtandoori":2130,"Ġ01223314960":2131,"sj":2132,"you":2133,"Ġcor":2134,"Ġgraf":2135,"ĠHonda":2136,"ĠTesla":2137,"ĠStar":2138,"587":2139,"Ġcityroomz":2140,"ĠVictoria":2141,"alleria":2142,"Ġtheatres":2143,"Ġbetween":2144,"ile":2145,"orld":2146,"Ġinex":2147,"Ġde":2148,"Ġfut":2149,"avera":2150,"ssage":2151,"ĠWh":2152,"ĠDa":2153,"allare":2154,"Ġtravell":2155,"Ġshall":2156,"Ġlocations":2157,"rimavera":2158,"511":2159,"Ġdesc":2160,"Ġfuture":2161,"im":2162,"uration":2163,"Ġvinci":2164,"rank":2165,"Ġinexpensive":2166,"93":2167,"ner":2168,"Ġbridge":2169,"ĠKitchen":2170,"Ġfav":2171,"rankie":2172,"May":2173,"hing":2174,"rary":2175,"raid":2176,"Ġcastle":2177,"andard":2178,"izzi":2179,"ription":2180,"Ġafraid":2181,"Ġdescription":2182,"ael":2183,"dp":2184,"what":2185,"Ġduration":2186,"ĠToy":2187,"Ġcold":2188,"ĠPizzeria":2189,"ĠFinches":2190,"Ġmag":2191,"usion":2192,"Ġcertainly":2193,"otto":2194,"Ġ01223452":2195,"efin":2196,"Ġshowing":2197,"ĠSpice":2198,"ĠToyota":2199,"ah":2200,"assage":2201,"ming":2202,"rezzo":2203,"Ġnothing":2204,"ĠSeoul":2205,"05":2206,"ple":2207,"Ġtr":2208,"inling":2209,"Ġbroughton":2210,"itely":2211,"asca":2212,"Ġnear":2213,"ĠLucky":2214,"urg":2215,"Ġgolden":2216,"ĠLexus":2217,"ĠLeverton":2218,"Ġreached":2219,"Ġ012239020":2220,"ĠGraffiti":2221,"Ġ01223452587":2222,"efinitely":2223,"emp":2224,"orary":2225,"Ġaylesbray":2226,"ĠAddenbrookes":2227,"Ġplan":2228,"umpington":2229,"emporary":2230,"Which":2231,"time":2232,"ntemporary":2233,"Ġnine":2234,"ĠAnatolia":2235,"ĠBMW":2236,"Ġcoming":2237,"Ġask":2238,"ĠCarolina":2239,"Ġfavor":2240,"gin":2241,"Ġditton":2242,"ĠSkoda":2243,"usine":2244,"Ġjesus":2245,"ĠYard":2246,"02":2247,"aq":2248,"bil":2249,"Ġ0122357":2250,"Ġ29":2251,"ĠFrench":2252,"506":2253,"nys":2254,"Ġactually":2255,"Ġ01223446100":2256,"urger":2257,"Addenbrookes":2258,"Cambridge":2259,"Well":2260,"fes":2261,"world":2262,"Ġ&":2263,"Ġneeding":2264,"ineworld":2265,"mahal":2266,"Ġthanks":2267,"orean":2268,"imosa":2269,"usiness":2270,"ama":2271,"door":2272,"236":2273,"ĠMex":2274,"ĠVinci":2275,"Ġjello":2276,"Ġaccom":2277,"ĠMexican":2278,"amp":2279,"yard":2280,"head":2281,"Ġisn":2282,"riental":2283,"Ġschools":2284,"ssi":2285,"Ġstill":2286,"ĠUgly":2287,"Ġpicking":2288,"price":2289,"where":2290,"Ġahead":2291,"ries":2292,"ĠThat":2293,"ĠOriental":2294,"Ġmary":2295,"range":2296,"met":2297,"ĠRice":2298,"Ġpossi":2299,"Ġfinding":2300,"pus":2301,"street":2302,"233":2303,"Ġbegin":2304,"ĠBinh":2305,"Ġrooms":2306,"ĠYippee":2307,"Ġcomplete":2308,"ĠAndrews":2309,"Ġdining":2310,"Ġtravelling":2311,"04":2312,"97":2313,"Ġlater":2314,"ĠMarket":2315,"Ġ01223357":2316,"ourmet":2317,"ettle":2318,"ĠJello":2319,"ounty":2320,"aeology":2321,"Please":2322,"ities":2323,"2320":2324,"Ġarbury":2325,"Ġmed":2326,"ĠNirala":2327,"ĠMeghna":2328,"priced":2329,"Ġz":2330,"ical":2331,"Ġinst":2332,"Ġwok":2333,"ĠTen":2334,"ĠSc":2335,"Ġ01223312":2336,"Ġothers":2337,"ĠMargherita":2338,"Ġearlier":2339,"Ġfavorite":2340,"75":2341,"83":2342,"Good":2343,"kw":2344,"man":2345,"mod":2346,"tt":2347,"Ġ019":2348,"ĠTr":2349,"ĠPer":2350,"irkw":2351,"ĠThanh":2352,"ĠChurchill":2353,"Ġboating":2354,"ĠWhite":2355,"irkwood":2356,"ds":2357,"more":2358,"Ġ012234646":2359,"ĠDuckling":2360,"ĠVietnamese":2361,"ĠArbury":2362,"ead":2363,"ech":2364,"pt":2365,"nth":2366,"Ġpas":2367,"237":2368,"ĠBirmingham":2369,"ĠKohinoor":2370,"Ġconfirmation":2371,"Ġinclude":2372,"Ġaccommod":2373,"Ġ01954":2374,"ous":2375,"ory":2376,"Ġprince":2377,"ĠMissing":2378,"Ġ01223338":2379,"unter":2380,"Ġdoesn":2381,"Ġinstead":2382,"95":2383,"AA":2384,"how":2385,"uca":2386,"erc":2387,"Ġluck":2388,"Ġ100":2389,"ĠAudi":2390,"Ġtimes":2391,"Ġ32":2392,"umford":2393,"Ġopen":2394,"ĠVolkswagen":2395,"ĠOak":2396,"Ġnewmarket":2397,"nthrop":2398,"65":2399,"MG":2400,"can":2401,"Ġnor":2402,"Ġpassage":2403,"Ġsc":2404,"ĠTrain":2405,"Ġeven":2406,"ĠAl":2407,"ĠSalsa":2408,"ĠKettle":2409,"ustri":2410,"ĠSock":2411,"nthropology":2412,"MY":2413,"Ġpop":2414,"Ġlast":2415,"arry":2416,"Ġgalleries":2417,"ĠGe":2418,"ĠGlad":2419,"Ġlove":2420,"Ġthings":2421,"Ġ01223366":2422,"ĠDojo":2423,"517":2424,"Ġrun":2425,"ĠThai":2426,"Ġ01223304":2427,"echn":2428,"ercers":2429,"Happy":2430,"Th":2431,"uc":2432,"ĠHakka":2433,"ĠTurkish":2434,"illage":2435,"ĠKymmoy":2436,"usha":2437,"ĠVue":2438,"ĠJohns":2439,"353":2440,"aba":2441,"Ġpopular":2442,"600":2443,"sit":2444,"Ġworth":2445,"seng":2446,"ĠPrezzo":2447,"Ġ517":2448,"Ġ01223307":2449,"Ġ073":2450,"660":2451,"Ġ191":2452,"Ġbetter":2453,"ĠGeorgina":2454,"Will":2455,"folk":2456,"per":2457,"Ġalpha":2458,"Ġclub":2459,"Ġentries":2460,"andhi":2461,"ogy":2462,"ĠHome":2463,"Ġlistings":2464,"Let":2465,"YH":2466,"ake":2467,"dg":2468,"lot":2469,"yne":2470,"Ġhill":2471,"Ġhamilton":2472,"ookhouse":2473,"Ġdefinitely":2474,"Ġwish":2475,"Ġ01223324":2476,"ĠFit":2477,"Ġavailabil":2478,"ucina":2479,"eting":2480,"rot":2481,"ze":2482,"Ġwarkworth":2483,"ĠCote":2484,"ĠBooking":2485,"Ġmeeting":2486,"Ġperfect":2487,"ĠPeking":2488,"ĠRiverboat":2489,"Ġmagdalene":2490,"Ġ01223464646":2491,"echnology":2492,"Ġavailability":2493,"BU":2494,"KV":2495,"SO":2496,"bert":2497,"dq":2498,"eak":2499,"sing":2500,"uel":2501,"Ġda":2502,"arge":2503,"Ġoff":2504,"leep":2505,"Ġhesit":2506,"ĠAirport":2507,"ĠGalleries":2508,"ĠBack":2509,"ĠByard":2510,"Ġsunday":2511,"110":2512,"Ġ82":2513,"ilbert":2514,"ience":2515,"Ġgardens":2516,"bey":2517,"eakhouse":2518,"Ġhesitate":2519,"nde":2520,"Ġgra":2521,"Ġchop":2522,"Ġleicester":2523,"ĠEraina":2524,"Ġ152":2525,"hale":2526,"Ġappe":2527,"Ġconcert":2528,"ĠFunky":2529,"ĠPerhaps":2530,"leeper":2531,"81":2532,"EZ":2533,"FL":2534,"cy":2535,"mas":2536,"orey":2537,"rs":2538,"Ġbrasserie":2539,"anuel":2540,"Ġslot":2541,"ĠSaigon":2542,"Ġ0122327":2543,"Ġ0122342":2544,"urches":2545,"Ġ74":2546,"Ġroyal":2547,"unction":2548,"mmanuel":2549,"ĠFord":2550,"leeperz":2551,"YR":2552,"away":2553,"xt":2554,"Ġbusiness":2555,"Ġguests":2556,"Ġcheaper":2557,"5725":2558,"ĠSpanish":2559,"Ġgrafton":2560,"388":2561,"85":2562,"AG":2563,"BZ":2564,"CR":2565,"CU":2566,"For":2567,"SU":2568,"XH":2569,"ax":2570,"lh":2571,"yes":2572,"ddress":2573,"ĠGalleria":2574,"ĠPalace":2575,"Ġfeel":2576,"astic":2577,"Ġdojo":2578,"antastic":2579,"ĠChiquito":2580,"ids":2581,"Ġspecifications":2582,"Ġconsi":2583,"ĠYu":2584,"Ġhold":2585,"Ġheading":2586,"ajmahal":2587,"Ex":2588,"IT":2589,"NO":2590,"OS":2591,"cum":2592,"pot":2593,"rect":2594,"itch":2595,"ĠRaz":2596,"ĠPrimavera":2597,"ĠFree":2598,"ĠNusha":2599,"Ġbarnabas":2600,"Ġchoosing":2601,"cade":2602,"ĠTrumpington":2603,"ĠAlso":2604,"03":2605,"AL":2606,"Booked":2607,"PA":2608,"ach":2609,"strot":2610,"ery":2611,"ney":2612,"Ġdat":2613,"ione":2614,"Ġchurches":2615,"Ġanytime":2616,"ĠAlimentum":2617,"Ġrecommendation":2618,"Ġnext":2619,"ummer":2620,"affe":2621,"azione":2622,"Ġandrews":2623,"idsummer":2624,"ĠRaza":2625,"01223":2626,"ID":2627,"rh":2628,"res":2629,"raz":2630,"Ġmonday":2631,"ĠWant":2632,"124":2633,"ĠBloomsbury":2634,"ady":2635,"ĠGardens":2636,"ĠTenpin":2637,"860":2638,"ES":2639,"PB":2640,"TQ":2641,"VD":2642,"ZC":2643,"dw":2644,"Ġven":2645,"Ġautumn":2646,"Ġref":2647,"Ġsaturday":2648,"ĠHigh":2649,"ĠHoly":2650,"ĠBrasserie":2651,"urf":2652,"ĠRose":2653,"ĠMary":2654,"Ġboats":2655,"ubile":2656,"27908":2657,"50688":2658,"arrys":2659,"senger":2660,"stroturf":2661,"Ġvenues":2662,"ubilee":2663,"Did":2664,"EN":2665,"ding":2666,"opper":2667,"pect":2668,"Ġ01":2669,"Ġpoint":2670,"asha":2671,"Ġ451":2672,"Ġthough":2673,"ĠOld":2674,"ipasha":2675,"ĠExchange":2676,"welcome":2677,"Ġevening":2678,"257":2679,"GM":2680,"WF":2681,"kin":2682,"we":2683,"Ġbinh":2684,"ĠWandlebury":2685,"ĠSchools":2686,"Ġ0122350":2687,"uskin":2688,"525":2689,"Ġartworks":2690,"Ġclose":2691,"ampton":2692,"0353":2693,"AR":2694,"City":2695,"ED":2696,"GBP":2697,"banese":2698,"Ġportuguese":2699,"med":2700,"arsity":2701,"ĠCamboats":2702,"Ġareas":2703,"Ġcharge":2704,"Ġhear":2705,"Ġ68":2706,"ĠKorean":2707,"Ġdowning":2708,"AT":2709,"BI":2710,"BN":2711,"EJ":2712,"HU":2713,"OR":2714,"SL":2715,"SV":2716,"YC":2717,"ever":2718,"ron":2719,"Ġdet":2720,"Ġfine":2721,"Ġtypes":2722,"ĠADC":2723,"ĠRajmahal":2724,"ĠBe":2725,"alon":2726,"ĠStandard":2727,"Ġkitchen":2728,"516":2729,"668":2730,"906":2731,"Ġhome":2732,"Ġgreens":2733,"ET":2734,"Ġvenue":2735,"erth":2736,"Ġlat":2737,"ĠIn":2738,"Ġliver":2739,"ĠBangkok":2740,"Ġ41":2741,"ĠDe":2742,"Ġpeterborough":2743,"Ġavalon":2744,"ĠVarsity":2745,"Ġarchway":2746,"Ġconcerth":2747,"Ġcoldham":2748,"Ġliverpool":2749,"..":2750,"112":2751,"BT":2752,"DN":2753,"OG":2754,"XC":2755,"lf":2756,"ruis":2757,"Ġalimentum":2758,"Ġnorwich":2759,"Ġbit":2760,"Ġyard":2761,"atem":2762,"arner":2763,"Ġarcade":2764,"ambourne":2765,"ĠAlpha":2766,"Ġmatter":2767,"Ġ01223210353":2768,"ĠModern":2769,"Ġheaded":2770,"Ġ01223336233":2771,"Ġcorrect":2772,"23737":2773,"Ġdetail":2774,"Ġconcerthall":2775,"ruisers":2776,"ateman":2777,"AF":2778,"eg":2779,"iraz":2780,"js":2781,"Ġest":2782,"ĠCotto":2783,"itar":2784,"ĠTra":2785,"ĠBotanic":2786,"lass":2787,"ĠMan":2788,"Ġthrough":2789,"irmed":2790,"istory":2791,"Ġrout":2792,"Ġ202":2793,"Ġbedouin":2794,"Ġafrican":2795,"Ġconfirmed":2796,"Ġlisting":2797,"ĠFitzbillies":2798,"Ġgrande":2799,"AJ":2800,"IR":2801,"MF":2802,"PP":2803,"QG":2804,"WL":2805,"Ġmercers":2806,"otpot":2807,"Ġfinches":2808,"Ġpricerange":2809,"ĠTasca":2810,"Ġ075":2811,"0060":2812,"enjoy":2813,"Ġ66":2814,"Ġrow":2815,"ĠVolvo":2816,"274":2817,"ĠUno":2818,"untington":2819,"Ġeverything":2820,"265":2821,"ĠGardenia":2822,"iety":2823,"Ġvariety":2824,"Ġmediterranean":2825,"EF":2826,"LQ":2827,"UL":2828,"not":2829,"Ġcorn":2830,"Ġgeorgina":2831,"Ġ0122352":2832,"Ġfees":2833,"Ġneeded":2834,"ify":2835,"ĠFe":2836,"ĠNeed":2837,"Ġplanning":2838,"Ġ01223525725":2839,"223":2840,"61":2841,"741":2842,"DS":2843,"JS":2844,"VN":2845,"YZ":2846,"ZZ":2847,"Ġnirala":2848,"Ġpound":2849,"Ġ017":2850,"ĠWhale":2851,"Ġstansted":2852,"12240":2853,"ĠBallare":2854,"Ġexchange":2855,"Ġ01223300":2856,"Ġ151":2857,"402":2858,"ĠNorthampton":2859,"Ġoutdoor":2860,"fee":2861,"Ġspice":2862,"Ġ01223902091":2863,"12240240":2864,"WH":2865,"ffee":2866,"ix":2867,"ouble":2868,"ars":2869,"owing":2870,"Ġcannot":2871,"ĠBurger":2872,"Ġlovell":2873,"Ġ39":2874,"Ġ133":2875,"ĠBarnabas":2876,"Ġmaybe":2877,"Ġ08712240240":2878,"Ġlatest":2879,"Ġdetails":2880,"Ġroute":2881,"512":2882,"BH":2883,"DT":2884,"EY":2885,"JE":2886,"JK":2887,"JM":2888,"La":2889,"Milton":2890,"NU":2891,"OO":2892,"VC":2893,"WC":2894,"bw":2895,"hill":2896,"orpus":2897,"Ġcine":2898,"Ġrequested":2899,"ĠTake":2900,"ambar":2901,"ĠAvenue":2902,"ĠGreat":2903,"Ġcome":2904,"Ġthursday":2905,"Ġunfortunately":2906,"ĠJunction":2907,"397":2908,"ueen":2909,"ĠAsk":2910,"ĠZizzi":2911,"ome":2912,"Ġtuesday":2913,"Ġlynn":2914,"Ġoak":2915,"rill":2916,"editerranean":2917,"Ġchan":2918,"ĠTime":2919,"Ġ012238":2920,"ĠMediterranean":2921,"Ġexcellent":2922,"Ġbyard":2923,"Ġ64":2924,"ĠKirkwood":2925,"Ġrice":2926,"Ġ01223334860":2927,"ĠPools":2928,"ĠMoon":2929,"Excellent":2930,"154":2931,"611":2932,"AH":2933,"BK":2934,"IG":2935,"JX":2936,"LR":2937,"PR":2938,"TU":2939,"VT":2940,"Ġ(":2941,"Ġmarket":2942,"Ġfrench":2943,"Ġsounds":2944,"Ġgr":2945,"Ġeight":2946,"Ġeach":2947,"ĠAmer":2948,"ĠAddress":2949,"ĠBen":2950,"Ġlodg":2951,"apanese":2952,"Ġ071":2953,"ĠIts":2954,"Ġ63":2955,"085":2956,"afood":2957,"Ġ012234741":2958,"Ġhighly":2959,"51707":2960,"Ġcinemas":2961,"Ġ01223474144":2962,"Oh":2963,"PL":2964,"ale":2965,"great":2966,"sr":2967,"uda":2968,"Ġwhe":2969,"its":2970,"Ġ31":2971,"ĠEfes":2972,"ĠThong":2973,"aff":2974,"agama":2975,"Ġriverside":2976,"Ġriverboat":2977,"udamore":2978,"agamama":2979,"200":2980,"AC":2981,"Acorn":2982,"BQ":2983,"BR":2984,"DZ":2985,"FF":2986,"Here":2987,"II":2988,"JN":2989,"MO":2990,"MS":2991,"VX":2992,"WK":2993,"WX":2994,"YK":2995,"ZN":2996,"ZQ":2997,"za":2998,"Ġ,":2999,"eler":3000,"Ġ124":3001,"ĠGourmet":3002,"ĠSeven":3003,"Ġseafood":3004,"Ġ0778":3005,"Ġones":3006,"Ġentry":3007,"208":3008,"Ġuna":3009,"270":3010,"387":3011,"Ġseems":3012,"Ġhobsons":3013,"Ġ01223902168":3014,"aelogy":3015,"Ġhills":3016,"affron":3017,"708":3018,"AS":3019,"IC":3020,"Not":3021,"Nandos":3022,"ause":3023,"no":3024,"Ġyes":3025,"Ġschool":3026,"ĠTo":3027,"ĠGandhi":3028,"ĠMimosa":3029,"Ġ01223315":3030,"Ġ156":3031,"Ġcarolina":3032,"Ġvietnamese":3033,"Ġgets":3034,"Ġ01223332320":3035,"welve":3036,"BG":3037,"EG":3038,"IF":3039,"MU":3040,"VH":3041,"VM":3042,"XG":3043,"YQ":3044,"merton":3045,"nnys":3046,"vaila":3047,"ick":3048,"Ġdire":3049,"arly":3050,"Ġfantastic":3051,"Ġsleeperz":3052,"Ġstevenage":3053,"Ġaround":3054,"Ġ01223566":3055,"Ġbennys":3056,"Ġparkside":3057,"Ġ072":3058,"ĠEnt":3059,"Ġ78":3060,"Ġ108":3061,"077":3062,"ĠJinling":3063,"598":3064,"Ġpassenger":3065,"Ġ01223307402":3066,"ĠBackstreet":3067,"Ġ01223420060":3068,"Ġconsider":3069,"ĠAmerican":3070,"udamores":3071,"auseway":3072,"vailable":3073,"Curry":3074,"OU":3075,"Ġcounty":3076,"Ġdri":3077,"ĠCineworld":3078,"ĠCaffe":3079,"Ġprices":3080,"Ġely":3081,"ĠPl":3082,"Ġthai":3083,"ĠNor":3084,"Ġ80":3085,"170":3086,"Ġadc":3087,"Ġspanish":3088,"Ġ01223357708":3089,"Ġunavailable":3090,"AD":3091,"DY":3092,"EP":3093,"WN":3094,"XQ":3095,"YU":3096,"nne":3097,"Ġnandos":3098,"Ġbotanic":3099,"Ġwandlebury":3100,"Ġsteakhouse":3101,"Ġearly":3102,"ĠAli":3103,"Ġcontemporary":3104,"rover":3105,"hern":3106,"Ġexpect":3107,"ĠFyne":3108,"210":3109,"ichael":3110,"299":3111,"inders":3112,"ĠContemporary":3113,"382":3114,"ĠQueen":3115,"ĠHomerton":3116,"705":3117,"Ġchristi":3118,"ĠCorner":3119,"Ġbeginning":3120,"Ġ01223312112":3121,"Done":3122,"ynne":3123,"Ġve":3124,"Ġturkish":3125,"Ġame":3126,"Ġcou":3127,"Ġlucky":3128,"nder":3129,"ĠCenter":3130,"Ġpric":3131,"ĠHuntington":3132,"ĠTree":3133,"ĠTaj":3134,"ĠSoul":3135,"Ġ0122329":3136,"Ġcoffee":3137,"ĠFinders":3138,"Ġ83":3139,"Ġrosa":3140,"Ġvillage":3141,"5010":3142,"0872":3143,"Ġwee":3144,"chel":3145,"Ġvisiting":3146,"Ġpleasant":3147,"Ġpossible":3148,"AU":3149,"BO":3150,"CJ":3151,"CL":3152,"GH":3153,"MH":3154,"MR":3155,"NR":3156,"PU":3157,"SF":3158,"SQ":3159,"UR":3160,"VP":3161,"lia":3162,"ncy":3163,"ward":3164,"Ġreg":3165,"Ġbirmingham":3166,"Ġcruisers":3167,"gency":3168,"Ġhistory":3169,"ĠCow":3170,"Ġgilbert":3171,"232":3172,"Ġhedge":3173,"ĠSchool":3174,"Ġ0122351":3175,"Ġexact":3176,"Ġ529":3177,"Ġ01223311":3178,"Ġ106":3179,"Ġ96":3180,"178":3181,"hams":3182,"60966":3183,"Ġ205":3184,"Ġjubilee":3185,"ipple":3186,"Ġletting":3187,"ĠGreens":3188,"Ġ01223217":3189,"lassical":3190,"Ġ01223300085":3191,"208000":3192,"Ġpricing":3193,"As":3194,"Any":3195,"Alexander":3196,"On":3197,"VO":3198,"YO":3199,"cent":3200,"Ġid":3201,"Ġtree":3202,"Ġbroxbourne":3203,"arian":3204,"Ġsched":3205,"Ġ00872":3206,"ĠSid":3207,"ison":3208,"Ġ01223333":3209,"Ġ0788":3210,"2456":3211,"Ġfitting":3212,"ĠArts":3213,"Christ":3214,"Ġscience":3215,"Ġamen":3216,"Ġcouple":3217,"Ġschedu":3218,"Ġ00872208000":3219,"Ġ01223333516":3220,"Both":3221,"CT":3222,"EW":3223,"FP":3224,"GD":3225,"IJ":3226,"IQ":3227,"LH":3228,"LK":3229,"MN":3230,"NK":3231,"SH":3232,"VF":3233,"uce":3234,"vel":3235,"xican":3236,"ges":3237,"Ġwednesday":3238,"Ġfolk":3239,"ĠCopper":3240,"edges":3241,"ĠWas":3242,"ĠHedges":3243,"ĠSala":3244,"ĠBaba":3245,"Ġmexican":3246,"509":3247,"599":3248,"4600":3249,"8882":3250,"ĠArchaeology":3251,"Ġ01223336265":3252,"Ġ01223366611":3253,"Ġ01223304705":3254,"rescent":3255,"27410":3256,"ĠBennys":3257,"Ġhedges":3258,"IK":3259,"lish":3260,"Ġreally":3261,"Ġcase":3262,"Ġtheater":3263,"Ġheld":3264,"ĠPunter":3265,"ĠMumford":3266,"aid":3267,"ĠFrankie":3268,"Ġ69":3269,"Ġallowing":3270,"Ġspecify":3271,"Ġarchaeology":3272,"Ġclar":3273,"ĠChristi":3274,"Ġfunky":3275,"ĠMeze":3276,"221":3277,"354":3278,"446":3279,"CY":3280,"Could":3281,"DA":3282,"IX":3283,"JA":3284,"MK":3285,"Rest":3286,"SD":3287,"So":3288,"UW":3289,"VB":3290,"WR":3291,"XF":3292,"dz":3293,"ew":3294,"fis":3295,"qf":3296,"tuce":3297,"your":3298,"Ġastroturf":3299,"ention":3300,"Ġcambourne":3301,"Ġpitch":3302,"elix":3303,"Ġmimosa":3304,"Ġmention":3305,"ĠCrescent":3306,"ĠHK":3307,"Ġranges":3308,"238":3309,"Ġ42":3310,"Ġ327908":3311,"Ġorder":3312,"Ġ01223355":3313,"irton":3314,"Ġ71":3315,"lug":3316,"orning":3317,"Ġvictoria":3318,"ĠJapanese":3319,"4050":3320,"Ġgetting":3321,"428":3322,"Ġplay":3323,"Ġapp":3324,"vellers":3325,"222":3326,"Ġmargherita":3327,"thanks":3328,"Ġ01223902112":3329,"5664":3330,"66800":3331,"fisher":3332,"Ġ01223355397":3333,"ER":3334,"IB":3335,"Wonderful":3336,"aut":3337,"Ġclare":3338,"Ġmorning":3339,"Ġrequests":3340,"Ġmoon":3341,"ĠTechnology":3342,"ĠAd":3343,"owns":3344,"ĠCold":3345,"277":3346,"ĠLoch":3347,"Ġjohns":3348,"Ġgardenia":3349,"Ġincluding":3350,"Ġvarsity":3351,"ustrian":3352,"Ġ01223866800":3353,"Ġamenities":3354,"Restaurant":3355,"BL":3356,"CK":3357,"FT":3358,"IH":3359,"MZ":3360,"NH":3361,"OI":3362,"SJ":3363,"SN":3364,"TY":3365,"UF":3366,"VL":3367,"VR":3368,"XD":3369,"XT":3370,"YF":3371,"ZA":3372,"ZH":3373,"ZT":3374,"bj":3375,"bbey":3376,"cb":3377,"ey":3378,"iful":3379,"iking":3380,"pri":3381,"will":3382,"Ġanthropology":3383,"inch":3384,"heep":3385,"Ġrec":3386,"Ġcucina":3387,"Ġluca":3388,"ĠCookhouse":3389,"ĠCorpus":3390,"ĠWine":3391,"12660":3392,"Ġbeaut":3393,"ĠLuca":3394,"Ġ01223354":3395,"ĠFelix":3396,"Ġ62":3397,"Ġwanted":3398,"1018":3399,"596":3400,"quale":3401,"877":3402,"ĠShop":3403,"781018":3404,"Ġ01223365664":3405,"ĠMillers":3406,"702":3407,"Ġtakeaway":3408,"Ġ01223304050":3409,"714600":3410,"Ġ01223902088":3411,"ĠWhitehouse":3412,"Ġ01954781018":3413,"Ġ01954714600":3414,"Cityroomz":3415,"Ġbeautiful":3416,"451":3417,"DO":3418,"EL":3419,"Pizza":3420,"VK":3421,"ural":3422,"nta":3423,"Ġbishops":3424,"Ġsoul":3425,"Ġcharlie":3426,"Ġstortford":3427,"Ġwithin":3428,"ĠAnthropology":3429,"ĠNight":3430,"Ġ710":3431,"Ġkymmoy":3432,"Ġruskin":3433,"155010":3434,"Ġshop":3435,"ĠShiraz":3436,"Ġarchitectural":3437,"Ġchurchill":3438,"Ġ365":3439,"Ġdinner":3440,"Ġclarify":3441,"552":3442,"BD":3443,"BM":3444,"EQ":3445,"EX":3446,"GQ":3447,"IP":3448,"Just":3449,"Per":3450,"RK":3451,"UY":3452,"VQ":3453,"WD":3454,"XK":3455,"XO":3456,"ZK":3457,"nz":3458,"tail":3459,"Ġket":3460,"Ġtasca":3461,"inbrook":3462,"Ġbu":3463,"Ġpunter":3464,"Ġwor":3465,"Ġwater":3466,"Ġmissing":3467,"anah":3468,"ĠCounty":3469,"Ġrang":3470,"Ġlebanese":3471,"ĠHere":3472,"arton":3473,"1241":3474,"Ġ012237":3475,"imehouse":3476,"Ġ25":3477,"ĠPipasha":3478,"aius":3479,"00170":3480,"ĠFood":3481,"ĠRetail":3482,"5166":3483,"Ġ139":3484,"Ġsock":3485,"Ġ99":3486,"Ġrose":3487,"Ġcouldn":3488,"3830":3489,"ways":3490,"6412":3491,"Ġ0122330257":3492,"Ġ40428":3493,"Ġ01223351241":3494,"Ġthanh":3495,"Ġ087155010":3496,"Ġnorfolk":3497,"ustrial":3498,"12430":3499,"Ġweek":3500,"inchinbrook":3501,"Ġkettle":3502,"anahar":3503,"AV":3504,"HK":3505,"RQ":3506,"WY":3507,"kn":3508,"Ġpalace":3509,"Ġsort":3510,"Ġstandard":3511,"Ġmet":3512,"ĠMight":3513,"ĠMidsummer":3514,"Ġexp":3515,"Ġseem":3516,"ĠStop":3517,"ĠEmmanuel":3518,"118":3519,"Ġhowever":3520,"Ġshort":3521,"club":3522,"Ġswimmingpool":3523,"Ġapologies":3524,"Ġaccommodate":3525,"ĠTravellers":3526,"Ġ01223315702":3527,"Ġdriver":3528,"ĠNightclub":3529,"known":3530,"CN":3531,"EK":3532,"GN":3533,"JQ":3534,"PD":3535,"Park":3536,"WA":3537,"bd":3538,"ber":3539,"hy":3540,"ily":3541,"tz":3542,"rame":3543,"Ġcent":3544,"Ġcamboats":3545,"Ġmumford":3546,"Ġfrankie":3547,"angh":3548,"Ġanywhere":3549,"Ġstyle":3550,"Ġstorey":3551,"ĠGra":3552,"ĠSitar":3553,"Ġoffering":3554,"Ġ46":3555,"Ġ350688":3556,"Ġunder":3557,"Ġ566":3558,"Ġpeking":3559,"Ġ0730":3560,"Ġ619":3561,"Ġarchaelogy":3562,"4222":3563,"Ġalways":3564,"mmas":3565,"Ġtakes":3566,"Ġ01223576412":3567,"Ġnorman":3568,"Ġ01223324600":3569,"Ġlodging":3570,"prise":3571,"Ġ01223302579":3572,"Ġ08715501010":3573,"anghai":3574,"CA":3575,"Little":3576,"MA":3577,"ON":3578,"PH":3579,"ded":3580,"ps":3581,"teen":3582,"Ġacce":3583,"Ġready":3584,"Ġtheat":3585,"Ġsay":3586,"Ġsalsa":3587,"Ġleverton":3588,"Ġefes":3589,"ĠBut":3590,"Ġ01223323":3591,"Ġwasn":3592,"Ġ0760":3593,"ĠFirst":3594,"Ġwhile":3595,"Ġ169":3596,"quare":3597,"Ġarts":3598,"1480":3599,"Ġincludes":3600,"This":3601,"ĠNorfolk":3602,"Ġexpecting":3603,"ĠAdmission":3604,"Ġaccept":3605,"188":3606,"734":3607,"911":3608,"AM":3609,"CS":3610,"DQ":3611,"GS":3612,"GU":3613,"HD":3614,"HH":3615,"IL":3616,"IY":3617,"JF":3618,"JU":3619,"LM":3620,"LY":3621,"OT":3622,"PK":3623,"PN":3624,"UT":3625,"WW":3626,"XA":3627,"mily":3628,"px":3629,"sx":3630,"would":3631,"Ġballare":3632,"Ġcookhouse":3633,"Ġcauseway":3634,"Ġwine":3635,"Ġholy":3636,"ĠCucina":3637,"Ġsafe":3638,"ĠWi":3639,"2360":3640,"1260":3641,"ĠSw":3642,"ĠSaffron":3643,"Ġ012232":3644,"ĠPas":3645,"Ġneare":3646,"Ġ351707":3647,"ĠStorey":3648,"iam":3649,"Ġkohinoor":3650,"248":3651,"580":3652,"5159":3653,"Ġ138":3654,"ilver":3655,"880":3656,"296":3657,"104":3658,"Ġ144":3659,"Ġunknown":3660,"8745":3661,"Ġhourly":3662,"abase":3663,"ohn":3664,"Ġ01223332360":3665,"Ġnews":3666,"Ġcoldhams":3667,"Ġzizzi":3668,"Ġ01223304906":3669,"Ġ01223324222":3670,"Ġdatabase":3671,"Ġ0778221":3672,"ichaelhouse":3673,"446000":3674,"Perfect":3675,"Ġranging":3676,"Ġnearest":3677,"Ġ07782218745":3678,"AK":3679,"XS":3680,"ial":3681,"nw":3682,"wes":3683,"Ġ\"":3684,"Ġer":3685,"Ġtwelve":3686,"Ġbaba":3687,"Ġfar":3688,"deed":3689,"Ġ01480":3690,"utdoor":3691,"ĠLuck":3692,"ĠLimehouse":3693,"Ġcheaply":3694,"Ġratings":3695,"ĠFusion":3696,"202":3697,"ĠOutdoor":3698,"their":3699,"Ġinterests":3700,"Ġgraffiti":3701,"amaican":3702,"ĠSidney":3703,"Parkside":3704,"Ġtheaters":3705,"wesome":3706,"Ġ01480446000":3707,"251":3708,"851":3709,"AZ":3710,"BF":3711,"Bye":3712,"GL":3713,"IN":3714,"JC":3715,"LW":3716,"PO":3717,"PQ":3718,"RF":3719,"XZ":3720,"ZF":3721,"ZR":3722,"ff":3723,"ig":3724,"ious":3725,"rent":3726,"Ġtechnology":3727,"raham":3728,"Ġbateman":3729,"Ġyippee":3730,"Ġinqu":3731,"Ġindeed":3732,"elber":3733,"Ġha":3734,"ĠWater":3735,"ites":3736,"Ġlearner":3737,"ĠTang":3738,"ĠAustrian":3739,"ĠAbbey":3740,"ĠGastropub":3741,"Ġ57":3742,"Ġseoul":3743,"Ġ0758":3744,"Ġ0779":3745,"111":3746,"51880":3747,"ĠKambar":3748,"306":3749,"074":3750,"Ġvue":3751,"5017":3752,"5264":3753,"591":3754,"idelber":3755,"Ġfitzbillies":3756,"ĠUnit":3757,"8786":3758,"abraham":3759,"Ġ01223364222":3760,"Ġconfusion":3761,"Ġ08451":3762,"Ġchecking":3763,"Ġ40210":3764,"Ġ362456":3765,"962320":3766,"Ġdesk":3767,"Ġ01223902158":3768,"Ġcorpus":3769,"Ġrunning":3770,"Ġ01799":3771,"ĠPlay":3772,"Ġmentioned":3773,"Ġroseford":3774,"idelberg":3775,"Ġ08451962320":3776,"Graf":3777,"JW":3778,"JY":3779,"bly":3780,"zwill":3781,"ero":3782,"Ġcotto":3783,"Ġpurch":3784,"Ġyu":3785,"get":3786,"Ġhad":3787,"Ġduckling":3788,"Ġframe":3789,"ĠLook":3790,"urrent":3791,"ĠMa":3792,"aking":3793,"Ġ01223243830":3794,"okay":3795,"Ġinteresting":3796,"iques":3797,"Ġtenison":3798,"Ġzero":3799,"Ġaccommodations":3800,"Ġrecor":3801,"Ġacceptable":3802,"zwilliam":3803,"Ġpurchase":3804,"AY":3805,"BW":3806,"BY":3807,"CC":3808,"EO":3809,"FH":3810,"FY":3811,"JD":3812,"JO":3813,"JT":3814,"JV":3815,"MC":3816,"ML":3817,"NI":3818,"OQ":3819,"SG":3820,"UH":3821,"XP":3822,"XR":3823,"XW":3824,"dney":3825,"glia":3826,"hg":3827,"Ġed":3828,"nton":3829,"ready":3830,"ornton":3831,"Ġcurrent":3832,"pend":3833,"Ġrather":3834,"Ġanglia":3835,"2330":3836,"ĠDon":3837,"Ġnewnham":3838,"Ġ354":3839,"Ġ360966":3840,"urton":3841,"Ġ54":3842,"Ġ59":3843,"Ġ012233279":3844,"Ġ01223323737":3845,"ĠSturton":3846,"Ġprett":3847,"Ġ89":3848,"Ġ132":3849,"Ġabbey":3850,"Ġ110":3851,"2010":3852,"504":3853,"Ġsidney":3854,"ĠVillage":3855,"ĠCocum":3856,"orthern":3857,"ĠThree":3858,"565":3859,"555":3860,"18591":3861,"Ġplough":3862,"681":3863,"Ġ40270":3864,"Ġ355166":3865,"Ġ078077":3866,"ĠSome":3867,"hib":3868,"ĠFez":3869,"Ġ01223295264":3870,"50914":3871,"Ġcentral":3872,"Ġ566388":3873,"Ġ01223327978":3874,"Ġpretty":3875,"Ġ07807718591":3876,"NF":3877,"Phone":3878,"cked":3879,"most":3880,"ntiques":3881,"hes":3882,"Ġpunting":3883,"Ġhotpot":3884,"Ġmaking":3885,"Ġfare":3886,"Ġfusion":3887,"Ġgrill":3888,"ĠWagamama":3889,"Ġstazione":3890,"ĠMost":3891,"5015":3892,"ĠJamaican":3893,"Ġjinling":3894,"Ġalready":3895,"Ġ01223302330":3896,"Ġdesire":3897,"Ġtenpin":3898,"ĠScott":3899,"Ġappears":3900,"Ġestab":3901,"ĠTakeaway":3902,"Ġgrounds":3903,"ĠEntrance":3904,"Ġregard":3905,"ĠColdham":3906,"187":3907,"2525":3908,"500":3909,"AQ":3910,"Ar":3911,"CQ":3912,"DB":3913,"DX":3914,"FU":3915,"GV":3916,"HN":3917,"HT":3918,"IW":3919,"IZ":3920,"JH":3921,"JL":3922,"MT":3923,"NA":3924,"NQ":3925,"OY":3926,"PE":3927,"PM":3928,"VG":3929,"WB":3930,"WM":3931,"WQ":3932,"ZY":3933,"by":3934,"do":3935,"gx":3936,"oll":3937,"ror":3938,"self":3939,"wick":3940,"info":3941,"Ġbel":3942,"Ġburger":3943,"Ġcow":3944,"Ġhiston":3945,"Ġhakka":3946,"Ġmidsummer":3947,"Ġraza":3948,"Ġanatolia":3949,"Ġanymore":3950,"12299":3951,"Ġcocum":3952,"ute":3953,"Ġ323737":3954,"Ġ01223359":3955,"Ġ01223350914":3956,"ĠStrover":3957,"Ġ0746":3958,"Ġ0739":3959,"2138":3960,"ĠNo":3961,"2400":3962,"Ġtables":3963,"ĠJohn":3964,"390":3965,"355":3966,"3471":3967,"3200":3968,"361":3969,"Ġwhitehill":3970,"77900":3971,"Ġindustrial":3972,"7942":3973,"7015":3974,"8650":3975,"Ġ01223355159":3976,"errace":3977,"ĠRiverside":3978,"Ġ01223446104":3979,"52500":3980,"Ġestate":3981,"Ġdirect":3982,"ĠGranta":3983,"Ġerror":3984,"Ġrecords":3985,"Ġestablish":3986,"IM":3987,"Rosa":3988,"ZU":3989,"iv":3990,"uy":3991,"ntil":3992,"ĠCat":3993,"riot":3994,"Ġsir":3995,"ĠHotpot":3996,"Ġ241":3997,"roke":3998,"Ġuntil":3999,"Ġsec":4000,"Ġprezzo":4001,"ĠFrom":4002,"Ġ72":4003,"Ġ172":4004,"5314":4005,"ĠUnfortunately":4006,"Ġquery":4007,"Ġ01223477900":4008,"Ġ01223334200":4009,"Ġ01223575314":4010,"ĠScudamores":4011,"Ġdates":4012,"Ġexactly":4013,"334":4014,"BB":4015,"Be":4016,"CB":4017,"Clare":4018,"EH":4019,"FK":4020,"IA":4021,"IV":4022,"OL":4023,"PY":4024,"Roy":4025,"SM":4026,"TH":4027,"WZ":4028,"ZL":4029,"ZW":4030,"fl":4031,"hx":4032,"sha":4033,"raj":4034,"Ġrevi":4035,"Ġnorthern":4036,"Ġcineworld":4037,"mbroke":4038,"Ġdone":4039,"Ġnusha":4040,"Ġfull":4041,"Ġgirton":4042,"ĠWere":4043,"Ġwide":4044,"Ġchiquito":4045,"ĠHong":4046,"Ġchose":4047,"esame":4048,"ĠGilbert":4049,"ĠBlue":4050,"ĠBateman":4051,"Ġ244":4052,"ĠDarrys":4053,"ĠPounds":4054,"Ġ356":4055,"ĠLynne":4056,"Ġ01223350688":4057,"ĠStazione":4058,"Ġ0707":4059,"Ġ0754":4060,"Ġ0708":4061,"Ġ0727":4062,"Ġ812660":4063,"Ġwhipple":4064,"Ġstations":4065,"Ġsomewhere":4066,"ĠLearner":4067,"7766":4068,"Ġkingfisher":4069,"Ġbackstreet":4070,"Ġdepend":4071,"Ġtrumpington":4072,"Ġnearby":4073,"11053":4074,"Ġ012235033":4075,"Ġwheeler":4076,"Ġ01223566388":4077,"Ġveget":4078,"Ġ012233116":4079,"Ġ01223217118":4080,"Ġschedule":4081,"ĠMahal":4082,"Ġedward":4083,"Royal":4084,"Ġvegetarian":4085,"Fi":4086,"OD":4087,"SR":4088,"ST":4089,"jb":4090,"oc":4091,"Ġbloomsbury":4092,"Ġhap":4093,"Ġdarrys":4094,"aysian":4095,"Ġtrans":4096,"Ġnamed":4097,"ctions":4098,"ĠGrey":4099,"ĠRed":4100,"ĠBoat":4101,"alaysian":4102,"Ġugly":4103,"Ġchecked":4104,"Ġsoon":4105,"Ġassisting":4106,"ĠInternational":4107,"Ġ196":4108,"Ġuno":4109,"ĠJust":4110,"ĠTowninfo":4111,"ustral":4112,"Ġ01223355017":4113,"Ġactiv":4114,"511511":4115,"ews":4116,"Ġcurrently":4117,"Ġdesired":4118,"166":4119,"400":4120,"616":4121,"7660":4122,"7877":4123,"843":4124,"AN":4125,"BC":4126,"CE":4127,"Co":4128,"EU":4129,"HC":4130,"JP":4131,"LU":4132,"MP":4133,"Me":4134,"OW":4135,"RN":4136,"RT":4137,"SK":4138,"UQ":4139,"VZ":4140,"WV":4141,"nx":4142,"omp":4143,"pq":4144,"rq":4145,"sons":4146,"tc":4147,"tl":4148,"wbray":4149,"Ġbangkok":4150,"Ġwent":4151,"member":4152,"Ġhinchinbrook":4153,"Ġnumbers":4154,"any":4155,"ĠCall":4156,"Ġmowbray":4157,"Ġgalleria":4158,"Ġgourmet":4159,"ĠTotal":4160,"Ġemer":4161,"Ġarrange":4162,"ddars":4163,"Ġhers":4164,"ĠSesame":4165,"Ġ251":4166,"Ġ290":4167,"Ġ400170":4168,"Ġ412430":4169,"Ġfez":4170,"Ġ328":4171,"Ġexhib":4172,"Ġ01223335":4173,"ĠSteakhouse":4174,"Ġ0724":4175,"Ġ0756":4176,"Ġ0777":4177,"Ġ0799":4178,"0089":4179,"Ġ86":4180,"1763":4181,"haraj":4182,"8871":4183,"6055":4184,"467":4185,"Ġworks":4186,"Ġamaz":4187,"413":4188,"urchill":4189,"ĠThomp":4190,"802":4191,"194":4192,"Ġqueen":4193,"4917":4194,"7977":4195,"Ġ01223368650":4196,"ĠPeas":4197,"Ġ01223332138":4198,"Ġdidn":4199,"Ġ404":4200,"9224":4201,"Ġ01223338000":4202,"Ġthroughout":4203,"Ġworked":4204,"ĠWiFi":4205,"Ġreviews":4206,"Ġemergency":4207,"Ġherschel":4208,"Ġ01223335511":4209,"harajah":4210,"Ġamazing":4211,"ĠThompsons":4212,"AE":4213,"GX":4214,"Golden":4215,"KC":4216,"Sounds":4217,"YT":4218,"Yu":4219,"logy":4220,"min":4221,"which":4222,"ines":4223,"Ġhaving":4224,"arri":4225,"ĠtrainID":4226,"edb":4227,"Ġheard":4228,"Ġ01223511511":4229,"Ġmeghna":4230,"Ġuse":4231,"Ġ0726":4232,"ĠFolk":4233,"ters":4234,"Ġring":4235,"Ġtrying":4236,"ĠIndia":4237,"ĠLebanese":4238,"Ġjourne":4239,"ĠBarnw":4240,"Ġ01223247942":4241,"ughes":4242,"Ġpossibly":4243,"Ġappeal":4244,"noon":4245,"Before":4246,"Ġhappen":4247,"Ġjourney":4248,"ĠBarnwell":4249,"466":4250,"534":4251,"679":4252,"755":4253,"901":4254,"Allenbell":4255,"Anatolia":4256,"Awesome":4257,"CX":4258,"DP":4259,"EB":4260,"FG":4261,"FO":4262,"GC":4263,"HL":4264,"HY":4265,"IS":4266,"IU":4267,"JZ":4268,"KZ":4269,"LG":4270,"MV":4271,"NG":4272,"OB":4273,"OE":4274,"RU":4275,"SC":4276,"SX":4277,"TP":4278,"VE":4279,"WG":4280,"ZP":4281,"bbe":4282,"ej":4283,"har":4284,"ibbe":4285,"jf":4286,"lx":4287,"pj":4288,"pp":4289,"ta":4290,"ung":4291,"ubs":4292,"Ġ!":4293,"Ġavenue":4294,"oup":4295,"heeler":4296,"ortra":4297,"Ġbabraham":4298,"Ġclassical":4299,"Ġprimavera":4300,"Ġlion":4301,"Ġdu":4302,"ots":4303,"ayside":4304,"Then":4305,"ered":4306,"Ġgandhi":4307,"ĠWheeler":4308,"2372":4309,"Ġetc":4310,"Ġeleven":4311,"ĠAstroturf":4312,"ĠGrill":4313,"ĠSheep":4314,"Ġ0122346":4315,"Ġtaj":4316,"ĠPanahar":4317,"ĠLan":4318,"Ġthong":4319,"Ġ58":4320,"Ġ01223327908":4321,"ankan":4322,"Ġ0749":4323,"Ġparts":4324,"216":4325,"Ġ732":4326,"iams":4327,"Ġkirkwood":4328,"6653":4329,"Ġ113":4330,"5478":4331,"08681":4332,"ĠVere":4333,"526":4334,"2725":4335,"Ġgog":4336,"357":4337,"Ġ183":4338,"ĠThis":4339,"ĠHowever":4340,"Ġ01223247015":4341,"Ġ01223240089":4342,"448":4343,"ĠMaybe":4344,"Ġ01223333200":4345,"Ġ01223337766":4346,"Ġ248882":4347,"astropubs":4348,"Ġpersonally":4349,"Ġmagog":4350,"5122":4351,"Ġ01223519224":4352,"Ġ354382":4353,"Ġ01223503333":4354,"edbur":4355,"ibbean":4356,"ortraits":4357,"529":4358,"Tra":4359,"axi":4360,"lowns":4361,"obsons":4362,"Ġaccess":4363,"elcome":4364,"Ġfact":4365,"ctually":4366,"ĠGr":4367,"ĠRuskin":4368,"ĠBlack":4369,"ĠPunting":4370,"Ġwilling":4371,"Ġ01223356":4372,"Ġ0712":4373,"Ġ0734":4374,"219":4375,"247":4376,"Ġ94":4377,"Ġtravels":4378,"ĠOK":4379,"bson":4380,"533":4381,"Ġ01223368786":4382,"ĠQu":4383,"8988":4384,"Ġafternoon":4385,"uban":4386,"ĠHobson":4387,"Chiquito":4388,"Ġ01223575122":4389,"Thanh":4390,"Ġgroup":4391,"ĠQueens":4392,"Ġqueens":4393,"146":4394,"180":4395,"300":4396,"407":4397,"750":4398,"807":4399,"8111":4400,"977":4401,"AB":4402,"Actually":4403,"DD":4404,"DG":4405,"Definitely":4406,"EI":4407,"FE":4408,"FN":4409,"FQ":4410,"FR":4411,"GF":4412,"GT":4413,"KD":4414,"LA":4415,"LE":4416,"LN":4417,"LS":4418,"NC":4419,"NZ":4420,"OJ":4421,"QL":4422,"RJ":4423,"RL":4424,"SY":4425,"TI":4426,"VU":4427,"VV":4428,"XU":4429,"YG":4430,"ZB":4431,"ZS":4432,"ZV":4433,"have":4434,"jj":4435,"rg":4436,"tree":4437,"uf":4438,"uj":4439,"up":4440,"xa":4441,"erman":4442,"Ġpri":4443,"Ġperne":4444,"Ġpaid":4445,"Ġdouble":4446,"ĠClassical":4447,"Ġsout":4448,"Ġsilver":4449,"Ġmoment":4450,"Ġgastropubs":4451,"reek":4452,"ĠHope":4453,"ĠHilton":4454,"ĠHughes":4455,"2354":4456,"ĠTelephone":4457,"Ġstop":4458,"Ġheidelberg":4459,"ĠSleeperz":4460,"ĠSlug":4461,"ĠSquare":4462,"Ġ0122384":4463,"ĠRow":4464,"Ġbeing":4465,"ĠBusiness":4466,"ĠBarton":4467,"Ġmean":4468,"ĠPla":4469,"ĠPitch":4470,"Ġ315":4471,"ĠLand":4472,"ĠMy":4473,"Ġsection":4474,"Ġ0719":4475,"Ġ727410":4476,"581":4477,"Ġ90":4478,"Ġviking":4479,"2054":4480,"292":4481,"404":4482,"462":4483,"Ġshanghai":4484,"Ġamer":4485,"32565":4486,"903":4487,"53355":4488,"Ġsearching":4489,"Ġ01223332400":4490,"ĠPolar":4491,"ĠLettuce":4492,"Churchill":4493,"Ġpasquale":4494,"Ġ01223276653":4495,"Ġ01223425478":4496,"Ġ01223506055":4497,"Ġ01223566188":4498,"Ġ01223518111":4499,"Ġbudge":4500,"Ġshorten":4501,"Ġregarding":4502,"Ġ241387":4503,"edburgh":4504,"ĠGrounds":4505,"ĠQuayside":4506,"Ġ01223842725":4507,"ĠPlaza":4508,"Ġ315232":4509,"El":4510,"Gonville":4511,"KK":4512,"MM":4513,"RE":4514,"acorn":4515,"jmahal":4516,"pa":4517,"sorry":4518,"uss":4519,"Ġide":4520,"Ġcopper":4521,"Ġput":4522,"Ġpast":4523,"Ġmain":4524,"net":4525,"Ġdrop":4526,"Ġfin":4527,"ĠCuban":4528,"Ġsites":4529,"Ġrajmahal":4530,"Ġyourself":4531,"Ġ26":4532,"Ġ34":4533,"Ġdont":4534,"uring":4535,"Ġlocate":4536,"Ġ0757":4537,"Ġsele":4538,"tern":4539,"Ġkorean":4540,"5153":4541,"osher":4542,"Ġdepartures":4543,"Ġafford":4544,"Ġnarrows":4545,"Does":4546,"Ġ01223367660":4547,"Ġ01223353248":4548,"Ġincluded":4549,"Ġthinking":4550,"ĠModerat":4551,"Ġ01223277977":4552,"Ġtransport":4553,"Ġbudget":4554,"030":4555,"212":4556,"358":4557,"330":4558,"317":4559,"360":4560,"Broughton":4561,"CH":4562,"CM":4563,"DH":4564,"FD":4565,"HQ":4566,"HX":4567,"JB":4568,"JJ":4569,"KB":4570,"KP":4571,"KQ":4572,"KU":4573,"LC":4574,"MB":4575,"NW":4576,"OC":4577,"OF":4578,"OP":4579,"PT":4580,"RD":4581,"SB":4582,"SZ":4583,"Saigon":4584,"UP":4585,"VW":4586,"XY":4587,"ZE":4588,"ied":4589,"ively":4590,"jy":4591,"qb":4592,"qy":4593,"Ġke":4594,"Ġcate":4595,"Ġland":4596,"Ġlate":4597,"Ġduring":4598,"ĠCrow":4599,"ĠCaius":4600,"ĠClowns":4601,"rish":4602,"Ġsaid":4603,"Ġslug":4604,"ĠHers":4605,"ĠHung":4606,"Ġemmanuel":4607,"ĠAustral":4608,"owbray":4609,"Ġtaking":4610,"Ġ200":4611,"ĠMercers":4612,"ĠMowbray":4613,"Ġ01223348":4614,"Ġ01223352500":4615,"Ġ0721":4616,"Ġ0711":4617,"Ġ0717":4618,"Ġ0759":4619,"Ġ0701":4620,"Ġ0736":4621,"Ġ0738":4622,"Ġ0706":4623,"Ġ0789":4624,"Ġ0769":4625,"0059":4626,"518":4627,"ando":4628,"Ġ116":4629,"Ġmaharajah":4630,"Ġvin":4631,"540":4632,"ĠJubilee":4633,"ĠOff":4634,"276":4635,"Ġgoes":4636,"Ġalright":4637,"131":4638,"494":4639,"Ġlettuce":4640,"184":4641,"Ġ01223412299":4642,"Ġ01223363471":4643,"ĠLammas":4644,"Ġfamily":4645,"Ġhalls":4646,"Ġsuitable":4647,"Ġenterprise":4648,"Ġ521260":4649,"Ġ01223357851":4650,"ĠFeel":4651,"Ashley":4652,"Ġ01223727410":4653,"Graffiti":4654,"Ġsecond":4655,"Meghna":4656,"Ġexhibition":4657,"harine":4658,"Ġamerican":4659,"ussian":4660,"Ġaffordable":4661,"Ġcateg":4662,"ĠCrowne":4663,"ĠHerschel":4664,"Da":4665,"Finches":4666,"Hamilton":4667,"Lo":4668,"Old":4669,"QU":4670,"RA":4671,"Saint":4672,"WI":4673,"Was":4674,"cambridge":4675,"cil":4676,"qa":4677,"und":4678,"zen":4679,"Ġantiques":4680,"stand":4681,"Ġremember":4682,"Ġcab":4683,"Ġpipasha":4684,"Ġyet":4685,"Ġmust":4686,"Ġiss":4687,"Ġdue":4688,"ses":4689,"edish":4690,"onese":4691,"Ġwithout":4692,"Ġ48":4693,"Ġrecommended":4694,"ĠPost":4695,"Ġdozen":4696,"Ġthir":4697,"iring":4698,"Ġ0740":4699,"antonese":4700,"Ġamount":4701,"Ġ01223247877":4702,"ĠMarriot":4703,"Ġseeing":4704,"Ġ01223302010":4705,"Ġfacil":4706,"Ġ01223312843":4707,"Anything":4708,"Contact":4709,"netian":4710,"ĠAustralian":4711,"377":4712,"557":4713,"620":4714,"657":4715,"709":4716,"7966":4717,"828":4718,"9448":4719,"At":4720,"Bangkok":4721,"CI":4722,"DF":4723,"GE":4724,"GG":4725,"KF":4726,"KT":4727,"LF":4728,"LT":4729,"NN":4730,"OH":4731,"PC":4732,"PJ":4733,"PZ":4734,"QS":4735,"RH":4736,"RV":4737,"Roomz":4738,"SA":4739,"TB":4740,"TX":4741,"TZ":4742,"XI":4743,"XV":4744,"XX":4745,"YI":4746,"Ye":4747,"ZD":4748,"aa":4749,"dir":4750,"ht":4751,"je":4752,"lville":4753,"nl":4754,"pm":4755,"umber":4756,"vent":4757,"wy":4758,"xh":4759,"ors":4760,"oroc":4761,"Ġbill":4762,"Ġcaius":4763,"Ġportraits":4764,"mehouse":4765,"ĠCambourne":4766,"Ġsince":4767,"Ġsitar":4768,"Ġrestate":4769,"Ġlimehouse":4770,"231":4771,"239":4772,"Ġstrover":4773,"Ġeraina":4774,"12598":4775,"Ġ0122344":4776,"Ġ01223512":4777,"Ġcolville":4778,"Ġ432565":4779,"rology":4780,"ĠDanish":4781,"ĠDouble":4782,"ĠPress":4783,"ĠPassage":4784,"Ġonce":4785,"ĠMalaysian":4786,"Ġthornton":4787,"Ġlocal":4788,"Ġ01223351707":4789,"pensively":4790,"Ġsend":4791,"Ġ0700":4792,"Ġ0751":4793,"Ġ0750":4794,"Ġ0715":4795,"Ġ0716":4796,"Ġ0709":4797,"Ġ76":4798,"245":4799,"583":4800,"ĠCityRoomz":4801,"6666":4802,"501":4803,"Ġsidg":4804,"6060":4805,"Ġ141":4806,"Ġknown":4807,"Ġshiraz":4808,"Ġspecifically":4809,"16074":4810,"4264":4811,"Ġalmost":4812,"Ġaltern":4813,"771":4814,"7786":4815,"48100":4816,"786":4817,"rewery":4818,"Ġclowns":4819,"excellent":4820,"Ġ01223350059":4821,"erience":4822,"Ġvary":4823,"Ġ01223748100":4824,"Ġexperience":4825,"ĠSwiss":4826,"ĠPasquale":4827,"Ġcentrally":4828,"ĠCatharine":4829,"Ġtransportation":4830,"Ġkeep":4831,"Yeah":4832,"oroccan":4833,"ĠDoubletree":4834,").":4835,".,":4836,"321":4837,"826":4838,"CO":4839,"HA":4840,"Hi":4841,"KO":4842,"Might":4843,"OV":4844,"Pe":4845,"SI":4846,"To":4847,"end":4848,"fic":4849,"ier":4850,"Ġver":4851,"Ġimp":4852,"Ġali":4853,"Ġbro":4854,"Ġdel":4855,"Ġfif":4856,"Ġaddres":4857,"ĠAn":4858,"ĠSorry":4859,"Ġhelping":4860,"Ġmeze":4861,"Ġmins":4862,"ĠFour":4863,"ĠNando":4864,"8842":4865,"ased":4866,"que":4867,"Ġspecial":4868,"Ġbarbe":4869,"Ġfitzwilliam":4870,"Ġnarrowed":4871,"University":4872,"itecture":4873,"Ġ01223335153":4874,"Trains":4875,"Ġ01223353110":4876,"Ġpersonal":4877,"ĠCaribbean":4878,"bilities":4879,"Ġpossibilities":4880,"Ġconcerthalls":4881,"ĠTravel":4882,"Ġwhether":4883,"Ġscheduled":4884,"Ġswimmingpools":4885,"Ġinquiring":4886,"Ġdirectly":4887,"Ġestablishment":4888,"Travel":4889,"Ġ01223512596":4890,"250":4891,"339":4892,"378":4893,"3270":4894,"5599":4895,"817":4896,"908":4897,"980":4898,"938":4899,"AI":4900,"CD":4901,"CG":4902,"CP":4903,"CZ":4904,"Cafe":4905,"DV":4906,"DW":4907,"EM":4908,"FM":4909,"First":4910,"Fantastic":4911,"GW":4912,"Hello":4913,"Hobsons":4914,"JR":4915,"KE":4916,"KN":4917,"LL":4918,"LP":4919,"NE":4920,"NL":4921,"OZ":4922,"One":4923,"Postcode":4924,"Prezzo":4925,"QE":4926,"QP":4927,"QW":4928,"UE":4929,"WU":4930,"XB":4931,"YP":4932,"YW":4933,"YX":4934,"ZM":4935,"aden":4936,"dered":4937,"ee":4938,"eh":4939,"ual":4940,"erri":4941,"Ġbarton":4942,"Ġpress":4943,"Ġpumping":4944,"oot":4945,"Ġdis":4946,"ary":4947,"Ġfyne":4948,"Ġfoll":4949,"Ġsaigon":4950,"cept":4951,"edouin":4952,"Ġgues":4953,"onesian":4954,"Ġhaven":4955,"Ġ0122369":4956,"Ġhelped":4957,"asian":4958,"Ġ351880":4959,"Ġ312598":4960,"Ġexpensively":4961,"Ġ01223306":4962,"Ġ01223351880":4963,"Ġ01223311053":4964,"Ġ0710":4965,"Ġ0780":4966,"Ġ0744":4967,"Ġ0737":4968,"ĠEnd":4969,"ĠFa":4970,"117":4971,"Ġkambar":4972,"585":4973,"5154":4974,"662":4975,"Ġabs":4976,"3071":4977,"209":4978,"2094":4979,"502":4980,"8800":4981,"293":4982,"2987":4983,"Its":4984,"unfortunately":4985,"ĠVin":4986,"ĠViking":4987,"Ġunsure":4988,"Ġjunction":4989,"199":4990,"Ġqual":4991,"Ġ01223248882":4992,"286":4993,"ieve":4994,"Ġ01223361763":4995,"Ġ01223362372":4996,"Ġ01223363270":4997,"Ġ01223365599":4998,"Ġ225":4999,"2512":5000,"899":5001,"cause":5002,"Ġfair":5003,"ĠWhipple":5004,"Ġ01223357187":5005,"ĠWhitehill":5006,"Ġscudamores":5007,"ĠRoseford":5008,"Ġ01462":5009,"ĠInfo":5010,"Ġcomes":5011,"Ġ01223311911":5012,"59988":5013,"Ġ01223323361":5014,"ĠSwedish":5015,"ĠPassenger":5016,"Ġbelieve":5017,"Ġ01223359750":5018,"Ġ356555":5019,"minute":5020,"52607":5021,"Ġprint":5022,"Ġsouthern":5023,"Ġcategory":5024,"wydir":5025,"Ġsidgwick":5026,"Ġbroaden":5027,"Ġgueshouse":5028,"Ġ01223694264":5029,"Autumn":5030,"Cote":5031,"Eraina":5032,"Frankie":5033,"ND":5034,"NT":5035,"QH":5036,"Sala":5037,"TC":5038,"UC":5039,"Very":5040,"XL":5041,"alexander":5042,"ball":5043,"con":5044,"ient":5045,"nj":5046,"om":5047,"ring":5048,"sca":5049,"ty":5050,"Ġtou":5051,"Ġlow":5052,"Ġmis":5053,"Ġmichaelhouse":5054,"ned":5055,"Ġfan":5056,"Ġfall":5057,"ĠCol":5058,"Ġsala":5059,"Ġbookings":5060,"itt":5061,"ĠTwelve":5062,"ĠTaxi":5063,"Ġever":5064,"ĠGerman":5065,"ĠSri":5066,"ĠLankan":5067,"christ":5068,"ĠMichaelhouse":5069,"Ġexcept":5070,"ghan":5071,"ĠRef":5072,"unch":5073,"ĠOn":5074,"4187":5075,"Ġspecifics":5076,"Ġupsca":5077,"568988":5078,"othing":5079,"Ġconven":5080,"ĠYellow":5081,"Dojo":5082,"147":5083,"Ġtravellers":5084,"Ġtrouble":5085,"Ġconsidered":5086,"Ġlodgings":5087,"Ġdirections":5088,"Ġappro":5089,"Ġactivity":5090,"Ġfifteen":5091,"Ġupscale":5092,"107":5093,"260":5094,"2580":5095,"351":5096,"319":5097,"629":5098,"659":5099,"754":5100,"808":5101,"839":5102,"958":5103,"989":5104,"Ah":5105,"Address":5106,"BA":5107,"BJ":5108,"Bedouin":5109,"CW":5110,"Cineworld":5111,"DL":5112,"DU":5113,"Downing":5114,"FW":5115,"FX":5116,"From":5117,"GJ":5118,"GY":5119,"HG":5120,"HP":5121,"IE":5122,"KR":5123,"KS":5124,"KX":5125,"LZ":5126,"ME":5127,"MJ":5128,"NB":5129,"NS":5130,"QB":5131,"QC":5132,"QD":5133,"QT":5134,"RO":5135,"RR":5136,"SS":5137,"SW":5138,"Su":5139,"TD":5140,"TJ":5141,"TV":5142,"UO":5143,"UX":5144,"Whale":5145,"YL":5146,"Yippee":5147,"ZO":5148,"db":5149,"dh":5150,"hl":5151,"lj":5152,"nf":5153,"oj":5154,"over":5155,"oint":5156,"tw":5157,"tely":5158,"vian":5159,"rest":5160,"Ġtang":5161,"Ġterrace":5162,"ica":5163,"oping":5164,"erprise":5165,"Ġbo":5166,"Ġbrewery":5167,"Ġcote":5168,"Ġhong":5169,"ature":5170,"Ġmood":5171,"Ġmus":5172,"Ġful":5173,"ĠCruisers":5174,"ĠCauseway":5175,"Ġatte":5176,"Ġsw":5177,"leigh":5178,"Ġ0124":5179,"Ġleast":5180,"230":5181,"ĠTerrace":5182,"train":5183,"126":5184,"ĠAng":5185,"ĠGirton":5186,"ĠBur":5187,"Ġ43":5188,"Ġ450":5189,"Ġ413":5190,"ĠPrice":5191,"Ġneu":5192,"Ġneither":5193,"ĠLW":5194,"apier":5195,"ĠMU":5196,"Ġexamp":5197,"xim":5198,"Ġ012233240":5199,"Ġ012233236":5200,"Ġ01223360966":5201,"Ġ01223316074":5202,"Ġ01223352607":5203,"Ġcheddars":5204,"Ġ0766":5205,"Ġ0735":5206,"Ġ0713":5207,"Ġ0718":5208,"Ġ0733":5209,"ĠFoot":5210,"218":5211,"ĠNow":5212,"1100":5213,"Ġ84":5214,"Ġ92":5215,"309":5216,"Ġmahal":5217,"8860":5218,"uscan":5219,"290":5220,"Ġ143":5221,"594":5222,"2753":5223,"468":5224,"393":5225,"3942":5226,"Ġspecified":5227,"4149":5228,"5767":5229,"561":5230,"564":5231,"363":5232,"ĠWilliams":5233,"ĠShanghai":5234,"283":5235,"Ġcourt":5236,"Ġ01223364917":5237,"Ġ01223362054":5238,"ĠKingfisher":5239,"Ġcompletely":5240,"898":5241,"OKay":5242,"Ġ01223302580":5243,"Ġ01223338800":5244,"Ġ01223331100":5245,"ĠChristmas":5246,"wise":5247,"765":5248,"Ġ302":5249,"Ġ01223353071":5250,"Ġ01223353942":5251,"ĠArchaelogy":5252,"Ġ362525":5253,"Ġvarious":5254,"7423":5255,"Ġacross":5256,"Ġlammas":5257,"Ġ01223312598":5258,"Ġ01223338400":5259,"Ġ01223366202":5260,"6003":5261,"Ġ01223307030":5262,"ĠFitzwilliam":5263,"Ġdale":5264,"Ġappear":5265,"Ġ01223505015":5266,"ĠEnterprise":5267,"ĠPlough":5268,"Ġ01223354382":5269,"Ġ01223354755":5270,"Ġunderstand":5271,"2515":5272,"Ġ01223311625":5273,"Ġidea":5274,"ĠHungarian":5275,"ĠFamily":5276,"Ġapproxim":5277,"Ġ012454":5278,"ĠAnglia":5279,"ĠBurleigh":5280,"Ġ413000":5281,"Ġexample":5282,"Ġ01223324033":5283,"ĠFootball":5284,"5219":5285,"Cherry":5286,"Ent":5287,"HE":5288,"Kymmoy":5289,"LI":5290,"MI":5291,"Most":5292,"QI":5293,"Welcome":5294,"YE":5295,"aw":5296,"ait":5297,"bour":5298,"good":5299,"iod":5300,"of":5301,"rt":5302,"ĠYes":5303,"Ġtri":5304,"Ġtour":5305,"icine":5306,"Ġbased":5307,"Ġcat":5308,"Ġpm":5309,"Ġwon":5310,"Ġwagamama":5311,"Ġhoping":5312,"Ġlynne":5313,"Ġmist":5314,"ĠIS":5315,"that":5316,"aves":5317,"Ġsquare":5318,"Ġmod":5319,"Ġ02":5320,"ĠHistory":5321,"Ġ01223568988":5322,"Ġcanc":5323,"Ġbecause":5324,"ĠNumber":5325,"241":5326,"nglish":5327,"ĠUK":5328,"ĠChest":5329,"Ġperiod":5330,"Ġcuisines":5331,"Ġsuggestion":5332,"Ġ01223362525":5333,"Ġriding":5334,"arant":5335,"ĠPembroke":5336,"9859":5337,"Ġ01223336540":5338,"Charlie":5339,"Ġmedical":5340,"Ġmedicine":5341,"Express":5342,"...":5343,"Ġ01223292094":5344,"Ġ01223323178":5345,"Ġ01223259988":5346,"Ġselection":5347,"Peking":5348,"Ġverify":5349,"Ġabsolutely":5350,"ĠColville":5351,"Success":5352,"restaurant":5353,"Ġapproximately":5354,"Ġtried":5355,"Ġmistake":5356,"144":5357,"335":5358,"412":5359,"458":5360,"410":5361,"4277":5362,"610":5363,"636":5364,"618":5365,"706":5366,"744":5367,"769":5368,"827":5369,"846":5370,"834":5371,"990":5372,"955":5373,"949":5374,"AO":5375,"AP":5376,"BX":5377,"Byard":5378,"CV":5379,"Castle":5380,"Club":5381,"DE":5382,"EV":5383,"Emmanuel":5384,"FS":5385,"FZ":5386,"HS":5387,"HV":5388,"Jinling":5389,"KG":5390,"KH":5391,"KW":5392,"LX":5393,"NJ":5394,"NP":5395,"NX":5396,"OX":5397,"PF":5398,"PW":5399,"PX":5400,"QA":5401,"Rice":5402,"TG":5403,"TL":5404,"TT":5405,"WO":5406,"WT":5407,"Worth":5408,"YM":5409,"YV":5410,"YY":5411,"ZI":5412,"ZX":5413,"city":5414,"ear":5415,"hand":5416,"ju":5417,"jx":5418,"just":5419,"lo":5420,"mil":5421,"pd":5422,"rb":5423,"rj":5424,"same":5425,"uw":5426,"Ġclu":5427,"Ġcaffe":5428,"Ġpara":5429,"Ġpub":5430,"Ġpull":5431,"Ġhk":5432,"atology":5433,"Ġlan":5434,"Ġmill":5435,"sex":5436,"Ġfully":5437,"Ġsat":5438,"Ġsheep":5439,"cess":5440,"Ġ123":5441,"Ġgwydir":5442,"Ġ0184":5443,"ĠHinchinbrook":5444,"ĠTD":5445,"129":5446,"ĠGPB":5447,"ĠGreek":5448,"ĠSilver":5449,"Ġ01223413":5450,"ĠBel":5451,"Ġtal":5452,"alan":5453,"ĠDK":5454,"ĠDu":5455,"ĠPD":5456,"ĠPerne":5457,"Ġ300":5458,"Ġ353":5459,"Ġ308681":5460,"aston":5461,"Ġ553355":5462,"Ġ01223330":5463,"Ġsesame":5464,"Ġ0743":5465,"Ġ0790":5466,"Ġ0748":5467,"Ġ0770":5468,"Ġ0786":5469,"005":5470,"ific":5471,"used":5472,"ĠRegency":5473,"2420":5474,"Ġ107":5475,"519":5476,"5170":5477,"andina":5478,"667":5479,"Ġope":5480,"2025":5481,"2083":5482,"886":5483,"8813":5484,"545":5485,"5484":5486,"603":5487,"2900":5488,"ĠUN":5489,"ĠUQ":5490,"ĠOY":5491,"522":5492,"27330":5493,"4630":5494,"395":5495,"579":5496,"438":5497,"Ġjedburgh":5498,"Ġtrips":5499,"ĠThornton":5500,"569":5501,"3682":5502,"4550":5503,"193":5504,"169":5505,"after":5506,"0637":5507,"Ġ012232449":5508,"Ġ01223244149":5509,"Ġ01223244277":5510,"776":5511,"7755":5512,"77977":5513,"Ġindia":5514,"261":5515,"Ġ01223400170":5516,"Ġ01223412430":5517,"Ġ01223363682":5518,"Ġconfused":5519,"9900":5520,"Ġ01223332900":5521,"express":5522,"ĠPolish":5523,"8620":5524,"Ġ308871":5525,"ĠArchitecture":5526,"Ġprovided":5527,"Ġprovides":5528,"4748":5529,"Ġsuits":5530,"Ġcrossover":5531,"8207":5532,"93131":5533,"0254":5534,"ĠTenison":5535,"ĠScience":5536,"Ġ01223307581":5537,"Ġ01733":5538,"Ġ01223812660":5539,"Ġ01223315232":5540,"Ġ07229":5541,"Ġregion":5542,"Ġexpand":5543,"Ġ464630":5544,"ollaston":5545,"Ġ244277":5546,"Ġ01223311687":5547,"Ġ01223462354":5548,"Ġthirteen":5549,"Ġ01223448620":5550,"Ġaddresses":5551,"Ġfairly":5552,"Ġconvenient":5553,"ojg":5554,"Ġ01223323639":5555,"2753771":5556,"Ġ01245493131":5557,"8464":5558,"handi":5559,"Ġclubs":5560,"Ġ01842753771":5561,"Ġ01223413000":5562,"Ġ01223330906":5563,"andinavian":5564,"Ġ01223244955":5565,"1387":5566,"432":5567,"719":5568,"Bridge":5569,"Hope":5570,"Hakka":5571,"Try":5572,"VA":5573,"bp":5574,"curry":5575,"gian":5576,"ild":5577,"phone":5578,"uarant":5579,"wr":5580,"Ġton":5581,"Ġterri":5582,"state":5583,"hend":5584,"ervation":5585,"Ġcreat":5586,"Ġclass":5587,"Ġyear":5588,"elp":5589,"Ġwait":5590,"Ġhund":5591,"ative":5592,"Ġdai":5593,"sed":5594,"ĠIrish":5595,"arolina":5596,"Ġsaffron":5597,"lesbray":5598,"Ġprop":5599,"ĠTuscan":5600,"ĠAT":5601,"ĠRing":5602,"ĠDes":5603,"Ġfeature":5604,"chway":5605,"ĠMichael":5606,"Ġresp":5607,"Ġkosher":5608,"usual":5609,"102":5610,"vious":5611,"ĠIndonesian":5612,"Ġworking":5613,"4134":5614,"Ġalone":5615,"they":5616,"ĠExpensive":5617,"Ġ01223308871":5618,"Ġ012232173":5619,"Ġconcern":5620,"0552":5621,"Ġlasts":5622,"Ġworries":5623,"Ġhaem":5624,"ĠSomething":5625,"Arbury":5626,"Ġestablishments":5627,"Ġdepending":5628,"arrive":5629,"Ġ01223356354":5630,"Ġdozens":5631,"Ġimport":5632,"Ġfollowing":5633,"Ġgueshouses":5634,"Ġfancy":5635,"Ġmusue":5636,"Ġsatis":5637,"Ġhundred":5638,"Ġdaily":5639,"Ġfeatures":5640,"259":5641,"253":5642,"420":5643,"454":5644,"4216":5645,"5390":5646,"654":5647,"641":5648,"676":5649,"759":5650,"8903":5651,"930":5652,"9561":5653,"AW":5654,"Ali":5655,"Bloomsbury":5656,"Camboats":5657,"DK":5658,"EA":5659,"FI":5660,"Fit":5661,"GA":5662,"GO":5663,"GZ":5664,"HB":5665,"HF":5666,"HI":5667,"HJ":5668,"HR":5669,"Home":5670,"Im":5671,"JI":5672,"KA":5673,"LD":5674,"Nothing":5675,"OA":5676,"QF":5677,"QR":5678,"QY":5679,"RP":5680,"RS":5681,"RW":5682,"SE":5683,"SP":5684,"Sh":5685,"TK":5686,"TN":5687,"TO":5688,"TW":5689,"UK":5690,"UV":5691,"UZ":5692,"VI":5693,"VJ":5694,"VS":5695,"XE":5696,"YB":5697,"YN":5698,"YS":5699,"aed":5700,"bridge":5701,"cue":5702,"eidelberg":5703,"got":5704,"gwick":5705,"iat":5706,"idd":5707,"list":5708,"rl":5709,"ntown":5710,"Ġtons":5711,"icious":5712,"Ġrel":5713,"eron":5714,"Ġcle":5715,"Ġpanahar":5716,"meters":5717,"veral":5718,"atively":5719,"Ġdow":5720,"ĠIG":5721,"ĠIH":5722,"Ġnumer":5723,"ĠCantonese":5724,"Ġ112":5725,"Ġ03":5726,"ĠWO":5727,"ĠWS":5728,"Ġansw":5729,"ĠHelp":5730,"ĠHeidelberg":5731,"Ġeater":5732,"Ġevent":5733,"121":5734,"eservation":5735,"Ġthereafter":5736,"ĠAt":5737,"ĠAntiques":5738,"ĠSU":5739,"Ġ0122359":5740,"ason":5741,"ĠBS":5742,"alal":5743,"Ġ264":5744,"Ġ277977":5745,"Ġcomm":5746,"Ġ414":5747,"ĠDepart":5748,"ĠPL":5749,"ĠPY":5750,"Ġloch":5751,"Ġ311053":5752,"ĠLion":5753,"ĠMT":5754,"Ġ577":5755,"Ġ01223308681":5756,"Ġreserving":5757,"Ġ0723":5758,"Ġ0720":5759,"Ġ0752":5760,"Ġ0764":5761,"Ġ0776":5762,"Ġprevious":5763,"Ġmanage":5764,"ifi":5765,"ĠEC":5766,"ĠEdw":5767,"ĠEstate":5768,"Ġ150":5769,"ĠNapier":5770,"115":5771,"1159":5772,"1163":5773,"Ġeastern":5774,"246":5775,"Ġ102":5776,"Ġ61":5777,"Ġ600":5778,"661":5779,"Ġ942":5780,"Ġ9180":5781,"Ġ115":5782,"Ġ118":5783,"075":5784,"076":5785,"Ġrussian":5786,"206":5787,"2045":5788,"1791":5789,"5056":5790,"887":5791,"5454":5792,"604":5793,"605":5794,"2974":5795,"Ġ122":5796,"108":5797,"Ġ140":5798,"Ġunusual":5799,"Ġunlist":5800,"ĠJZ":5801,"528":5802,"5225":5803,"521260":5804,"5921":5805,"406":5806,"4651":5807,"Ġ189":5808,"414":5809,"0189":5810,"5729":5811,"ĠCheddars":5812,"4319":5813,"Ġjapanese":5814,"567":5815,"803":5816,"806":5817,"167":5818,"1681":5819,"531":5820,"870":5821,"0635":5822,"Ġ01223358899":5823,"Ġsuggestions":5824,"2800":5825,"Ġstarts":5826,"481":5827,"4859":5828,"269":5829,"Ġcomplex":5830,"Ġcompany":5831,"ĠZB":5832,"ĠZK":5833,"Ġ01223367755":5834,"Ġ01223364319":5835,"2534":5836,"ackstreet":5837,"araunt":5838,"9937":5839,"7040":5840,"6834":5841,"ĠMuseums":5842,"Ġgiven":5843,"ĠPolyne":5844,"Ġ0797":5845,"Ġkinds":5846,"Ġ01223334898":5847,"Ġ01223356666":5848,"Ġ01223356060":5849,"474":5850,"Ġspot":5851,"Ġeating":5852,"Ġ0871":5853,"ĠPersian":5854,"Ġpasseng":5855,"Ġaccommodation":5856,"Ġ01223338901":5857,"Ġ01223338300":5858,"ĠTrains":5859,"Ġ01223366552":5860,"8530":5861,"Ġ01223300552":5862,"ĠNorman":5863,"ĠSidgwick":5864,"ĠColdhams":5865,"Ġ01223354679":5866,"Ġshortly":5867,"Ġ01799521260":5868,"Grafton":5869,"ĠScottish":5870,"Ġ01223359506":5871,"Ġ244955":5872,"1661":5873,"6163":5874,"5348":5875,"Ġ01223356555":5876,"8070":5877,"ĠModerately":5878,"Ġ012233483":5879,"Ġissue":5880,"Ġfacility":5881,"Ġalternative":5882,"Ġdelicious":5883,"ĠAnother":5884,"Ġbarbecue":5885,"Ġneurology":5886,"bourn":5887,"Ġparameters":5888,"Ġ353110":5889,"ĠDesk":5890,"Ġimportant":5891,"Fitzbillies":5892,"Ġdowntown":5893,"Ġ577786":5894,"ĠEdward":5895,"Ġunlisted":5896,"ĠPolynesian":5897,"Ġpassengers":5898,"024":5899,"312":5900,"338":5901,"423":5902,"833":5903,"978":5904,"926":5905,"Cong":5906,"Corpus":5907,"Huntingdon":5908,"Our":5909,"Primavera":5910,"River":5911,"St":5912,"Were":5913,"Wandlebury":5914,"ditional":5915,"graf":5916,"lic":5917,"nandos":5918,"ped":5919,"ru":5920,"hed":5921,"Ġbring":5922,"Ġcamp":5923,"Ġpul":5924,"aylesbray":5925,"river":5926,"Ġtraditional":5927,"Ġsing":5928,"Ġresturant":5929,"Ġgast":5930,"Ġgbp":5931,"Ġ00":5932,"itu":5933,"Ġless":5934,"23178":5935,"ĠTH":5936,"arting":5937,"Ġen":5938,"Ġelder":5939,"Ġelsewhere":5940,"ĠGhandi":5941,"ĠRQ":5942,"asque":5943,"Ġmeant":5944,"ĠPI":5945,"ĠMoroccan":5946,"Ġrespect":5947,"Ġpembroke":5948,"ickets":5949,"enpin":5950,"Ġwestside":5951,"0788":5952,"Ġrd":5953,"Ġasked":5954,"Ġspend":5955,"3577":5956,"ĠLeaves":5957,"Ġjo":5958,"ĠColleges":5959,"Ġ01223241387":5960,"Ġentertainments":5961,"Ġadress":5962,"Ġadjust":5963,"Ġ01223362456":5964,"Ġrequirement":5965,"ext":5966,"stars":5967,"Ġquestion":5968,"Ġfavorites":5969,"Ġ01223338600":5970,"Ġscott":5971,"Ġvenetian":5972,"Ask":5973,"Ġappoint":5974,"Ġ01223227330":5975,"Archway":5976,"Ġactivities":5977,"tersborough":5978,"Ġdropped":5979,"ĠModerate":5980,"3211":5981,"Ġcancel":5982,"Ġpublic":5983,"Ġoperat":5984,"Ġhaematology":5985,"Ġnumerous":5986,"Ġmanaged":5987,"Ġpulled":5988,"Ġelderly":5989,"Ġappointment":5990,"--":5991,"049":5992,"134":5993,"1502":5994,"207":5995,"256":5996,"2292":5997,"311":5998,"359":5999,"4765":6000,"558":6001,"559":6002,"536":6003,"677":6004,"6110":6005,"6357":6006,"757":6007,"787":6008,"7802":6009,"8494":6010,"8199":6011,"987":6012,"AX":6013,"ADC":6014,"BS":6015,"Ballare":6016,"Backstreet":6017,"DM":6018,"EE":6019,"FA":6020,"FC":6021,"FJ":6022,"FV":6023,"GP":6024,"HM":6025,"KI":6026,"KM":6027,"KY":6028,"LJ":6029,"MX":6030,"Nusha":6031,"PG":6032,"Post":6033,"QJ":6034,"QM":6035,"QV":6036,"QZ":6037,"RC":6038,"RG":6039,"RX":6040,"RZ":6041,"TE":6042,"TF":6043,"Tandoori":6044,"Tenpin":6045,"UA":6046,"UD":6047,"UM":6048,"UN":6049,"Vue":6050,"WJ":6051,"WP":6052,"Warkworth":6053,"XM":6054,"XN":6055,"YD":6056,"am":6057,"bg":6058,"dan":6059,"ev":6060,"eal":6061,"enetian":6062,"goodbye":6063,"hu":6064,"pb":6065,"please":6066,"qe":6067,"ric":6068,"rdi":6069,"rooms":6070,"sion":6071,"tq":6072,"xu":6073,"reci":6074,"Ġawesome":6075,"raunt":6076,"ordan":6077,"Ġreason":6078,"Ġbus":6079,"Ġpaed":6080,"Ġyo":6081,"elsh":6082,"Ġwr":6083,"Ġworld":6084,"ating":6085,"Ġlarge":6086,"ĠIR":6087,"Ġfro":6088,"anage":6089,"anasian":6090,"ĠCY":6091,"ĠCour":6092,"Ġowe":6093,"Ġrestaraunt":6094,"Ġ188":6095,"Ġgave":6096,"Ġgreek":6097,"ĠWA":6098,"ĠWV":6099,"ĠWelcome":6100,"ĠWelsh":6101,"ĠHI":6102,"234":6103,"ĠTJ":6104,"Ġanyth":6105,"Ġstick":6106,"ambrdi":6107,"ĠGo":6108,"ĠGog":6109,"Ġ01223500":6110,"ĠRI":6111,"ĠRussian":6112,"ĠBook":6113,"ĠBabraham":6114,"Ġ226":6115,"Ġ412299":6116,"sive":6117,"ĠPM":6118,"ĠPumping":6119,"Ġ311":6120,"Ġ366":6121,"Ġ323178":6122,"ĠLP":6123,"chiquito":6124,"Ġ0729":6125,"Ġ0787":6126,"Ġ0728":6127,"Ġ0784":6128,"Ġ07511":6129,"Ġsuff":6130,"ĠFR":6131,"ĠFT":6132,"ĠFZ":6133,"2130":6134,"2153":6135,"ĠNT":6136,"114":6137,"119":6138,"Ġ77":6139,"Ġeastside":6140,"2433":6141,"589":6142,"5874":6143,"Ġ87":6144,"Ġ828":6145,"ĠKH":6146,"ĠKosher":6147,"669":6148,"6688":6149,"307":6150,"3043":6151,"071":6152,"072":6153,"2021":6154,"2061":6155,"508":6156,"8824":6157,"543":6158,"546":6159,"5401":6160,"Ġsize":6161,"2939":6162,"ĠUC":6163,"ĠVH":6164,"ĠVJ":6165,"ĠVenetian":6166,"ĠCoffee":6167,"ĠJN":6168,"ĠJedburgh":6169,"ĠJordan":6170,"1537":6171,"592":6172,"2730":6173,"2715":6174,"463":6175,"4626":6176,"4679":6177,"4698":6178,"ĠIndustrial":6179,"3948":6180,"341":6181,"345":6182,"349":6183,"5711":6184,"5737":6185,"328":6186,"ĠCheap":6187,"909":6188,"386":6189,"1923":6190,"168":6191,"0927":6192,"0995":6193,"Ġpersian":6194,"8792":6195,"Ġprocess":6196,"ĠYY":6197,"Ġ012232499":6198,"5507":6199,"449":6200,"4466":6201,"4212":6202,"4256":6203,"770":6204,"7733":6205,"4975":6206,"2826":6207,"482":6208,"Ġlets":6209,"1828":6210,"2621":6211,"792":6212,"7931":6213,"ĠZF":6214,"ĠZN":6215,"ĠQA":6216,"2530":6217,"ĠXL":6218,"374":6219,"3702":6220,"9969":6221,"Ġmarriot":6222,"684":6223,"6838":6224,"6971":6225,"Ġ0796":6226,"Ġ07956":6227,"Ġ07623":6228,"761":6229,"7656":6230,"Ġ368786":6231,"Ġ363471":6232,"Ġ361763":6233,"Ġ364917":6234,"ĠMagog":6235,"3138":6236,"6334":6237,"Ġreachable":6238,"1499":6239,"ĠAfghan":6240,"Ġ01223902116":6241,"Ġ0704":6242,"Ġacute":6243,"0523":6244,"Ġaccomod":6245,"ĠScandinavian":6246,"Ġ01223464630":6247,"Ġ01223338100":6248,"Ġopenings":6249,"Those":6250,"6009":6251,"Ġperfectly":6252,"Ġgranta":6253,"Ġ41518":6254,"Ġ017335":6255,"1549":6256,"Ġappreci":6257,"Ġinqui":6258,"5009":6259,"Ġ356354":6260,"arriving":6261,"9016":6262,"otspot":6263,"Lovell":6264,"5570":6265,"Ġ01223306283":6266,"9892":6267,"Ġfulbourn":6268,"Ġattend":6269,"Entrance":6270,"ĠChesteron":6271,"8272":6272,"Ġrespon":6273,"iatric":6274,"Ġrelatively":6275,"Congrat":6276,"Ġcampus":6277,"Ġrespectively":6278,"evanage":6279,"ealand":6280,"Ġpaediatric":6281,"ĠCourt":6282,"ambrdige":6283,"Ġ01223500005":6284,"Ġ311911":6285,"Ġ366668":6286,"ĠJordans":6287,"Ġ01223249955":6288,"Ġ01733553355":6289,"!!":6290,"836":6291,"8533":6292,"Ad":6293,"Aylesbray":6294,"Avalon":6295,"Got":6296,"HO":6297,"IO":6298,"Kohinoor":6299,"PI":6300,"Reservation":6301,"UU":6302,"ace":6303,"ape":6304,"golden":6305,"hic":6306,"pizza":6307,"uld":6308,"under":6309,"rean":6310,"Ġirish":6311,"Ġaustrian":6312,"orrect":6313,"Ġcantonese":6314,"Ġhist":6315,"Ġhand":6316,"Ġlankan":6317,"Ġmalaysian":6318,"Ġmoroccan":6319,"ĠCors":6320,"rival":6321,"Ġsm":6322,"Ġsri":6323,"less":6324,"kend":6325,"Ġforgot":6326,"Ġpricey":6327,"fered":6328,"Ġ04":6329,"ĠWifi":6330,"Ġrate":6331,"Ġeas":6332,"Ġenglish":6333,"ĠAM":6334,"ĠAyle":6335,"Ġcont":6336,"Ġ45":6337,"uter":6338,"ulations":6339,"aporean":6340,"ĠMI":6341,"Ġ0742":6342,"Ġsus":6343,"Ġmine":6344,"ĠRoman":6345,"Ġcardi":6346,"Ġserver":6347,"515":6348,"Ġassu":6349,"Ġ97":6350,"0721":6351,"Ġwhale":6352,"Ġsimil":6353,"ĠVA":6354,"ĠOR":6355,"Ġasking":6356,"ĠRestaurants":6357,"Ġfitz":6358,"Ġalot":6359,"Ġalong":6360,"otten":6361,"ably":6362,"Ġcomputer":6363,"ĠArea":6364,"Ġmyself":6365,"ĠPetersborough":6366,"Ġclin":6367,"Ġtaken":6368,"7610":6369,"Ġmostly":6370,"Ġchanged":6371,"Ġspots":6372,"Ġacc":6373,"Ġdec":6374,"Ġdeal":6375,"urgery":6376,"Ġzip":6377,"Ġopening":6378,"0122324":6379,"ĠBefore":6380,"Ġvehic":6381,"Ġweekend":6382,"Ġbuy":6383,"ĠCatalan":6384,"Ġchosen":6385,"Ġappeals":6386,"Ġappealing":6387,"Ġissues":6388,"Ġfacilities":6389,"Ġquality":6390,"Ġtourist":6391,"Ġmisunder":6392,"Ġtalking":6393,"Ġtonight":6394,"4235":6395,"9781":6396,"Ġappreciate":6397,"Ġinquiry":6398,"Congratulations":6399,"Ġhistor":6400,"ĠRomanian":6401,"Ġcardiology":6402,"Ġsimilar":6403,"Ġvehicle":6404,"010":6405,"0467":6406,"158":6407,"1581":6408,"254":6409,"2000":6410,"332":6411,"380":6412,"3596":6413,"429":6414,"408":6415,"434":6416,"4170":6417,"4202":6418,"550":6419,"532":6420,"538":6421,"724":6422,"740":6423,"738":6424,"749":6425,"7309":6426,"838":6427,"8387":6428,"917":6429,"941":6430,"919":6431,"9533":6432,"9276":6433,"9102":6434,"Again":6435,"Abbey":6436,"CF":6437,"Call":6438,"DJ":6439,"DR":6440,"De":6441,"Darrys":6442,"GI":6443,"HZ":6444,"KJ":6445,"KL":6446,"Kettle":6447,"LB":6448,"LO":6449,"LV":6450,"Le":6451,"NM":6452,"NV":6453,"NY":6454,"OM":6455,"PS":6456,"Pipasha":6457,"Queen":6458,"RB":6459,"Rajmahal":6460,"Sc":6461,"TM":6462,"Two":6463,"Telephone":6464,"Taj":6465,"Taxi":6466,"UB":6467,"UG":6468,"UI":6469,"UJ":6470,"US":6471,"Wagamama":6472,"XJ":6473,"YA":6474,"ZJ":6475,"bangkok":6476,"cular":6477,"camboats":6478,"df":6479,"gonville":6480,"hr":6481,"ise":6482,"iving":6483,"little":6484,"mous":6485,"old":6486,"pounds":6487,"rf":6488,"to":6489,"yu":6490,"ĠQQ":6491,"ret":6492,"read":6493,"Ġtw":6494,"Ġintend":6495,"stood":6496,"Ġregency":6497,"ervice":6498,"Ġbunch":6499,"Ġcut":6500,"Ġcool":6501,"Ġpanasian":6502,"Ġinc":6503,"Ġhalal":6504,"Ġlunch":6505,"Ġmidd":6506,"never":6507,"Ġdanish":6508,"sess":6509,"ĠIA":6510,"ĠIJ":6511,"ĠCW":6512,"ĠCZ":6513,"riend":6514,"Ġsitu":6515,"Ġrestraunt":6516,"Ġmovi":6517,"Ġ120":6518,"Ġgotten":6519,"Ġgiving":6520,"ĠWF":6521,"ĠWU":6522,"ĠWell":6523,"ĠWollaston":6524,"Ġwis":6525,"Ġliking":6526,"ĠHH":6527,"ĠHJ":6528,"ĠHappy":6529,"ĠHotspot":6530,"2379":6531,"2325":6532,"ĠTF":6533,"ĠTG":6534,"ĠTP":6535,"Ġstated":6536,"Ġem":6537,"125":6538,"Ġfoods":6539,"ĠAO":6540,"ĠAV":6541,"ĠGI":6542,"ĠGS":6543,"ĠGW":6544,"ĠGDP":6545,"ĠSD":6546,"ĠSG":6547,"ĠSQ":6548,"ĠSY":6549,"ĠSus":6550,"ĠSystem":6551,"ĠService":6552,"Ġ0122325":6553,"ĠBA":6554,"ĠBQ":6555,"ĠBT":6556,"ĠBelf":6557,"Ġ400":6558,"Ġ420":6559,"Ġ480":6560,"Ġ448":6561,"roy":6562,"rosa":6563,"ĠDG":6564,"ĠDP":6565,"ĠDarry":6566,"ĠPC":6567,"ĠPG":6568,"ĠPJ":6569,"ĠPQ":6570,"Ġ352500":6571,"ĠLK":6572,"ĠLX":6573,"Ġdoing":6574,"Ġurology":6575,"Ġexist":6576,"rate":6577,"Ġ55":6578,"Ġ518":6579,"Ġ525":6580,"Ġ0747":6581,"Ġ07598":6582,"009":6583,"0032":6584,"Ġnorthampton":6585,"ĠEH":6586,"ĠEL":6587,"ĠEO":6588,"ĠEach":6589,"ĠFD":6590,"ĠFF":6591,"ĠFK":6592,"ĠFN":6593,"213":6594,"ĠNK":6595,"Ġwestern":6596,"249":6597,"Ġ81":6598,"5108":6599,"ĠKQ":6600,"ĠKU":6601,"666":6602,"079":6603,"0743":6604,"0718":6605,"0798":6606,"0797":6607,"2058":6608,"1756":6609,"1755":6610,"1704":6611,"1761":6612,"505":6613,"Ġavai":6614,"542":6615,"5413":6616,"5465":6617,"601":6618,"602":6619,"606":6620,"6066":6621,"298":6622,"2950":6623,"2929":6624,"2985":6625,"29180":6626,"Ġ12233":6627,"1027":6628,"086":6629,"087":6630,"ĠUG":6631,"ĠCost":6632,"Ġsomeone":6633,"ĠArcade":6634,"ĠOO":6635,"ĠOther":6636,"5212":6637,"5909":6638,"5965":6639,"4015":6640,"275":6641,"278":6642,"2704":6643,"469":6644,"4680":6645,"4625":6646,"392":6647,"394":6648,"398":6649,"Ġassess":6650,"356":6651,"3412":6652,"3456":6653,"419":6654,"0188":6655,"572":6656,"573":6657,"574":6658,"5720":6659,"3225":6660,"4379":6661,"9020":6662,"5677":6663,"5686":6664,"5694":6665,"809":6666,"8017":6667,"8042":6668,"369":6669,"3600":6670,"3685":6671,"381":6672,"3844":6673,"198":6674,"1997":6675,"1688":6676,"1610":6677,"0919":6678,"0922":6679,"0996":6680,"537":6681,"873":6682,"8730":6683,"Ġconst":6684,"Ġquick":6685,"Ġpleased":6686,"ĠYE":6687,"ĠYOU":6688,"4494":6689,"4284":6690,"Ġvisitors":6691,"137":6692,"1316":6693,"496":6694,"4849":6695,"4828":6696,"erson":6697,"262":6698,"268":6699,"793":6700,"7928":6701,"3371":6702,"ĠZJ":6703,"ĠZZ":6704,"Ġ012233650":6705,"Ġ01223365454":6706,"Ġ01223362433":6707,"Ġpickup":6708,"ĠQF":6709,"ĠXX":6710,"373":6711,"3720":6712,"8913":6713,"Ġrequired":6714,"2257":6715,"998":6716,"9933":6717,"agon":6718,"7047":6719,"685":6720,"6811":6721,"Ġgives":6722,"Ġ01223302800":6723,"olkswagon":6724,"696":6725,"6939":6726,"Ġ0793":6727,"Ġ07924":6728,"Ġ07915":6729,"8610":6730,"8636":6731,"cide":6732,"Ġ07629":6733,"Ġ07657":6734,"Ġ07618":6735,"Ġ302010":6736,"Ġ01223355166":6737,"Ġ0772":6738,"Ġ07727":6739,"Ġ362372":6740,"9629":6741,"9635":6742,"Ġfamous":6743,"fitzbillies":6744,"3112":6745,"3158":6746,"3130":6747,"6745":6748,"Ġ012232177":6749,"Ġ01223216811":6750,"1492":6751,"Ġ07017":6752,"Ġtension":6753,"5662":6754,"Ġ087194":6755,"8224":6756,"Ġ07421":6757,"Ġ07479":6758,"Ġdear":6759,"Ġdecide":6760,"0532":6761,"0212":6762,"8314":6763,"9557":6764,"Ġ0122327618":6765,"AGG":6766,"ESP":6767,"Ġcharges":6768,"Ġ07558":6769,"ĠBenny":6770,"Ġwhenever":6771,"EPN":6772,"Ġsteakhouses":6773,"wards":6774,"Ġ462354":6775,"Ġ464550":6776,"7349":6777,"2514":6778,"Ġ354755":6779,"Ġbelfast":6780,"3342":6781,"3343":6782,"6167":6783,"4664":6784,"Ġ01223461661":6785,"5298":6786,"3005":6787,"Ġselections":6788,"2125":6789,"3602":6790,"6578":6791,"7094":6792,"Ġalternate":6793,"Ġvarying":6794,"9082":6795,"Ġdisc":6796,"Ġ01223306306":6797,"Ġtouch":6798,"6595":6799,"8080":6800,"Ġboast":6801,"6368":6802,"7447":6803,"9904":6804,"ĠBelgian":6805,"ifications":6806,"Ġpropert":6807,"Ġsatisf":6808,"Shall":6809,"Ġclear":6810,"Ġanswer":6811,"Ġeateries":6812,"Riverboat":6813,"grafton":6814,"Ġjoin":6815,"Ġassume":6816,"Ġfitzroy":6817,"ĠSussex":6818,"ĠServices":6819,"Ġ012232566":6820,"Ġ448620":6821,"Ġ518111":6822,"ĠOtherwise":6823,"Ġassessment":6824,"Ġ08719429180":6825,"Ġ01223276182":6826,"),":6827,"329":6828,"336":6829,"6247":6830,"Alpha":6831,"Cotto":6832,"Caffe":6833,"Carolina":6834,"Each":6835,"Gourmet":6836,"Hmm":6837,"Inde":6838,"Kirkwood":6839,"OOK":6840,"Zizzi":6841,"bably":6842,"cc":6843,"cing":6844,"cated":6845,"ders":6846,"eel":6847,"hobsons":6848,"line":6849,"light":6850,"sica":6851,"ti":6852,"well":6853,"when":6854,"Ġform":6855,"Ġaustral":6856,"ential":6857,"raint":6858,"inion":6859,"Ġrep":6860,"Ġret":6861,"Ġreal":6862,"Ġcame":6863,"Ġpat":6864,"Ġwal":6865,"Ġhuntington":6866,"Ġhig":6867,"Ġmone":6868,"Ġmiss":6869,"ĠCQ":6870,"ĠCent":6871,"ĠCuis":6872,"ĠCare":6873,"ĠCambrdige":6874,"Ġsur":6875,"Ġrestuarant":6876,"cology":6877,"Ġgerman":6878,"Ġforward":6879,"peking":6880,"Ġwife":6881,"Ġlight":6882,"Ġes":6883,"ĠThen":6884,"Ġaddition":6885,"ĠAdden":6886,"ĠRD":6887,"Ġcanape":6888,"comend":6889,"Ġhelpful":6890,"ros":6891,"royal":6892,"ĠPR":6893,"adly":6894,"Ġoncology":6895,"utes":6896,"lant":6897,"Ġdestinations":6898,"ĠStarting":6899,"Ġcheapest":6900,"ency":6901,"ensive":6902,"Ġcaribbean":6903,"lus":6904,"Ġopinion":6905,"ilian":6906,"Ġ1223":6907,"156":6908,"ĠOP":6909,"orthend":6910,"ĠLocated":6911,"Ġenjoyed":6912,"196":6913,"1958":6914,"1612":6915,"5331":6916,"Ġlookout":6917,"Ġconne":6918,"0674":6919,"ĠYT":6920,"7713":6921,"4969":6922,"7846":6923,"3330":6924,"Ġriders":6925,"Ġreaching":6926,"Ġspace":6927,"Ġvaries":6928,"Ġending":6929,"ĠLets":6930,"Ġcorsica":6931,"Ġplans":6932,"0315":6933,"razilian":6934,"Ġdriving":6935,"Ġexpl":6936,"Ġinquire":6937,"Ġsecure":6938,"Ġdepends":6939,"Cocum":6940,"anything":6941,"Ġarranged":6942,"Ġfinal":6943,"Ġfinish":6944,"Loch":6945,"Ġbarbeque":6946,"Ġqualifications":6947,"Ġlower":6948,"Ġswiss":6949,"7195":6950,"Ġterrific":6951,"Ġcreative":6952,"Ġwaiting":6953,"Ġ01223217314":6954,"Ġmusuem":6955,"ĠWOuld":6956,"Ġevents":6957,"8331":6958,"Ġsingle":6959,"Ġenough":6960,"Ġwrong":6961,"Ġfront":6962,"Ġsuffice":6963,"Ġattending":6964,"Ġresponse":6965,"ĠCorsica":6966,"Ġeasy":6967,"ĠAyles":6968,"Leverton":6969,"Ġmiddle":6970,"Ġconstraint":6971,"Ġboasts":6972,"Indeed":6973,"Ġhigher":6974,"Ġmoney":6975,"Ġcanapes":6976,")?":6977,".\"":6978,"0357":6979,"0363":6980,"0545":6981,"0115":6982,"123":6983,"138":6984,"1395":6985,"288":6986,"228":6987,"2286":6988,"323":6989,"366":6990,"352":6991,"316":6992,"3000":6993,"3194":6994,"3404":6995,"459":6996,"456":6997,"487":6998,"524":6999,"530":7000,"560":7001,"5077":7002,"5504":7003,"5567":7004,"624":7005,"651":7006,"640":7007,"643":7008,"6517":7009,"6387":7010,"6585":7011,"6193":7012,"758":7013,"743":7014,"7245":7015,"7075":7016,"7604":7017,"7803":7018,"830":7019,"849":7020,"848":7021,"818":7022,"8265":7023,"8306":7024,"8585":7025,"8662":7026,"8126":7027,"8290":7028,"8241":7029,"8685":7030,"920":7031,"915":7032,"935":7033,"9299":7034,"9178":7035,"9580":7036,"9802":7037,"9886":7038,"AYR":7039,"AEJ":7040,"BV":7041,"Best":7042,"BMG":7043,"DI":7044,"DPB":7045,"EOG":7046,"EBG":7047,"FB":7048,"Feel":7049,"GB":7050,"GK":7051,"Galleria":7052,"GYC":7053,"GBQ":7054,"GOB":7055,"Hotel":7056,"Holy":7057,"HCU":7058,"HEW":7059,"IBP":7060,"IIT":7061,"IWL":7062,"JQG":7063,"JOU":7064,"Kings":7065,"Kambar":7066,"Look":7067,"Lynne":7068,"MD":7069,"MQ":7070,"Mag":7071,"MAA":7072,"MDB":7073,"None":7074,"PV":7075,"QO":7076,"QWF":7077,"QPH":7078,"QFY":7079,"RM":7080,"RY":7081,"Ref":7082,"RSO":7083,"RFL":7084,"RJS":7085,"SAJ":7086,"Sadly":7087,"TS":7088,"Tickets":7089,"UES":7090,"UVD":7091,"UJK":7092,"VPA":7093,"VYT":7094,"Wi":7095,"WAD":7096,"XMY":7097,"XYH":7098,"XWH":7099,"YMG":7100,"YPD":7101,"ZG":7102,"ZBN":7103,"acan":7104,"bal":7105,"cin":7106,"carolina":7107,"dl":7108,"dt":7109,"dated":7110,"ft":7111,"firm":7112,"finches":7113,"frankie":7114,"huntingdon":7115,"ide":7116,"look":7117,"main":7118,"oid":7119,"part":7120,"postcode":7121,"saint":7122,"sbrookes":7123,"uxu":7124,"Ġ'":7125,"Ġtext":7126,"Ġant":7127,"Ġaway":7128,"icas":7129,"option":7130,"rable":7131,"ourit":7132,"Ġinter":7133,"Ġrefer":7134,"Ġnigh":7135,"Ġbell":7136,"Ġbasque":7137,"Ġcities":7138,"ingling":7139,"Ġwan":7140,"Ġwollaston":7141,"medi":7142,"Ġhote":7143,"ves":7144,"atin":7145,"Ġlbs":7146,"Ġluxu":7147,"Ġbooks":7148,"Ġmix":7149,"nesian":7150,"ĠIE":7151,"ĠIO":7152,"ĠIU":7153,"ĠIV":7154,"ĠIX":7155,"ĠId":7156,"ĠIan":7157,"otally":7158,"Ġfas":7159,"though":7160,"anatolia":7161,"ĠCA":7162,"ĠCH":7163,"ĠCL":7164,"ĠCM":7165,"ĠCP":7166,"ĠCU":7167,"ĠCab":7168,"rint":7169,"riate":7170,"Ġsurgery":7171,"lecular":7172,"Ġresta":7173,"Ġmove":7174,"Ġmolecular":7175,"Ġgray":7176,"Ġforty":7177,"Ġnames":7178,"depart":7179,"Ġ012":7180,"ĠWB":7181,"ĠWJ":7182,"ĠWK":7183,"ĠWT":7184,"ĠWZ":7185,"ĠWIF":7186,"Ġlie":7187,"yesbray":7188,"ĠHC":7189,"ĠHL":7190,"ĠHQ":7191,"ĠHR":7192,"ĠHW":7193,"ĠHZ":7194,"ĠHDT":7195,"2311":7196,"2378":7197,"ĠTX":7198,"arts":7199,"Ġstate":7200,"Ġstevanage":7201,"1227":7202,"ĠTheater":7203,"ĠAA":7204,"ĠAC":7205,"ĠAH":7206,"ĠAY":7207,"ĠAZ":7208,"ĠAllenb":7209,"ĠGC":7210,"ĠGE":7211,"ĠGF":7212,"ĠGK":7213,"ĠGL":7214,"ĠGQ":7215,"ĠSP":7216,"ĠSV":7217,"ows":7218,"Ġ01223257":7219,"ĠRK":7220,"ĠRT":7221,"ĠRU":7222,"ĠRW":7223,"ĠRX":7224,"Ġpoly":7225,"ĠBB":7226,"ĠBL":7227,"ĠBM":7228,"ĠBX":7229,"ĠBY":7230,"Ġarrived":7231,"Ġtast":7232,"Ġnoon":7233,"Ġ211":7234,"Ġguestrooms":7235,"Ġrecommendations":7236,"ĠDB":7237,"ĠDD":7238,"ĠDL":7239,"ĠPE":7240,"ĠPF":7241,"ĠPP":7242,"ĠPW":7243,"ĠPZ":7244,"ĠPizz":7245,"ĠPortraits":7246,"ĠPrint":7247,"Ġonline":7248,"ished":7249,"Ġnever":7250,"Ġwilliams":7251,"Ġ306":7252,"ĠLA":7253,"ĠLG":7254,"ĠLN":7255,"ĠLQ":7256,"ĠLU":7257,"ĠLNK":7258,"ĠLMA":7259,"ĠLatin":7260,"ĠMC":7261,"ĠMD":7262,"ĠMH":7263,"ĠML":7264,"ĠMN":7265,"ĠMO":7266,"ĠMP":7267,"ĠMQ":7268,"ĠMX":7269,"Ġexc":7270,"Ġextra":7271,"Ġ500":7272,"Ġmoderatly":7273,"Ġ0122335010":7274,"Ġ0122333948":7275,"Ġresol":7276,"Ġ0732":7277,"Ġ0745":7278,"Ġ0755":7279,"Ġ0768":7280,"Ġ0771":7281,"Ġ07248":7282,"Ġ074134":7283,"Ġsuper":7284,"Ġsupp":7285,"001":7286,"0044":7287,"0031":7288,"0094":7289,"ĠEQ":7290,"ĠET":7291,"ĠEV":7292,"ĠEW":7293,"ĠEZ":7294,"ĠEvery":7295,"ĠEnglish":7296,"ĠFO":7297,"ĠFive":7298,"ĠFRE":7299,"217":7300,"2166":7301,"2145":7302,"2178":7303,"2164":7304,"ĠNR":7305,"116":7306,"1156":7307,"1180":7308,"1162":7309,"Ġ73":7310,"ĠRemember":7311,"244":7312,"5866":7313,"5806":7314,"5831":7315,"5867":7316,"Ġcontacted":7317,"5107":7318,"Ġ65":7319,"ĠKO":7320,"ĠKY":7321,"ĠKZ":7322,"6607":7323,"6628":7324,"6692":7325,"6697":7326,"Ġ91":7327,"Ġabo":7328,"303":7329,"3057":7330,"3087":7331,"3062":7332,"0717":7333,"0713":7334,"0776":7335,"0774":7336,"Ġwhy":7337,"Ġwhose":7338,"Ġvolkswagon":7339,"Ġvacan":7340,"203":7341,"205":7342,"2029":7343,"2052":7344,"2042":7345,"171":7346,"173":7347,"1750":7348,"1709":7349,"1770":7350,"5012":7351,"5034":7352,"5042":7353,"5089":7354,"Ġavoid":7355,"Ġdiffic":7356,"882":7357,"5473":7358,"Ġ165":7359,"6034":7360,"6053":7361,"297":7362,"2912":7363,"109":7364,"ases":7365,"082":7366,"0813":7367,"0862":7368,"unky":7369,"ĠUE":7370,"ĠUF":7371,"ĠUM":7372,"ĠUR":7373,"ĠUZ":7374,"ĠVB":7375,"ĠVM":7376,"ĠVQ":7377,"ĠVR":7378,"ĠVT":7379,"ĠVW":7380,"ĠVX":7381,"ĠVY":7382,"ĠComm":7383,"ĠArche":7384,"ĠJB":7385,"ĠJC":7386,"ĠJM":7387,"ĠJQ":7388,"ĠJU":7389,"ĠJW":7390,"ĠJingling":7391,"153":7392,"157":7393,"1526":7394,"1567":7395,"1575":7396,"ĠOur":7397,"5266":7398,"5256":7399,"597":7400,"5910":7401,"5901":7402,"5953":7403,"5949":7404,"5928":7405,"5918":7406,"5979":7407,"5972":7408,"5998":7409,"4016":7410,"4031":7411,"2788":7412,"2764":7413,"2771":7414,"2775":7415,"4638":7416,"4689":7417,"4673":7418,"396":7419,"Ġserved":7420,"3450":7421,"3470":7422,"3476":7423,"418":7424,"4194":7425,"0141":7426,"570":7427,"576":7428,"5754":7429,"5713":7430,"5747":7431,"3207":7432,"3257":7433,"Ġparticularly":7434,"4329":7435,"4334":7436,"904":7437,"905":7438,"9066":7439,"9039":7440,"9025":7441,"9063":7442,"8056":7443,"8026":7444,"362":7445,"367":7446,"3677":7447,"3637":7448,"Ġ231":7449,"383":7450,"3854":7451,"3810":7452,"3839":7453,"3843":7454,"3847":7455,"1699":7456,"1672":7457,"098":7458,"0945":7459,"0953":7460,"5358":7461,"876":7462,"8714":7463,"8705":7464,"Ġpolar":7465,"Ġpolish":7466,"0680":7467,"0625":7468,"0686":7469,"0684":7470,"Ġprobably":7471,"ĠYB":7472,"ĠYG":7473,"ĠYV":7474,"4447":7475,"422":7476,"4288":7477,"4226":7478,"4283":7479,"7721":7480,"7734":7481,"7769":7482,"4987":7483,"4928":7484,"ĠSundays":7485,"2854":7486,"2860":7487,"2863":7488,"2895":7489,"484":7490,"4824":7491,"4863":7492,"784":7493,"7850":7494,"7822":7495,"1800":7496,"1854":7497,"1827":7498,"1898":7499,"1892":7500,"263":7501,"2617":7502,"2635":7503,"2694":7504,"795":7505,"796":7506,"797":7507,"Ġcompliment":7508,"Ġadvent":7509,"337":7510,"ĠZC":7511,"ĠZM":7512,"ĠZT":7513,"ĠZW":7514,"ĠZealand":7515,"Ġ01223369299":7516,"ĠQD":7517,"ĠQG":7518,"ĠQK":7519,"2557":7520,"ĠXD":7521,"ĠXJ":7522,"ĠXM":7523,"ĠXV":7524,"ĠXY":7525,"ropriate":7526,"372":7527,"376":7528,"3732":7529,"8932":7530,"ĠEastside":7531,"ĠExhib":7532,"6477":7533,"ĠPeople":7534,"996":7535,"999":7536,"9956":7537,"704":7538,"7020":7539,"7057":7540,"OKT":7541,"683":7542,"686":7543,"6833":7544,"Ġ01223301761":7545,"693":7546,"697":7547,"6946":7548,"Ġ07937":7549,"Ġ--":7550,"867":7551,"8600":7552,"8676":7553,"8631":7554,"7187":7555,"Ġ0767":7556,"Ġ07621":7557,"Ġ07611":7558,"Ġ07650":7559,"Ġ07648":7560,"8885":7561,"762":7562,"763":7563,"7678":7564,"Ġ01223355012":7565,"Ġ0122335388":7566,"8410":7567,"Ġ07749":7568,"Ġ375":7569,"ĠGuesthouses":7570,"6742":7571,"Ġ505015":7572,"Ġ0782":7573,"Ġ07823":7574,"Ġ07854":7575,"Ġ0122321629":7576,"1006":7577,"7324":7578,"7360":7579,"981":7580,"9823":7581,"9839":7582,"Ġ07060":7583,"Ġ07059":7584,"9452":7585,"Ġlonger":7586,"7430":7587,"7450":7588,"7460":7589,"Ġ568988":7590,"5669":7591,"6226":7592,"fectious":7593,"ĠSeveral":7594,"Ġ07411":7595,"Ġ07430":7596,"Ġ07417":7597,"Ġdeter":7598,"9360":7599,"Ġfavourit":7600,"0559":7601,"Ġtrust":7602,"Ġ01223577786":7603,"8335":7604,"6524":7605,"ĠAlmost":7606,"MYL":7607,"Ġ01223366668":7608,"Ġruns":7609,"Three":7610,"Ġ07330":7611,"Ġ07314":7612,"8151":7613,"EZT":7614,"Ġ01223274680":7615,"Ġ01223274284":7616,"BZA":7617,"CRN":7618,"OSM":7619,"ALF":7620,"PAI":7621,"0122333":7622,"01223358":7623,"ATC":7624,"YCW":7625,"ronom":7626,"Ġlatin":7627,"DNB":7628,"Ġbites":7629,"AFS":7630,"AFT":7631,"ĠMany":7632,"Ġ07554":7633,"EFS":7634,"2232":7635,"WHG":7636,"JXX":7637,"LRA":7638,"Ġ07138":7639,"2001":7640,"2006":7641,"ZQE":7642,"ASG":7643,"EPK":7644,"Ġ01223217231":7645,"Ġ01223217261":7646,"Anytime":7647,"VOL":7648,"VFA":7649,"VFV":7650,"3544":7651,"VBB":7652,"Ġappropriate":7653,"IBY":7654,"CKQ":7655,"SJZ":7656,"VLU":7657,"VRV":7658,"Ġkettles":7659,"AVA":7660,"ĠGrande":7661,"Ġ01223256":7662,"2519":7663,"ign":7664,"XWO":7665,"50420":7666,"1879":7667,"Arrival":7668,"WMD":7669,"ZWP":7670,"Ġdependency":7671,"STN":7672,"Ġsoonest":7673,"1662":7674,"4003":7675,"Ġarrangements":7676,"Ġexhibits":7677,"Ġ079989":7678,"4669":7679,"5343":7680,"1465":7681,"1469":7682,"8078":7683,"9775":7684,"Ġsouthend":7685,"Ġideas":7686,"2129":7687,"3177":7688,"ĠHungting":7689,"Ġ01223348144":7690,"Ġthirty":7691,"7092":7692,"2503":7693,"3782":7694,"8176":7695,"Ġfalls":7696,"itti":7697,"1079":7698,"2602":7699,"7548":7700,"8399":7701,"9589":7702,"Ġattemp":7703,"126194":7704,"Ġcatch":7705,"6105":7706,"7062":7707,"cityroomz":7708,"lobal":7709,"Ġpulling":7710,"4322":7711,"Ġterribly":7712,"Ġclassic":7713,"Ġmusuems":7714,"9303":7715,"Ġ01223596066":7716,"Ġcommon":7717,"Ġpreviously":7718,"Ġcomplexes":7719,"Ġ01223348313":7720,"Ġ01223348314":7721,"Stazione":7722,"riverside":7723,"Ġgastronom":7724,"Ġoperation":7725,"1342":7726,"2078":7727,"7878":7728,"Postal":7729,"Ġsussex":7730,"Ġclinic":7731,"Ġdecis":7732,"Ġmisunderstood":7733,"iseases":7734,"riendly":7735,"Ġmovie":7736,"Ġemail":7737,"ersonally":7738,"Ġ01223365068":7739,"Ġ07479126194":7740,"Ġsatisfy":7741,"Ġjoining":7742,"Ġaustralasian":7743,"Ġpatience":7744,"ĠCuisine":7745,"Ġconstraints":7746,"8185":7747,"Magdalene":7748,"QWFWX":7749,"With":7750,"cinating":7751,"firmation":7752,"Ġfascinating":7753,"ĠWIFI":7754,"Ġpolynesian":7755,"Ġ306306":7756,"Ġ01223350106":7757,"Ġ01223339485":7758,"ĠFREE":7759,"Ġdifficult":7760,"ĠCommon":7761,"ĠArcheology":7762,"Ġcomplimentary":7763,"ĠExhibition":7764,"Ġ01223216297":7765,"Ġfavourite":7766,"01223358966":7767,"Ġgastronomy":7768,"324":7769,"315":7770,"480":7771,"Am":7772,"Adden":7773,"Don":7774,"Efes":7775,"Huntington":7776,"Id":7777,"LOL":7778,"Market":7779,"Ne":7780,"Price":7781,"QN":7782,"Sitar":7783,"Tr":7784,"Tang":7785,"Terri":7786,"Why":7787,"book":7788,"booking":7789,"broughton":7790,"byard":7791,"certain":7792,"clare":7793,"corpus":7794,"darrys":7795,"fill":7796,"frame":7797,"gret":7798,"home":7799,"idge":7800,"jinling":7801,"mine":7802,"mitt":7803,"nu":7804,"number":7805,"po":7806,"pite":7807,"plant":7808,"room":7809,"sful":7810,"then":7811,"uge":7812,"warts":7813,"Ġ/":7814,"Ġim":7815,"Ġtook":7816,"Ġtur":7817,"Ġtechn":7818,"Ġtotally":7819,"Ġamb":7820,"Ġari":7821,"ought":7822,"stazione":7823,"Ġrepe":7824,"Ġnic":7825,"Ġbl":7826,"onary":7827,"onfirmation":7828,"Ġcant":7829,"Ġpot":7830,"Ġpizz":7831,"Ġplus":7832,"Ġincon":7833,"Ġinju":7834,"Ġinfectious":7835,"ington":7836,"ingaporean":7837,"Ġwou":7838,"Ġwet":7839,"meghna":7840,"Ġhang":7841,"formation":7842,"Ġiscb":7843,"Ġdiver":7844,"Ġdiseases":7845,"ĠIT":7846,"ĠIKC":7847,"arn":7848,"Ġfix":7849,"ĠConfirmation":7850,"Ġocc":7851,"lect":7852,"Ġgl":7853,"Ġgone":7854,"Ġguy":7855,"people":7856,"Ġ000":7857,"ĠWY":7858,"ĠWed":7859,"Ġlim":7860,"itrean":7861,"Ġleft":7862,"ĠHote":7863,"ĠTable":7864,"Ġecon":7865,"ambri":7866,"Ġher":7867,"ĠAR":7868,"ĠST":7869,"ĠSure":7870,"ĠSingaporean":7871,"Ġwelsh":7872,"ĠRoom":7873,"Ġhelps":7874,"Ġtimeframe":7875,"ĠBy":7876,"ĠBish":7877,"ĠBasque":7878,"Ġtax":7879,"Ġmenu":7880,"ĠDitt":7881,"ured":7882,"ĠLE":7883,"ĠLots":7884,"ĠMG":7885,"Ġ01223329":7886,"ounding":7887,"Ġsear":7888,"Ġ0714":7889,"lled":7890,"Ġprefe":7891,"Ġprefered":7892,"Ġpartial":7893,"ccesful":7894,"isty":7895,"5859":7896,"665":7897,"Ġassisted":7898,"0734":7899,"Ġvice":7900,"Ġnote":7901,"ĠParking":7902,"Ġsimp":7903,"fied":7904,"university":7905,"1596":7906,"into":7907,"Ġmatched":7908,"Ġamong":7909,"ident":7910,"Ġspecification":7911,"3262":7912,"433":7913,"Ġjohn":7914,"Ġupdated":7915,"ogwarts":7916,"venience":7917,"Ġfewer":7918,"ĠYR":7919,"Ġ0122324515":7920,"Ġalthough":7921,"Ġnarrowing":7922,"Ġindonesian":7923,"183":7924,"1819":7925,"rewell":7926,"Ġcompare":7927,"ĠQH":7928,"Ġseeking":7929,"ĠExpect":7930,"6488":7931,"TrainID":7932,"Ġoutside":7933,"ĠGrafitti":7934,"Ġshows":7935,"Ġ01223355711":7936,"Regret":7937,"Ġproviding":7938,"ique":7939,"464646":7940,"4724":7941,"Ġ#:":7942,"Ġspread":7943,"1493":7944,"Ġcloser":7945,"Ġactual":7946,"Ġcoronary":7947,"ĠTrainID":7948,"Ġdata":7949,"0122321":7950,"0122330":7951,"Ġpoints":7952,"Ġclosed":7953,"PLE":7954,"Ġdirection":7955,"ĠEntertainment":7956,"Ġconsidering":7957,"Ġspecifying":7958,"Ġbuild":7959,"Ġeritrean":7960,"JWE":7961,"ĠMaharajah":7962,"dojo":7963,"Ġbelgian":7964,"SRY":7965,"ocated":7966,"Travellers":7967,"Ġpasta":7968,"Ġfinished":7969,"standing":7970,"Ġimpress":7971,"Ġspecializ":7972,"Ġfulfill":7973,"Ġcatalan":7974,"Ġmodify":7975,"Ġmistaken":7976,"ification":7977,"Ġcreate":7978,"Ġproper":7979,"Ġsatisfied":7980,"Ġhundreds":7981,"ĠDeparts":7982,"riverboat":7983,"Ġgastro":7984,"ĠTHAT":7985,"Ġscottish":7986,"Admission":7987,"Ġsmall":7988,"Ġcontin":7989,"Ġaccident":7990,"Ġhistoric":7991,"Queens":7992,"Scudamores":7993,"Ġintended":7994,"Ġcutting":7995,"Ġretur":7996,"Ġconnect":7997,"Ġexplore":7998,"ĠAylesbury":7999,"Ġresolve":8000,"Ġadventure":8001,"Ġdetermine":8002,"Neither":8003,"Terrific":8004,"mittance":8005,"Ġturns":8006,"Ġtechnical":8007,"Ġrepeat":8008,"Ġpotential":8009,"Ġinconvenience":8010,"Ġinjury":8011,"Ġdiverse":8012,"Ġguys":8013,"Ġeconom":8014,"ĠBishop":8015,"Ġ01223329432":8016,"Ġsimply":8017,"Ġcompared":8018,"Regretfully":8019,"\".":8020,"020":8021,"059":8022,"027":8023,"032":8024,"045":8025,"0517":8026,"0516":8027,"0117":8028,"0209":8029,"0121":8030,"0481":8031,"0269":8032,"0328":8033,"0601":8034,"0394":8035,"0217":8036,"141":8037,"190":8038,"142":8039,"1233":8040,"1428":8041,"1309":8042,"224":8043,"258":8044,"266":8045,"229":8046,"280":8047,"225":8048,"2583":8049,"346":8050,"3888":8051,"3353":8052,"3387":8053,"3390":8054,"3293":8055,"3661":8056,"417":8057,"488":8058,"452":8059,"440":8060,"427":8061,"439":8062,"443":8063,"445":8064,"479":8065,"4506":8066,"4404":8067,"4117":8068,"4594":8069,"4115":8070,"4887":8071,"4604":8072,"521":8073,"507":8074,"554":8075,"5517":8076,"5234":8077,"623":8078,"630":8079,"652":8080,"646":8081,"649":8082,"628":8083,"6210":8084,"6583":8085,"6870":8086,"6386":8087,"6809":8088,"6998":8089,"751":8090,"707":8091,"717":8092,"732":8093,"790":8094,"745":8095,"728":8096,"718":8097,"7299":8098,"7222":8099,"7355":8100,"7276":8101,"7239":8102,"7583":8103,"7293":8104,"7147":8105,"7468":8106,"7667":8107,"7169":8108,"7307":8109,"7213":8110,"7278":8111,"7683":8112,"823":8113,"821":8114,"811":8115,"858":8116,"801":8117,"890":8118,"844":8119,"842":8120,"8149":8121,"8509":8122,"8504":8123,"8361":8124,"8292":8125,"8363":8126,"8522":8127,"8406":8128,"8167":8129,"912":8130,"907":8131,"950":8132,"988":8133,"939":8134,"953":8135,"928":8136,"933":8137,"9517":8138,"9382":8139,"9202":8140,"9219":8141,"9209":8142,"9286":8143,"9545":8144,"9522":8145,"9605":8146,"9531":8147,"9345":8148,"9792":8149,"9704":8150,"??":8151,"AMS":8152,"AEG":8153,"AYU":8154,"AYF":8155,"BQQ":8156,"BEN":8157,"BJS":8158,"BCY":8159,"BCC":8160,"Based":8161,"Che":8162,"CLQ":8163,"CNU":8164,"CVP":8165,"CVK":8166,"CHK":8167,"Correct":8168,"Depart":8169,"Darry":8170,"DYH":8171,"DJM":8172,"DJX":8173,"DPU":8174,"DUF":8175,"DIW":8176,"DKT":8177,"EMW":8178,"EBN":8179,"EET":8180,"EEL":8181,"EMA":8182,"FKV":8183,"FZC":8184,"FIR":8185,"FWH":8186,"FTU":8187,"FBO":8188,"FSF":8189,"FGD":8190,"FMN":8191,"FEQ":8192,"Funky":8193,"GR":8194,"GFL":8195,"GOS":8196,"GED":8197,"GAH":8198,"GAC":8199,"GCL":8200,"GFP":8201,"GZH":8202,"GRK":8203,"GCN":8204,"GWV":8205,"HW":8206,"HVT":8207,"HXG":8208,"HRQ":8209,"Ih":8210,"Iy":8211,"Ind":8212,"IKV":8213,"IOS":8214,"IBT":8215,"IOG":8216,"IYU":8217,"IWW":8218,"JJG":8219,"JMG":8220,"JOS":8221,"JAL":8222,"JVD":8223,"JED":8224,"JDN":8225,"JDS":8226,"JBQ":8227,"JII":8228,"JPQ":8229,"JJL":8230,"KBZ":8231,"KAR":8232,"KYZ":8233,"KJK":8234,"KFP":8235,"KTY":8236,"LDN":8237,"LWL":8238,"LAC":8239,"Limehouse":8240,"LOX":8241,"Minton":8242,"MBU":8243,"MNO":8244,"MIR":8245,"MNU":8246,"MPL":8247,"MAC":8248,"MBW":8249,"MIA":8250,"Nice":8251,"NGM":8252,"NJX":8253,"NAC":8254,"NJN":8255,"NSD":8256,"NNG":8257,"NVW":8258,"OZC":8259,"OWL":8260,"ODS":8261,"OWR":8262,"OVK":8263,"OPO":8264,"OHL":8265,"OZV":8266,"PEN":8267,"PEY":8268,"PMU":8269,"PSD":8270,"PFT":8271,"PGQ":8272,"Panahar":8273,"PXR":8274,"PEFS":8275,"Personally":8276,"QK":8277,"QIT":8278,"QMU":8279,"QJD":8280,"QYP":8281,"RAA":8282,"RXH":8283,"RYC":8284,"RET":8285,"ROG":8286,"RXQ":8287,"RXZ":8288,"RZR":8289,"Soul":8290,"Since":8291,"SSO":8292,"SYR":8293,"SPA":8294,"SID":8295,"STQ":8296,"SSL":8297,"SXC":8298,"SAF":8299,"SPL":8300,"SMO":8301,"SWX":8302,"SMH":8303,"SIJ":8304,"SIQ":8305,"SZT":8306,"SZK":8307,"SEO":8308,"SSY":8309,"TA":8310,"Table":8311,"Take":8312,"TFL":8313,"TES":8314,"TZC":8315,"TYZ":8316,"TPR":8317,"TEP":8318,"TPU":8319,"TZH":8320,"TWA":8321,"TLW":8322,"TAQ":8323,"TLC":8324,"TAI":8325,"UCU":8326,"UHU":8327,"UOR":8328,"UDS":8329,"UVX":8330,"UVZ":8331,"VY":8332,"VOK":8333,"VAA":8334,"VSO":8335,"VEZ":8336,"VES":8337,"VGM":8338,"VVP":8339,"VLK":8340,"VVF":8341,"VER":8342,"VSR":8343,"VJP":8344,"WE":8345,"WS":8346,"WKV":8347,"WBN":8348,"WIG":8349,"WPR":8350,"WZQ":8351,"WEK":8352,"XAA":8353,"XAG":8354,"XEN":8355,"XED":8356,"XEJ":8357,"XBY":8358,"XIW":8359,"XEU":8360,"YJ":8361,"YYH":8362,"YXH":8363,"YWC":8364,"YPR":8365,"YXA":8366,"YAY":8367,"YVG":8368,"YLN":8369,"ZVM":8370,"ZSF":8371,"ZLY":8372,"ZUT":8373,"ZAFT":8374,"bet":8375,"bloomsbury":8376,"could":8377,"centre":8378,"cafe":8379,"clect":8380,"eep":8381,"friendly":8382,"gn":8383,"galleria":8384,"gourmet":8385,"ho":8386,"holy":8387,"iere":8388,"iester":8389,"jor":8390,"kymmoy":8391,"none":8392,"omer":8393,"pound":8394,"tre":8395,"ture":8396,"taj":8397,"udd":8398,"xx":8399,"zizzi":8400,"ref":8401,"Ġtop":8402,"Ġter":8403,"Ġtel":8404,"Ġtat":8405,"Ġteen":8406,"Ġaw":8407,"iche":8408,"ically":8409,"hely":8410,"ories":8411,"Ġrese":8412,"Ġrece":8413,"Ġremain":8414,"Ġnapier":8415,"Ġbad":8416,"Ġbank":8417,"Ġbout":8418,"Ġbuis":8419,"Ġbelf":8420,"Ġbrass":8421,"Ġbrazilian":8422,"Ġca":8423,"Ġcet":8424,"Ġcust":8425,"Ġpar":8426,"Ġyip":8427,"Ġyello":8428,"Ġworry":8429,"Ġhu":8430,"Ġhandle":8431,"Ġhung":8432,"vered":8433,"Ġline":8434,"Ġmut":8435,"Ġmint":8436,"ness":8437,"ĠIC":8438,"ĠIK":8439,"ĠIVX":8440,"ĠIIL":8441,"ĠIFH":8442,"ĠIFX":8443,"aria":8444,"Ġtow":8445,"Ġtowards":8446,"Ġnum":8447,"Ġfi":8448,"Ġfle":8449,"Ġfab":8450,"Ġfig":8451,"three":8452,"thanh":8453,"another":8454,"ancy":8455,"ĠCE":8456,"ĠCJ":8457,"ĠCO":8458,"ĠCV":8459,"ĠCUL":8460,"ĠCIG":8461,"ĠCCT":8462,"ĠCXZ":8463,"ĠCOB":8464,"rian":8465,"Ġoffered":8466,"Ġtraum":8467,"Ġsol":8468,"Ġslight":8469,"ceed":8470,"uran":8471,"les":8472,"let":8473,"Ġ111":8474,"cta":8475,"Ġglobal":8476,"Ġ011":8477,"ĠWD":8478,"ĠWQ":8479,"ĠWR":8480,"ĠWX":8481,"ĠWWW":8482,"Ġran":8483,"Ġchance":8484,"Ġchild":8485,"itir":8486,"Ġlevel":8487,"ĠHB":8488,"ĠHE":8489,"ĠHG":8490,"ĠHS":8491,"ĠHU":8492,"ĠHY":8493,"ĠHa":8494,"ĠHAG":8495,"ĠHNO":8496,"ĠHXG":8497,"ĠHLD":8498,"ĠHalal":8499,"2329":8500,"2334":8501,"2357":8502,"2319":8503,"2392":8504,"ĠTA":8505,"ĠTB":8506,"ĠTE":8507,"ĠTQ":8508,"ĠTZ":8509,"ĠTech":8510,"ĠTVF":8511,"ĠTickets":8512,"Ġanyone":8513,"Ġeclect":8514,"120":8515,"1220":8516,"1287":8517,"1242":8518,"ddle":8519,"ĠAB":8520,"ĠAD":8521,"ĠAL":8522,"ĠAQ":8523,"ĠAS":8524,"ĠAllen":8525,"ĠAEN":8526,"ĠABK":8527,"ĠANH":8528,"ĠAJT":8529,"ĠAEB":8530,"ĠALE":8531,"ĠAND":8532,"ĠGD":8533,"ĠGJ":8534,"ĠGM":8535,"ĠGR":8536,"ĠGZ":8537,"ĠGAF":8538,"ĠGVN":8539,"ĠGPU":8540,"ĠGXT":8541,"ĠGJP":8542,"ĠGwydir":8543,"ĠGHP":8544,"ĠGUES":8545,"ĠSE":8546,"ĠSM":8547,"ĠSED":8548,"Ġofferings":8549,"ĠRC":8550,"ĠRF":8551,"ĠRG":8552,"ĠRH":8553,"ĠRJ":8554,"ĠRO":8555,"ĠRP":8556,"ĠRV":8557,"ĠRes":8558,"Ġwouldn":8559,"Ġbeg":8560,"ashley":8561,"ĠBD":8562,"ĠBE":8563,"ĠBU":8564,"ĠBV":8565,"ĠBW":8566,"ĠBVD":8567,"ĠBVC":8568,"ĠBWX":8569,"ĠBIB":8570,"ĠBSJ":8571,"ĠBNF":8572,"ĠBVU":8573,"ĠBrewery":8574,"ĠBTT":8575,"ĠBZX":8576,"ĠBudd":8577,"alf":8578,"alble":8579,"alright":8580,"Ġmessage":8581,"Ġnoddle":8582,"Ġ223":8583,"Ġ266":8584,"Ġ278":8585,"Ġguesth":8586,"Ġtowns":8587,"Ġ439":8588,"ĠDA":8589,"ĠDE":8590,"ĠDF":8591,"ĠDN":8592,"ĠDO":8593,"ĠDQ":8594,"ĠDT":8595,"ĠDX":8596,"ĠDY":8597,"ĠDay":8598,"ĠDKV":8599,"ĠDJF":8600,"ĠDWZ":8601,"ĠDCI":8602,"ĠDKE":8603,"ĠPA":8604,"ĠPN":8605,"ĠPV":8606,"ĠPara":8607,"ĠProt":8608,"ĠPEY":8609,"ĠPUX":8610,"ada":8611,"Ġneigh":8612,"ulous":8613,"Ġitine":8614,"Ġ307":8615,"ĠLI":8616,"ĠLJ":8617,"ĠLR":8618,"ĠLS":8619,"ĠLT":8620,"ĠLZ":8621,"ĠLn":8622,"ĠLGM":8623,"ĠLXZ":8624,"ĠLQS":8625,"churchill":8626,"ĠMB":8627,"ĠMF":8628,"ĠMM":8629,"ĠMR":8630,"ĠMY":8631,"ĠMZ":8632,"ĠMil":8633,"ĠMus":8634,"ĠMNO":8635,"ĠMNK":8636,"ĠMRQ":8637,"ĠMCS":8638,"ĠMQR":8639,"Ġthous":8640,"Ġthought":8641,"Ġ536":8642,"Ġ544":8643,"xible":8644,"Ġmoderatley":8645,"Ġ01223360":8646,"Ġ01223349":8647,"Ġ01223350420":8648,"Ġseen":8649,"ĠStevanage":8650,"Ġ0741":8651,"Ġ0753":8652,"Ġ0722":8653,"Ġ0731":8654,"Ġ07149":8655,"Ġ07566":8656,"Ġ07237":8657,"Ġ07906":8658,"Ġ07299":8659,"Ġ072054":8660,"vers":8661,"004":8662,"006":8663,"0035":8664,"0033":8665,"00085":8666,"ĠEK":8667,"ĠEM":8668,"ĠEP":8669,"ĠER":8670,"ĠErit":8671,"ĠENO":8672,"ĠEOP":8673,"ĠFC":8674,"ĠFP":8675,"ĠFU":8676,"ĠFW":8677,"ĠFKV":8678,"ĠFVN":8679,"ĠFGO":8680,"211":8681,"2141":8682,"2106":8683,"2148":8684,"2118":8685,"2192":8686,"ĠNA":8687,"ĠND":8688,"ĠNH":8689,"ĠNL":8690,"ĠNM":8691,"ĠNS":8692,"ĠNY":8693,"ĠNZ":8694,"ĠNEZ":8695,"ĠNGH":8696,"ĠNorthern":8697,"ĠNorthend":8698,"Ġselected":8699,"ills":8700,"1188":8701,"1160":8702,"1110":8703,"1108":8704,"1152":8705,"1144":8706,"1149":8707,"1193":8708,"1197":8709,"1165":8710,"Ġ738":8711,"Ġ718":8712,"ĠHouses":8713,"2417":8714,"2408":8715,"2452":8716,"2436":8717,"2445":8718,"2444":8719,"2442":8720,"2478":8721,"2471":8722,"2473":8723,"2462":8724,"2475":8725,"2432565":8726,"5815":8727,"5849":8728,"5869":8729,"5884":8730,"5863":8731,"ĠChurches":8732,"ĠChines":8733,"Ġ800":8734,"510":8735,"5100":8736,"5167":8737,"5163":8738,"51603":8739,"Ġ67":8740,"Ġ623":8741,"ĠKA":8742,"ĠKD":8743,"ĠKE":8744,"ĠKJ":8745,"ĠKK":8746,"ĠKS":8747,"ĠKW":8748,"ĠKX":8749,"ĠKOO":8750,"ĠKSF":8751,"ĠKSH":8752,"ĠKVV":8753,"ĠKCI":8754,"6633":8755,"6668":8756,"6673":8757,"6698":8758,"6662":8759,"Ġ93":8760,"301":8761,"304":8762,"308":8763,"3066":8764,"3052":8765,"3078":8766,"Ġ114":8767,"070":8768,"073":8769,"0757":8770,"0755":8771,"0768":8772,"0767":8773,"Ġhasn":8774,"Ġwho":8775,"Ġmajor":8776,"Ġvie":8777,"2016":8778,"2069":8779,"2098":8780,"174":8781,"175":8782,"176":8783,"1764":8784,"1784":8785,"5060":8786,"5057":8787,"5032":8788,"50505":8789,"Ġdiffer":8790,"881":8791,"884":8792,"8899":8793,"8863":8794,"8873":8795,"8893":8796,"8805":8797,"544":8798,"547":8799,"5412":8800,"5410":8801,"5408":8802,"5436":8803,"5433":8804,"5496":8805,"Ġ168":8806,"Ġ1630":8807,"Ġ1610":8808,"609":8809,"6011":8810,"6024":8811,"6088":8812,"6027":8813,"6016":8814,"6037":8815,"6096":8816,"2958":8817,"2952":8818,"2941":8819,"2919":8820,"2913":8821,"2999":8822,"2969":8823,"Ġ125":8824,"101":8825,"103":8826,"1030":8827,"1088":8828,"1039":8829,"1044":8830,"1037":8831,"1086":8832,"1047":8833,"1062":8834,"089":8835,"0823":8836,"0822":8837,"Ġ1414":8838,"ĠUD":8839,"ĠUH":8840,"ĠUO":8841,"ĠUS":8842,"ĠUX":8843,"ĠUY":8844,"ĠUZF":8845,"ĠVC":8846,"ĠVO":8847,"ĠVU":8848,"ĠVON":8849,"ĠVZF":8850,"izi":8851,"Ġunless":8852,"Ġunique":8853,"ĠArri":8854,"ĠJA":8855,"ĠJD":8856,"ĠJI":8857,"ĠJP":8858,"ĠJGN":8859,"ĠJAK":8860,"ĠJJW":8861,"159":8862,"1521":8863,"1550":8864,"1534":8865,"1590":8866,"1528":8867,"1562":8868,"ĠOE":8869,"ĠOI":8870,"ĠOL":8871,"ĠOM":8872,"ĠOQ":8873,"ĠOS":8874,"ĠOZ":8875,"ĠOES":8876,"ĠOTQ":8877,"ĠOWA":8878,"ĠOJF":8879,"5287":8880,"5273":8881,"5285":8882,"5936":8883,"5906":8884,"5971":8885,"Ġotherwise":8886,"409":8887,"4017":8888,"4068":8889,"4096":8890,"2759":8891,"2709":8892,"2755":8893,"2713":8894,"2776":8895,"4615":8896,"463830":8897,"462432565":8898,"Ġmakes":8899,"399":8900,"3940":8901,"3922":8902,"3999":8903,"3969":8904,"3973":8905,"3904":8906,"enterology":8907,"3566":8908,"3564":8909,"3451":8910,"3466":8911,"3420":8912,"3433":8913,"3447":8914,"34356":8915,"Ġ180":8916,"416":8917,"4144":8918,"4161":8919,"013":8920,"0139":8921,"0168":8922,"0192":8923,"urchhill":8924,"5717":8925,"5749":8926,"5762":8927,"5793":8928,"5797":8929,"3212":8930,"3259":8931,"Ġ206":8932,"ĠLeiester":8933,"437":8934,"4300":8935,"4351":8936,"4346":8937,"4387":8938,"4389":8939,"4376":8940,"Ġjamaican":8941,"Ġenjoyable":8942,"902":8943,"9024":8944,"9030":8945,"9033":8946,"90257":8947,"5611":8948,"5688":8949,"5613":8950,"5649":8951,"5648":8952,"5678":8953,"5626":8954,"5670":8955,"5691":8956,"804":8957,"8054":8958,"8036":8959,"8044":8960,"368":8961,"3624":8962,"3634":8963,"362974":8964,"liple":8965,"4553":8966,"45339":8967,"3873":8968,"192":8969,"1911":8970,"1955":8971,"1978":8972,"163":8973,"164":8974,"165":8975,"1656":8976,"0916":8977,"0998":8978,"0992":8979,"09147":8980,"clubs":8981,"5312":8982,"5370":8983,"mag":8984,"879":8985,"8724":8986,"8762":8987,"Ġlookup":8988,"063":8989,"0615":8990,"0638":8991,"0644":8992,"0677":8993,"0678":8994,"0672":8995,"Ġproceed":8996,"ĠYJ":8997,"ĠYN":8998,"ĠYO":8999,"ĠYQ":9000,"ĠYU":9001,"ĠYSV":9002,"ĠYFF":9003,"ĠYWN":9004,"5511":9005,"5558":9006,"5538":9007,"4266":9008,"4250":9009,"4280":9010,"774":9011,"7759":9012,"7727":9013,"7706":9014,"7744":9015,"7768":9016,"7776":9017,"7763":9018,"7747":9019,"7785":9020,"1339":9021,"1336":9022,"138056":9023,"492":9024,"4977":9025,"4992":9026,"JGD":9027,"JGH":9028,"JGO":9029,"JGHN":9030,"Ġ01223358399":9031,"281":9032,"282":9033,"2851":9034,"2850":9035,"2815":9036,"2840":9037,"2833":9038,"2831":9039,"ĠAshely":9040,"485":9041,"4800":9042,"4829":9043,"4840":9044,"4836":9045,"4813":9046,"4899":9047,"4861":9048,"785":9049,"789":9050,"7852":9051,"7834":9052,"7864":9053,"ucking":9054,"1830":9055,"1817":9056,"1842":9057,"1849":9058,"1864":9059,"18620":9060,"rews":9061,"267":9062,"2634":9063,"2656":9064,"2636":9065,"2687":9066,"2677":9067,"2625":9068,"2673":9069,"26339":9070,"7940":9071,"7935":9072,"7943":9073,"7978":9074,"7979":9075,"Ġadmittance":9076,"3339":9077,"ĠChurchhill":9078,"ĠNewham":9079,"ĠNewMarket":9080,"Ġtelling":9081,"ĠZE":9082,"ĠZG":9083,"ĠZI":9084,"ĠZQ":9085,"ĠZS":9086,"ĠZX":9087,"ĠZMG":9088,"ĠZCR":9089,"ĠZDT":9090,"ĠZLR":9091,"ĠZVF":9092,"ĠZSD":9093,"ĠZPD":9094,"Ġ331":9095,"ĠQB":9096,"ĠQL":9097,"ĠQW":9098,"ĠQX":9099,"ĠQMY":9100,"ĠQIT":9101,"ĠQMH":9102,"ĠQLK":9103,"ĠQSN":9104,"Also":9105,"Almost":9106,"2521":9107,"ĠXB":9108,"ĠXF":9109,"ĠXZ":9110,"ĠXDY":9111,"ĠXMC":9112,"ĠXPE":9113,"ĠXFD":9114,"ĠXGBQ":9115,"3730":9116,"3735":9117,"3780":9118,"3736":9119,"3787":9120,"3765":9121,"3703":9122,"897":9123,"8954":9124,"8935":9125,"veller":9126,"6457":9127,"6456":9128,"9911":9129,"9942":9130,"9999":9131,"9997":9132,"1412":9133,"1400":9134,"1490":9135,"1477":9136,"1472":9137,"1475":9138,"7043":9139,"703476":9140,"OKFF":9141,"6823":9142,"68321":9143,"ĠChrists":9144,"6958":9145,"6908":9146,"6980":9147,"6919":9148,"6913":9149,"Ġ247877":9150,"Ġ07912":9151,"Ġ07951":9152,"Ġ07908":9153,"Ġ07957":9154,"Ġ07980":9155,"Ġ07916":9156,"Ġ07987":9157,"Ġ07976":9158,"Ġ079410":9159,"Ġ079449":9160,"Ġ079394":9161,"Ġ07918620":9162,"8659":9163,"8627":9164,"8653":9165,"8699":9166,"8674":9167,"7151":9168,"Ġkinda":9169,"Ġ07634":9170,"Ġ07643":9171,"Ġ07625":9172,"Ġ07699":9173,"Ġ07674":9174,"Ġ076199":9175,"Ġ076468":9176,"Ġ076359":9177,"Ġ076362974":9178,"7634":9179,"7653":9180,"7671":9181,"Ġ01223355909":9182,"8466":9183,"8420":9184,"Ġ0775":9185,"Ġ07700":9186,"Ġ07730":9187,"Ġ07760":9188,"Ġ07740":9189,"Ġ07736":9190,"Ġ07738":9191,"Ġ07733":9192,"Ġ077466":9193,"Ġ077378":9194,"Ġ0771027":9195,"Ġ367660":9196,"961":9197,"9611":9198,"9688":9199,"9641":9200,"9680":9201,"9616":9202,"9644":9203,"9678":9204,"Gladly":9205,"Ġdespite":9206,"Ġfunk":9207,"7223":9208,"7257":9209,"itched":9210,"3190":9211,"3187":9212,"673":9213,"6741":9214,"6725":9215,"Ġ2800":9216,"Ġ2828":9217,"Ġ356666":9218,"Ġ356060":9219,"Ġ07835":9220,"Ġ07857":9221,"Ġ078558":9222,"Ġ01223217450":9223,"Ġ01223217671":9224,"6310":9225,"6313":9226,"473":9227,"4758":9228,"4708":9229,"4757":9230,"2402":9231,"7310":9232,"9835":9233,"9831":9234,"MWP":9235,"9187":9236,"Ġ07021":9237,"Ġ07058":9238,"Ġ07029":9239,"Ġ07015":9240,"Ġ070552":9241,"Ġ0704379":9242,"9424":9243,"9460":9244,"9427":9245,"9445":9246,"9487":9247,"7420":9248,"Ġ5636":9249,"9226":9250,"9225":9251,"zza":9252,"Ġclosely":9253,"Ġpostalcode":9254,"DCA":9255,"Ġchristmas":9256,"6224":9257,"Churchhill":9258,"Ġtandoor":9259,"8260":9260,"8255":9261,"Ġ07451":9262,"Ġ07407":9263,"Ġ07439":9264,"Ġ074247":9265,"Ġ0742054":9266,"Ġ074218":9267,"rania":9268,"ĠDale":9269,"9332":9270,"Ġnearly":9271,"times":9272,"Ġnineteen":9273,"ginning":9274,"Ġ2929":9275,"2361":9276,"2333057":9277,"0466":9278,"0415":9279,"0440":9280,"0471":9281,"9724":9282,"9732":9283,"Ġzealand":9284,"AAO":9285,"Ġtimeslot":9286,"Ġscandinavian":9287,"MYG":9288,"MYX":9289,"Ġ0122336661":9290,"Ġ07323":9291,"Ġ07321":9292,"Ġ07359":9293,"Ġ07346":9294,"Ġ07334":9295,"Ġ073599":9296,"YHS":9297,"Ġ01223324351":9298,"BUD":9299,"KVN":9300,"KVJV":9301,"SOF":9302,"SOR":9303,"SOW":9304,"singly":9305,"8135":9306,"EZL":9307,"EZP":9308,"EZZN":9309,"Ġ01223274222":9310,"YRU":9311,"3889":9312,"AGN":9313,"CRCL":9314,"CUP":9315,"SUH":9316,"SUAGG":9317,"XHA":9318,"ITD":9319,"OSD":9320,"0378":9321,"ALA":9322,"ALL":9323,"PAR":9324,"01223353":9325,"01223334":9326,"8604":9327,"PBD":9328,"ZCC":9329,"ZCF":9330,"ZCL":9331,"Ġ01233":9332,"Ġ01462432565":9333,"2575401":9334,"GMA":9335,"WFU":9336,"ARU":9337,"ARZY":9338,"EDA":9339,"BIO":9340,"BIQ":9341,"BIJU":9342,"BIFD":9343,"BNK":9344,"BNBR":9345,"EJF":9346,"EJQ":9347,"EJZ":9348,"HUXEU":9349,"ORN":9350,"SLF":9351,"SLK":9352,"SLY":9353,"SVF":9354,"ĠBeginning":9355,"ETN":9356,"ETY":9357,"....":9358,"1120":9359,"BTN":9360,"DNK":9361,"DNS":9362,"OGBR":9363,"OGUR":9364,"XCD":9365,"XCH":9366,"XCO":9367,"XCW":9368,"AFE":9369,"AFP":9370,"ĠTraveller":9371,"ĠBotanical":9372,"Ġroutes":9373,"AJA":9374,"MFD":9375,"MFRZ":9376,"PPD":9377,"QGD":9378,"WLA":9379,"WLV":9380,"WLY":9381,"Ġ07520":9382,"EFU":9383,"EFX":9384,"LQZ":9385,"ULI":9386,"ĠFee":9387,"JSP":9388,"JSQ":9389,"YZB":9390,"YZI":9391,"YZUY":9392,"ZZGL":9393,"BHK":9394,"DTL":9395,"DTO":9396,"DTZ":9397,"JEV":9398,"JKM":9399,"JMTO":9400,"VCV":9401,"WCE":9402,"WCF":9403,"WCO":9404,"WCX":9405,"39758":9406,"1542":9407,"1546":9408,"BKF":9409,"IGK":9410,"JXN":9411,"VTHJ":9412,"Ġeighteen":9413,"ĠAmericas":9414,"Ġ07123":9415,"Ġ07130":9416,"Ġ07140":9417,"Ġ07146":9418,"PLZ":9419,"ACG":9420,"BRM":9421,"BRFT":9422,"DZW":9423,"DZGMA":9424,"FFR":9425,"FFT":9426,"IIV":9427,"JNN":9428,"JNAC":9429,"MOF":9430,"MOHD":9431,"WKA":9432,"WKI":9433,"WXESP":9434,"ZNF":9435,"ZNJH":9436,"ZQN":9437,"ZQV":9438,"ASS":9439,"ICP":9440,"IFK":9441,"VHA":9442,"VHJ":9443,"VHN":9444,"VHW":9445,"VMA":9446,"VMJ":9447,"VMT":9448,"VMX":9449,"YQN":9450,"YQS":9451,"Ġ07212":9452,"Ġ07207":9453,"OUT":9454,"OUCJ":9455,"OUSE":9456,"DYJ":9457,"DYT":9458,"EPI":9459,"WNH":9460,"WNX":9461,"BOH":9462,"CJI":9463,"CJZ":9464,"MHR":9465,"MHT":9466,"MRI":9467,"MRK":9468,"MRQ":9469,"NRCE":9470,"PUQ":9471,"SQR":9472,"URZ":9473,"VOQPH":9474,"YOT":9475,"Ġ07880":9476,"CTF":9477,"CTS":9478,"CTTG":9479,"EWG":9480,"EWQ":9481,"FPQ":9482,"FPZ":9483,"GDIBP":9484,"GDBZA":9485,"IJB":9486,"IJP":9487,"LHM":9488,"LHO":9489,"MNB":9490,"SHC":9491,"IKD":9492,"Ġclarification":9493,"2211":9494,"3547":9495,"IXJ":9496,"MKW":9497,"WRE":9498,"WRS":9499,"XFY":9500,"BLJGHN":9501,"FTK":9502,"FTT":9503,"NHD":9504,"OIWKI":9505,"XTP":9506,"prisingly":9507,"Ġreccomend":9508,"DOD":9509,"DOV":9510,"ELU":9511,"55225":9512,"EQK":9513,"IPF":9514,"Perhaps":9515,"UYV":9516,"VQL":9517,"WDRAA":9518,"XKH":9519,"ZKZ":9520,"HKC":9521,"HKR":9522,"WYT":9523,"CNL":9524,"CNX":9525,"JQM":9526,"Ġstyles":9527,"Ġ566188":9528,"Ġ07306":9529,"Ġ0730458":9530,"PHIR":9531,"Ġsaying":9532,"CSA":9533,"DQZ":9534,"HDV":9535,"HHC":9536,"HHS":9537,"ILV":9538,"IYE":9539,"LYL":9540,"PNYHS":9541,"UTC":9542,"UTT":9543,"ĠWise":9544,"12603":9545,"Ġ012232564":9546,"8519":9547,"GLJED":9548,"RFJQ":9549,"ZRJ":9550,"Ġ075852":9551,"JYN":9552,"ĠLookout":9553,"BWG":9554,"EOW":9555,"MLX":9556,"SGFH":9557,"UHG":9558,"XRZ":9559,"NFN":9560,"Ġregardless":9561,"1873":9562,"CQW":9563,"FUI":9564,"FUX":9565,"GVY":9566,"NAMG":9567,"ZYJ":9568,"Ġ0746915":9569,"Ġ07462575401":9570,"IVU":9571,"PYB":9572,"Ġ075407":9573,"Ġ070809":9574,"Ġ0122350333":9575,"Ġtransplant":9576,"6162":9577,"8431":9578,"HCW":9579,"Meze":9580,"SKIC":9581,"Ġ0756247":9582,"KCVTHJ":9583,"arrival":9584,"Ġ07263703":9585,"6799":9586,"9012325":9587,"CXB":9588,"FODS":9589,"HYL":9590,"OEIK":9591,"Ġ07121756":9592,"1809":9593,"4076":9594,"4078":9595,"ABQG":9596,"DDI":9597,"EIO":9598,"FQY":9599,"FRX":9600,"NCV":9601,"VVA":9602,"Ġprior":9603,"90366":9604,"Ġ0757463830":9605,"3304":9606,"3173":9607,"HQVD":9608,"KPV":9609,"SZJ":9610,"Ġ07389012325":9611,"Ġ070642":9612,"Ġ0789839":9613,"ĠPostal":9614,"Ġ074040":9615,"6203":9616,"6572":9617,"8285":9618,"GGR":9619,"NNN":9620,"RVY":9621,"OVA":9622,"Ġversa":9623,"Ġdelay":9624,"8177":9625,"9083":9626,"9805":9627,"9383":9628,"9384":9629,"9386":9630,"WUN":9631,"Ġfollows":9632,"Ġ071013":9633,"3515":9634,"3197":9635,"7542":9636,"8089":9637,"9588":9638,"9891":9639,"TDBIJU":9640,"TVYR":9641,"Ġboard":9642,"Ġneuros":9643,"Ġ07669":9644,"Ġ07137":9645,"Ġtours":9646,"Ġmodrate":9647,"Ġcancer":9648,"4106":9649,"7692":9650,"9495":9651,"ĠBelfast":9652,"Ġ07862333057":9653,"26151603":9654,"Ġ072298":9655,"Ġconcerns":9656,"4204":9657,"4549":9658,"6549":9659,"6419":9660,"6763":9661,"Should":9662,"TOYZUY":9663,"idding":9664,"Ġeatery":9665,"Ġ01223596055":9666,"ĠDeparture":9667,"Ġ076400":9668,"545456":9669,"28007":9670,"ĠZKOGBR":9671,"3128":9672,"Ġsingaporean":9673,"Ġresturants":9674,"0497":9675,"5365":9676,"7578":9677,"UDDOV":9678,"Ġreasonable":9679,"Ġanythign":9680,"Ġ07289":9681,"Ġ07845910":9682,"ĠFTVOQPH":9683,"ĠKHBLJGHN":9684,"34136":9685,"Ġaccomodate":9686,"8364":9687,"Reservations":9688,"Ġhandful":9689,"Ġservers":9690,"01223245151":9691,"Ġhistorical":9692,"1584":9693,"4344":9694,"5389":9695,"7409":9696,"9179":9697,"Ġtwice":9698,"Ġtwenty":9699,"Ġincre":9700,"Ġincorrect":9701,"Ġsituation":9702,"Ġsituated":9703,"Ġwishes":9704,"Ġwished":9705,"ĠBelfy":9706,"ĠBelfrey":9707,"ĠLXMFRZ":9708,"Ġexists":9709,"Ġavaialble":9710,"Ġ1223316074":9711,"Ġ07924138056":9712,"Ġ077226339":9713,"Ġ01223217712":9714,"Ġproperty":9715,"Ġproperties":9716,"Ġ01223256650":9717,"Ġ01223256645":9718,"Ġwallet":9719,"ĠCentral":9720,"ĠAddenbrook":9721,"8495":9722,"BMGNI":9723,"Looks":9724,"VYTSIJ":9725,"ZBNKZ":9726,"optional":9727,"Ġnighclubs":9728,"mediately":9729,"Ġluxury":9730,"ĠIXEZZN":9731,"ĠCabridge":9732,"ĠAllenball":9733,"ĠGLBNK":9734,"Ġ01223257168":9735,"ĠPizzaria":9736,"ĠLMABMGNI":9737,"ĠMXMOHD":9738,"Ġ075554":9739,"ĠEverything":9740,"586609":9741,"Ġaboard":9742,"Ġvacancy":9743,"Ġ07621703476":9744,"Ġ07648586609":9745,"Ġ0741190257":9746,"Ġ07330545456":9747,"Ġ01223256166":9748,"Ġ07998934356":9749,"ĠHungtington":9750,"Ġattempt":9751,"Addensbrookes":9752,"ugese":9753,"Ġimmediately":9754,"ĠWeds":9755,"Ġlimit":9756,"Ġpreferable":9757,"ĠYRIP":9758,"Ġbuildings":9759,"Ġcontinue":9760,"7177":9761,"Departure":9762,"EELPU":9763,"FGDRE":9764,"IKVZ":9765,"ODSGJ":9766,"QYPSGFH":9767,"ROGD":9768,"SYRZN":9769,"SPLT":9770,"SSYP":9771,"VVPV":9772,"YXAW":9773,"Ġterms":9774,"Ġteenage":9775,"Ġbuisness":9776,"Ġbrassiere":9777,"Ġcustomer":9778,"Ġmutliple":9779,"Ġmintues":9780,"ĠIFHSYRZN":9781,"ĠIFXPNYHS":9782,"Ġflexible":9783,"Ġfabulous":9784,"ĠCIGYXAW":9785,"Ġtrauma":9786,"Ġsolid":9787,"Ġslightly":9788,"Ġchildren":9789,"itiroomz":9790,"Ġeclectic":9791,"ĠABKFF":9792,"ĠAJTE":9793,"ĠAEBKVJV":9794,"ĠBTTS":9795,"ĠBuddha":9796,"ĠParace":9797,"Ġitinerary":9798,"ĠMNKWT":9799,"ĠMQRGDBZA":9800,"Ġthousand":9801,"Ġ01223360409":9802,"Ġ0122334900":9803,"ĠEritrean":9804,"ĠEOPOKFF":9805,"ĠFGOM":9806,"ĠNGHD":9807,"ĠKSFSKIC":9808,"ĠKCIWXESP":9809,"Ġmajority":9810,"Ġview":9811,"ĠUZFW":9812,"ĠJJWEO":9813,"ĠOJFUL":9814,"ĠYSVSLY":9815,"ĠYFFSHC":9816,"ĠZVFTQ":9817,"ĠQSNSUAGG":9818,"ĠXDYJMTO":9819,"ĠXMCHT":9820,"ĠXGBQHC":9821,"Ġ07918620184":9822,"Ġ07619968321":9823,"Ġ07636297454":9824,"Ġ07737828007":9825,"Ġ07710275649":9826,"Ġ07855855225":9827,"Ġ07043795737":9828,"Ġ07420542713":9829,"ARZYTLC":9830,"HUXEUZ":9831,"OUCJV":9832,"Ġ07304585611":9833,"Ġ01223256459":9834,"GLJEDPZ":9835,"Ġ07469156027":9836,"Ġ07562472408":9837,"Ġ07263703306":9838,"Ġ07121756826":9839,"Ġ07574638307":9840,"Ġ07898395762":9841,"ĠZKOGBRMR":9842,"Ġ07845910981":9843,"ĠFTVOQPHP":9844,"ĠLXMFRZLR":9845,"Ġ07722633912":9846,"ĠIXEZZNYL":9847,"ĠMXMOHDJ":9848,"Ġ07411902572":9849,"!)":9850,"!.":9851,"0277":9852,"287":9853,"3279":9854,"8202":9855,"9236":9856,"An":9857,"BE":9858,"But":9859,"CBZ":9860,"Clowns":9861,"Every":9862,"Found":9863,"Four":9864,"GCA":9865,"Hey":9866,"Hughes":9867,"Hold":9868,"Hills":9869,"Jesus":9870,"LNF":9871,"Michaelhouse":9872,"Name":9873,"Now":9874,"Se":9875,"Sid":9876,"Some":9877,"Saffron":9878,"Tell":9879,"TTR":9880,"VAK":9881,"Wow":9882,"alpha":9883,"bo":9884,"but":9885,"bell":9886,"blue":9887,"booked":9888,"ballare":9889,"call":9890,"castle":9891,"cience":9892,"era":9893,"fly":9894,"fantastic":9895,"glad":9896,"hotel":9897,"hood":9898,"iest":9899,"iar":9900,"ike":9901,"ien":9902,"ighe":9903,"ises":9904,"jesus":9905,"jured":9906,"lin":9907,"located":9908,"my":9909,"mation":9910,"mosp":9911,"ni":9912,"now":9913,"nbell":9914,"oderat":9915,"park":9916,"place":9917,"post":9918,"prezzo":9919,"rict":9920,"rounding":9921,"sy":9922,"sala":9923,"ten":9924,"uate":9925,"vw":9926,"vest":9927,"ware":9928,"Ġ$":9929,"Ġ+":9930,"Ġot":9931,"Ġentre":9932,"ĠOkay":9933,"Ġive":9934,"Ġtuscan":9935,"Ġag":9936,"Ġay":9937,"Ġaut":9938,"ics":9939,"ication":9940,"icient":9941,"raving":9942,"oux":9943,"Ġintensive":9944,"stent":9945,"inity":9946,"Ġrecomend":9947,"Ġrenow":9948,"Ġnorthend":9949,"eri":9950,"Ġbb":9951,"Ġbra":9952,"Ġbound":9953,"Ġbase":9954,"Ġce":9955,"Ġcn":9956,"Ġchat":9957,"Ġcap":9958,"Ġcru":9959,"Ġcambrdige":9960,"Ġcambri":9961,"Ġcraving":9962,"Ġport":9963,"Ġpinto":9964,"Ġinjured":9965,"ele":9966,"Ġhot":9967,"Ġhuntingd":9968,"Ġhogwarts":9969,"Ġhighe":9970,"ather":9971,"atch":9972,"Ġlco":9973,"Ġlab":9974,"Ġlines":9975,"mbe":9976,"nded":9977,"Ġmotel":9978,"new":9979,"nece":9980,"ĠisC":9981,"Ġdan":9982,"Ġdep":9983,"see":9984,"arl":9985,"arbury":9986,"Ġtoward":9987,"Ġnumbe":9988,"Ġflu":9989,"Ġfil":9990,"Ġfond":9991,"ĠCor":9992,"ĠCEN":9993,"Ġodd":9994,"rike":9995,"Ġoften":9996,"Ġatt":9997,"Ġatmosp":9998,"Ġtran":9999}