#version: 0.2 - Trained by `huggingface/tokenizers`
Ġ =
Ġ |
i n
r e
Ġ t
e n
Ġ in
Ġ a
i c
en t
o p
r a
o u
Ġin t
s t
op ic
Ġint ent
h e
Ġ c
Ġ re
o r
Ġ n
Ġ b
Ġ i
y ou
Ġ p
t opic
o n
e r
Ġ w
Ġ you
o o
f or
Ġ h
Ġ g
e l
Ġt he
in g
e st
Ġ m
a t
v e
Ġ l
oo k
for m
Ġin form
Ġ d
Ġi s
m b
u est
Ġb ook
Ġa n
Ġt opic
m e
ra n
a n
e ra
s e
Ġt o
ic e
t h
Ġa re
Ġ f
a r
Ġre q
Ġreq uest
a y
o t
Ġn u
mb er
Ġnu mber
en era
Ġg enera
Ġgenera l
Ġ s
i on
g e
a ve
Ġ o
r i
Ġo f
Ġa t
Ġt ra
c e
Ġh ot
Ġhot el
st a
ran t
u rant
sta urant
Ġre staurant
Ġtra in
k e
l e
Ġan d
c o
Ġm o
l d
Ġ 1
e d
Ġp r
e re
on e
c t
Ġare a
Ġ for
a me
ou ld
h at
Ġn ame
Ġpr ice
s s
f ere
fere n
Ġbook ing
Ġc h
Ġh ave
Ġw i
Ġw ould
Ġl i
Ġ 0
i t
feren ce
l l
Ġmo re
y e
Ġ st
Ġli ke
oo d
t he
Ġre ference
Ġl e
Ġan y
at ion
p e
Ġd ay
e t
t ra
ran ge
Ġ range
Ġc a
2 3
ct ion
Ġch o
Ġcho ice
tra ction
Ġat traction
Ġa r
d ge
Ġc an
d e
Ġc ent
Ġyou r
Ġt hat
Ġ e
ar t
Ġ el
h one
ou se
Ġt y
Ġty pe
th ing
d d
Ġp hone
1 2
f er
Ġcent re
re ss
ri dge
Ġel se
r o
Ġthe re
Ġa dd
Ġd o
Ġle ave
Ġb ye
Ġany thing
Ġadd ress
Ġca mb
Ġwi th
Ġ he
Ġf ood
Ġcamb ridge
Ġi t
Ġar ri
12 23
Ġt r
Ġp o
Ġw el
Ġ0 1223
Ġof fer
l p
w n
co me
Ġhe lp
Ġwel come
d ay
i me
Ġt ime
Ġd e
Ġt a
Ġg uest
Ġb e
Ġarri ve
a l
a s
Ġc b
Ġpo st
e s
Ġde p
Ġdep art
m m
Ġn o
Ġto wn
Ġl o
b le
Ġm e
co de
Ġpost code
Ġt h
ar k
en d
Ġ 2
Ġg re
co mm
Ġc he
Ġp ark
s i
i s
Ġ u
Ġ 4
comm end
Ġre commend
Ġn e
the re
t on
l a
Ġwi ll
re e
r y
Ġ on
it y
o w
u t
Ġf e
Ġh ouse
u re
c h
Ġbook ed
u l
h ouse
Ġw hat
o l
Ġ 3
a d
Ġ ro
u r
Ġe x
ke t
Ġmo d
a p
Ġ or
Ġguest house
a st
' s
ou n
Ġne ed
in ation
est ination
Ġd estination
x i
Ġf ree
Ġlo c
Ġ 5
t a
era t
Ġmod erat
Ġta xi
or th
Ġex p
Ġre s
Ġ01223 3
Ġfe e
Ġs u
Ġp e
i r
t ing
Ġ k
oun d
Ġw as
Ġro ad
Ġ se
re et
en si
Ġ one
op le
ensi ve
Ġpe ople
Ġst ay
Ġst reet
Ġres er
ic ket
g h
Ġt icket
Ġ v
an k
Ġexp ensive
Ġc ity
Ġ0 7
Ġn orth
at ed
o k
Ġi d
Ġloc ated
el y
Ġ ra
Ġg ood
Ġm in
Ġp re
Ġm an
ou r
i f
Ġche ap
Ġpark ing
e ct
in e
er n
0 0
f ul
Ġman y
u m
Ġc on
ook ing
Ġn one
Ġra ting
Ġgre at
Ġto day
Ġp art
he r
c ce
' re
Ġw h
cce ss
i an
Ġint ern
v er
ro m
Ġ1 5
2 1
ound s
th ank
Ġf rom
u n
a ll
i l
Ġ r
Ġe ast
el l
Ġs el
ye s
Ġw est
Ġsel ect
ccess ful
Ġmin ut
Ġintern et
Ġp ounds
ot her
1 1
Ġm u
Ġreser v
Ġ 7
Ġreserv ation
i st
Ġa ll
i a
Ġminut es
Ġt w
gh t
Ġc ar
s ure
ta ct
Ġst ar
Ġcon tact
Ġtw o
Ġsu ccessful
Ġc ol
Ġs ou
Ġmu se
Ġmuse um
Ġrestaurant s
Ġc o
a i
Ġb y
Ġcol le
Ġu s
Ġcolle ge
Ġprice d
Ġmoderat ely
2 4
Ġ :
ou t
b p
v ing
Ġ ent
5 8
an d
Ġthe ir
Ġsou th
he re
Ġs er
ri t
j o
Ġta ble
b ye
Ġg bp
or ry
Ġ1 0
ok ay
Ġ 8
i ll
Ġhotel s
Ġmoderat e
an t
5 1
Ġu n
Ġs o
Ġ 6
c k
l y
Ġm a
Ġl en
' m
Ġ1 3
Ġs h
Ġa b
Ġh ow
Ġinform ation
6 6
ic h
Ġa ss
Ġw ant
ra l
w hat
Ġ 9
Ġ j
Ġgre et
Ġass ist
Ġtra v
Ġgood bye
Ġa v
oo m
3 0
i ght
Ġ1 1
a k
Ġ1 7
Ġs orry
Ġab out
o s
Ġp la
t ion
ve ral
Ġse veral
a in
Ġpla ce
0 7
er y
er ia
l u
or n
b ooking
Ġi f
jo y
en joy
Ġtrav el
Ġin d
Ġst ation
Ġh as
Ġ op
ta in
er tain
Ġa s
Ġpre ference
2 0
is h
on d
Ġtr y
Ġpre fer
Ġleave s
Ġguesthouse s
Ġthe y
1 7
it e
Ġb ed
5 0
Ġind ian
Ġd if
feren t
Ġdif ferent
ai la
Ġl ooking
Ġn ight
Ġn ot
Ġop tion
Ġtrain s
Ġk ing
8 8
Ġp le
Ġs i
Ġa c
5 4
Ġav aila
m ent
w e
a m
Ġ enjoy
Ġg o
ar d
Ġw e
Ġw here
f i
oo l
Ġ y
Ġb ar
Ġ1 6
Ġarrive s
ran ce
Ġwh ich
' t
g th
Ġlen gth
you r
Ġent rance
Ġan other
ine se
Ġb ut
Ġch inese
Ġreser ve
ain t
Ġth is
6 0
2 9
Ġavaila ble
st ed
Ġb re
Ġ1 2
1 0
Ġoption s
Ġs aint
f ast
u s
Ġbre ak
z z
Ġbreak fast
f o
or k
Ġus ing
in d
0 8
Ġ1 9
Ġ q
Ġso me
Ġac orn
Ġc rit
Ġcrit eria
a se
Ġ1 4
op e
Ġlo dge
er ton
Ġr oom
Ġb o
or t
il ton
a ving
Ġk n
1 5
Ġche st
Ġn ice
Ġle aving
Ġkn ow
5 2
Ġ other
5 9
Ġchest erton
a ble
h ow
4 0
Ġsi de
2 7
4 6
Ġa m
si de
Ġma ke
Ġg all
Ġc ould
3 9
Ġcent er
' d
os p
it al
Ġh osp
t al
Ġhosp ital
Ġto tal
Ġit al
Ġital ian
i zz
Ġw ork
Ġint ere
Ġth ank
Ġm ay
Ġser ve
i d
Ġple ase
Ġm at
Ġs pe
ul ar
3 5
3 4
b s
Ġspe c
Ġa ble
Ġg et
Ġ our
Ġf ind
s ity
Ġme et
Ġh in
es day
Ġm ar
Ġ1 8
Ġreserve d
Ġa l
Ġpo l
Ġspec if
ri p
Ġdo es
Ġ2 1
4 1
Ġp ay
Ġdepart ing
0 1
Ġch ur
an e
5 7
Ġhin ton
Ġche r
p le
Ġth ree
Ġpol ice
Ġcher ry
Ġticket s
Ġspecif ic
3 2
Ġb rit
ic ular
Ġpart icular
Ġbrit ish
Ġ2 0
t r
Ġh ill
Ġpark side
Ġser v
Ġserv ice
Ġar ch
Ġf ound
i ver
Ġp izz
il le
Ġpay able
Ġchur ch
v ille
re at
4 3
Ġc l
iver sity
Ġca ll
Ġu p
m s
Ġf our
9 0
g reat
Ġt rip
Ġstar s
Ġp er
Ġmuseum s
Ġdepart ure
ou gh
u e
Ġc u
i ve
Ġthe m
5 6
c he
Ġv ery
Ġun iversity
Ġf ri
8 0
on ville
Ġfri day
Ġf it
en b
3 6
Ġd on
Ġ 23
h ave
p y
Ġw ay
Ġgall ery
Ġ ri
Ġdo wn
Ġl ane
le x
and er
o se
lex ander
d o
Ġp ool
4 5
Ġintere sted
Ġwi fi
3 8
Ġa f
Ġg onville
Ġhill s
1 9
o g
b u
Ġmin d
c lu
n o
the r
e m
in fo
d a
Ġre g
Ġtown info
ap py
Ġking s
1 6
Ġar t
0 9
Ġsome thing
Ġg ard
Ġthe at
Ġgard en
Ġ0 5
la d
Ġbo th
Ġl ook
Ġarri ving
5 3
Ġne w
Ġa lexander
w here
' ve
Ġe ur
Ġeur ope
Ġmat ch
Ġeurope an
Ġc ertain
Ġwh ite
Ġfe w
8 7
Ġcu is
Ġpr o
Ġth ose
0 6
Ġq u
Ġplace s
Ġreg ent
un ting
Ġnight s
t er
Ġar ms
Ġserve s
Ġcuis ine
ur ry
Ġle t
Ġm ilton
Ġh appy
Ġco de
Ġsu n
v en
Ġsun day
Ġ01223 24
Ġloc ation
Ġf en
at ely
9 66
Ġf ur
Ġfur ther
5 5
4 4
Ġs p
q q
Ġtheat re
f e
ond er
in a
Ġr d
onder ful
h am
t un
4 2
i e
for tun
Ġs at
is it
fortun ately
le y
Ġv isit
s o
g g
h ley
Ġb el
ur day
c a
n e
Ġsat urday
i ss
m a
ro w
Ġn ar
Ġ0 9
Ġnar row
Ġa d
ot t
7 7
Ġco m
1 3
u st
Ġc urry
Ġy ell
Ġp ic
Ġh o
Ġcollege s
Ġyell ow
Ġh unting
Ġd it
Ġb la
Ġbe en
Ġwh en
Ġw onderful
Ġb ridge
Ġp a
Ġas hley
Ġbla ck
Ġqu ite
Ġc ine
Ġv ol
Ġco st
Ġpizz a
4 9
Ġdit ton
ol og
an ce
j g
Ġnight clu
s fi
Ġgre y
on day
Ġh our
el d
sfi eld
Ġd id
Ġ012233 58
Ġlen sfield
enb ell
Ġm onday
Ġch oo
Ġattraction s
che s
Ġre d
Ġsu gg
Ġbel f
Ġsugg est
ri st
Ġ z
ic an
ul t
bu ry
i es
Ġassist ance
h a
Ġst art
lu e
Ġ01223358 966
Ġb lue
ond on
Ġbelf ry
2 8
d on
Ġl ondon
a b
Ġneed s
Ġh ope
o or
w ould
Ġcontact ing
ood le
Ġon ly
Ġall enbell
Ġn oodle
4 8
ar l
ur s
a dd
un fortunately
Ġg lad
Ġth urs
Ġthurs day
Ġw ed
ver y
Ġtravel ing
t le
Ġhunting don
si an
Ġlo v
n esday
Ġwed nesday
ertain ment
Ġal so
a ge
Ġl a
7 8
Ġent ertainment
v al
at e
Ġf ive
a g
it ect
u ck
Ġt u
1 8
Ġe very
Ġarch itect
Ġtu esday
s u
Ġc our
Ġle is
Ġleis ure
Ġn or
if ton
Ġcl ifton
2 6
k ing
er s
7 9
ar ch
Ġbo at
Ġl ot
Ġs y
Ġchoo se
s a
Ġarri val
the ir
t ed
re w
Ġp l
w ay
ra f
Ġch rist
Ġt ell
3 3
e p
m ar
mar ket
i re
Ġth ing
Ġnew market
Ġ01223 4
Ġse t
Ġand rew
Ġsy st
Ġcour se
Ġsyst em
Ġse arch
Ġ .
Ġ012233 6
in ity
oun t
Ġ2 2
Ġgre en
Ġmar ri
Ġple as
o f
ld en
Ġarchitect ure
Ġsh ould
Ġh ol
Ġtr inity
Ġpro ble
k o
Ġ3 3
ri ght
Ġproble m
a re
Ġexp ress
Ġcom ple
Ġa sian
c ertain
r oom
ir st
c an
Ġ ?
Ġri ver
Ġc ount
th at
certain ly
q u
c i
Ġstart ing
m iss
Ġdepart s
u d
Ġg raf
Ġsh all
Ġstay ing
miss ion
2 5
r ough
Ġcine ma
Ġmarri ott
room z
Ġch an
ir m
Ġgo ing
for d
Ġf un
al right
g d
Ġf irst
w h
Ġ x
Ġad mission
Ġgo lden
Ġh ond
51 51
Ġhond a
Ġm y
le d
' ll
m w
Ġday s
Ġc ro
i p
Ġta ke
Ġ0122324 5151
r op
3 7
Ġse e
Ġpleas ure
Ġreq u
Ġs ko
Ġle x
Ġsko da
ra y
Ġh all
8 9
Ġj ust
Ġrequ ire
the y
Ġcon f
Ġa p
Ġm ill
Ġlex us
Ġt es
Ġsh add
Ġcall ing
Ġwel l
y n
Ġdepart ment
Ġtes la
a ck
s w
Ġh ut
Ġs ure
Ġ0 8
b ray
on g
and oor
Ġshadd ai
y ot
2 2
Ġto yot
Ġcro ss
andoor i
Ġtoyot a
6 4
Ġa g
Ġb ist
Ġbist ro
olog y
Ġse at
Ġpreference s
9 9
Ġb ack
Ġca l
Ġt andoori
Ġcal led
Ġw ere
Ġsaint s
Ġag ain
u b
Ġfor d
Ġst e
Ġcity roomz
1 4
w i
7 0
Ġche ck
Ġaf ter
Ġb mw
es us
Ġnightclu b
Ġhe re
Ġmatch ing
i ent
Ġreservation s
Ġli sted
b e
Ġl uck
o re
o at
Ġj esus
rough ton
6 8
u g
tra in
Ġma de
Ġpa ra
y al
Ġ out
y le
Ġl yn
Ġs ch
it her
est er
our ne
Ġpool s
Ġsch ool
Ġca fe
Ġno w
en e
Ġmod ern
Ġle ic
thank s
in ce
Ġre a
Ġh am
Ġ012233 0
Ġpic k
Ġleic ester
al ene
Ġham ilton
e x
r ook
Ġ012233 3
gd alene
ol ut
a f
Ġor ient
Ġres ult
Ġthe se
olut ely
Ġorient al
k sw
v o
Ġa ud
um n
Ġvol ksw
Ġaud i
Ġvolksw ag
ment s
Ġthank s
6 9
i day
z e
Ġpara de
w orth
Ġg ive
Ġth an
Ġcount ry
Ġe arl
Ġ01223 90
and os
Ġmeet s
Ġhol iday
h ap
Ġ2 4
Ġma gdalene
hap s
ut umn
Ġearl i
s orry
on s
it ch
Ġ07 9
Ġvolkswag en
st le
Ġca stle
Ġe ither
Ġin n
Ġb roughton
Ġs ound
Ġper haps
s bray
Ġ -
Ġv in
8 6
a bs
Ġ7 9
Ġin fo
Ġresult s
g ood
st ar
Ġli t
Ġchoice s
Ġpizz eria
abs olutely
Ġg ot
Ġlit tle
p ool
Ġel y
p ort
ark worth
all y
Ġlov ell
Ġ15 4
Ġrequire ments
l ing
n a
Ġp et
Ġpr ince
b or
i gh
Ġa utumn
Ġo k
Ġro yal
Ġcomple ted
Ġh ist
Ġk ind
7 1
Ġa yle
Ġw orth
m y
w ich
Ġw ok
bor ough
Ġnor wich
Ġw arkworth
Ġlyn n
Ġc la
Ġc lu
Ġs wi
Ġpart y
Ġt en
Ġ07 6
Ġayle sbray
Ġswi mm
ou in
Ġb et
Ġvol vo
i ra
Ġit s
Ġv ar
Ġpet er
Ġswimm ing
v i
Ġ4 0
Ġpeter borough
d y
88 8
Ġservice s
7 6
x b
Ġg ast
Ġ012233 34
o h
Ġ3 0
Ġd a
al on
Ġser ving
rook es
Ġav alon
Ġintere st
Ġclu b
i et
Ġun su
ue se
u ll
w ork
Ġre st
Ġh igh
bs ons
Ġal i
Ġart work
ug uese
Ġvin ci
Ġartwork s
Ġunsu ccessful
Ġp ort
Ġgast rop
a v
h n
Ġa ir
Ġbed ouin
al a
enb rookes
ke d
Ġsh ow
Ġport uguese
Ġair port
Ġaf r
Ġ012233 5
Ġ0 6
Ġ5 1
Ġ012233 53
Ġafr ican
s c
re n
Ġth en
re d
Ġli st
Ġli ver
Ġsh ort
Ġliver pool
Ġo ver
Ġdown ing
in ches
Ġb ro
Ġun able
8 4
Ġ07 7
Ġconf irm
Ġj ell
Ġgraf ton
Ġch op
ven age
Ġste venage
Ġjell o
f it
g lad
i ple
p o
Ġm ult
Ġmo st
Ġ3 6
Ġnightclu bs
k y
Ġse ven
Ġmat ches
Ġn andos
Ġpa ss
9 6
s h
el ep
Ġo ld
ation al
elep hone
Ġintern ational
Ġmult iple
Ġarch way
Ġ3 7
re ference
an g
Ġpark s
Ġun it
Ġho bsons
z b
Ġc orn
Ġar bury
Ġro sa
Ġlov ely
7 2
op s
Ġsp ort
o y
Ġ jo
Ġt elephone
Ġst an
Ġgastrop ub
Ġb ish
at er
46 46
arl ie
Ġlot s
xb ourne
Ġstan sted
Ġap olog
Ġbro xbourne
a h
t e
Ġ4 7
00 0
Ġ7 5
itch en
Ġk itchen
i qu
Ġbish ops
a e
Ġpro vi
Ġsport s
Ġprovi de
wn ham
Ġne wnham
3 1
6 7
Ġ2 8
z a
Ġc or
er t
ion s
Ġ3 5
Ġf inches
ol ina
Ġ5 0
Ġ9 8
Ġandrew s
k a
Ġ4 4
Ġ4 9
ol ia
Ġ07 8
Ġ6 0
Ġmar y
Ġsp ice
fit i
d er
Ġst ort
Ġy ard
Ġschool s
g er
Ġt oo
at olia
Ġs ame
Ġsu ccess
Ġstort ford
er ies
it ion
Ġ01223 21
Ġq uest
Ġjo hn
m ilton
in h
Ġb inh
Ġgall eries
che d
Ġfit s
i m
Ġb ra
Ġbar n
Ġcla re
ull y
Ġv ic
Ġas k
6 3
Ġch arlie
Ġrea ch
Ġearli est
Ġhist on
4 7
s j
t or
Ġdo jo
l n
Ġcon c
Ġent er
Ġok ay
h i
n ing
Ġ #
Ġm ight
Ġf ren
ol k
Ġsu it
Ġv en
Ġshort er
Ġvic tor
Ġfren ch
Ġvictor ia
Ġ end
lp ha
Ġcar olina
Ġri ght
9 00
Ġin clu
Ġg e
an ish
Ġtrav ell
Ġ8 8
fo re
Ġluck y
ira la
Ġn irala
Ġd u
Ġr ice
24 0
Ġchan ge
Ġbra ss
Ġ01223353 888
1 00
7 3
d p
or g
9 8
o d
Ġm ed
pe e
Ġco ld
Ġmar ket
Ġgarden s
Ġho me
1 49
h al
Ġoffer s
Ġth in
ver ton
Ġquest ions
Ġbrass er
b oat
f ully
n y
9 1
n ame
ou l
Ġint o
gh na
Ġprefer red
ip pee
Ġ0122390 21
Ġge org
Ġcold ham
Ġbrasser ie
Ġa lpha
sta l
x ican
Ġca re
Ġme xican
Ġ07 0
Ġ7 0
Ġlist ing
9 4
Ġo ak
Ġhe ad
mm oy
Ġgeorg ina
Ġv iet
Ġra ted
name se
Ġviet namese
p r
ent y
Ġl ong
it o
Ġle verton
ation s
Ġlook s
ex p
Ġsuccess fully
7 4
a c
Ġ5 6
9 2
i ze
Ġs ite
Ġ5 2
Ġse oul
ment um
Ġgraf fiti
g he
Ġpo stal
ca mb
Ġcost s
iqu ito
d s
p ing
Ġt ur
Ġb irm
ing ham
Ġcl os
Ġper s
good bye
Ġw an
Ġd in
Ġk y
Ġali mentum
Ġbirm ingham
Ġpers on
c ell
in oor
ri ta
Ġth ai
Ġby ard
and le
Ġmar ghe
Ġpl enty
Ġapolog ize
cell ent
Ġmarghe rita
Ġa ct
Ġm iss
Ġu g
Ġ5 3
zz o
Ġri de
Ġhour s
Ġriver boat
w ell
ket tle
Ġ10 5
k ish
Ġan atolia
ab as
Ġ012234 46
wh en
Ġbarn abas
Ġtur kish
f fe
an ge
Ġchurch ill
a q
Ġ3 8
Ġthan h
ch ange
Ġex change
um ping
Ġ16 3
Ġwan ting
andle bury
Ġe at
Ġy ippee
wh ich
ition al
Ġclos est
Ġd ine
ak ka
Ġmiss ing
u ally
Ġd uck
Ġsp anish
oat s
Ġjohn s
Ġ kettle
Ġ012233 36
Ġso ck
ane se
Ġpic ked
Ġthin k
5 66
6 2
c y
e f
f ect
k w
l h
w ill
Ġs al
Ġbe fore
Ġk oh
Ġky mmoy
Ġug ly
Ġkoh inoor
Ġhouse s
a z
t t
Ġare n
Ġfun ky
Ġduck ling
Ġsal sa
k ok
g on
r s
s bury
Ġad c
e an
s ca
Ġb est
er ran
Ġ0 87
it erran
ill ies
ang kok
Ġmed iterran
Ġmediterran ean
l oom
p er
in t
Ġw andlebury
Ġsu ch
camb ridge
a le
i b
Ġb ab
Ġme al
Ġme ghna
Ġpe king
Ġv ue
zb illies
p in
ai gon
Ġseat s
x t
an ic
Ġs c
Ġadd itional
Ġsi x
Ġy u
8 2
d g
d q
n ot
Ġb ot
Ġd ate
era ina
ot e
Ġ07 4
Ġminut e
Ġmu ch
Ġgreen s
loom sbury
Ġp ala
Ġh akka
27 9
Ġbot anic
Ġpala ce
i le
we en
Ġ01223334 900
ri m
Ġ012233 149
Ġpre zzo
Ġ012233149 60
t em
Ġro se
58 7
Ġtheatre s
Ġbet ween
exp ensive
j s
or ld
ave ra
Ġst and
all are
Ġlocation s
rim avera
5 11
k ie
r u
en ny
Ġf ut
Ġf av
Ġde sc
Ġvar sity
Ġfut ure
g l
Ġin expensive
ra tion
Ġb ur
Ġb us
9 3
a el
m ay
n er
p us
Ġb enny
ran kie
Ġno thing
Ġhol y
Ġdu ration
ra id
Ġcamb oats
izz i
rip tion
Ġaf raid
Ġgarden ia
Ġstand ard
Ġdesc ription
f in
us ion
Ġcertain ly
ott o
Ġ012234 52
Ġshow ing
Ġne ar
Ġpass age
0 5
in ling
Ġch iquito
it ely
Ġadd enbrookes
Ġta sca
Ġra za
Ġrea ched
Ġ0122390 20
Ġten pin
fin itely
Ġ01223452 587
s ha
ra ry
Ġnu sha
Ġtr umping
os a
Ġpl an
po rary
Ġtrumping ton
t ime
Ġmo on
Ġbe g
Ġcon tem
Ġgall eria
ple ase
Ġcom ing
Ġfav or
Ġcontem porary
a ct
j ma
r h
en ce
Ġm im
pr ice
Ġact ually
0 2
a x
Ġt e
Ġb loomsbury
Ġis n
Ġof f
Ġ01223 57
Ġ2 9
ine ss
50 6
Ġ01223446 100
Ġbenny s
t u
w orld
Ġ &
Ġp rimavera
Ġl u
Ġe f
Ġneed ing
Ġfit zbillies
add enbrookes
ore an
Ġbus iness
jma hal
Ġmim osa
c b
Ġt ree
Ġc otto
Ġn ine
Ġb allare
Ġst ill
23 6
do or
Ġpic king
Ġbeg in
Ġ eraina
he ad
Ġpo ss
Ġchrist i
Ġout door
l f
Ġa head
st reet
ri es
Ġhe dge
Ġfe el
Ġz izzi
i x
Ġc ote
Ġfind ing
b w
m an
Ġs aigon
23 3
il ity
am a
Ġroom s
Ġcomple te
Ġtravell ing
Ġdin ing
Ġef es
Ġhedge s
0 4
9 7
p s
Ġb angkok
Ġl ater
me t
Ġ012233 57
our met
Ġarch ae
Ġcount y
Ġconfirm ation
Ġarchae ology
f r
u se
Ġp un
it ies
23 20
Ġsou l
price d
b y
Ġin st
ic al
Ġ012233 12
Ġun o
Ġother s
Ġearli er
Ġbur ger
Ġfavor ite
7 5
8 3
d w
f l
u es
Ġs it
Ġ0 19
ir kw
Ġk orean
Ġboat ing
irkw ood
p t
Ġ01223 4646
comm od
Ġra jmahal
Ġun fortunately
Ġop en
ue en
e k
e ad
i v
s it
Ġre f
23 7
ch n
Ġac commod
Ġdoes n
Ġinclu de
Ġ019 54
ou s
Ġg r
Ġtime s
Ġ012233 38
Ġriver side
Ġpun ter
Ġinst ead
9 5
d z
q f
er c
Ġm erc
Ġan th
le t
Ġ1 00
Ġe ven
Ġ3 2
Ġro w
um ford
Ġr un
Ġart s
Ġlu ca
Ġanth rop
6 5
h appy
w el
or y
Ġm umford
Ġf rankie
Ġsh op
Ġj inling
Ġmay be
ust ri
Ġanthrop ology
b d
o wn
t z
u y
x h
en ue
Ġp op
Ġl ast
ar ry
Ġs l
Ġlo ve
Ġ012233 66
51 7
Ġav enue
Ġthing s
Ġback street
Ġ0122330 4
Ġte chn
Ġmerc ers
wel come
b o
Ġk irkwood
Ġv ill
35 3
og y
Ġbet ter
Ġbab a
Ġpop ular
Ġvill age
6 00
c ina
m o
Ġg ourmet
Ġ5 17
Ġ012233 07
Ġ07 3
66 0
Ġ19 1
Ġpass en
c ity
e g
f olk
p p
Ġwi sh
Ġth ong
Ġent ries
and hi
Ġcine world
Ġlisting s
i g
Ġc ook
Ġc ow
Ġw ine
Ġde finitely
Ġ012233 24
Ġavaila b
Ġam er
Ġper fect
Ġcu cina
Ġpl ay
be y
Ġcook house
b ook
Ġg andhi
Ġmeet ing
Ġnor folk
Ġ012234646 46
Ġtechn ology
Ġavailab ility
b ert
h y
s k
s ing
u el
Ġg il
ar ge
Ġs le
Ġhe sit
11 0
Ġ8 2
ak house
Ġq ueen
Ġste akhouse
ore y
Ġcor pus
Ġgil bert
Ġsle ep
Ġhesit ate
c um
r q
Ġ15 2
Ġap pe
ex cellent
Ġconc ert
ac orn
Ġsleep er
8 1
a w
b j
m as
Ġw ater
an uel
Ġst orey
Ġ01223 27
Ġ01223 42
mm anuel
un ction
Ġ7 4
Ġj unction
Ġchur ches
Ġsl ot
Ġsleeper z
a way
p ot
r ot
Ġ est
it s
Ġta j
Ġguest s
Ġne xt
Ġcheap er
57 25
Ġho ld
Ġtake away
book ed
3 88
8 5
e ver
j b
n z
p x
Ġ ve
ur f
ast ic
Ġcon si
ant astic
Ġspecific ations
Ġhead ing
Ġamer ican
g x
re ct
Ġw he
Ġm id
me d
an y
Ġf olk
mm er
Ġchoo sing
0 3
d id
d ne
h x
z ion
Ġa st
Ġd at
Ġd et
Ġf y
sta zion
Ġany time
Ġar ca
Ġrecommend ation
su mmer
Ġboat s
dne y
Ġast rot
stazion e
Ġarca de
0 1223
a ch
m g
s r
Ġg ran
Ġl at
12 4
ad y
Ġmid summer
8 60
j e
j f
j x
k v
n f
n t
p q
p ton
Ġj ub
Ġven ues
279 08
ile e
506 88
arry s
Ġpassen ger
Ġastrot urf
Ġjub ilee
a il
g bp
h o
u p
op per
Ġc ru
Ġc opper
Ġ0 1
Ġle ar
pe ct
Ġpo int
as ha
Ġth ough
Ġ4 51
Ġwh ale
Ġsi dney
ip asha
Ġeven ing
Ġgran de
2 57
j j
k in
w y
Ġ yes
Ġp itch
Ġf usion
Ġ01223 50
Ġnorth am
Ġab bey
us kin
52 5
Ġcl ose
Ġfy ne
Ġnortham pton
0 353
b anese
Ġarea s
Ġch arge
Ġle banese
Ġhe ar
ur ch
Ġ6 8
c r
d ing
s x
Ġf ine
Ġtype s
Ġr uskin
51 6
66 8
90 6
Ġevery thing
er th
Ġca ffe
Ġ4 1
Ġhow ever
Ġcor rect
Ġconc erth
Ġven ue
. .
1 12
a lexander
c urry
g o
n andos
t l
Ġb at
Ġb it
Ġe ach
Ġcamb ourne
Ġme ze
is ers
Ġfe es
ch rist
Ġco cum
Ġmat ter
em an
ci ence
ira z
Ġ0122321 0353
Ġhead ed
Ġ01223336 233
237 37
Ġdet ail
Ġcru isers
Ġlear ner
Ġconcerth all
Ġbat eman
j y
Ġs ala
Ġst op
Ġth rough
ir med
if y
Ġr out
Ġ20 2
Ġconf irmed
Ġhist ory
h g
p b
q y
er g
Ġhot pot
Ġprice range
Ġ07 5
00 60
Ġ6 6
27 4
26 5
Ġvar iet
Ġvariet y
h ill
Ġ stazione
Ġp ipasha
Ġs cience
ri ver
Ġe mmanuel
Ġ01223 52
Ġneed ed
Ġsh iraz
Ġcla ss
Ġplan ning
Ġ0122352 5725
2 23
6 1
7 41
c or
e y
f f
l o
s v
w ard
y u
Ġp ound
Ġg ri
Ġ0 17
12 240
Ġfe z
Ġ012233 00
Ġ15 1
40 2
ffe e
Ġ012239020 91
12240 240
ou ble
ar s
Ġcan not
ow ing
Ġ3 9
Ġco me
Ġco ffee
Ġ13 3
Ġ087 12240240
Ġlat est
Ġdetail s
Ġrout e
5 12
e j
o m
p d
p m
t y
re staurant
mb ar
Ġrequest ed
Ġs ounds
Ġex cellent
Ġj ap
39 7
Ġsit ar
n d
t w
Ġd arrys
Ġs w
Ġe ight
Ġ01223 8
Ġ6 4
am ore
ag am
Ġ01223334 860
Ġgri ll
1 54
6 11
g m
h t
l x
u f
Ġ (
Ġp unting
Ġh a
Ġh k
Ġlo dg
Ġk a
Ġse af
Ġ07 1
Ġ6 3
08 5
Ġhunting ton
Ġcine mas
Ġ012234 741
Ġhigh ly
Ġtravell ers
517 07
Ġjap anese
Ġseaf ood
Ġ012234741 44
en cy
me house
Ġli mehouse
Ġlo ch
Ġ3 1
Ġex pect
il y
ud amore
Ġgr ounds
agam ama
Ġlodg ing
2 00
d b
j v
j ust
n x
t q
u w
z q
Ġ ,
ic k
el er
Ġ1 24
Ġone s
Ġ07 78
Ġent ry
20 8
27 0
Ġarch ael
38 7
Ġsee ms
Ġ012239021 68
Ġbegin ning
fr on
Ġwhe eler
Ġarchael ogy
7 08
el ve
Ġf antastic
Ġca use
Ġar ound
Ġ012233 15
Ġ15 6
Ġget s
Ġ0122333 2320
c l
c v
m erton
p j
q g
Ġd ire
ar ly
Ġ01223 566
Ġ07 2
Ġ7 8
Ġtw elve
Ġ10 8
07 7
59 8
Ġho merton
Ġrose ford
Ġ01223307 402
Ġ0122342 0060
Ġconsi der
Ġka mbar
udamore s
Ġcause way
b z
l it
p izz
Ġprice s
Ġst ro
Ġ8 0
Ġun av
17 0
aila ble
Ġtheat er
Ġ01223357 708
pizz a
Ġunav ailable
c u
f y
h u
i ble
n j
n l
n r
r j
v d
Ġt ang
Ġs af
Ġe arly
21 0
ich ael
29 9
38 2
ther n
Ġnor man
70 5
Ġcorn er
Ġ01223312 112
Ġstro ver
d one
n k
p a
Ġpr ic
Ġ01223 29
Ġ8 3
50 10
Ġwe ek
08 72
Ġfind ers
che l
Ġvisit ing
Ġpleas ant
Ġposs ible
Ġsaf fron
a a
b g
c w
c ould
q s
q w
r f
t ern
u j
v x
w bray
Ġan gl
Ġmo wbray
23 2
Ġhe rs
Ġ01223 51
Ġex act
Ġ5 29
Ġ012233 11
Ġ10 6
Ġ9 6
17 8
60 966
Ġ20 5
Ġwhite hill
Ġlet ting
Ġpl ough
ip ple
Ġ0122321 7
Ġcoldham s
city roomz
Ġqueen s
Ġclass ical
Ġ01223300 085
208 000
Ġpric ing
Ġangl ia
Ġhers chel
l k
p l
t o
z w
Ġt er
ou ple
Ġc re
Ġc ouple
Ġf am
ar ian
Ġs ched
Ġ0 0872
is on
Ġ012233 33
Ġ07 88
24 56
Ġam en
Ġfit ting
Ġten ison
Ġsc udamores
Ġsched u
Ġ00872 208000
Ġ01223333 516
b t
f is
h l
j m
o c
p ri
v m
x a
Ġ ran
Ġp an
Ġw agamama
Ġde sk
Ġwh ipple
50 9
59 9
46 00
888 2
sc ent
Ġ01223336 265
Ġposs ib
Ġ01223366 611
Ġ01223304 705
bo th
mo st
274 10
Ġcre scent
a fe
b rook
s ame
w s
Ġ er
Ġre ally
Ġm ichael
Ġca se
Ġhe ld
Ġall owing
ai d
Ġ6 9
Ġspecif y
Ġcl ar
lit tle
2 21
3 54
4 46
b i
f w
g raf
m f
p hone
q b
r l
w onderful
x y
z c
Ġ ed
ent ion
Ġc at
Ġh ong
Ġg ir
el ix
Ġm ention
Ġl and
Ġf elix
Ġs lu
Ġrange s
23 8
Ġ4 2
Ġ3 27908
Ġor der
Ġ012233 55
Ġ7 1
Ġma hal
orn ing
Ġking fis
40 50
Ġget ting
Ġwhite house
Ġlet tu
42 8
22 2
Ġ012239021 12
566 4
668 00
Ġgir ton
Ġslu g
Ġ01223355 397
Ġkingfis her
Ġlettu ce
a ut
q a
Ġa ustri
Ġm orning
Ġrequest s
27 7
Ġlyn ne
Ġinclu ding
own s
Ġ012238 66800
Ġamen ities
Ġaustri an
b n
d t
d x
h s
i z
i king
j k
r g
r k
v b
v f
z k
z t
Ġ ye
he ep
Ġb u
Ġp as
Ġd ouble
de ed
12 660
Ġoffer ing
Ġbe aut
Ġ012233 54
if ul
Ġ6 2
Ġwant ed
10 18
59 6
Ġhin ch
no wn
87 7
78 1018
Ġ0122336 5664
qu ale
Ġmill ers
70 2
Ġ0122330 4050
71 4600
Ġsc ott
Ġ012239020 88
Ġ01954 781018
Ġ01954 714600
Ġest ate
Ġpas quale
Ġbeaut iful
4 51
d i
g ing
p ark
y c
y r
Ġwith in
Ġ7 10
15 5010
Ġfit z
Ġarchitect u
Ġ36 5
Ġdin ner
Ġclar ify
5 52
d h
i j
i us
l j
m u
z f
in brook
Ġre ta
Ġb art
Ġw or
Ġg rant
Ġl an
Ġs qu
Ġca ius
12 41
Ġ01223 7
Ġ2 5
Ġse same
Ġv iking
00 170
51 66
Ġ13 9
Ġ9 9
Ġind ustri
Ġcould n
Ġcl owns
38 30
way s
64 12
Ġ0122330 257
Ġ40 428
Ġ0122335 1241
ah ar
Ġ087 155010
124 30
Ġed ward
Ġhinch inbrook
Ġarchitectu ral
Ġreta il
Ġbart on
Ġgrant a
Ġindustri al
k nown
l q
x s
Ġh un
Ġm et
Ġd river
Ġs ort
Ġs afe
Ġany where
ta ble
Ġse em
Ġwh ile
11 8
Ġind ia
Ġnew s
Ġtake s
Ġswimming pool
Ġapolog ies
Ġaccommod ate
Ġ01223315 702
c on
i y
k f
m p
t b
v h
x d
z n
ra me
an gh
Ġs heep
Ġst yle
mm as
Ġ4 6
Ġ3 50688
Ġ5 66
Ġ07 30
Ġr ing
Ġun der
Ġ6 19
Ġsh angh
Ġal ways
42 22
Ġ0122357 6412
Ġ01223324 600
pri se
Ġ0122330257 9
Ġ087155010 10
Ġshangh ai
b q
c la
e w
g n
i al
o me
Ġ en
Ġa cce
Ġre ady
th is
Ġs ay
ro sa
Ġ012233 23
Ġwas n
Ġ07 60
ia m
Ġ16 9
14 80
per fect
Ġinclude s
Ġexpect ing
park side
Ġsqu are
1 88
7 34
9 11
c g
c j
g og
m n
u x
w f
w k
x q
z m
z y
Ġp ress
Ġp ern
Ġl ion
Ġan t
Ġf ar
Ġs il
23 60
12 60
Ġ01223 2
Ġne are
Ġ3 51707
24 8
58 0
51 59
Ġun known
Ġ13 8
88 0
29 6
10 4
Ġ14 4
87 45
Ġhour ly
ab ase
Ġla mmas
Ġ0122333 2360
Ġenter prise
Ġ01223304 906
Ġ01223324 222
Ġdat abase
Ġ0778 221
Ġfam ily
Ġran ging
Ġpan ahar
446 000
Ġpern e
Ġsil ver
Ġneare st
Ġ0778221 8745
r t
v k
Ġ "
er o
Ġ0 1480
ro yal
es ome
Ġcheap ly
Ġrating s
Ġj ama
20 2
Ġtheat ers
Ġinterest s
Ġ01480 446000
Ġjama ican
2 51
8 51
b h
b erg
c m
i ous
j d
j q
r v
s n
v c
v g
v n
v ie
w b
w d
Ġin qu
Ġin deed
ra ham
el berg
ar ri
ge t
Ġtrain id
Ġhe id
ut e
Ġ5 7
Ġ07 58
Ġ07 79
11 1
51 880
Ġma gog
30 6
07 4
50 17
Ġgo g
52 64
59 1
87 86
Ġ0122336 4222
Ġconf usion
Ġ08 451
Ġcheck ing
Ġ40 210
ren t
Ġ36 2456
96 2320
Ġ012239021 58
tt y
Ġbab raham
Ġrun ning
go lden
Ġ017 99
Ġmention ed
Ġheid elberg
Ġ08451 962320
b b
i k
p table
y h
re s
Ġc ur
Ġre cor
Ġp urch
Ġh ad
Ġf are
Ġf rame
ch iquito
Ġcol ville
Ġ0122324 3830
Ġz ero
Ġap p
Ġinterest ing
te en
iqu es
will iam
Ġaccommod ations
Ġfitz william
cla re
Ġacce ptable
Ġcur rent
Ġpurch ase
i ence
j u
p f
p h
q e
s f
s m
v q
w g
x f
re ady
Ġst ur
23 30
Ġth orn
ch urch
Ġ3 54
Ġ3 60966
Ġex hi
Ġ5 4
Ġ5 9
Ġ012233 279
Ġ012233 23737
Ġra ther
Ġpre tty
Ġ8 9
Ġ13 2
Ġ11 0
20 10
50 4
56 5
Ġreg ard
55 5
18 591
Ġnor thern
68 1
Ġ40 270
Ġ35 5166
Ġ078 077
Ġ0122329 5264
509 14
Ġmichael house
Ġ566 388
Ġstur ton
Ġthorn ton
Ġexhi b
Ġ012233279 78
Ġ078077 18591
c ked
e h
m ore
n s
p en
w r
Ġ et
Ġt ran
ra ce
he s
Ġp m
el f
Ġs ir
Ġe m
Ġde si
Ġtable s
Ġma king
50 15
Ġal ready
ab l
Ġ0122330 2330
Ġappe ars
Ġest abl
Ġant iques
1 87
2 525
5 00
a u
b k
c c
c n
j c
n n
n w
o ll
r x
r or
s elf
v p
w c
w m
w w
w ick
x p
z l
an atolia
Ġany more
12 299
Ġdep end
Ġ3 23737
Ġ012233 59
Ġ012233 50914
Ġ07 46
Ġ07 39
21 38
24 00
Ġsi dg
39 0
35 5
34 71
32 00
36 1
77 900
79 42
70 15
86 50
Ġ0122335 5159
Ġ01223446 104
525 00
Ġdire ct
Ġter race
Ġer ror
Ġrecor ds
Ġestabl ish
g onville
h k
i q
m in
n i
t il
Ġ ke
th en
ro ke
Ġ2 41
Ġse c
Ġ7 2
Ġun til
Ġ17 2
53 14
Ġqu ery
Ġ012234 77900
Ġmarri ot
Ġ01223334 200
Ġnear by
Ġ0122357 5314
Ġdat es
Ġexact ly
3 34
a j
g v
h d
h q
k p
s b
t p
t x
u v
x o
y k
z p
Ġre vie
Ġh ap
Ġm al
Ġd one
mb roke
an h
Ġf ull
Ġwi de
Ġ2 44
Ġche cked
Ġ3 56
Ġ012233 50688
Ġ07 07
Ġ07 54
Ġ07 08
Ġ07 27
Ġ8 12660
Ġstation s
Ġsome where
Ġpol ar
77 66
po st
110 53
Ġve get
Ġ0122350 33
Ġ01223566 388
Ġ01223311 6
Ġ01223217 118
Ġschedu le
Ġcurrent ly
Ġtran s
Ġsidg wick
Ġveget arian
b ridge
e ven
g y
h c
o on
u h
v el
Ġa ust
th anh
ay sian
Ġname d
ction s
Ġu se
all enbell
il ities
Ġso on
Ġassist ing
Ġ19 6
be fore
Ġ0122335 5017
exp ress
Ġact iv
511 511
Ġpossib ly
Ġdesi red
Ġrevie ws
Ġhap pen
Ġmal aysian
Ġaust ral
1 66
4 00
6 16
7 660
7 877
8 43
b angkok
d f
g q
i i
j a
j ah
s ounds
u a
v y
w q
x c
x m
z o
z s
ra jah
Ġp umping
Ġw ent
Ġd anish
me mber
Ġnumber s
ll y
Ġar range
Ġel even
dd ars
Ġth om
Ġ2 51
Ġ2 90
Ġche ddars
Ġ4 00170
Ġ4 12430
Ġ3 28
Ġ012233 35
Ġpe as
Ġ07 24
Ġ07 56
Ġ07 77
Ġ07 99
00 89
Ġ8 6
17 63
88 71
60 55
46 7
Ġam az
Ġwork s
41 3
80 2
19 4
Ġcom p
49 17
Ġdid n
ha rajah
79 77
Ġ0122336 8650
Ġ0122333 2138
Ġ40 4
92 24
Ġperson ally
ps ons
Ġ01223338 000
any thing
Ġthrough out
erg ency
Ġwor ked
church ill
Ġexhib ition
Ġem ergency
Ġthom psons
Ġ01223335 511
Ġamaz ing
b roughton
f inches
g u
l ogy
o e
s aint
t i
u c
v a
v w
in es
Ġre member
Ġh aving
Ġm i
me ghna
ed b
ere d
Ġhe ard
Ġ01223 511511
Ġ07 26
Ġma harajah
Ġj ourne
Ġtry ing
Ġ0122324 7942
ug hes
Ġbarn well
Ġappe al
aw esome
Ġsw iss
tern oon
Ġjourne y
4 66
5 34
6 79
7 55
9 01
b m
c s
d n
d ed
f g
h ar
k q
l c
n g
o ld
p k
p u
p z
s ue
u bs
w l
w v
x e
x v
y f
z r
Ġ !
ou p
or tra
Ġp ortra
Ġg i
Ġl ank
ay side
Ġs ri
23 72
Ġcan t
Ġ01223 46
as hley
ur gh
Ġ5 8
Ġ012233 27908
Ġpe mbroke
Ġ07 49
Ġpart s
21 6
Ġr u
Ġ7 32
ia ms
Ġcar ib
66 53
Ġj edb
Ġ11 3
54 78
08 681
52 6
27 25
35 7
Ġ18 3
Ġal most
Ġqu ayside
Ġ0122324 7015
Ġ0122324 0089
44 8
Ġcour t
be an
Ġ0122333 3200
Ġ0122333 7766
Ġ24 8882
Ġgastrop ubs
Ġgr oup
Ġve re
512 2
Ġ0122351 9224
Ġhun g
Ġ354 382
Ġet c
Ġ012235033 33
Ġportra its
Ġlank an
Ġcarib bean
5 29
b an
k k
k s
o i
s p
v ely
Ġa ccess
Ġf a
Ġf act
Ġwill ing
Ġ012233 56
Ġk os
Ġ07 12
Ġ07 34
21 9
24 7
ly n
Ġ9 4
Ġtravel s
bs on
Ġcu ban
Ġaf ternoon
53 3
Ġho bson
Ġ0122336 8786
89 88
act ually
Ġ0122357 5122
ho bsons
graf fiti
Ġregard ing
1 46
1 80
3 00
4 07
7 50
8 07
8 111
9 77
b f
c f
c q
g f
g s
j l
l m
n q
p n
r b
r d
s d
s aigon
v l
w as
x u
x x
x z
z d
Ġp aid
er man
Ġh ilton
Ġh ughes
Ġg erman
co m
Ġmo ment
Ġpr int
23 54
de finitely
Ġ01223 84
Ġbe ing
Ġme an
Ġgre ek
Ġ3 15
Ġse ction
Ġ07 19
un iversity
Ġ7 27410
58 1
Ġ9 0
Ġpla za
20 54
29 2
40 4
46 2
32 565
90 3
do es
53 355
ham ilton
Ġsearch ing
Ġcro wn
Ġ0122333 2400
Ġshort en
Ġ0122327 6653
Ġ0122342 5478
Ġ0122350 6055
Ġ01223566 188
Ġ0122351 8111
Ġcat har
Ġbu dge
Ġ241 387
post code
Ġjedb urgh
Ġ0122384 2725
Ġ315 232
f rankie
g ot
h unting
p re
q h
q m
w o
Ġre sta
Ġi de
Ġp ut
Ġw a
Ġd rop
Ġf ac
Ġyour self
Ġ2 6
Ġ3 4
ur ing
Ġloc ate
Ġexp er
Ġ07 57
Ġsel e
51 53
Ġma in
Ġal tern
Ġdeparture s
Ġdon t
Ġaf ford
Ġsp ot
Ġnarrow s
Ġ0122336 7660
Ġ01223353 248
Ġinclu ded
Ġthin king
Ġsit es
Ġ0122327 7977
Ġke ep
Ġtrans port
Ġkos her
Ġbudge t
0 30
2 12
3 58
3 30
3 17
3 60
b c
b r
e e
f n
f t
g c
h j
i ed
k b
k d
k z
l z
m c
m r
n u
p c
q k
q l
q p
t n
t v
t ree
u q
x g
y y
y z
z h
Ġc ate
Ġi ri
Ġm or
Ġl ate
Ġd uring
Ġf in
Ġs ince
Ġs aid
le sbray
ss ian
ye ah
pe king
tra vel
Ġcent ra
Ġta king
Ġ2 00
Ġwill iams
Ġ012233 48
Ġ012233 52500
Ġ07 21
Ġ07 11
Ġ07 17
Ġ07 59
Ġ07 01
Ġ07 36
Ġ07 38
Ġ07 06
Ġ07 89
Ġ07 69
00 59
un t
51 8
Ġ11 6
54 0
Ġgo es
27 6
Ġal right
Ġper sian
do jo
Ġreg ency
ca fe
13 1
49 4
18 4
Ġ012234 12299
Ġ0122336 3471
Ġhall s
Ġsuit able
Ġ52 1260
Ġ01223357 851
iv ely
Ġdouble tree
Ġ012237 27410
con tact
Ġsec ond
Ġaustral ian
Ġru ssian
Ġcrown e
Ġcathar ine
Ġafford able
Ġcate g
Ġiri sh
c ine
f antastic
i er
q ue
r on
s ic
z en
st and
Ġi m
Ġg h
Ġd ue
ed ish
one se
et ian
Ġcho se
Ġdo zen
Ġwith out
Ġth ir
Ġ4 8
Ġrecommend ed
Ġon ce
ir ing
Ġ07 40
Ġmu st
Ġam ount
Ġ0122324 7877
Ġsee ing
Ġ0122330 2010
Ġven etian
Ġ01223312 843
Ġsw edish
Ġye t
Ġcant onese
pre zzo
3 77
5 57
6 20
6 57
7 09
7 966
8 28
9 448
b a
c d
d v
f m
f s
f irst
g t
h f
j n
j p
j w
j z
k l
l i
l r
n b
o j
q c
r n
s ala
t f
u al
v s
v u
v ent
w a
w z
w ery
x r
z v
ra unt
Ġb ill
ay lesbray
Ġs end
23 1
23 9
12 598
ro logy
Ġ01223 44
Ġ01223 512
Ġ4 32565
Ġloc al
Ġ012233 51707
ensi vely
Ġ07 00
Ġ07 51
Ġ07 50
Ġ07 15
Ġ07 16
Ġ07 09
Ġ7 6
24 5
58 3
and o
66 66
50 1
60 60
Ġbre wery
Ġ14 1
Ġkn own
Ġpol ish
Ġspecific ally
16 074
Ġpro v
42 64
77 1
77 86
48 100
78 6
Ġchrist mas
train s
Ġvar y
Ġda le
Ġrest ate
Ġ0122335 0059
fit zbillies
camb oats
oc can
graf ton
Ġ012237 48100
Ġexper ience
Ġtransport ation
Ġmor occan
Ġcentra lly
) .
. ,
3 21
8 26
b ed
c p
f ic
j inling
l t
m ight
s l
w ha
Ġn ando
Ġd el
se s
Ġf if
Ġca b
Ġadd res
Ġhelp ing
as ian
Ġmin s
Ġun sure
Ġab s
88 42
Ġbar be
ase d
Ġspec ial
do wn
Ġnarrow ed
Ġ0122333 5153
Ġ01223353 110
Ġbro ad
ky mmoy
Ġperson al
by ard
Ġopen ing
Ġconsi d
Ġwhe ther
Ġconcerthall s
Ġschedu led
Ġpossib ilities
Ġswimmingpool s
Ġinqu iring
Ġdirect ly
Ġestablish ment
Ġhung arian
Ġ01223512 596
Ġprov id
2 50
3 39
3 78
3 270
5 599
8 17
9 08
9 80
9 38
a utumn
b x
c ote
d u
d ir
f d
f h
h b
h r
j t
k j
k m
k u
m z
o b
o q
s q
s se
v r
v t
v ell
x j
x k
y ippee
z i
he ll
Ġp ast
Ġg ues
Ġg wy
Ġd is
Ġf ul
Ġf oll
ar y
ce pt
one sian
Ġcent ral
ro ss
Ġpo lyn
Ġ01223 69
Ġhelp ed
Ġbe ca
es ian
ch arlie
Ġ3 51880
Ġ3 12598
Ġexp ensively
Ġ012233 06
Ġ012233 51880
Ġ012233 11053
Ġ07 10
Ġ07 80
Ġ07 44
Ġ07 37
11 7
Ġsou thern
Ġco mm
58 5
51 54
66 2
30 71
Ġind onesian
20 9
20 94
50 2
88 00
29 3
29 87
19 9
Ġqu al
Ġ0122324 8882
ie ve
Ġbel ieve
28 6
add ress
su ccess
Ġ0122336 1763
Ġ0122336 2372
Ġ0122336 3270
Ġ0122336 5599
Ġ22 5
25 12
89 9
Ġ01223357 187
Ġ01 462
Ġcome s
Ġha ven
Ġ01223311 911
599 88
Ġ01223323 361
Ġ01223359 750
min ute
Ġ356 555
526 07
Ġfa ir
Ġcateg ory
cine world
bed ouin
Ġbroad en
hell o
Ġgues house
Ġgwy dir
Ġpolyn esian
Ġ0122369 4264
Ġbeca use
c ast
c her
f rom
i ld
r ing
Ġt ou
Ġn ap
Ġw on
Ġh op
Ġh al
Ġm is
an cy
Ġf oo
Ġf all
Ġbooking s
Ġe ver
Ġtr ouble
al i
Ġlo w
Ġne u
Ġne ither
Ġex cept
gh an
Ġcon ven
41 87
Ġspecific s
Ġup sca
56 8988
Ġlet s
14 7
ho me
Ġlodging s
Ġdire ctions
Ġscott ish
Ġapp ro
Ġactiv ity
hunting don
wha le
Ġfif teen
down ing
Ġconsid ered
cast le
cher ry
Ġupsca le
1 07
2 60
2 580
3 51
3 19
6 29
6 59
7 54
8 08
8 39
9 58
9 89
b l
b loomsbury
d m
e z
f k
g z
h h
k c
l s
m t
m v
n c
n p
o z
o ver
o jg
p w
q z
r r
r ice
t en
t ely
u z
v v
x w
y p
y s
z u
Ġt us
Ġm ood
at ure
ar bury
Ġnu m
Ġs ing
Ġs ur
le igh
Ġ0 124
Ġle ast
23 0
12 6
Ġ4 3
Ġ4 50
Ġ4 13
ad c
Ġex am
xi m
Ġ012233 240
Ġ012233 236
Ġ012233 60966
Ġ012233 16074
Ġ012233 52607
Ġ07 66
Ġ07 35
Ġ07 13
Ġ07 18
Ġ07 33
21 8
un ch
Ġeast side
11 00
Ġ8 4
Ġ9 2
30 9
88 60
Ġac ross
29 0
Ġ14 3
59 4
27 53
46 8
39 3
39 42
Ġspecif ied
41 49
57 67
56 1
56 4
36 3
Ġcuis ines
ter s
28 3
Ġ0122336 4917
Ġ0122336 2054
Ġcomple tely
89 8
wi se
Ġ0122330 2580
Ġ0122333 8800
Ġ0122333 1100
Ġvar ious
76 5
Ġ30 2
Ġ0122335 3071
Ġ0122335 3942
Ġ36 2525
74 23
Ġsc and
Ġbur leigh
Ġ01223312 598
Ġ01223338 400
Ġ01223366 202
600 3
Ġ01223307 030
Ġappe ar
Ġ0122350 5015
cor pus
Ġ01223354 382
Ġ01223354 755
tb all
Ġunder stand
251 5
Ġ012233116 25
Ġide a
Ġabs olutely
Ġnap ier
Ġhop ing
Ġfoo tball
Ġappro xim
Ġtus can
Ġ0124 54
Ġ413 000
Ġexam ple
Ġ012233240 33
5 219
b our
e b
e mmanuel
f u
i od
k i
l b
o v
r ic
y q
Ġt ri
Ġt our
ic ine
Ġb as
Ġb ased
er ify
Ġs m
ce ss
Ġ0 2
Ġca m
Ġcan c
Ġwel sh
Ġ01223 568988
Ġv erify
24 1
Ġper iod
Ġri ding
Ġbel g
Ġsuggest ion
Ġ0122336 2525
Ġprovide s
98 59
Ġmed ical
Ġmed icine
Ġ01223336 540
gl ish
.. .
Ġ0122329 2094
Ġen glish
Ġ01223323 178
Ġ012232 59988
Ġmi sta
Ġsele ction
Ġapproxim ately
Ġtri ed
1 44
3 35
4 12
4 58
4 10
4 277
6 10
6 36
6 18
7 06
7 44
7 69
8 27
8 46
8 34
9 90
9 55
9 49
a o
b ack
c ar
d k
d l
f c
f p
f z
g j
g w
h v
h ope
h akka
i h
j r
k g
k h
k n
k x
k en
l g
l w
l ook
m h
m j
n h
p ed
q d
q t
q v
r p
t c
t d
t g
t j
t own
v z
v ian
w x
y b
y w
y x
z j
z x
Ġt d
Ġn t
Ġp ub
Ġp ull
Ġw oll
Ġg pb
at ology
Ġf ully
Ġ1 23
Ġ0 184
de p
12 9
Ġ01223 413
al an
as k
Ġ3 00
Ġ3 53
Ġ3 08681
ast on
Ġ5 53355
Ġexp and
Ġ012233 30
Ġsu sse
Ġ07 43
Ġ07 90
Ġ07 48
Ġ07 70
Ġ07 86
if ic
00 5
Ġeast ern
24 20
and i
Ġ10 7
51 9
51 70
66 7
20 25
20 83
88 6
88 13
54 5
54 84
Ġy o
60 3
29 00
52 2
27 330
46 30
39 5
57 9
43 8
Ġtrip s
56 9
36 82
45 50
19 3
clu b
no thing
Ġreg ion
16 9
06 37
Ġ0122324 49
Ġ0122324 4149
Ġ0122324 4277
ina vian
77 6
77 55
77 977
Ġz e
Ġz k
26 1
arch way
Ġ012234 00170
Ġ012234 12430
Ġ0122336 3682
Ġconf use
Ġcross over
99 00
Ġ0122333 2900
86 20
Ġclu bs
Ġ30 8871
Ġrest urant
Ġcor sic
47 48
Ġsuit s
82 07
93 131
02 54
Ġ01223307 581
Ġ017 33
Ġ012238 12660
Ġha em
Ġ01223315 232
Ġ072 29
Ġcat alan
Ġ46 4630
Ġdepend ing
Ġ244 277
Ġ012233116 87
Ġ0122346 2354
Ġaltern at
Ġgh andi
Ġthir teen
Ġ0122344 8620
Ġaddres ses
Ġprovid ed
Ġfair ly
Ġconven ient
Ġ012233236 39
2753 771
Ġscand inavian
Ġ012454 93131
846 4
Ġwoll aston
Ġ0184 2753771
Ġ01223413 000
Ġ01223330 906
Ġsusse x
Ġ012232449 55
Ġconfuse d
Ġcorsic a
1 387
4 32
7 19
b allare
d red
d arrys
i u
i ry
l ic
t ry
Ġt on
Ġre l
Ġb a
Ġf ancy
Ġat t
Ġpr op
it es
Ġu k
Ġfe ature
Ġres p
Ġr q
Ġwest side
Ġmu sue
10 2
us ual
Ġwork ing
Ġal one
41 34
Ġaf ghan
Ġsat is
Ġad ress
ko h
Ġ0122330 8871
af ter
vi ous
Ġda ily
Ġ0122321 73
Ġconc ern
05 52
Ġlast s
river boat
lo vell
Ġter ri
Ġye ar
Ġwor ries
Ġhun dred
arri ve
Ġestablish ments
Ġ01223356 354
Ġwa it
Ġim port
Ġdozen s
Ġfoll owing
Ġgueshouse s
Ġbelg ian
car olina
Ġfeature s
2 59
2 53
4 20
4 54
4 216
5 390
6 54
6 41
6 76
7 59
8 903
9 30
9 561
b v
c z
c all
c ue
d j
e q
f v
f x
g a
g ers
h p
i at
j i
k r
l v
l ist
m x
n us
p g
p rimavera
q j
q r
r m
r di
t k
u o
v ue
w p
w ere
w arkworth
y o
re t
Ġt ons
Ġa w
ic ious
ra t
Ġc w
Ġc le
Ġc reat
Ġi g
Ġp d
er on
Ġw orld
Ġm n
Ġl w
Ġd k
Ġd ri
Ġis sue
Ġan sw
me ters
ot el
Ġo y
Ġ1 12
Ġ0 3
Ġe c
Ġe h
Ġe vent
12 1
Ġthere after
Ġ01223 59
as on
Ġ2 64
Ġ2 77977
Ġ4 14
Ġ3 11053
Ġ5 77
ta j
Ġ012233 08681
Ġv a
Ġv j
Ġ07 23
Ġ07 20
Ġ07 52
Ġ07 64
Ġ07 76
Ġpre vious
Ġman age
Ġ15 0
11 5
11 59
11 63
Ġreserv ing
24 6
Ġ10 2
Ġun usual
Ġun list
Ġ6 1
Ġ6 00
66 1
Ġ9 42
Ġ9 180
Ġj z
Ġ11 5
Ġ11 8
07 5
07 6
20 6
20 45
17 91
50 56
88 7
54 54
60 4
60 5
29 74
Ġ12 2
10 8
Ġ14 0
Ġchest eron
52 8
52 25
52 1260
Ġother wise
59 21
40 6
46 51
Ġ18 9
41 4
01 89
57 29
43 19
56 7
80 3
80 6
Ġdown town
16 7
16 81
53 1
87 0
06 35
Ġbel fast
Ġ01223358 899
Ġsuggest ions
Ġz b
Ġstart s
28 00
48 1
48 59
26 9
Ġ0122336 7755
Ġ0122336 4319
Ġcomple x
25 34
99 37
Ġste v
70 40
68 34
Ġpara meters
Ġ079 7
Ġkind s
Ġ01223334 898
Ġ0122335 6666
Ġ0122335 6060
Ġshort ly
po int
47 4
Ġeat ing
Ġ087 1
Ġaccommod ation
Ġ01223338 901
Ġ01223338 300
Ġ01223366 552
Ġpassen gers
85 30
Ġlat in
Ġ01223300 552
Ġ01223354 679
Ġ01799 521260
Ġ01223359 506
Ġ244 955
166 1
616 3
ua rant
Ġcomp any
534 8
Ġgi ven
Ġ01223356 555
807 0
Ġresta raunt
Ġfac ility
Ġ01223348 3
Ġdel icious
Ġbarbe cue
Ġful bour
Ġcomm on
Ġhal al
Ġneu rology
Ġnum er
back street
Ġ353 110
Ġhaem atology
Ġalternat ive
Ġimport ant
Ġ577 786
Ġunlist ed
Ġfulbour n
0 24
3 12
3 38
4 23
8 33
9 78
9 26
c id
c ong
d itional
g ourmet
i se
m it
q n
q ueen
w andlebury
z izzi
Ġt ex
he d
or s
Ġb ring
Ġp ul
Ġp lu
Ġw r
Ġtra ditional
Ġhot e
Ġ0 0
Ġle ss
Ġany th
23 178
Ġel der
dd le
Ġelse where
Ġta l
Ġme ant
end ing
ol y
Ġro man
Ġres pect
un der
07 88
Ġop erat
Ġas ked
35 77
Ġlook out
Ġ0122324 1387
Ġad just
Ġz ip
Ġentertainment s
ers borough
Ġ0122336 2456
Ġrequire ment
Ġap point
star s
Ġpet ersborough
Ġquest ion
Ġfavor ites
Ġ01223338 600
Ġ012232 27330
arri ving
Ġactiv ities
Ġdrop ped
321 1
ten pin
Ġbas que
Ġcanc el
Ġpub lic
koh inoor
Ġmanage d
Ġnumer ous
Ġpul led
Ġelder ly
Ġroman ian
Ġappoint ment
- -
0 49
1 34
1 502
2 07
2 56
2 292
3 11
3 59
4 765
5 58
5 59
5 36
6 77
6 110
6 357
7 57
7 87
7 802
8 494
8 199
9 87
a val
a lpha
c x
d an
e i
e en
f q
g i
g p
g all
h z
h oly
i o
i w
j h
m i
m k
m l
m q
n v
n one
p v
r c
r w
r z
s ion
s pot
t andoori
u me
w j
x l
x n
re f
re ci
Ġt j
ent rance
ra te
ra jmahal
Ġc y
Ġre ason
or dan
Ġn s
Ġb l
Ġb s
Ġi h
Ġp y
er v
Ġw v
Ġh h
Ġh j
Ġg ave
at ing
at ively
Ġl arge
Ġd b
Ġd arry
an age
se d
th ree
th ose
Ġf f
Ġf z
Ġo we
Ġhot spot
Ġ1 88
ed iat
Ġst ick
23 4
Ġe p
Ġcamb rdi
Ġ01223 500
al and
Ġ2 26
Ġu q
Ġu z
Ġ4 12299
Ġ3 11
Ġ3 66
Ġ3 23178
Ġsu ff
Ġ07 29
Ġ07 87
Ġ07 28
Ġ07 84
Ġ07 511
21 30
21 53
Ġwest ern
11 4
11 9
Ġ7 7
24 33
58 9
58 74
Ġ8 7
Ġ8 28
66 9
66 88
Ġj ordan
30 7
30 43
07 1
07 2
20 21
20 61
50 8
88 24
Ġsi ze
Ġac ute
Ġac com
54 3
54 6
54 01
Ġy y
29 39
Ġq a
15 37
59 2
27 30
27 15
46 3
46 26
46 79
46 98
39 48
34 1
34 5
34 9
57 11
57 37
32 8
Ġcl in
90 9
38 6
19 23
16 8
09 27
09 95
87 92
Ġpro cess
Ġ0122324 99
55 07
44 9
44 66
42 12
42 56
77 0
77 33
Ġpa ediat
49 75
Ġz f
Ġz j
Ġz n
28 26
48 2
18 28
26 21
79 2
79 31
room s
25 30
Ġx v
Ġx y
37 4
37 02
99 69
68 4
68 38
69 71
Ġ079 6
Ġ079 56
Ġten sion
Ġ076 23
76 1
76 56
Ġ36 8786
Ġ36 3471
Ġ36 1763
Ġ36 4917
31 38
63 34
Ġreach able
149 9
Ġ012239021 16
Ġ070 4
05 23
Ġ012234646 30
Ġ01223338 100
600 9
Ġperfect ly
Ġsteakhouse s
Ġ41 518
Ġ017 335
154 9
Ġpan asian
arri val
res erv
Ġapp reci
500 9
Ġ356 354
901 6
557 0
Ġopening s
Ġ01223306 283
989 2
Ġcam pus
Ġmista ke
827 2
dep art
Ġze aland
Ġrel atively
Ġresp on
nus ha
Ġaw esome
Ġstev anage
cong rat
Ġrespect ively
aval on
gall eria
Ġcambrdi ge
Ġ01223500 005
Ġ311 911
Ġ366 668
Ġjordan s
Ġaccom od
Ġ012232499 55
Ġpaediat ric
Ġ017335 53355
! !
8 36
8 533
a pe
b ab
g ery
h m
h ic
h otel
j we
m il
s y
s en
w agamama
Ġ ot
re an
Ġre c
Ġb uy
Ġp at
Ġw y
Ġh i
Ġh and
Ġm t
Ġis su
le ss
co cum
Ġfor got
Ġprice y
fere d
Ġ0 4
it rean
Ġcho sen
Ġe as
Ġde al
Ġta ken
Ġ4 5
ut er
ul ations
ap orean
Ġ07 42
Ġra te
Ġmin e
Ġcar di
Ġser ver
51 5
Ġ9 7
07 21
Ġas king
Ġsi mil
Ġal ot
Ġal ong
ma gdalene
ott en
ab bey
Ġmy self
Ġhist or
76 10
Ġmost ly
sh all
Ġchange d
ig n
Ġve hic
01223 24
river side
lo ch
Ġweek end
Ġer itrean
Ġinqu iry
Ġcomp uter
Ġappeal s
Ġappeal ing
Ġfac ilities
Ġspot s
Ġqual ity
Ġtou rist
Ġmis under
Ġsing aporean
Ġton ight
423 5
978 1
Ġtex t
Ġtal king
Ġappreci ate
congrat ulations
Ġissu es
Ġcardi ology
Ġsimil ar
Ġvehic le
0 10
0 467
1 58
1 581
2 54
2 000
3 32
3 80
3 596
4 29
4 08
4 34
4 170
4 202
5 50
5 32
5 38
7 24
7 40
7 38
7 49
7 309
8 38
8 387
9 17
9 41
9 19
9 533
9 276
9 102
a ce
b ut
c otto
d c
e a
e o
f un
g b
p ounds
p ipasha
q i
s lf
t elephone
u k
v j
v ol
w t
y g
y i
y j
y t
Ġ ic
Ġ oo
Ġ zz
in deed
Ġt b
Ġt f
Ġt g
Ġt p
en u
Ġa o
Ġa y
Ġa z
Ġint end
st ood
Ġc ut
Ġc ool
Ġn d
Ġb q
Ġb ell
Ġb unch
Ġi a
Ġi j
Ġi v
Ġp w
Ġw p
Ġw s
Ġw z
Ġh c
Ġg j
Ġg k
Ġg dp
Ġg otten
Ġm c
Ġl g
Ġl k
Ġl n
Ġl p
Ġl x
Ġl unch
Ġd g
Ġd x
se ss
Ġf k
Ġf t
Ġs d
Ġs g
Ġs q
Ġs v
Ġ1 20
Ġwi s
Ġli king
Ġst ated
23 79
23 25
Ġe o
Ġe v
Ġe ater
12 5
ro y
Ġdo ing
Ġfood s
Ġ01223 25
Ġde c
Ġde ar
Ġde ci
es p
Ġu j
Ġu m
Ġu rology
Ġ4 00
Ġ4 20
Ġ4 80
Ġ4 48
ow s
ch t
Ġ3 52500
Ġex ist
Ġ5 5
Ġ5 18
Ġ5 25
ta xi
Ġv f
Ġv m
Ġv w
Ġv x
Ġ07 47
Ġ07 598
00 9
00 32
Ġcon st
21 3
Ġr t
Ġall enb
24 9
Ġ8 1
51 08
66 6
Ġass ume
Ġj c
Ġj n
Ġav o
07 9
07 43
07 18
07 98
07 97
Ġas sess
20 58
17 56
17 55
17 04
17 61
50 5
54 2
54 13
54 65
Ġy b
Ġy v
60 1
60 2
60 6
60 66
29 8
29 50
29 29
29 85
29 180
Ġ12 233
10 27
08 6
08 7
Ġq f
Ġq k
Ġsome one
Ġbo ast
52 12
59 09
59 65
40 15
27 5
27 8
27 04
46 9
46 80
46 25
39 2
39 4
39 8
Ġplease d
35 6
34 12
34 56
41 9
01 88
57 2
57 3
57 4
57 20
32 25
43 79
90 20
56 77
56 86
56 94
80 9
80 17
80 42
36 9
36 00
36 85
38 1
38 44
19 8
19 97
16 88
16 10
09 19
09 22
09 96
53 7
87 3
87 30
Ġqu ick
44 94
Ġsp end
42 84
Ġvisit ors
13 7
13 16
Ġwhen ever
49 6
Ġz m
48 49
48 28
ag ain
26 2
26 8
king s
79 3
79 28
33 71
Ġ0122336 50
Ġ0122336 5454
Ġ0122336 2433
wh y
Ġx m
Ġx x
37 3
37 20
89 13
Ġrequire d
22 57
99 8
99 33
70 47
68 5
68 11
Ġ0122330 2800
Ġpick up
Ġvolkswag on
69 6
69 39
Ġgive s
Ġ079 3
Ġ079 24
Ġ079 15
86 10
86 36
na c
Ġ076 29
Ġ076 57
Ġ076 18
Ġ30 2010
Ġrest raunt
Ġrest uarant
Ġ0122335 5166
Ġ077 2
Ġ077 27
Ġ36 2372
96 29
96 35
Ġjo in
31 12
31 58
31 30
67 45
Ġ0122321 77
Ġ0122321 6811
149 2
Ġ070 17
566 2
Ġ087 194
82 24
Ġ074 21
Ġ074 79
05 32
02 12
83 14
Ġsit u
95 57
Ġ0122327 618
Ġcharge s
Ġ075 58
cor rect
ward s
tw o
Ġfam ous
Ġfitz roy
Ġ46 2354
Ġ46 4550
734 9
251 4
Ġ354 755
334 2
334 3
616 7
466 4
Ġgi ving
Ġ0122346 1661
529 8
300 5
Ġsele ctions
Ġaltern ate
212 5
360 2
657 8
709 4
Ġvary ing
908 2
Ġ01223306 306
Ġtou ch
659 5
808 0
636 8
744 7
990 4
ific ations
Ġprop ert
Ġcle ar
Ġansw er
queen s
Ġeater ies
Ġ0122325 66
Ġdeci de
Ġ448 620
Ġ518 111
Ġassess ment
Ġ087194 29180
Ġ0122327618 2
) ,
3 29
3 36
6 247
d ers
e ach
h mm
k irkwood
l ine
o a
t ur
t icket
u cr
w ad
z il
Ġ form
in ion
re g
re y
re ad
Ġa h
ent ial
ra int
Ġc q
Ġc ame
Ġre al
Ġi r
Ġp ot
Ġw al
Ġh og
Ġh ig
Ġm one
ve s
mb ridge
Ġf ron
le verton
co logy
Ġfor ward
Ġwi fe
Ġli ght
Ġcan ape
Ġadd ition
Ġhelp ful
Ġon cology
ad ly
ad mission
Ġdestination s
Ġexp l
Ġnorth end
Ġcheap est
Ġav ai
Ġop inion
Ġenjoy ed
Ġy t
Ġ12 23
15 6
Ġri ders
19 6
19 58
16 12
53 31
06 74
Ġsp ace
fe el
77 13
Ġcom pl
49 69
78 46
sa f
Ġchrist s
33 30
Ġvar ies
po stal
Ġbra zil
Ġreach ing
Ġend ing
Ġkettle s
ef es
Ġplan s
any time
03 15
Ġen ough
Ġinqu ire
Ġdepend s
Ġdepend ency
Ġsec ure
Ġaustral asian
Ġarrange d
Ġmi ddle
lyn ne
com end
Ġfin al
Ġfin ish
Ġbarbe que
Ġqual ifications
Ġlow er
Ġsing le
719 5
Ġatt ending
Ġmusue m
Ġ012232173 14
Ġterri fic
Ġwait ing
Ġcreat ive
Ġdri ving
Ġevent s
833 1
Ġplu s
Ġwr ong
Ġsuff ice
Ġrespon se
bab ly
Ġeas y
Ġdec is
Ġconst raint
Ġboast s
ticket s
Ġhig her
Ġmone y
Ġfron t
Ġcanape s
Ġbrazil ian
) ?
. "
0 357
0 363
0 545
0 115
1 23
1 38
1 395
2 88
2 28
2 286
3 23
3 66
3 52
3 16
3 000
3 194
3 404
4 59
4 56
4 87
5 24
5 30
5 60
5 077
5 504
5 567
6 24
6 51
6 40
6 43
6 517
6 387
6 585
6 193
7 58
7 43
7 245
7 075
7 604
7 803
8 30
8 49
8 48
8 18
8 265
8 306
8 585
8 662
8 126
8 290
8 241
8 685
9 20
9 15
9 35
9 299
9 178
9 580
9 802
9 886
a gg
b est
b al
b ry
b ly
b mg
c in
c ing
c ular
c jv
d ated
e v
f b
f j
f ri
g k
g yc
g bq
g bh
h cw
i bp
i os
i ment
j esus
j qg
k t
l ot
m d
m al
m ain
m od
n m
n ect
o my
p i
p an
q o
q x
s z
s adly
t m
t si
u vd
v pa
v rv
w u
w of
w kv
x xh
x ej
y d
y v
y ln
y mg
y hu
Ġ '
Ġ xi
in ue
Ġt q
Ġt z
Ġt andoor
Ġin fect
Ġa j
Ġa ve
Ġa ri
Ġa way
ic as
op tion
ou a
ou rit
Ġint er
Ġc e
Ġc m
Ġc p
Ġc z
Ġc et
Ġc ities
Ġre fer
Ġn h
Ġn k
Ġn r
Ġn z
Ġn igh
Ġb b
Ġb g
Ġb m
Ġb t
Ġb v
Ġb w
Ġb x
Ġb ib
Ġi e
Ġi an
Ġi mp
Ġp c
Ġp f
Ġp g
Ġp j
Ġp q
Ġp z
Ġp ar
Ġp ri
Ġw b
Ġw d
Ġw f
Ġw j
Ġw k
Ġw t
Ġh l
Ġh q
Ġh w
Ġh z
Ġh dt
Ġg c
Ġg f
Ġg s
Ġg w
Ġg ray
Ġg lo
ing ling
Ġm b
Ġm l
Ġm p
Ġm q
Ġm ix
at c
Ġl s
Ġl bs
Ġl nk
Ġd h
Ġd m
Ġd r
Ġd w
Ġd ise
Ġbook s
se o
th ough
Ġf d
Ġf l
Ġf p
Ġf w
Ġf as
ar u
Ġo i
Ġo s
ri ate
Ġat tem
le ave
le cular
Ġmo ve
Ġmo vie
Ġmo lecular
Ġfor ty
Ġname s
ss age
Ġch ines
Ġ0 12
it ti
Ġst ate
pe ople
Ġca bridge
23 11
23 78
Ġar che
Ġe z
Ġe ma
art s
12 27
Ġtr ust
Ġ01223 257
lp m
Ġta st
Ġguest rooms
Ġarrive d
as g
Ġno on
Ġme ssage
end ly
Ġ2 11
is hed
Ġu e
Ġu f
Ġu r
Ġrecommend ations
Ġne ver
la c
Ġon line
ut c
Ġ3 06
Ġex c
Ġex tra
Ġ5 00
Ġmoderat ly
Ġres ol
Ġ012233 5010
Ġ012233 3948
Ġsu per
Ġsu pp
Ġk h
Ġk z
Ġv c
Ġv h
Ġv o
Ġv y
Ġ07 32
Ġ07 45
Ġ07 55
Ġ07 68
Ġ07 71
Ġ07 248
Ġ07 4134
ok t
00 1
00 44
00 31
00 94
Ġcon t
Ġwh y
Ġwh ose
21 7
21 66
21 45
21 78
21 64
il v
Ġr j
Ġr w
Ġr x
Ġr z
yes bray
11 6
11 56
11 80
11 62
Ġ7 3
Ġcontact ed
24 4
58 66
58 06
58 31
58 67
Ġsouth end
51 07
Ġ6 5
Ġab o
66 07
66 28
66 92
66 97
Ġ9 1
Ġj m
Ġj p
Ġj q
Ġj u
Ġj w
Ġj ingling
30 3
30 57
30 87
30 62
07 17
07 13
07 76
07 74
20 3
20 5
20 29
20 52
20 42
17 1
17 3
17 50
17 09
17 70
50 12
50 34
50 42
50 89
Ġdif fic
88 2
54 73
am g
fi ve
Ġy g
Ġy j
Ġy n
Ġ16 5
60 34
60 53
29 7
29 12
10 9
fo d
08 2
08 13
08 62
Ġq b
Ġq d
Ġq g
Ġq q
ase s
15 3
15 7
15 26
15 67
15 75
52 66
52 56
59 7
59 10
59 01
59 53
59 49
59 28
59 18
59 79
59 72
59 98
40 16
40 31
27 88
27 64
27 71
27 75
46 38
46 89
46 73
39 6
Ġserve d
34 50
34 70
34 76
Ġal though
41 8
41 94
01 41
57 0
57 6
57 54
57 13
57 47
32 07
32 57
Ġparticular ly
Ġchurch hill
43 29
43 34
90 4
90 5
90 66
90 39
90 25
90 63
80 56
80 26
36 2
36 7
36 77
36 37
Ġ23 1
38 3
38 54
38 10
38 39
38 43
38 47
16 99
16 72
09 8
09 45
09 53
53 58
Ġnew ham
87 6
87 14
87 05
Ġpro bably
06 80
06 25
06 86
06 84
Ġsunday s
44 47
42 2
42 88
42 26
42 83
ca ffe
Ġad vent
77 21
77 34
77 69
49 87
49 28
Ġbelf y
Ġbelf rey
Ġz c
Ġz l
Ġz s
Ġz t
ha a
28 54
28 60
28 63
28 95
48 4
48 24
48 63
78 4
78 50
78 22
18 00
18 54
18 27
18 98
18 92
26 3
26 17
26 35
26 94
ers on
79 5
79 6
79 7
33 7
Ġ0122336 9299
25 57
wh g
Ġx j
rop riate
37 2
37 6
37 32
89 32
64 77
99 6
99 9
99 56
wi th
70 4
70 20
70 57
68 3
68 6
68 33
Ġ0122330 1761
af t
vo q
69 3
69 7
69 46
Ġ079 37
Ġ- -
86 7
86 00
86 76
86 31
71 87
my l
Ġ076 7
Ġ076 21
Ġ076 11
Ġ076 50
Ġ076 48
888 5
76 2
76 3
76 78
Ġgast ron
av a
Ġ0122335 5012
Ġ01223353 88
84 10
Ġ077 49
sh ould
Ġ37 5
ae j
67 42
Ġ50 5015
ka mbar
Ġ078 2
Ġ078 23
Ġ078 54
Ġ0122321 629
sj z
100 6
73 24
73 60
98 1
98 23
98 39
Ġ070 60
Ġ070 59
94 52
Ġlong er
74 30
74 50
74 60
Ġ56 8988
566 9
62 26
lh o
ib y
Ġ074 11
Ġ074 30
Ġ074 17
Ġfav ourit
93 60
05 59
Ġ0122357 7786
Ġlu xu
83 35
fl x
sit ar
Ġrun s
65 24
Ġ01223366 668
Ġ073 30
Ġ073 14
Ġamer icas
81 51
Ġ0122327 4680
Ġ0122327 4284
med i
Ġdet er
01223 33
01223 358
jx x
up u
cr c
cr n
go b
Ġbit es
Ġ075 54
Ġclass ic
223 2
Ġ071 38
200 1
200 6
zq e
fy q
nk z
qw fw
Ġ01223217 231
Ġ01223217 261
354 4
rl m
Ġcat ch
vb b
vf a
vf v
zk d
gn m
mn u
Ġ012232 56
251 9
jq m
Ġapp ropriate
504 20
Ġexhib its
187 9
vp v
zl r
sb rookes
Ġsoon est
166 2
400 3
Ġarrange ments
Ġ0799 89
466 9
534 3
dn b
Ġhung ting
146 5
146 9
807 8
977 5
hunting ton
Ġide as
212 9
317 7
Ġ01223348 144
Ġthir ty
709 2
250 3
378 2
817 6
Ġdis c
Ġful f
Ġfall s
107 9
260 2
754 8
839 9
958 9
Ġsur gery
126 194
610 5
706 2
Ġpull ing
432 2
Ġmusue ms
Ġsatis fy
Ġterri bly
930 3
Ġ0122359 6066
Ġva can
Ġprevious ly
Ġcomplex es
Ġ012233483 13
Ġ012233483 14
Ġoperat ion
134 2
207 8
787 8
Ġclin ic
reserv ation
depart ure
Ġpat ience
Ġmisunder stood
fun ky
Ġallenb all
Ġavo id
Ġ012233650 68
Ġjoin ing
Ġ07479 126194
Ġcompl iment
Ġconstraint s
818 5
cin ating
Ġinfect ious
Ġglo bal
Ġdise ases
Ġfas cinating
Ġarche ology
Ġema il
Ġ306 306
Ġ0122335010 6
Ġ0122333948 5
Ġdiffic ult
Ġgastron omy
Ġ0122321629 7
Ġfavourit e
01223358 966
qwfw x
Ġcompliment ary
3 24
3 15
4 80
a urant
b et
c re
c ent
c ap
c ated
d en
f a
f our
f ly
f rame
i ar
i dge
l ime
m ine
m ichael
n ed
p la
s ry
s ful
s oul
t ance
t ang
u ge
w arts
Ġ /
Ġ ou
Ġt el
Ġt ook
en sbrookes
Ġin con
Ġin ju
ou x
Ġint ensive
he y
Ġre p
Ġre pe
Ġre tur
Ġn ic
Ġb on
Ġi k
Ġi l
Ġp h
on ary
er ology
Ġw ou
Ġw et
Ġh ang
Ġh uh
Ġg a
Ġg l
Ġg one
Ġg af
Ġg uy
ing s
Ġm g
Ġm m
Ġm enu
Ġl q
Ġl t
Ġl co
Ġl ine
Ġd j
Ġd iver
Ġis cb
me ze
an other
se e
se y
Ġto ta
Ġf i
Ġf o
Ġf u
Ġf lu
Ġf ix
Ġo b
Ġo h
Ġo wn
Ġo cc
ri fic
Ġat m
le ct
Ġwi se
Ġwould n
Ġli e
Ġ0 00
Ġle ft
tra vell
Ġe s
Ġe ye
Ġe con
ro s
Ġadd enb
Ġcamb ri
Ġhe r
Ġhelp s
Ġtime frame
Ġde sp
Ġta x
ure d
Ġmod ify
Ġres aurant
Ġ012233 29
Ġk i
ound ing
Ġv ice
Ġ07 14
Ġpre f
Ġpre fered
Ġcon nect
Ġpart ial
cce sful
Ġwh o
Ġmu sic
ist y
Ġtw enty
58 59
66 5
Ġj i
Ġassist ed
07 34
Ġnot e
Ġsi mp
Ġac cid
fi ed
Ġq m
15 96
Ġam ong
Ġmat ched
Ġspe ak
Ġspecific ation
32 62
ille d
43 3
Ġup dated
Ġfew er
ter rific
ven ience
Ġ0122324 515
Ġsp read
ne ither
Ġnarrow ing
Ġad mit
Ġpa sta
itect ure
18 3
18 19
rew ell
are d
Ġgraf itti
Ġsee king
64 88
train id
Ġout side
Ġayle sbury
Ġgast ro
Ġshow s
Ġ0122335 5711
sc udamores
Ġbish op
4646 46
Ġcor onary
47 24
Ġ# :
149 3
Ġpostal code
Ġtur ns
Ġclos er
Ġact ual
per haps
Ġtechn ical
Ġdat a
01223 21
01223 30
Ġpoint s
Ġclose d
lo cated
Ġdire ction
Ġconsider ing
pl ant
Ġspecify ing
Ġbu ild
iq ue
Ġtrans plant
Ġcomp ared
Ġfin ished
stand ing
Ġspecial iz
Ġprovid ing
Ġneu ros
Ġsm all
Ġmista ken
ific ation
Ġresturant s
Ġprop er
Ġsatis fied
Ġhundred s
ret fully
Ġcreat e
Ġanyth ign
Ġhistor ic
Ġintend ed
Ġcut ting
reg retfully
Ġpot ential
Ġhog warts
Ġexpl ore
saf fron
Ġimp ress
Ġresol ve
Ġadvent ure
Ġdeter mine
Ġfulf ill
cent re
lime house
Ġincon venience
Ġinju ry
Ġrepe at
Ġguy s
Ġdiver se
Ġtota lly
travell ers
Ġecon om
Ġdesp ite
Ġ01223329 432
Ġsimp ly
Ġaccid ent
Ġadmit tance
" .
0 20
0 59
0 27
0 32
0 45
0 517
0 516
0 117
0 209
0 121
0 481
0 269
0 328
0 601
0 394
0 217
1 41
1 90
1 42
1 233
1 428
1 309
2 24
2 58
2 66
2 29
2 80
2 25
2 583
3 46
3 888
3 353
3 387
3 390
3 293
3 661
4 17
4 88
4 52
4 40
4 27
4 39
4 43
4 45
4 79
4 506
4 404
4 117
4 594
4 115
4 887
4 604
5 21
5 07
5 54
5 517
5 234
6 23
6 30
6 52
6 46
6 49
6 28
6 210
6 583
6 870
6 386
6 809
6 998
7 51
7 07
7 17
7 32
7 90
7 45
7 28
7 18
7 299
7 222
7 355
7 276
7 239
7 583
7 293
7 147
7 468
7 667
7 169
7 307
7 213
7 278
7 683
8 23
8 21
8 11
8 58
8 01
8 90
8 44
8 42
8 149
8 509
8 504
8 361
8 292
8 363
8 522
8 406
8 167
9 12
9 07
9 50
9 88
9 39
9 53
9 28
9 33
9 517
9 382
9 202
9 219
9 209
9 286
9 545
9 522
9 605
9 531
9 345
9 792
9 704
? ?
a xi
a ok
b en
b pe
b if
b qq
b oh
b za
b js
b ased
c xb
c nx
c nl
d r
d ra
d im
d tz
d arry
d je
d jx
d uf
d nk
d jm
e u
e el
e as
e og
e bg
e zt
f ound
f da
f gd
f wh
f bo
f px
f pq
f zc
f mn
f sf
f bk
g r
g st
g ma
g ac
g cl
g vm
g wv
h w
h it
h rq
h qy
h hs
h wc
i ere
i it
i ye
i og
i ester
i kv
i ww
i wl
j en
j or
j ed
j ad
j ful
j yn
j ds
j aw
j mg
j nf
j pq
j nn
j rd
j nac
k vo
k ff
k cv
k jk
l ol
l of
l iple
l hi
m on
m pe
m ia
m of
m tl
m lx
m jc
m vl
n ice
n et
n tu
n sk
n jx
n ho
n gm
n cv
n amg
o x
o ra
o zc
o xq
o vk
o va
o zr
p ound
p ai
p ab
p ax
p gq
p erson
q ot
q it
q is
q am
q lh
q mu
q rd
r fr
r fl
r xh
r pl
s g
s ly
s gg
s ince
s mo
s rq
s pl
s zk
s heep
s di
s gj
s zj
t s
t re
t ep
t oy
t pr
t db
u ic
u ran
u dd
u lp
u oh
u fr
u cu
u hu
u vx
v is
v ok
v lu
v so
v ma
v ies
v hn
v sr
v gm
v cv
v aa
v lk
v vf
v jp
v vpv
w re
w la
w ow
w un
w ly
w fo
w ka
w pr
w mg
w zq
w xs
x en
x ed
x ag
x be
x my
x oc
x gy
y l
y m
y ay
y ce
y ka
y px
y jx
y pd
y kf
y vg
y yh
z g
z ly
z te
z iv
z uy
z yu
z jm
z vm
z xo
z aft
Ġ sta
Ġ ry
in era
in et
Ġt c
Ġt s
Ġt x
Ġt op
Ġt at
en n
en age
Ġin correct
Ġa e
Ġa u
Ġa en
Ġa le
Ġa kf
Ġa eb
ic he
ic ally
ent erology
op ok
ra a
ra ble
ou ght
ou bt
ou cjv
st nz
st om
he ly
Ġc d
Ġc g
Ġc j
Ġc k
Ġc v
Ġc en
Ġc ct
Ġc it
Ġc ul
Ġc ig
Ġc xz
Ġre se
Ġre ce
Ġre main
or ies
Ġn a
Ġn b
Ġn l
Ġn m
Ġn w
Ġn x
Ġn y
Ġn ch
Ġn gh
Ġn inet
Ġb c
Ġb p
Ġb z
Ġb ad
Ġb ank
Ġb out
Ġb sj
Ġb tt
Ġb loom
Ġb nf
Ġb vc
Ġb vu
Ġb zx
Ġi b
Ġi u
Ġi y
Ġi ve
Ġi il
Ġi vx
Ġi xe
Ġi kc
Ġp n
Ġp v
Ġp ie
Ġp ux
Ġw o
Ġw q
Ġw u
Ġw w
Ġw orry
Ġw ww
Ġw sp
oo j
Ġh b
Ġh g
Ġh v
Ġh y
Ġh ld
Ġh no
Ġh ag
Ġh andle
Ġh xg
Ġg m
Ġg q
Ġg u
Ġg x
Ġg z
Ġg ra
Ġg xt
Ġg vn
Ġg pu
Ġg lb
Ġm d
Ġm f
Ġm h
Ġm j
Ġm r
Ġm s
Ġm z
Ġm ut
Ġm il
Ġm rq
Ġm xm
Ġm dk
Ġm qr
ve g
ve red
Ġl f
Ġl j
Ġl m
Ġl r
Ġl v
Ġl z
Ġl ma
Ġl dy
Ġl gm
Ġl qs
Ġl xm
form ation
Ġd d
Ġd f
Ġd i
Ġd l
Ġd n
Ġd p
Ġd q
Ġd t
Ġd v
Ġd y
Ġd ke
Ġd ilton
Ġd ci
Ġd jf
Ġd kv
Ġan f
Ġan h
ran ia
era ble
se same
Ġto wards
th j
Ġf r
Ġf an
Ġf le
Ġf ab
Ġf ig
Ġf kv
Ġf go
Ġf rg
Ġf vn
ar m
ar ia
ar zy
Ġs b
Ġs f
Ġs n
Ġs op
Ġs ol
Ġs ly
Ġo e
Ġo g
Ġo m
Ġo q
Ġo w
Ġo x
Ġo z
Ġo wa
Ġo jful
ri an
Ġof fered
Ġtra um
ce ed
ke i
ke v
Ġmo vies
ld q
Ġ1 11
ed a
Ġpr ot
ct tg
ss l
ss yp
Ġch ance
Ġch ild
Ġli mit
Ġ0 11
Ġst ree
the se
Ġle vel
Ġle iester
Ġany one
pe y
pe mbroke
pe fs
23 29
23 34
23 57
23 19
23 92
Ġe q
Ġe w
Ġe opok
Ġe rania
art ing
dd ing
dd ha
12 0
12 20
12 87
12 42
ro gd
Ġit inera
wn h
wn x
Ġguest h
al f
al ble
al so
al most
as a
mm y
Ġno ddle
Ġtown e
Ġtown s
Ġth ous
Ġth ought
Ġ2 23
Ġ2 66
Ġ2 78
is ne
Ġu c
Ġu h
Ġu v
Ġu x
Ġu y
Ġu cw
Ġu xy
Ġu qm
Ġ4 39
Ġne igh
ry c
ry m
ow l
ow r
ut f
ut t
ut ing
ul i
ul ous
Ġ3 07
ur t
ur z
Ġmod rate
Ġor ig
xi w
xi ble
Ġ5 36
Ġ5 44
ta i
ta q
ta ke
Ġmoderat ley
Ġ012233 60
Ġ012233 49
Ġ012233 50420
Ġpe y
ir g
ir oom
Ġk j
Ġk o
Ġk p
Ġk s
Ġk u
Ġk v
Ġk x
Ġk ci
Ġk sh
Ġk sf
Ġk hb
Ġk vv
Ġse d
Ġse en
Ġse ar
gh n
Ġv q
Ġv r
Ġv t
Ġv on
Ġv ie
Ġv ers
Ġv zf
Ġ07 41
Ġ07 53
Ġ07 22
Ġ07 31
Ġ07 149
Ġ07 566
Ġ07 237
Ġ07 906
Ġ07 299
Ġ07 2054
Ġnorth side
Ġmin tu
00 4
00 6
00 35
00 33
00 085
Ġcon ver
21 1
21 41
21 06
21 48
21 18
21 92
un d
un l
Ġr c
Ġr f
Ġr g
Ġr h
Ġr k
Ġr p
Ġr r
Ġr s
Ġselect ed
11 88
11 60
11 10
11 08
11 52
11 44
11 49
11 93
11 97
11 65
Ġ7 38
Ġ7 18
Ġall en
ia j
Ġtw ice
Ġco b
24 17
24 08
24 52
24 36
24 45
24 44
24 42
24 78
24 71
24 73
24 62
24 75
24 32565
58 15
58 49
58 69
58 84
58 63
Ġsouth side
jo s
Ġ8 00
51 0
51 00
51 67
51 63
51 603
Ġun iver
Ġun certain
Ġun less
Ġun ique
Ġ6 7
Ġ6 23
ly l
Ġma jor
Ġab kff
66 33
66 68
66 73
66 98
66 62
Ġ9 3
Ġj a
Ġj b
Ġj d
Ġj g
Ġj ak
Ġj jwe
30 1
30 4
30 8
30 66
30 52
30 78
ight ly
Ġ11 4
07 0
07 3
07 57
07 55
07 68
07 67
lu w
lu ck
Ġif hs
Ġif xp
Ġhas n
Ġas bury
Ġas hely
20 16
20 69
20 98
17 4
17 5
17 6
17 64
17 84
50 60
50 57
50 32
50 505
Ġdif fer
88 1
88 4
88 99
88 63
88 73
88 93
88 05
Ġac ron
54 4
54 7
54 12
54 10
54 08
54 36
54 33
54 96
we k
we qk
Ġenjoy able
Ġy h
Ġy q
Ġy s
Ġy on
Ġy wn
Ġy rip
Ġy ip
Ġy ff
Ġy sv
Ġ16 8
Ġ16 30
Ġ16 10
60 9
60 11
60 24
60 88
60 27
60 16
60 37
60 96
29 58
29 52
29 41
29 19
29 13
29 99
29 69
Ġ12 5
10 1
10 3
10 30
10 88
10 39
10 44
10 37
10 86
10 47
10 62
zz ny
zz gl
08 9
08 23
08 22
Ġq o
Ġq w
Ġq x
Ġq it
Ġq my
Ġq lk
Ġq sn
Ġq lm
Ġsome time
Ġ14 14
Ġbo ard
15 9
15 21
15 50
15 34
15 90
15 28
15 62
52 87
52 73
52 85
59 36
59 06
59 71
40 9
40 17
40 68
40 96
27 59
27 09
27 55
27 13
27 76
46 15
46 3830
46 2432565
Ġmake s
39 9
39 40
39 22
39 99
39 69
39 73
39 04
id s
35 66
35 64
34 51
34 66
34 20
34 33
34 47
34 356
Ġ18 0
Ġal yesbray
41 6
41 44
41 61
01 3
01 39
01 68
01 92
57 17
57 49
57 62
57 93
57 97
32 12
32 59
Ġ20 6
Ġpizz aria
43 7
43 00
43 51
43 46
43 87
43 89
43 76
90 2
90 24
90 30
90 33
90 257
ue y
Ġcu stom
56 11
56 88
56 13
56 49
56 48
56 78
56 26
56 70
56 91
che ap
che ck
80 4
80 54
80 36
80 44
36 8
36 24
36 34
36 2974
py o
45 53
45 339
38 73
19 2
19 11
19 55
19 78
og br
bu d
clu bs
no m
16 3
16 4
16 5
16 56
09 16
09 98
09 92
09 147
Ġlook up
53 12
53 70
87 9
87 24
87 62
Ġpro ceed
06 3
06 15
06 38
06 44
06 77
06 78
06 72
55 11
55 58
55 38
fe q
42 66
42 50
42 80
so f
gg n
ne q
ma c
77 4
77 59
77 27
77 06
77 44
77 68
77 76
77 63
77 47
77 85
13 39
13 36
13 8056
Ġyell o
Ġdit to
49 2
49 77
49 92
Ġ01223358 399
Ġz g
Ġz i
Ġz p
Ġz q
Ġz u
Ġz w
Ġz xi
Ġz mg
Ġz cr
Ġz dt
Ġz vf
28 1
28 2
28 51
28 50
28 15
28 40
28 33
28 31
ab qg
48 5
48 00
48 29
48 40
48 36
48 13
48 99
48 61
add ensbrookes
Ġwed s
78 5
78 9
78 52
78 34
78 64
18 30
18 17
18 42
18 49
18 64
18 620
su h
su q
su agg
26 7
26 34
26 56
26 36
26 87
26 77
26 25
26 73
26 339
79 40
79 35
79 43
79 78
79 79
Ġtell ing
33 39
ep k
ep n
Ġ33 1
qu u
ud n
25 21
Ġfun k
gd ibp
gd bza
Ġx f
Ġx h
Ġx l
Ġx n
Ġx r
Ġx z
Ġx pe
Ġx dy
Ġx fd
Ġx gbq
mw g
mw p
mw r
ip f
37 30
37 35
37 80
37 36
37 87
37 65
37 03
89 7
89 54
89 35
yn w
Ġhut s
64 57
64 56
Ġbistro s
99 11
99 42
99 99
99 97
14 12
14 00
14 90
14 77
14 72
14 75
wi k
70 43
70 3476
68 23
68 321
ug q
Ġpara ce
af p
af s
69 58
69 08
69 80
69 19
69 13
Ġ24 7877
Ġ079 12
Ġ079 51
Ġ079 08
Ġ079 57
Ġ079 80
Ġ079 16
Ġ079 87
Ġ079 76
Ġ079 410
Ġ079 449
Ġ079 394
Ġ079 18620
86 59
86 27
86 53
86 99
86 74
Ġkind a
71 51
my g
my x
my rl
Ġ076 34
Ġ076 43
Ġ076 25
Ġ076 99
Ġ076 74
Ġ076 199
Ġ076 468
Ġ076 359
Ġ076 362974
dy j
dy t
76 34
76 53
76 71
xb f
xb y
oh dj
Ġ0122335 5909
84 66
84 20
Ġ077 5
Ġ077 00
Ġ077 30
Ġ077 60
Ġ077 40
Ġ077 36
Ġ077 38
Ġ077 33
Ġ077 466
Ġ077 378
Ġ077 1027
glad ly
Ġ36 7660
ky z
96 1
96 11
96 88
96 41
96 80
96 16
96 44
96 78
sh c
zb r
zb t
zb nkz
72 23
72 57
oy k
ah m
ae g
31 90
31 87
67 3
67 41
67 25
Ġ28 00
Ġ28 28
Ġ35 6666
Ġ35 6060
Ġ078 35
Ġ078 57
Ġ078 558
Ġ0122321 7450
Ġ0122321 7671
63 10
63 13
47 3
47 58
47 08
47 57
ln x
hi h
Ġtravell er
240 2
Ġbrass iere
73 10
dp b
dp u
98 35
98 31
od sgj
ny hs
91 87
Ġ070 21
Ġ070 58
Ġ070 29
Ġ070 15
Ġ070 552
Ġ070 4379
94 24
94 60
94 27
94 45
94 87
74 20
Ġ56 36
92 26
92 25
Ġclos ely
Ġwan na
Ġride s
Ġeat ery
Ġduck ing
62 24
kw t
will iams
xt p
82 60
82 55
dq z
Ġ074 51
Ġ074 07
Ġ074 39
Ġ074 247
Ġ074 2054
Ġ074 218
Ġbotanic al
js q
js r
gl jed
93 32
Ġnear ly
Ġte ch
Ġte enage
Ġ29 29
236 1
ix g
ix j
233 3057
04 66
04 15
04 40
04 71
97 24
97 32
ps d
ps y
ps gf
fr x
fr zlr
dw v
sit ive
Ġtimes lot
dz w
dz gma
qf y
bd j
tz h
uy v
Ġsl ightly
Ġ01223366 61
mo z
Ġ073 23
Ġ073 21
Ġ073 59
Ġ073 46
Ġ073 34
Ġ073 599
pp d
ig s
Ġ01223324 351
hy b
sk ic
sing ly
rq r
81 35
aw w
Ġ0122327 4222
388 9
px r
03 78
hx g
hx k
01223 353
01223 334
860 4
je v
jf f
kv n
kv jv
nf d
nt y
Ġ01 233
Ġ01 462432565
257 5401
jj d
jj n
wy t
.. ..
112 0
go i
tl c
tl w
Ġrout es
qy psgf
Ġ075 20
lo x
lo ck
sv f
om k
pd t
pm q
pm u
397 58
tw a
Ġeight een
154 2
154 6
gm v
ht b
Ġ071 23
Ġ071 30
Ġ071 40
Ġ071 46
jv d
jv t
uw f
zq v
cv h
Ġ072 12
Ġ072 07
hu xe
nj h
nj n
nr ce
cw d
qs q
qw r
rf m
rf t
rf jq
zw p
Ġter ms
Ġ0788 0
bt n
bt s
jm to
oc x
pri singly
vm j
vm t
vm x
Ġclar ification
221 1
354 7
bi q
fw j
xy h
zc f
bn br
iz i
jk m
vb m
zk z
Ġbu ddha
Ġbu isne
Ġoffering s
di w
yr zn
552 25
ij p
ij u
lj ghn
tb m
vh b
vh j
vh w
Ġstyle s
Ġ566 188
Ġ0730 6
Ġ0730 458
ew g
ew q
gn b
Ġacce pt
Ġsay ing
cj i
cj z
wk i
zm v
zy m
1260 3
Ġ012232 564
851 9
cm h
jd c
rv y
vc f
wd raa
Ġ0758 52
ph p
qe e
sf h
sm h
vq l
church hill
Ġregard less
187 3
rx z
wm d
wm r
zl g
Ġ0746 915
Ġ0746 2575401
hk c
hk r
min ton
hq vd
kp v
uv z
Ġ0754 07
Ġ0708 09
Ġ012235033 3
616 2
843 1
vy tsi
xc d
Ġ0756 247
oe ik
Ġ0726 3703
679 9
901 2325
pu q
oi wki
Ġfa rewell
Ġ0712 1756
180 9
407 6
407 8
903 66
Ġresta uran
Ġ0757 463830
330 4
317 3
nu mber
tv yr
Ġ0738 9012325
Ġ0706 42
Ġ0789 839
Ġim medi
Ġ0740 40
620 3
657 2
828 5
li ke
Ġdel ay
817 7
908 3
980 5
938 3
938 4
938 6
sse d
Ġfoll ows
Ġ0710 13
Ġhal f
351 5
319 7
754 2
808 9
958 8
989 1
Ġ0766 9
Ġ0713 7
fu i
Ġtour s
Ġcanc er
410 6
769 2
949 5
dk t
look s
wx esp
yx aw
Ġ0786 2333057
Ġzk ogbr
261 51603
Ġ07229 8
Ġconcern s
420 4
454 9
654 9
641 9
676 3
Ġmn kwt
Ġec lect
Ġ0122359 6055
Ġ0764 00
5454 56
2800 7
312 8
049 7
536 5
757 8
Ġreason able
Ġuz fw
Ġ0728 9
Ġ0784 5910
341 36
Ġclin ical
reserv ations
Ġaccomod ate
836 4
Ġrec comend
Ġhand ful
Ġserver s
Ġhistor ical
0122324 5151
158 4
434 4
538 9
740 9
917 9
Ġft voq
Ġwis hes
Ġwis hed
Ġexist s
Ġ12233 16074
Ġxm cht
Ġ07924 138056
Ġ0772 26339
Ġ012232177 12
Ġsitu ation
Ġsitu ated
Ġpropert y
Ġpropert ies
Ġ012232566 50
Ġ012232566 45
Ġwal let
Ġavai alble
Ġdecis ions
849 5
bmg ni
fri endly
pan ahar
Ġaj te
option al
Ġnigh clubs
Ġpri or
Ġattem pt
Ġ01223257 168
Ġ0755 54
Ġcont inue
5866 09
Ġabo ard
Ġ07621 703476
Ġ07648 586609
Ġ07411 90257
Ġluxu ry
Ġ07330 545456
Ġ01223256 166
Ġ079989 34356
Ġhungting ton
Ġvacan cy
michael house
uge se
Ġaddenb rook
Ġpref erable
Ġbuild ings
717 7
bif d
eel pu
fgd re
ikv z
kcv thj
person ally
spl t
toy zuy
tdb iju
udd ov
Ġaeb kvjv
Ġcit iroom
Ġcig yxaw
Ġngh d
Ġninet een
Ġbtt s
Ġbloom sb
Ġixe zzny
Ġglb nk
Ġmut liple
Ġmxm ohdj
Ġmqr gdbza
Ġlma bmgni
Ġlxm frzlr
Ġfle xible
Ġfab ulous
Ġfgo m
arzy tlc
Ġsol id
Ġtraum a
Ġchild ren
Ġeopok ff
Ġitinera ry
Ġthous and
Ġ01223360 409
Ġ01223349 00
Ġkci wxesp
Ġksf skic
Ġkhb ljghn
Ġvie w
Ġvers a
Ġmintu es
Ġmajor ity
Ġjjwe o
Ġifhs yrzn
Ġifxp nyhs
Ġyff shc
Ġysv sly
Ġqsn suagg
Ġcustom er
Ġzvf tq
Ġxdy jmto
Ġxgbq hc
Ġ07918620 184
Ġ076199 68321
Ġ076362974 54
Ġ077378 28007
Ġ0771027 5649
Ġ078558 55225
Ġ0704379 5737
Ġ0742054 2713
gljed pz
qypsgf h
huxe uz
Ġbuisne ss
Ġ0730458 5611
Ġ012232564 59
Ġ0746915 6027
vytsi j
Ġ0756247 2408
Ġ07263703 306
Ġ07121756 826
Ġ0757463830 7
Ġ0789839 5762
Ġimmedi ately
Ġzkogbr mr
Ġeclect ic
Ġ07845910 981
Ġftvoq php
Ġ077226339 12
Ġ0741190257 2
Ġcitiroom z
Ġixezzny l
! )
! .
0 277
2 87
3 279
8 202
9 236
a ar
b lue
e very
f ind
g ca
h an
h ood
h ughes
i en
i est
i de
i as
i ses
j ured
l ondon
m ation
n ic
n ow
r ounding
s at
s ot
t el
t ot
t it
t es
t ell
u u
u de
u ate
v est
v ak
w ant
y ell
z uc
Ġ $
Ġ +
in ed
Ġt ll
en s
Ġin cre
Ġin jured
Ġa ut
Ġa wh
Ġa im
Ġa wa
Ġa mbridge
ic s
ic ation
ic ient
ent ry
ent ly
ent ertainment
ra ting
ra ving
st arting
Ġc n
Ġc hat
Ġc de
Ġc raving
Ġre nown
Ġre comend
Ġn c
Ġb n
Ġb ound
Ġb ase
Ġb bq
Ġi ll
Ġi bi
Ġp ap
Ġp int
oo s
Ġh s
Ġh u
Ġh ous
Ġg oo
Ġg ue
Ġm on
Ġm otel
at her
ve ra
Ġl b
Ġl d
Ġl ab
Ġl ines
Ġinform at
Ġd an
mb e
ran d
se c
Ġto ward
th re
Ġf ro
Ġf il
Ġf ill
Ġf ond
Ġf illed
Ġnu mbe
Ġs he
ge d
ge s
Ġo v
Ġo dd
ri g
ri ke
Ġof ten
ce s
Ġtrain ing
le v
ed e
ct uate
Ġch arm
Ġhave a
Ġwi ld
Ġli ve
Ġli ek
it ude
Ġst un
Ġst rot
Ġst rike
Ġlike d
Ġlike wise
pe ci
Ġar r
de b
Ġcent ere
Ġe g
Ġe af
Ġty po
Ġadd ed
Ġdo or
Ġhe p
Ġtr ick
Ġpo sitive
Ġ01223 596
ime ters
Ġta lk
Ġguest room
Ġguest home
al s
Ġcb r
Ġpost co
Ġtown sh
Ġme gh
Ġme ghan
end s
end ed
Ġche ers
si d
si x
si der
si dney
Ġu t
Ġu u
ut es
ch o
ch y
ch inese
house s
Ġ3 24
ad ress
ad oux
ur gery
ast er
Ġloc ale
Ġsu s
Ġv k
Ġv ia
Ġv ag
Ġcity rooms
Ġ07 236
Ġgood ay
Ġpre ci
if ied
00 87
um ing
un it
un fortun
un ication
il iar
Ġcar idge
Ġco ver
Ġus er
Ġ: )
Ġent re
Ġent ire
Ġent ered
Ġun aw
Ġsh own
Ġab d
Ġass ign
Ġj ra
Ġav ail
ight ful
07 42
07 14
Ġtravel ers
Ġind ust
Ġsi gn
54 76
am s
ard on
Ġy i
Ġ16 00
Ġbut ter
29 5
29 65
10 5
us sed
Ġq h
Ġcrit era
Ġkn ew
Ġchest ert
Ġcould nt
osp here
Ġmar vel
Ġal ter
tr inity
Ġfour teen
90 62
Ġper imeters
em a
Ġnew est
Ġsp ending
so me
Ġhunting do
Ġbla st
jg i
Ġz izi
Ġstart ed
28 23
oodle s
arch itecture
Ġ. ..
ci al
Ġchan ging
alright y
Ġadmission s
ip t
Ġap art
Ġdepartment s
64 54
af r
Ġinfo mation
Ġkind ly
Ġswi m
Ġunsu ccesful
hn s
Ġ077 20
Ġ077 26151603
sh iraz
Ġjo b
Ġjo int
31 49
Ġquest house
63 54
ln f
73 29
ghe st
Ġsc udamore
ru ctions
Ġdesc ri
Ġoff ice
man y
04 27
Ġinst ructions
Ġopen ed
let s
Ġshop ping
Ġlast ing
ig o
aw a
Ġslot s
Ġve g
Ġconsi st
03 39
01223 3
01223 57
01223 464646
ho ld
Ġcru ises
Ġ01 1223
Ġlear n
Ġclose s
Ġcharge d
Ġcaffe e
christ s
cience s
hill s
lo vely
cl owns
Ġfam iliar
Ġamen ity
park ing
Ġsort s
con sider
Ġrecor d
Ġpurchase d
Ġregard s
Ġdesi re
min utes
Ġmean s
Ġexper ien
Ġcateg ories
Ġsend ing
Ġlocal s
Ġdel ightful
Ġcomm uting
Ġmis in
Ġlow est
Ġconven ience
Ġsur prisingly
Ġsur rounding
ric t
cess ful
Ġpull s
Ġconvenient ly
Ġatt end
Ġdri ve
Ġansw ered
Ġrestaraunt s
024 4
926 3
Ġmeant ime
3577 08
Ġcancel led
Ġsuff icient
Ġaccomod ation
Ġaccomod ations
Ġhi ghest
0122324 3830
Ġmisunder standing
Ġrestuarant s
Ġform al
Ġwal k
Ġdecis ion
mod erat
Ġari ve
Ġrefer ring
Ġmix ed
leave s
Ġtast y
Ġsupp ly
Ġsupp ose
Ġdisc ussed
Ġdifficult y
Ġdifficult ies
Ġretur ned
Ġgl itch
Ġlco ated
Ġflu ctuate
Ġatm osphere
Ġes peci
Ġki dding
Ġwho le
Ġgastro enterology
0122321 0353
0122330 2010
Ġspecializ es
Ġneuros ciences
Ġimpress ive
Ġeconom ically
Ġrese arch
Ġrece ipt
Ġremain der
Ġbank ok
Ġthought s
Ġneigh bor
Ġorig in
Ġsear ches
Ġconver s
und ant
Ġuniver isty
Ġdiffer nt
Ġsometime s
Ġaddenbrook s
yell ow
Ġrenown ed
Ġpap adoux
Ġpint o
Ġdan cing
Ġstun ning
Ġstrot ford
Ġguesthome s
Ġtownsh ip
Ġpreci se
Ġunaw are
Ġassign ed
Ġbutter fly
Ġmarvel ous
Ġexperien cing
Ġespeci ally
" ,
" ?
' .
( ?
, .
, ?
. ?
0 23
0 58
0 51
0 66
0 88
0 15
0 39
0 57
0 55
0 28
0 33
0 31
0 279
0 236
0 397
0 104
0 2010
0 292
0 583
0 662
0 393
0 283
0 667
0 579
0 605
0 449
0 275
0 469
0 537
0 904
0 176
0 609
1 51
1 30
1 36
1 48
1 660
1 402
1 382
1 4600
1 238
1 5015
1 404
1 903
1 393
1 3577
1 328
1 392
1 419
1 4828
2 20
2 236
2 274
2 504
2 526
2 2725
2 293
2 568988
2 569
2 887
2 870
2 589
3 50
3 10
3 40
3 27
3 18
3 79
3 237
3 660
3 210
3 111
3 504
3 355
3 292
3 245
3 501
3 209
3 126
3 102
3 246
3 206
3 108
3 234
3 183
4 30
4 50
4 41
4 57
4 966
4 71
4 888
4 72
4 906
4 274
4 210
4 178
4 5015
4 209
4 230
4 218
4 564
4 886
4 603
4 414
4 803
4 909
4 792
4 249
4 905
4 7769
4 902
5 23
5 39
5 53
5 353
5 124
5 580
5 5017
5 216
5 245
5 502
5 076
5 2042
5 2098
6 07
6 27
6 32
6 90
6 80
6 45
6 38
6 87
6 55
6 44
6 26
6 25
6 37
6 89
6 22
6 70
6 71
6 31
6 240
6 516
6 906
6 270
6 2456
6 880
6 413
6 309
6 564
6 898
6 806
6 072
6 4256
6 125
6 5694
6 496
6 5866
6 881
6 159
7 12
7 00
7 11
7 20
7 27
7 46
7 36
7 53
7 48
7 33
7 22
7 31
7 397
7 598
7 178
7 509
7 277
7 52500
7 467
7 526
7 494
7 564
7 519
7 438
7 569
7 406
7 909
7 298
7 156
7 001
7 372
7 376
7 013
7 5648
8 00
8 24
8 50
8 54
8 29
8 10
8 40
8 35
8 41
8 57
8 56
8 45
8 53
8 966
8 13
8 22
8 31
8 511
8 233
8 517
8 208
8 598
8 238
8 118
8 580
8 390
8 131
8 184
8 239
8 293
8 230
8 569
8 121
8 206
8 531
8 2130
8 542
8 574
8 373
8 244
8 297
8 372
8 665
9 23
9 21
9 52
9 27
9 46
9 32
9 36
9 45
9 13
9 18
9 25
9 64
9 68
9 31
9 47
9 100
9 149
9 110
9 525
9 077
9 296
9 404
9 518
9 131
9 494
9 2094
9 199
9 468
9 283
9 765
9 395
9 246
9 414
9 275
9 4284
9 1827
9 376
9 693
9 547
a he
a or
a mb
a ot
a ed
a de
a mm
a ow
a ai
a os
a fi
a fo
a ue
a em
a wi
a af
a xb
a av
a ac
a ax
a uy
a uel
a up
a oe
a ava
a ugq
a jsr
a jjn
a cial
b er
b ing
b at
b ge
b co
b ll
b ad
b xi
b ta
b cce
b ck
b og
b no
b ag
b ci
b vo
b ze
b my
b ky
b zb
b ah
b ae
b aq
b tt
b illies
b ib
b gl
b rh
b tu
b bw
b ig
b kv
b ho
b qy
b tq
b fw
b rl
b bn
b hs
b kf
b rt
b vq
b cc
b rx
b lc
b vl
b vs
b vu
b lt
b lho
b stnz
b irg
b htb
b rft
b cji
c en
c st
c ame
c wn
c ch
c ul
c ur
c if
c us
c zz
c ple
c so
c ies
c sa
c roomz
c wh
c sw
c ester
c na
c vi
c sh
c ln
c ds
c cy
c rh
c dz
c cina
c rq
c jb
c je
c up
c jj
c wy
c pb
c qg
c cu
c fy
c cw
c zw
c qb
c dt
c zk
c zt
c zf
c cg
c zm
c pu
c xu
c xj
c seo
c utc
c ilv
c kev
c psy
c pdt
d oo
d at
d th
d la
d ol
d estination
d ai
d zz
d py
d ander
d ci
d ze
d hn
d zb
d ka
d ny
d lh
d rh
d iv
d xh
d nf
d tl
d ht
d tq
d fy
d uj
d cg
d cj
d vk
d jq
d vq
d cc
d nn
d kp
d jl
d vl
d uq
d lr
d rr
d iaj
d fwj
e he
e ve
e ay
e ce
e ss
e pe
e et
e ow
e if
e um
e ms
e ub
e be
e ky
e zb
e gl
e cb
e ig
e jf
e ej
e zq
e cl
e aa
e qw
e zw
e bi
e qa
e bn
e iy
e bb
e cc
e zl
e vw
e oj
e bx
e iry
e cnl
e oyk
f st
f oo
f an
f ge
f ke
f ed
f et
f dd
f ree
f ry
f ta
f ir
f os
f us
f bs
f bu
f em
f row
f mw
f ack
f af
f ze
f dy
f xb
f za
f fiti
f lh
f tt
f usion
f act
f rh
f pt
f pp
f cum
f mg
f kv
f pb
f qy
f yu
f jv
f uw
f pj
f bz
f nj
f vd
f bg
f zw
f bn
f dx
f mp
f cj
f ux
f zm
f cm
f jq
f ph
f ns
f au
f tp
f ua
f vl
f zd
f pc
f uq
f cd
f dv
f jw
f kl
f bx
f hkr
g or
g uest
g ouse
g as
g is
g ta
g ine
g un
g ck
g os
g zz
g ive
g ose
g bu
g ne
g ci
g ip
g xb
g sc
g ah
g za
g aq
g cy
g tt
g osa
g ical
g fl
g xh
g rq
g aw
g wy
g ff
g cv
g cu
g pa
g bi
g rl
g zk
g ij
g vh
g wk
g sn
g yh
g sf
g sm
g cn
g kp
g zp
g zs
g cf
g rd
g pc
g ba
g rc
g fyq
g iaj
g ixg
g rfm
h st
h se
h th
h ri
h le
h ct
h wn
h is
h ut
h ir
h gh
h il
h us
h zz
h no
h qq
h bury
h ko
h ub
h ug
h sh
h ange
h rs
h cb
h uy
h pp
h px
h jj
h jy
h pm
h pj
h qg
h cu
h fy
h bg
h vx
h zw
h bt
h hl
h rl
h jk
h mu
h cg
h zy
h ju
h pf
h wq
h zr
h wo
h vu
h zv
h lac
h zqe
i or
i th
i hat
i ut
i xi
i ir
i um
i yn
i hn
i ky
i osa
i iv
i ig
i its
i jb
i jx
i jj
i yu
i ht
i zq
i yc
i ik
i hc
i uc
i wv
i oq
i oz
i koh
i uli
i wmr
i hkc
j he
j er
j oo
j mb
j me
j lp
j as
j mm
j si
j ir
j fi
j id
j bu
j da
j gg
j jg
j ag
j su
j ko
j ci
j my
j sc
j ky
j sh
j za
j ka
j hi
j dp
j ny
j aq
j js
j bw
j nt
j tl
j qy
j pm
j lx
j uf
j zq
j nk
j zw
j hs
j cg
j cj
j rt
j wg
j ns
j au
j ww
j hq
j tx
j pu
j rn
j whg
j zqe
j pyo
k el
k mb
k ar
k le
k lp
k wn
k ow
k ut
k ir
k ely
k ia
k lu
k fo
k ind
k ca
k arl
k be
k av
k ds
k cy
k rs
k xt
k dq
k ru
k tu
k cb
k dz
k tz
k xh
k mo
k ig
k sk
k rq
k nz
k hx
k je
k jf
k nf
k sx
k jy
k ty
k tq
k cl
k bz
k cu
k fy
k qs
k fis
k bi
k bn
k lj
k mu
k zm
k bh
k ns
k cn
k ni
k uv
k gy
k uh
k xc
k xe
k lm
k xx
k tn
k uq
k gt
k rn
k dnb
k ugq
k zbt
k jsr
k qfy
l in
l on
l oo
l at
l an
l pe
l is
l if
l un
l bs
l tr
l og
l no
l sw
l oy
l sj
l cy
l rs
l by
l iv
l qf
l bo
l rq
l bj
l je
l tl
l tq
l cu
l rf
l to
l bi
l zn
l vk
l wm
l ww
l ii
l va
l wl
l vt
l myl
l jxx
l rym
l qwr
m er
m se
m ri
m ark
m ut
m ir
m ely
m and
m da
m qq
m way
m ko
m ip
m yn
m na
m vi
m cy
m kw
m ib
m rh
m cb
m ix
m fr
m use
m tz
m rq
m gx
m jx
m hg
m ht
m db
m nl
m qw
m vx
m xa
m zc
m jk
m rk
m lj
m lq
m iy
m cm
m ik
m ju
m zl
m hk
m kp
m zp
m va
m qh
m tn
m jz
m lr
m kj
m ls
m qd
m iry
m veg
m xbf
m hih
m pmu
m cwd
m jdc
n re
n ou
n or
n th
n ce
n ke
n dd
n wn
n al
n es
n is
n ut
n orth
n ia
n we
n ope
n tr
n iver
n ted
n sw
n yal
n sc
n po
n ito
n ds
n xt
n fl
n jb
n hx
n nf
n jy
n sv
n pd
n nx
n nr
n uj
n vx
n hs
n wk
n ik
n vq
n gv
n hd
n vw
n vl
n mc
o in
o ve
o mb
o ay
o et
o as
o ad
o gh
o bp
o ag
o yn
o ops
o ah
o im
o ef
o man
o by
o bd
o jb
o mg
o je
o jf
o cr
o cl
o qg
o bz
o cu
o aa
o vx
o jm
o xy
o xd
o jd
o vq
o jc
o vp
o vy
o xc
o bf
o zv
o alf
o zzgl
o jvt
o qsq
p ar
p ay
p ld
p dd
p is
p um
p ia
p os
p tion
p am
p how
p ple
p py
p qq
p ie
p ted
p wi
p sc
p te
p ae
p olk
p pee
p ac
p ps
p by
p bd
p je
p jf
p nf
p uw
p cl
p cu
p hs
p vb
p ial
p cj
p ux
p wd
p ute
p wg
p vp
p uv
p lly
p va
p gt
p gz
p rym
p dyj
p aww
p ardon
q at
q ay
q pe
q et
q es
q ut
q ck
q os
q do
q bu
q gg
q ag
q ci
q gd
q sw
q vo
q sh
q zb
q ah
q ka
q im
q ef
q ib
q cb
q fr
q xh
q mg
q ho
q ej
q lx
q bz
q nl
q rj
q lk
q ij
q lj
q xs
q xd
q zn
q cj
q jd
q vg
q xf
q cc
q cn
q zl
q tx
q cs
q pu
q cq
q vl
q tn
q vs
q vu
q du
q jt
q xk
q nc
q ava
q jxx
r re
r ou
r he
r me
r ct
r ss
r dd
r ut
r ur
r xi
r ly
r inese
r ms
r da
r ust
r inity
r te
r ny
r kw
r js
r cb
r by
r ical
r bd
r bo
r pp
r px
r mg
r jx
r pq
r uskin
r lo
r pd
r ty
r gm
r nx
r cu
r vx
r mf
r xy
r tb
r vh
r xd
r wf
r xq
r cm
r wb
r wd
r cn
r rx
r ni
r dn
r zr
r cq
r nq
r rn
r cp
r pw
r mwp
r myg
r psy
r goi
s ce
s le
s ct
s ll
s lp
s al
s as
s code
s ow
s ut
s ul
s xi
s os
s bs
s do
s fe
s jg
s ican
s uck
s mw
s yn
