{"<|endoftext|>":0,"!":1,"\"":2,"#":3,"$":4,"%":5,"&":6,"'":7,"(":8,")":9,"*":10,"+":11,",":12,"-":13,".":14,"/":15,"0":16,"1":17,"2":18,"3":19,"4":20,"5":21,"6":22,"7":23,"8":24,"9":25,":":26,";":27,"<":28,"=":29,">":30,"?":31,"@":32,"A":33,"B":34,"C":35,"D":36,"E":37,"F":38,"G":39,"H":40,"I":41,"J":42,"K":43,"L":44,"M":45,"N":46,"O":47,"P":48,"Q":49,"R":50,"S":51,"T":52,"U":53,"V":54,"W":55,"X":56,"Y":57,"Z":58,"[":59,"\\":60,"]":61,"^":62,"_":63,"`":64,"a":65,"b":66,"c":67,"d":68,"e":69,"f":70,"g":71,"h":72,"i":73,"j":74,"k":75,"l":76,"m":77,"n":78,"o":79,"p":80,"q":81,"r":82,"s":83,"t":84,"u":85,"v":86,"w":87,"x":88,"y":89,"z":90,"{":91,"|":92,"}":93,"~":94,"¡":95,"¢":96,"£":97,"¤":98,"¥":99,"¦":100,"§":101,"¨":102,"©":103,"ª":104,"«":105,"¬":106,"®":107,"¯":108,"°":109,"±":110,"²":111,"³":112,"´":113,"µ":114,"¶":115,"·":116,"¸":117,"¹":118,"º":119,"»":120,"¼":121,"½":122,"¾":123,"¿":124,"À":125,"Á":126,"Â":127,"Ã":128,"Ä":129,"Å":130,"Æ":131,"Ç":132,"È":133,"É":134,"Ê":135,"Ë":136,"Ì":137,"Í":138,"Î":139,"Ï":140,"Ð":141,"Ñ":142,"Ò":143,"Ó":144,"Ô":145,"Õ":146,"Ö":147,"×":148,"Ø":149,"Ù":150,"Ú":151,"Û":152,"Ü":153,"Ý":154,"Þ":155,"ß":156,"à":157,"á":158,"â":159,"ã":160,"ä":161,"å":162,"æ":163,"ç":164,"è":165,"é":166,"ê":167,"ë":168,"ì":169,"í":170,"î":171,"ï":172,"ð":173,"ñ":174,"ò":175,"ó":176,"ô":177,"õ":178,"ö":179,"÷":180,"ø":181,"ù":182,"ú":183,"û":184,"ü":185,"ý":186,"þ":187,"ÿ":188,"Ā":189,"ā":190,"Ă":191,"ă":192,"Ą":193,"ą":194,"Ć":195,"ć":196,"Ĉ":197,"ĉ":198,"Ċ":199,"ċ":200,"Č":201,"č":202,"Ď":203,"ď":204,"Đ":205,"đ":206,"Ē":207,"ē":208,"Ĕ":209,"ĕ":210,"Ė":211,"ė":212,"Ę":213,"ę":214,"Ě":215,"ě":216,"Ĝ":217,"ĝ":218,"Ğ":219,"ğ":220,"Ġ":221,"ġ":222,"Ģ":223,"ģ":224,"Ĥ":225,"ĥ":226,"Ħ":227,"ħ":228,"Ĩ":229,"ĩ":230,"Ī":231,"ī":232,"Ĭ":233,"ĭ":234,"Į":235,"į":236,"İ":237,"ı":238,"Ĳ":239,"ĳ":240,"Ĵ":241,"ĵ":242,"Ķ":243,"ķ":244,"ĸ":245,"Ĺ":246,"ĺ":247,"Ļ":248,"ļ":249,"Ľ":250,"ľ":251,"Ŀ":252,"ŀ":253,"Ł":254,"ł":255,"Ń":256,"Ġ=":257,"Ġ|":258,"in":259,"re":260,"Ġt":261,"en":262,"Ġin":263,"Ġa":264,"ic":265,"ent":266,"op":267,"ra":268,"ou":269,"Ġint":270,"st":271,"opic":272,"Ġintent":273,"he":274,"Ġc":275,"Ġre":276,"or":277,"Ġn":278,"Ġb":279,"Ġi":280,"you":281,"Ġp":282,"topic":283,"on":284,"er":285,"Ġw":286,"Ġyou":287,"oo":288,"for":289,"Ġh":290,"Ġg":291,"el":292,"Ġthe":293,"ing":294,"est":295,"Ġm":296,"at":297,"ve":298,"Ġl":299,"ook":300,"form":301,"Ġinform":302,"Ġd":303,"Ġis":304,"mb":305,"uest":306,"Ġbook":307,"Ġan":308,"Ġtopic":309,"me":310,"ran":311,"an":312,"era":313,"se":314,"Ġto":315,"ice":316,"th":317,"Ġare":318,"Ġf":319,"ar":320,"Ġreq":321,"Ġrequest":322,"ay":323,"ot":324,"Ġnu":325,"mber":326,"Ġnumber":327,"enera":328,"Ġgenera":329,"Ġgeneral":330,"Ġs":331,"ion":332,"ge":333,"ave":334,"Ġo":335,"ri":336,"Ġof":337,"Ġat":338,"Ġtra":339,"ce":340,"Ġhot":341,"Ġhotel":342,"sta":343,"rant":344,"urant":345,"staurant":346,"Ġrestaurant":347,"Ġtrain":348,"ke":349,"le":350,"Ġand":351,"co":352,"Ġmo":353,"ld":354,"Ġ1":355,"ed":356,"Ġpr":357,"ere":358,"one":359,"ct":360,"Ġarea":361,"Ġfor":362,"ame":363,"ould":364,"hat":365,"Ġname":366,"Ġprice":367,"ss":368,"fere":369,"feren":370,"Ġbooking":371,"Ġch":372,"Ġhave":373,"Ġwi":374,"Ġwould":375,"Ġli":376,"Ġ0":377,"it":378,"ference":379,"ll":380,"Ġmore":381,"ye":382,"Ġst":383,"Ġlike":384,"ood":385,"the":386,"Ġreference":387,"Ġle":388,"Ġany":389,"ation":390,"pe":391,"Ġday":392,"et":393,"tra":394,"range":395,"Ġrange":396,"Ġca":397,"23":398,"ction":399,"Ġcho":400,"Ġchoice":401,"traction":402,"Ġattraction":403,"Ġar":404,"dge":405,"Ġcan":406,"de":407,"Ġcent":408,"Ġyour":409,"Ġthat":410,"Ġe":411,"art":412,"Ġel":413,"hone":414,"ouse":415,"Ġty":416,"Ġtype":417,"thing":418,"dd":419,"Ġphone":420,"12":421,"fer":422,"Ġcentre":423,"ress":424,"ridge":425,"Ġelse":426,"ro":427,"Ġthere":428,"Ġadd":429,"Ġdo":430,"Ġleave":431,"Ġbye":432,"Ġanything":433,"Ġaddress":434,"Ġcamb":435,"Ġwith":436,"Ġhe":437,"Ġfood":438,"Ġcambridge":439,"Ġit":440,"Ġarri":441,"1223":442,"Ġtr":443,"Ġpo":444,"Ġwel":445,"Ġ01223":446,"Ġoffer":447,"lp":448,"wn":449,"come":450,"Ġhelp":451,"Ġwelcome":452,"day":453,"ime":454,"Ġtime":455,"Ġde":456,"Ġta":457,"Ġguest":458,"Ġbe":459,"Ġarrive":460,"al":461,"as":462,"Ġcb":463,"Ġpost":464,"es":465,"Ġdep":466,"Ġdepart":467,"mm":468,"Ġno":469,"Ġtown":470,"Ġlo":471,"ble":472,"Ġme":473,"code":474,"Ġpostcode":475,"Ġth":476,"ark":477,"end":478,"Ġ2":479,"Ġgre":480,"comm":481,"Ġche":482,"Ġpark":483,"si":484,"is":485,"Ġu":486,"Ġ4":487,"commend":488,"Ġrecommend":489,"Ġne":490,"there":491,"ton":492,"la":493,"Ġwill":494,"ree":495,"ry":496,"Ġon":497,"ity":498,"ow":499,"ut":500,"Ġfe":501,"Ġhouse":502,"ure":503,"ch":504,"Ġbooked":505,"ul":506,"house":507,"Ġwhat":508,"ol":509,"Ġ3":510,"ad":511,"Ġro":512,"ur":513,"Ġex":514,"ket":515,"Ġmod":516,"ap":517,"Ġor":518,"Ġguesthouse":519,"ast":520,"'s":521,"oun":522,"Ġneed":523,"ination":524,"estination":525,"Ġdestination":526,"xi":527,"Ġfree":528,"Ġloc":529,"Ġ5":530,"ta":531,"erat":532,"Ġmoderat":533,"Ġtaxi":534,"orth":535,"Ġexp":536,"Ġres":537,"Ġ012233":538,"Ġfee":539,"Ġsu":540,"Ġpe":541,"ir":542,"ting":543,"Ġk":544,"ound":545,"Ġwas":546,"Ġroad":547,"Ġse":548,"reet":549,"ensi":550,"Ġone":551,"ople":552,"ensive":553,"Ġpeople":554,"Ġstay":555,"Ġstreet":556,"Ġreser":557,"icket":558,"gh":559,"Ġticket":560,"Ġv":561,"ank":562,"Ġexpensive":563,"Ġcity":564,"Ġ07":565,"Ġnorth":566,"ated":567,"ok":568,"Ġid":569,"Ġlocated":570,"ely":571,"Ġra":572,"Ġgood":573,"Ġmin":574,"Ġpre":575,"Ġman":576,"our":577,"if":578,"Ġcheap":579,"Ġparking":580,"ect":581,"ine":582,"ern":583,"00":584,"ful":585,"Ġmany":586,"um":587,"Ġcon":588,"ooking":589,"Ġnone":590,"Ġrating":591,"Ġgreat":592,"Ġtoday":593,"Ġpart":594,"her":595,"cce":596,"'re":597,"Ġwh":598,"ccess":599,"ian":600,"Ġintern":601,"ver":602,"rom":603,"Ġ15":604,"21":605,"ounds":606,"thank":607,"Ġfrom":608,"un":609,"all":610,"il":611,"Ġr":612,"Ġeast":613,"ell":614,"Ġsel":615,"yes":616,"Ġwest":617,"Ġselect":618,"ccessful":619,"Ġminut":620,"Ġinternet":621,"Ġpounds":622,"other":623,"11":624,"Ġmu":625,"Ġreserv":626,"Ġ7":627,"Ġreservation":628,"ist":629,"Ġall":630,"ia":631,"Ġminutes":632,"Ġtw":633,"ght":634,"Ġcar":635,"sure":636,"tact":637,"Ġstar":638,"Ġcontact":639,"Ġtwo":640,"Ġsuccessful":641,"Ġcol":642,"Ġsou":643,"Ġmuse":644,"Ġmuseum":645,"Ġrestaurants":646,"Ġco":647,"ai":648,"Ġby":649,"Ġcolle":650,"Ġus":651,"Ġcollege":652,"Ġpriced":653,"Ġmoderately":654,"24":655,"Ġ:":656,"out":657,"bp":658,"ving":659,"Ġent":660,"58":661,"and":662,"Ġtheir":663,"Ġsouth":664,"here":665,"Ġser":666,"rit":667,"jo":668,"Ġtable":669,"bye":670,"Ġgbp":671,"orry":672,"Ġ10":673,"okay":674,"Ġ8":675,"ill":676,"Ġhotels":677,"Ġmoderate":678,"ant":679,"51":680,"Ġun":681,"Ġso":682,"Ġ6":683,"ck":684,"ly":685,"Ġma":686,"Ġlen":687,"'m":688,"Ġ13":689,"Ġsh":690,"Ġab":691,"Ġhow":692,"Ġinformation":693,"66":694,"ich":695,"Ġass":696,"Ġwant":697,"ral":698,"what":699,"Ġ9":700,"Ġj":701,"Ġgreet":702,"Ġassist":703,"Ġtrav":704,"Ġgoodbye":705,"Ġav":706,"oom":707,"30":708,"ight":709,"Ġ11":710,"ak":711,"Ġ17":712,"Ġsorry":713,"Ġabout":714,"os":715,"Ġpla":716,"tion":717,"veral":718,"Ġseveral":719,"ain":720,"Ġplace":721,"07":722,"ery":723,"eria":724,"lu":725,"orn":726,"booking":727,"Ġif":728,"joy":729,"enjoy":730,"Ġtravel":731,"Ġind":732,"Ġstation":733,"Ġhas":734,"Ġop":735,"tain":736,"ertain":737,"Ġas":738,"Ġpreference":739,"20":740,"ish":741,"ond":742,"Ġtry":743,"Ġprefer":744,"Ġleaves":745,"Ġguesthouses":746,"Ġthey":747,"17":748,"ite":749,"Ġbed":750,"50":751,"Ġindian":752,"Ġdif":753,"ferent":754,"Ġdifferent":755,"aila":756,"Ġlooking":757,"Ġnight":758,"Ġnot":759,"Ġoption":760,"Ġtrains":761,"Ġking":762,"88":763,"Ġple":764,"Ġsi":765,"Ġac":766,"54":767,"Ġavaila":768,"ment":769,"we":770,"am":771,"Ġenjoy":772,"Ġgo":773,"ard":774,"Ġwe":775,"Ġwhere":776,"fi":777,"ool":778,"Ġy":779,"Ġbar":780,"Ġ16":781,"Ġarrives":782,"rance":783,"Ġwhich":784,"'t":785,"gth":786,"Ġlength":787,"your":788,"Ġentrance":789,"Ġanother":790,"inese":791,"Ġbut":792,"Ġchinese":793,"Ġreserve":794,"aint":795,"Ġthis":796,"60":797,"29":798,"Ġavailable":799,"sted":800,"Ġbre":801,"Ġ12":802,"10":803,"Ġoptions":804,"Ġsaint":805,"fast":806,"us":807,"Ġbreak":808,"zz":809,"Ġbreakfast":810,"fo":811,"ork":812,"Ġusing":813,"ind":814,"08":815,"Ġ19":816,"Ġq":817,"Ġsome":818,"Ġacorn":819,"Ġcrit":820,"Ġcriteria":821,"ase":822,"Ġ14":823,"ope":824,"Ġlodge":825,"erton":826,"Ġroom":827,"Ġbo":828,"ort":829,"ilton":830,"aving":831,"Ġkn":832,"15":833,"Ġchest":834,"Ġnice":835,"Ġleaving":836,"Ġknow":837,"52":838,"Ġother":839,"59":840,"Ġchesterton":841,"able":842,"how":843,"40":844,"Ġside":845,"27":846,"46":847,"Ġam":848,"side":849,"Ġmake":850,"Ġgall":851,"Ġcould":852,"39":853,"Ġcenter":854,"'d":855,"osp":856,"ital":857,"Ġhosp":858,"tal":859,"Ġhospital":860,"Ġtotal":861,"Ġital":862,"Ġitalian":863,"izz":864,"Ġwork":865,"Ġintere":866,"Ġthank":867,"Ġmay":868,"Ġserve":869,"id":870,"Ġplease":871,"Ġmat":872,"Ġspe":873,"ular":874,"35":875,"34":876,"bs":877,"Ġspec":878,"Ġable":879,"Ġget":880,"Ġour":881,"Ġfind":882,"sity":883,"Ġmeet":884,"Ġhin":885,"esday":886,"Ġmar":887,"Ġ18":888,"Ġreserved":889,"Ġal":890,"Ġpol":891,"Ġspecif":892,"rip":893,"Ġdoes":894,"Ġ21":895,"41":896,"Ġpay":897,"Ġdeparting":898,"01":899,"Ġchur":900,"ane":901,"57":902,"Ġhinton":903,"Ġcher":904,"ple":905,"Ġthree":906,"Ġpolice":907,"Ġcherry":908,"Ġtickets":909,"Ġspecific":910,"32":911,"Ġbrit":912,"icular":913,"Ġparticular":914,"Ġbritish":915,"Ġ20":916,"tr":917,"Ġhill":918,"Ġparkside":919,"Ġserv":920,"Ġservice":921,"Ġarch":922,"Ġfound":923,"iver":924,"Ġpizz":925,"ille":926,"Ġpayable":927,"Ġchurch":928,"ville":929,"reat":930,"43":931,"Ġcl":932,"iversity":933,"Ġcall":934,"Ġup":935,"ms":936,"Ġfour":937,"90":938,"great":939,"Ġtrip":940,"Ġstars":941,"Ġper":942,"Ġmuseums":943,"Ġdeparture":944,"ough":945,"ue":946,"Ġcu":947,"ive":948,"Ġthem":949,"56":950,"che":951,"Ġvery":952,"Ġuniversity":953,"Ġfri":954,"80":955,"onville":956,"Ġfriday":957,"Ġfit":958,"enb":959,"36":960,"Ġdon":961,"Ġ23":962,"have":963,"py":964,"Ġway":965,"Ġgallery":966,"Ġri":967,"Ġdown":968,"Ġlane":969,"lex":970,"ander":971,"ose":972,"lexander":973,"do":974,"Ġpool":975,"45":976,"Ġinterested":977,"Ġwifi":978,"38":979,"Ġaf":980,"Ġgonville":981,"Ġhills":982,"19":983,"og":984,"bu":985,"Ġmind":986,"clu":987,"no":988,"ther":989,"em":990,"info":991,"da":992,"Ġreg":993,"Ġtowninfo":994,"appy":995,"Ġkings":996,"16":997,"Ġart":998,"09":999,"Ġsomething":1000,"Ġgard":1001,"Ġtheat":1002,"Ġgarden":1003,"Ġ05":1004,"lad":1005,"Ġboth":1006,"Ġlook":1007,"Ġarriving":1008,"53":1009,"Ġnew":1010,"Ġalexander":1011,"where":1012,"'ve":1013,"Ġeur":1014,"Ġeurope":1015,"Ġmatch":1016,"Ġeuropean":1017,"Ġcertain":1018,"Ġwhite":1019,"Ġfew":1020,"87":1021,"Ġcuis":1022,"Ġpro":1023,"Ġthose":1024,"06":1025,"Ġqu":1026,"Ġplaces":1027,"Ġregent":1028,"unting":1029,"Ġnights":1030,"ter":1031,"Ġarms":1032,"Ġserves":1033,"Ġcuisine":1034,"urry":1035,"Ġlet":1036,"Ġmilton":1037,"Ġhappy":1038,"Ġcode":1039,"Ġsun":1040,"ven":1041,"Ġsunday":1042,"Ġ0122324":1043,"Ġlocation":1044,"Ġfen":1045,"ately":1046,"966":1047,"Ġfur":1048,"Ġfurther":1049,"55":1050,"44":1051,"Ġsp":1052,"qq":1053,"Ġtheatre":1054,"fe":1055,"onder":1056,"ina":1057,"Ġrd":1058,"onderful":1059,"ham":1060,"tun":1061,"42":1062,"ie":1063,"fortun":1064,"Ġsat":1065,"isit":1066,"fortunately":1067,"ley":1068,"Ġvisit":1069,"so":1070,"gg":1071,"hley":1072,"Ġbel":1073,"urday":1074,"ca":1075,"ne":1076,"Ġsaturday":1077,"iss":1078,"ma":1079,"row":1080,"Ġnar":1081,"Ġ09":1082,"Ġnarrow":1083,"Ġad":1084,"ott":1085,"77":1086,"Ġcom":1087,"13":1088,"ust":1089,"Ġcurry":1090,"Ġyell":1091,"Ġpic":1092,"Ġho":1093,"Ġcolleges":1094,"Ġyellow":1095,"Ġhunting":1096,"Ġdit":1097,"Ġbla":1098,"Ġbeen":1099,"Ġwhen":1100,"Ġwonderful":1101,"Ġbridge":1102,"Ġpa":1103,"Ġashley":1104,"Ġblack":1105,"Ġquite":1106,"Ġcine":1107,"Ġvol":1108,"Ġcost":1109,"Ġpizza":1110,"49":1111,"Ġditton":1112,"olog":1113,"ance":1114,"jg":1115,"Ġnightclu":1116,"sfi":1117,"Ġgrey":1118,"onday":1119,"Ġhour":1120,"eld":1121,"sfield":1122,"Ġdid":1123,"Ġ01223358":1124,"Ġlensfield":1125,"enbell":1126,"Ġmonday":1127,"Ġchoo":1128,"Ġattractions":1129,"ches":1130,"Ġred":1131,"Ġsugg":1132,"Ġbelf":1133,"Ġsuggest":1134,"rist":1135,"Ġz":1136,"ican":1137,"ult":1138,"bury":1139,"ies":1140,"Ġassistance":1141,"ha":1142,"Ġstart":1143,"lue":1144,"Ġ01223358966":1145,"Ġblue":1146,"ondon":1147,"Ġbelfry":1148,"28":1149,"don":1150,"Ġlondon":1151,"ab":1152,"Ġneeds":1153,"Ġhope":1154,"oor":1155,"would":1156,"Ġcontacting":1157,"oodle":1158,"Ġonly":1159,"Ġallenbell":1160,"Ġnoodle":1161,"48":1162,"arl":1163,"urs":1164,"add":1165,"unfortunately":1166,"Ġglad":1167,"Ġthurs":1168,"Ġthursday":1169,"Ġwed":1170,"very":1171,"Ġtraveling":1172,"tle":1173,"Ġhuntingdon":1174,"sian":1175,"Ġlov":1176,"nesday":1177,"Ġwednesday":1178,"ertainment":1179,"Ġalso":1180,"age":1181,"Ġla":1182,"78":1183,"Ġentertainment":1184,"val":1185,"ate":1186,"Ġfive":1187,"ag":1188,"itect":1189,"uck":1190,"Ġtu":1191,"18":1192,"Ġevery":1193,"Ġarchitect":1194,"Ġtuesday":1195,"su":1196,"Ġcour":1197,"Ġleis":1198,"Ġleisure":1199,"Ġnor":1200,"ifton":1201,"Ġclifton":1202,"26":1203,"king":1204,"ers":1205,"79":1206,"arch":1207,"Ġboat":1208,"Ġlot":1209,"Ġsy":1210,"Ġchoose":1211,"sa":1212,"Ġarrival":1213,"their":1214,"ted":1215,"rew":1216,"Ġpl":1217,"way":1218,"raf":1219,"Ġchrist":1220,"Ġtell":1221,"33":1222,"ep":1223,"mar":1224,"market":1225,"ire":1226,"Ġthing":1227,"Ġnewmarket":1228,"Ġ012234":1229,"Ġset":1230,"Ġandrew":1231,"Ġsyst":1232,"Ġcourse":1233,"Ġsystem":1234,"Ġsearch":1235,"Ġ.":1236,"Ġ0122336":1237,"inity":1238,"ount":1239,"Ġ22":1240,"Ġgreen":1241,"Ġmarri":1242,"Ġpleas":1243,"of":1244,"lden":1245,"Ġarchitecture":1246,"Ġshould":1247,"Ġhol":1248,"Ġtrinity":1249,"Ġproble":1250,"ko":1251,"Ġ33":1252,"right":1253,"Ġproblem":1254,"are":1255,"Ġexpress":1256,"Ġcomple":1257,"Ġasian":1258,"certain":1259,"room":1260,"irst":1261,"can":1262,"Ġ?":1263,"Ġriver":1264,"Ġcount":1265,"that":1266,"certainly":1267,"qu":1268,"ci":1269,"Ġstarting":1270,"miss":1271,"Ġdeparts":1272,"ud":1273,"Ġgraf":1274,"Ġshall":1275,"Ġstaying":1276,"mission":1277,"25":1278,"rough":1279,"Ġcinema":1280,"Ġmarriott":1281,"roomz":1282,"Ġchan":1283,"irm":1284,"Ġgoing":1285,"ford":1286,"Ġfun":1287,"alright":1288,"gd":1289,"Ġfirst":1290,"wh":1291,"Ġx":1292,"Ġadmission":1293,"Ġgolden":1294,"Ġhond":1295,"5151":1296,"Ġhonda":1297,"Ġmy":1298,"led":1299,"'ll":1300,"mw":1301,"Ġdays":1302,"Ġcro":1303,"ip":1304,"Ġtake":1305,"Ġ01223245151":1306,"rop":1307,"37":1308,"Ġsee":1309,"Ġpleasure":1310,"Ġrequ":1311,"Ġsko":1312,"Ġlex":1313,"Ġskoda":1314,"ray":1315,"Ġhall":1316,"89":1317,"Ġjust":1318,"Ġrequire":1319,"they":1320,"Ġconf":1321,"Ġap":1322,"Ġmill":1323,"Ġlexus":1324,"Ġtes":1325,"Ġshadd":1326,"Ġcalling":1327,"Ġwell":1328,"yn":1329,"Ġdepartment":1330,"Ġtesla":1331,"ack":1332,"sw":1333,"Ġhut":1334,"Ġsure":1335,"Ġ08":1336,"bray":1337,"ong":1338,"andoor":1339,"Ġshaddai":1340,"yot":1341,"22":1342,"Ġtoyot":1343,"Ġcross":1344,"andoori":1345,"Ġtoyota":1346,"64":1347,"Ġag":1348,"Ġbist":1349,"Ġbistro":1350,"ology":1351,"Ġseat":1352,"Ġpreferences":1353,"99":1354,"Ġback":1355,"Ġcal":1356,"Ġtandoori":1357,"Ġcalled":1358,"Ġwere":1359,"Ġsaints":1360,"Ġagain":1361,"ub":1362,"Ġford":1363,"Ġste":1364,"Ġcityroomz":1365,"14":1366,"wi":1367,"70":1368,"Ġcheck":1369,"Ġafter":1370,"Ġbmw":1371,"esus":1372,"Ġnightclub":1373,"Ġhere":1374,"Ġmatching":1375,"ient":1376,"Ġreservations":1377,"Ġlisted":1378,"be":1379,"Ġluck":1380,"ore":1381,"oat":1382,"Ġjesus":1383,"roughton":1384,"68":1385,"ug":1386,"train":1387,"Ġmade":1388,"Ġpara":1389,"yal":1390,"Ġout":1391,"yle":1392,"Ġlyn":1393,"Ġsch":1394,"ither":1395,"ester":1396,"ourne":1397,"Ġpools":1398,"Ġschool":1399,"Ġcafe":1400,"Ġnow":1401,"ene":1402,"Ġmodern":1403,"Ġleic":1404,"thanks":1405,"ince":1406,"Ġrea":1407,"Ġham":1408,"Ġ0122330":1409,"Ġpick":1410,"Ġleicester":1411,"alene":1412,"Ġhamilton":1413,"ex":1414,"rook":1415,"Ġ0122333":1416,"gdalene":1417,"olut":1418,"af":1419,"Ġorient":1420,"Ġresult":1421,"Ġthese":1422,"olutely":1423,"Ġoriental":1424,"ksw":1425,"vo":1426,"Ġaud":1427,"umn":1428,"Ġvolksw":1429,"Ġaudi":1430,"Ġvolkswag":1431,"ments":1432,"Ġthanks":1433,"69":1434,"iday":1435,"ze":1436,"Ġparade":1437,"worth":1438,"Ġgive":1439,"Ġthan":1440,"Ġcountry":1441,"Ġearl":1442,"Ġ0122390":1443,"andos":1444,"Ġmeets":1445,"Ġholiday":1446,"hap":1447,"Ġ24":1448,"Ġmagdalene":1449,"haps":1450,"utumn":1451,"Ġearli":1452,"sorry":1453,"ons":1454,"itch":1455,"Ġ079":1456,"Ġvolkswagen":1457,"stle":1458,"Ġcastle":1459,"Ġeither":1460,"Ġinn":1461,"Ġbroughton":1462,"Ġsound":1463,"Ġperhaps":1464,"sbray":1465,"Ġ-":1466,"Ġvin":1467,"86":1468,"abs":1469,"Ġ79":1470,"Ġinfo":1471,"Ġresults":1472,"good":1473,"star":1474,"Ġlit":1475,"Ġchoices":1476,"Ġpizzeria":1477,"absolutely":1478,"Ġgot":1479,"Ġlittle":1480,"pool":1481,"Ġely":1482,"port":1483,"arkworth":1484,"ally":1485,"Ġlovell":1486,"Ġ154":1487,"Ġrequirements":1488,"ling":1489,"na":1490,"Ġpet":1491,"Ġprince":1492,"bor":1493,"igh":1494,"Ġautumn":1495,"Ġok":1496,"Ġroyal":1497,"Ġcompleted":1498,"Ġhist":1499,"Ġkind":1500,"71":1501,"Ġayle":1502,"Ġworth":1503,"my":1504,"wich":1505,"Ġwok":1506,"borough":1507,"Ġnorwich":1508,"Ġwarkworth":1509,"Ġlynn":1510,"Ġcla":1511,"Ġclu":1512,"Ġswi":1513,"Ġparty":1514,"Ġten":1515,"Ġ076":1516,"Ġaylesbray":1517,"Ġswimm":1518,"ouin":1519,"Ġbet":1520,"Ġvolvo":1521,"ira":1522,"Ġits":1523,"Ġvar":1524,"Ġpeter":1525,"Ġswimming":1526,"vi":1527,"Ġ40":1528,"Ġpeterborough":1529,"dy":1530,"888":1531,"Ġservices":1532,"76":1533,"xb":1534,"Ġgast":1535,"Ġ01223334":1536,"oh":1537,"Ġ30":1538,"Ġda":1539,"alon":1540,"Ġserving":1541,"rookes":1542,"Ġavalon":1543,"Ġinterest":1544,"Ġclub":1545,"iet":1546,"Ġunsu":1547,"uese":1548,"ull":1549,"work":1550,"Ġrest":1551,"Ġhigh":1552,"bsons":1553,"Ġali":1554,"Ġartwork":1555,"uguese":1556,"Ġvinci":1557,"Ġartworks":1558,"Ġunsuccessful":1559,"Ġport":1560,"Ġgastrop":1561,"av":1562,"hn":1563,"Ġair":1564,"Ġbedouin":1565,"ala":1566,"enbrookes":1567,"ked":1568,"Ġshow":1569,"Ġportuguese":1570,"Ġairport":1571,"Ġafr":1572,"Ġ0122335":1573,"Ġ06":1574,"Ġ51":1575,"Ġ01223353":1576,"Ġafrican":1577,"sc":1578,"ren":1579,"Ġthen":1580,"red":1581,"Ġlist":1582,"Ġliver":1583,"Ġshort":1584,"Ġliverpool":1585,"Ġover":1586,"Ġdowning":1587,"inches":1588,"Ġbro":1589,"Ġunable":1590,"84":1591,"Ġ077":1592,"Ġconfirm":1593,"Ġjell":1594,"Ġgrafton":1595,"Ġchop":1596,"venage":1597,"Ġstevenage":1598,"Ġjello":1599,"fit":1600,"glad":1601,"iple":1602,"po":1603,"Ġmult":1604,"Ġmost":1605,"Ġ36":1606,"Ġnightclubs":1607,"ky":1608,"Ġseven":1609,"Ġmatches":1610,"Ġnandos":1611,"Ġpass":1612,"96":1613,"sh":1614,"elep":1615,"Ġold":1616,"ational":1617,"elephone":1618,"Ġinternational":1619,"Ġmultiple":1620,"Ġarchway":1621,"Ġ37":1622,"reference":1623,"ang":1624,"Ġparks":1625,"Ġunit":1626,"Ġhobsons":1627,"zb":1628,"Ġcorn":1629,"Ġarbury":1630,"Ġrosa":1631,"Ġlovely":1632,"72":1633,"ops":1634,"Ġsport":1635,"oy":1636,"Ġjo":1637,"Ġtelephone":1638,"Ġstan":1639,"Ġgastropub":1640,"Ġbish":1641,"ater":1642,"4646":1643,"arlie":1644,"Ġlots":1645,"xbourne":1646,"Ġstansted":1647,"Ġapolog":1648,"Ġbroxbourne":1649,"ah":1650,"te":1651,"Ġ47":1652,"000":1653,"Ġ75":1654,"itchen":1655,"Ġkitchen":1656,"iqu":1657,"Ġbishops":1658,"ae":1659,"Ġprovi":1660,"Ġsports":1661,"Ġprovide":1662,"wnham":1663,"Ġnewnham":1664,"31":1665,"67":1666,"Ġ28":1667,"za":1668,"Ġcor":1669,"ert":1670,"ions":1671,"Ġ35":1672,"Ġfinches":1673,"olina":1674,"Ġ50":1675,"Ġ98":1676,"Ġandrews":1677,"ka":1678,"Ġ44":1679,"Ġ49":1680,"olia":1681,"Ġ078":1682,"Ġ60":1683,"Ġmary":1684,"Ġspice":1685,"fiti":1686,"der":1687,"Ġstort":1688,"Ġyard":1689,"Ġschools":1690,"ger":1691,"Ġtoo":1692,"atolia":1693,"Ġsame":1694,"Ġsuccess":1695,"Ġstortford":1696,"eries":1697,"ition":1698,"Ġ0122321":1699,"Ġquest":1700,"Ġjohn":1701,"milton":1702,"inh":1703,"Ġbinh":1704,"Ġgalleries":1705,"ched":1706,"Ġfits":1707,"im":1708,"Ġbra":1709,"Ġbarn":1710,"Ġclare":1711,"ully":1712,"Ġvic":1713,"Ġask":1714,"63":1715,"Ġcharlie":1716,"Ġreach":1717,"Ġearliest":1718,"Ġhiston":1719,"47":1720,"sj":1721,"tor":1722,"Ġdojo":1723,"ln":1724,"Ġconc":1725,"Ġenter":1726,"Ġokay":1727,"hi":1728,"ning":1729,"Ġ#":1730,"Ġmight":1731,"Ġfren":1732,"olk":1733,"Ġsuit":1734,"Ġven":1735,"Ġshorter":1736,"Ġvictor":1737,"Ġfrench":1738,"Ġvictoria":1739,"Ġend":1740,"lpha":1741,"Ġcarolina":1742,"Ġright":1743,"900":1744,"Ġinclu":1745,"Ġge":1746,"anish":1747,"Ġtravell":1748,"Ġ88":1749,"fore":1750,"Ġlucky":1751,"irala":1752,"Ġnirala":1753,"Ġdu":1754,"Ġrice":1755,"240":1756,"Ġchange":1757,"Ġbrass":1758,"Ġ01223353888":1759,"100":1760,"73":1761,"dp":1762,"org":1763,"98":1764,"od":1765,"Ġmed":1766,"pee":1767,"Ġcold":1768,"Ġmarket":1769,"Ġgardens":1770,"Ġhome":1771,"149":1772,"hal":1773,"Ġoffers":1774,"Ġthin":1775,"verton":1776,"Ġquestions":1777,"Ġbrasser":1778,"boat":1779,"fully":1780,"ny":1781,"91":1782,"name":1783,"oul":1784,"Ġinto":1785,"ghna":1786,"Ġpreferred":1787,"ippee":1788,"Ġ012239021":1789,"Ġgeorg":1790,"Ġcoldham":1791,"Ġbrasserie":1792,"Ġalpha":1793,"stal":1794,"xican":1795,"Ġcare":1796,"Ġmexican":1797,"Ġ070":1798,"Ġ70":1799,"Ġlisting":1800,"94":1801,"Ġoak":1802,"Ġhead":1803,"mmoy":1804,"Ġgeorgina":1805,"Ġviet":1806,"Ġrated":1807,"namese":1808,"Ġvietnamese":1809,"pr":1810,"enty":1811,"Ġlong":1812,"ito":1813,"Ġleverton":1814,"ations":1815,"Ġlooks":1816,"exp":1817,"Ġsuccessfully":1818,"74":1819,"ac":1820,"Ġ56":1821,"92":1822,"ize":1823,"Ġsite":1824,"Ġ52":1825,"Ġseoul":1826,"mentum":1827,"Ġgraffiti":1828,"ghe":1829,"Ġpostal":1830,"camb":1831,"Ġcosts":1832,"iquito":1833,"ds":1834,"ping":1835,"Ġtur":1836,"Ġbirm":1837,"ingham":1838,"Ġclos":1839,"Ġpers":1840,"goodbye":1841,"Ġwan":1842,"Ġdin":1843,"Ġky":1844,"Ġalimentum":1845,"Ġbirmingham":1846,"Ġperson":1847,"cell":1848,"inoor":1849,"rita":1850,"Ġthai":1851,"Ġbyard":1852,"andle":1853,"Ġmarghe":1854,"Ġplenty":1855,"Ġapologize":1856,"cellent":1857,"Ġmargherita":1858,"Ġact":1859,"Ġmiss":1860,"Ġug":1861,"Ġ53":1862,"zzo":1863,"Ġride":1864,"Ġhours":1865,"Ġriverboat":1866,"well":1867,"kettle":1868,"Ġ105":1869,"kish":1870,"Ġanatolia":1871,"abas":1872,"Ġ01223446":1873,"when":1874,"Ġbarnabas":1875,"Ġturkish":1876,"ffe":1877,"ange":1878,"Ġchurchill":1879,"aq":1880,"Ġ38":1881,"Ġthanh":1882,"change":1883,"Ġexchange":1884,"umping":1885,"Ġ163":1886,"Ġwanting":1887,"andlebury":1888,"Ġeat":1889,"Ġyippee":1890,"which":1891,"itional":1892,"Ġclosest":1893,"Ġdine":1894,"akka":1895,"Ġmissing":1896,"ually":1897,"Ġduck":1898,"Ġspanish":1899,"oats":1900,"Ġjohns":1901,"Ġkettle":1902,"Ġ01223336":1903,"Ġsock":1904,"anese":1905,"Ġpicked":1906,"Ġthink":1907,"566":1908,"62":1909,"cy":1910,"ef":1911,"fect":1912,"kw":1913,"lh":1914,"will":1915,"Ġsal":1916,"Ġbefore":1917,"Ġkoh":1918,"Ġkymmoy":1919,"Ġugly":1920,"Ġkohinoor":1921,"Ġhouses":1922,"az":1923,"tt":1924,"Ġaren":1925,"Ġfunky":1926,"Ġduckling":1927,"Ġsalsa":1928,"kok":1929,"gon":1930,"rs":1931,"sbury":1932,"Ġadc":1933,"ean":1934,"sca":1935,"Ġbest":1936,"erran":1937,"Ġ087":1938,"iterran":1939,"illies":1940,"angkok":1941,"Ġmediterran":1942,"Ġmediterranean":1943,"loom":1944,"per":1945,"int":1946,"Ġwandlebury":1947,"Ġsuch":1948,"cambridge":1949,"ale":1950,"ib":1951,"Ġbab":1952,"Ġmeal":1953,"Ġmeghna":1954,"Ġpeking":1955,"Ġvue":1956,"zbillies":1957,"pin":1958,"aigon":1959,"Ġseats":1960,"xt":1961,"anic":1962,"Ġsc":1963,"Ġadditional":1964,"Ġsix":1965,"Ġyu":1966,"82":1967,"dg":1968,"dq":1969,"not":1970,"Ġbot":1971,"Ġdate":1972,"eraina":1973,"ote":1974,"Ġ074":1975,"Ġminute":1976,"Ġmuch":1977,"Ġgreens":1978,"loomsbury":1979,"Ġpala":1980,"Ġhakka":1981,"279":1982,"Ġbotanic":1983,"Ġpalace":1984,"ile":1985,"ween":1986,"Ġ01223334900":1987,"rim":1988,"Ġ012233149":1989,"Ġprezzo":1990,"Ġ01223314960":1991,"tem":1992,"Ġrose":1993,"587":1994,"Ġtheatres":1995,"Ġbetween":1996,"expensive":1997,"js":1998,"orld":1999,"avera":2000,"Ġstand":2001,"allare":2002,"Ġlocations":2003,"rimavera":2004,"511":2005,"kie":2006,"ru":2007,"enny":2008,"Ġfut":2009,"Ġfav":2010,"Ġdesc":2011,"Ġvarsity":2012,"Ġfuture":2013,"gl":2014,"Ġinexpensive":2015,"ration":2016,"Ġbur":2017,"Ġbus":2018,"93":2019,"ael":2020,"may":2021,"ner":2022,"pus":2023,"Ġbenny":2024,"rankie":2025,"Ġnothing":2026,"Ġholy":2027,"Ġduration":2028,"raid":2029,"Ġcamboats":2030,"izzi":2031,"ription":2032,"Ġafraid":2033,"Ġgardenia":2034,"Ġstandard":2035,"Ġdescription":2036,"fin":2037,"usion":2038,"Ġcertainly":2039,"otto":2040,"Ġ01223452":2041,"Ġshowing":2042,"Ġnear":2043,"Ġpassage":2044,"05":2045,"inling":2046,"Ġchiquito":2047,"itely":2048,"Ġaddenbrookes":2049,"Ġtasca":2050,"Ġraza":2051,"Ġreached":2052,"Ġ012239020":2053,"Ġtenpin":2054,"finitely":2055,"Ġ01223452587":2056,"sha":2057,"rary":2058,"Ġnusha":2059,"Ġtrumping":2060,"osa":2061,"Ġplan":2062,"porary":2063,"Ġtrumpington":2064,"time":2065,"Ġmoon":2066,"Ġbeg":2067,"Ġcontem":2068,"Ġgalleria":2069,"please":2070,"Ġcoming":2071,"Ġfavor":2072,"Ġcontemporary":2073,"act":2074,"jma":2075,"rh":2076,"ence":2077,"Ġmim":2078,"price":2079,"Ġactually":2080,"02":2081,"ax":2082,"Ġte":2083,"Ġbloomsbury":2084,"Ġisn":2085,"Ġoff":2086,"Ġ0122357":2087,"Ġ29":2088,"iness":2089,"506":2090,"Ġ01223446100":2091,"Ġbennys":2092,"tu":2093,"world":2094,"Ġ&":2095,"Ġprimavera":2096,"Ġlu":2097,"Ġef":2098,"Ġneeding":2099,"Ġfitzbillies":2100,"addenbrookes":2101,"orean":2102,"Ġbusiness":2103,"jmahal":2104,"Ġmimosa":2105,"cb":2106,"Ġtree":2107,"Ġcotto":2108,"Ġnine":2109,"Ġballare":2110,"Ġstill":2111,"236":2112,"door":2113,"Ġpicking":2114,"Ġbegin":2115,"Ġeraina":2116,"head":2117,"Ġposs":2118,"Ġchristi":2119,"Ġoutdoor":2120,"lf":2121,"Ġahead":2122,"street":2123,"ries":2124,"Ġhedge":2125,"Ġfeel":2126,"Ġzizzi":2127,"ix":2128,"Ġcote":2129,"Ġfinding":2130,"bw":2131,"man":2132,"Ġsaigon":2133,"233":2134,"ility":2135,"ama":2136,"Ġrooms":2137,"Ġcomplete":2138,"Ġtravelling":2139,"Ġdining":2140,"Ġefes":2141,"Ġhedges":2142,"04":2143,"97":2144,"ps":2145,"Ġbangkok":2146,"Ġlater":2147,"met":2148,"Ġ01223357":2149,"ourmet":2150,"Ġarchae":2151,"Ġcounty":2152,"Ġconfirmation":2153,"Ġarchaeology":2154,"fr":2155,"use":2156,"Ġpun":2157,"ities":2158,"2320":2159,"Ġsoul":2160,"priced":2161,"by":2162,"Ġinst":2163,"ical":2164,"Ġ01223312":2165,"Ġuno":2166,"Ġothers":2167,"Ġearlier":2168,"Ġburger":2169,"Ġfavorite":2170,"75":2171,"83":2172,"dw":2173,"fl":2174,"ues":2175,"Ġsit":2176,"Ġ019":2177,"irkw":2178,"Ġkorean":2179,"Ġboating":2180,"irkwood":2181,"pt":2182,"Ġ012234646":2183,"commod":2184,"Ġrajmahal":2185,"Ġunfortunately":2186,"Ġopen":2187,"ueen":2188,"ek":2189,"ead":2190,"iv":2191,"sit":2192,"Ġref":2193,"237":2194,"chn":2195,"Ġaccommod":2196,"Ġdoesn":2197,"Ġinclude":2198,"Ġ01954":2199,"ous":2200,"Ġgr":2201,"Ġtimes":2202,"Ġ01223338":2203,"Ġriverside":2204,"Ġpunter":2205,"Ġinstead":2206,"95":2207,"dz":2208,"qf":2209,"erc":2210,"Ġmerc":2211,"Ġanth":2212,"let":2213,"Ġ100":2214,"Ġeven":2215,"Ġ32":2216,"Ġrow":2217,"umford":2218,"Ġrun":2219,"Ġarts":2220,"Ġluca":2221,"Ġanthrop":2222,"65":2223,"happy":2224,"wel":2225,"ory":2226,"Ġmumford":2227,"Ġfrankie":2228,"Ġshop":2229,"Ġjinling":2230,"Ġmaybe":2231,"ustri":2232,"Ġanthropology":2233,"bd":2234,"own":2235,"tz":2236,"uy":2237,"xh":2238,"enue":2239,"Ġpop":2240,"Ġlast":2241,"arry":2242,"Ġsl":2243,"Ġlove":2244,"Ġ01223366":2245,"517":2246,"Ġavenue":2247,"Ġthings":2248,"Ġbackstreet":2249,"Ġ01223304":2250,"Ġtechn":2251,"Ġmercers":2252,"welcome":2253,"bo":2254,"Ġkirkwood":2255,"Ġvill":2256,"353":2257,"ogy":2258,"Ġbetter":2259,"Ġbaba":2260,"Ġpopular":2261,"Ġvillage":2262,"600":2263,"cina":2264,"mo":2265,"Ġgourmet":2266,"Ġ517":2267,"Ġ01223307":2268,"Ġ073":2269,"660":2270,"Ġ191":2271,"Ġpassen":2272,"city":2273,"eg":2274,"folk":2275,"pp":2276,"Ġwish":2277,"Ġthong":2278,"Ġentries":2279,"andhi":2280,"Ġcineworld":2281,"Ġlistings":2282,"ig":2283,"Ġcook":2284,"Ġcow":2285,"Ġwine":2286,"Ġdefinitely":2287,"Ġ01223324":2288,"Ġavailab":2289,"Ġamer":2290,"Ġperfect":2291,"Ġcucina":2292,"Ġplay":2293,"bey":2294,"Ġcookhouse":2295,"book":2296,"Ġgandhi":2297,"Ġmeeting":2298,"Ġnorfolk":2299,"Ġ01223464646":2300,"Ġtechnology":2301,"Ġavailability":2302,"bert":2303,"hy":2304,"sk":2305,"sing":2306,"uel":2307,"Ġgil":2308,"arge":2309,"Ġsle":2310,"Ġhesit":2311,"110":2312,"Ġ82":2313,"akhouse":2314,"Ġqueen":2315,"Ġsteakhouse":2316,"orey":2317,"Ġcorpus":2318,"Ġgilbert":2319,"Ġsleep":2320,"Ġhesitate":2321,"cum":2322,"rq":2323,"Ġ152":2324,"Ġappe":2325,"excellent":2326,"Ġconcert":2327,"acorn":2328,"Ġsleeper":2329,"81":2330,"aw":2331,"bj":2332,"mas":2333,"Ġwater":2334,"anuel":2335,"Ġstorey":2336,"Ġ0122327":2337,"Ġ0122342":2338,"mmanuel":2339,"unction":2340,"Ġ74":2341,"Ġjunction":2342,"Ġchurches":2343,"Ġslot":2344,"Ġsleeperz":2345,"away":2346,"pot":2347,"rot":2348,"Ġest":2349,"its":2350,"Ġtaj":2351,"Ġguests":2352,"Ġnext":2353,"Ġcheaper":2354,"5725":2355,"Ġhold":2356,"Ġtakeaway":2357,"booked":2358,"388":2359,"85":2360,"ever":2361,"jb":2362,"nz":2363,"px":2364,"Ġve":2365,"urf":2366,"astic":2367,"Ġconsi":2368,"antastic":2369,"Ġspecifications":2370,"Ġheading":2371,"Ġamerican":2372,"gx":2373,"rect":2374,"Ġwhe":2375,"Ġmid":2376,"med":2377,"any":2378,"Ġfolk":2379,"mmer":2380,"Ġchoosing":2381,"03":2382,"did":2383,"dne":2384,"hx":2385,"zion":2386,"Ġast":2387,"Ġdat":2388,"Ġdet":2389,"Ġfy":2390,"stazion":2391,"Ġanytime":2392,"Ġarca":2393,"Ġrecommendation":2394,"summer":2395,"Ġboats":2396,"dney":2397,"Ġastrot":2398,"stazione":2399,"Ġarcade":2400,"01223":2401,"ach":2402,"mg":2403,"sr":2404,"Ġgran":2405,"Ġlat":2406,"124":2407,"ady":2408,"Ġmidsummer":2409,"860":2410,"je":2411,"jf":2412,"jx":2413,"kv":2414,"nf":2415,"nt":2416,"pq":2417,"pton":2418,"Ġjub":2419,"Ġvenues":2420,"27908":2421,"ilee":2422,"50688":2423,"arrys":2424,"Ġpassenger":2425,"Ġastroturf":2426,"Ġjubilee":2427,"ail":2428,"gbp":2429,"ho":2430,"up":2431,"opper":2432,"Ġcru":2433,"Ġcopper":2434,"Ġ01":2435,"Ġlear":2436,"pect":2437,"Ġpoint":2438,"asha":2439,"Ġthough":2440,"Ġ451":2441,"Ġwhale":2442,"Ġsidney":2443,"ipasha":2444,"Ġevening":2445,"Ġgrande":2446,"257":2447,"jj":2448,"kin":2449,"wy":2450,"Ġyes":2451,"Ġpitch":2452,"Ġfusion":2453,"Ġ0122350":2454,"Ġnortham":2455,"Ġabbey":2456,"uskin":2457,"525":2458,"Ġclose":2459,"Ġfyne":2460,"Ġnorthampton":2461,"0353":2462,"banese":2463,"Ġareas":2464,"Ġcharge":2465,"Ġlebanese":2466,"Ġhear":2467,"urch":2468,"Ġ68":2469,"cr":2470,"ding":2471,"sx":2472,"Ġfine":2473,"Ġtypes":2474,"Ġruskin":2475,"516":2476,"668":2477,"906":2478,"Ġeverything":2479,"erth":2480,"Ġcaffe":2481,"Ġ41":2482,"Ġhowever":2483,"Ġcorrect":2484,"Ġconcerth":2485,"Ġvenue":2486,"..":2487,"112":2488,"alexander":2489,"curry":2490,"go":2491,"nandos":2492,"tl":2493,"Ġbat":2494,"Ġbit":2495,"Ġeach":2496,"Ġcambourne":2497,"Ġmeze":2498,"isers":2499,"Ġfees":2500,"christ":2501,"Ġcocum":2502,"Ġmatter":2503,"eman":2504,"cience":2505,"iraz":2506,"Ġ01223210353":2507,"Ġheaded":2508,"Ġ01223336233":2509,"23737":2510,"Ġdetail":2511,"Ġcruisers":2512,"Ġlearner":2513,"Ġconcerthall":2514,"Ġbateman":2515,"jy":2516,"Ġsala":2517,"Ġstop":2518,"Ġthrough":2519,"irmed":2520,"ify":2521,"Ġrout":2522,"Ġ202":2523,"Ġconfirmed":2524,"Ġhistory":2525,"hg":2526,"pb":2527,"qy":2528,"erg":2529,"Ġhotpot":2530,"Ġpricerange":2531,"Ġ075":2532,"0060":2533,"Ġ66":2534,"274":2535,"265":2536,"Ġvariet":2537,"Ġvariety":2538,"hill":2539,"Ġstazione":2540,"Ġpipasha":2541,"Ġscience":2542,"river":2543,"Ġemmanuel":2544,"Ġ0122352":2545,"Ġneeded":2546,"Ġshiraz":2547,"Ġclass":2548,"Ġplanning":2549,"Ġ01223525725":2550,"223":2551,"61":2552,"741":2553,"cor":2554,"ey":2555,"ff":2556,"lo":2557,"sv":2558,"ward":2559,"yu":2560,"Ġpound":2561,"Ġgri":2562,"Ġ017":2563,"12240":2564,"Ġfez":2565,"Ġ01223300":2566,"Ġ151":2567,"402":2568,"ffee":2569,"Ġ01223902091":2570,"12240240":2571,"ouble":2572,"ars":2573,"Ġcannot":2574,"owing":2575,"Ġ39":2576,"Ġcome":2577,"Ġcoffee":2578,"Ġ133":2579,"Ġ08712240240":2580,"Ġlatest":2581,"Ġdetails":2582,"Ġroute":2583,"512":2584,"ej":2585,"om":2586,"pd":2587,"pm":2588,"ty":2589,"restaurant":2590,"mbar":2591,"Ġrequested":2592,"Ġsounds":2593,"Ġexcellent":2594,"Ġjap":2595,"397":2596,"Ġsitar":2597,"nd":2598,"tw":2599,"Ġdarrys":2600,"Ġsw":2601,"Ġeight":2602,"Ġ012238":2603,"Ġ64":2604,"amore":2605,"agam":2606,"Ġ01223334860":2607,"Ġgrill":2608,"154":2609,"611":2610,"gm":2611,"ht":2612,"lx":2613,"uf":2614,"Ġ(":2615,"Ġpunting":2616,"Ġha":2617,"Ġhk":2618,"Ġlodg":2619,"Ġka":2620,"Ġseaf":2621,"Ġ071":2622,"Ġ63":2623,"085":2624,"Ġhuntington":2625,"Ġcinemas":2626,"Ġ012234741":2627,"Ġhighly":2628,"Ġtravellers":2629,"51707":2630,"Ġjapanese":2631,"Ġseafood":2632,"Ġ01223474144":2633,"ency":2634,"mehouse":2635,"Ġlimehouse":2636,"Ġloch":2637,"Ġ31":2638,"Ġexpect":2639,"ily":2640,"udamore":2641,"Ġgrounds":2642,"agamama":2643,"Ġlodging":2644,"200":2645,"db":2646,"jv":2647,"just":2648,"nx":2649,"tq":2650,"uw":2651,"zq":2652,"Ġ,":2653,"ick":2654,"eler":2655,"Ġ124":2656,"Ġones":2657,"Ġ0778":2658,"Ġentry":2659,"208":2660,"270":2661,"Ġarchael":2662,"387":2663,"Ġseems":2664,"Ġ01223902168":2665,"Ġbeginning":2666,"fron":2667,"Ġwheeler":2668,"Ġarchaelogy":2669,"708":2670,"elve":2671,"Ġfantastic":2672,"Ġcause":2673,"Ġaround":2674,"Ġ01223315":2675,"Ġ156":2676,"Ġgets":2677,"Ġ01223332320":2678,"cl":2679,"cv":2680,"merton":2681,"pj":2682,"qg":2683,"Ġdire":2684,"arly":2685,"Ġ01223566":2686,"Ġ072":2687,"Ġ78":2688,"Ġtwelve":2689,"Ġ108":2690,"077":2691,"598":2692,"Ġhomerton":2693,"Ġroseford":2694,"Ġ01223307402":2695,"Ġ01223420060":2696,"Ġconsider":2697,"Ġkambar":2698,"udamores":2699,"Ġcauseway":2700,"bz":2701,"lit":2702,"pizz":2703,"Ġprices":2704,"Ġstro":2705,"Ġ80":2706,"Ġunav":2707,"170":2708,"ailable":2709,"Ġtheater":2710,"Ġ01223357708":2711,"pizza":2712,"Ġunavailable":2713,"cu":2714,"fy":2715,"hu":2716,"ible":2717,"nj":2718,"nl":2719,"nr":2720,"rj":2721,"vd":2722,"Ġtang":2723,"Ġsaf":2724,"Ġearly":2725,"210":2726,"ichael":2727,"299":2728,"382":2729,"thern":2730,"Ġnorman":2731,"705":2732,"Ġcorner":2733,"Ġ01223312112":2734,"Ġstrover":2735,"done":2736,"nk":2737,"pa":2738,"Ġpric":2739,"Ġ0122329":2740,"Ġ83":2741,"5010":2742,"Ġweek":2743,"0872":2744,"Ġfinders":2745,"chel":2746,"Ġvisiting":2747,"Ġpleasant":2748,"Ġpossible":2749,"Ġsaffron":2750,"aa":2751,"bg":2752,"cw":2753,"could":2754,"qs":2755,"qw":2756,"rf":2757,"tern":2758,"uj":2759,"vx":2760,"wbray":2761,"Ġangl":2762,"Ġmowbray":2763,"232":2764,"Ġhers":2765,"Ġ0122351":2766,"Ġexact":2767,"Ġ529":2768,"Ġ01223311":2769,"Ġ106":2770,"Ġ96":2771,"178":2772,"60966":2773,"Ġ205":2774,"Ġwhitehill":2775,"Ġletting":2776,"Ġplough":2777,"ipple":2778,"Ġ01223217":2779,"Ġcoldhams":2780,"cityroomz":2781,"Ġqueens":2782,"Ġclassical":2783,"Ġ01223300085":2784,"208000":2785,"Ġpricing":2786,"Ġanglia":2787,"Ġherschel":2788,"lk":2789,"pl":2790,"to":2791,"zw":2792,"Ġter":2793,"ouple":2794,"Ġcre":2795,"Ġcouple":2796,"Ġfam":2797,"arian":2798,"Ġsched":2799,"Ġ00872":2800,"ison":2801,"Ġ01223333":2802,"Ġ0788":2803,"2456":2804,"Ġamen":2805,"Ġfitting":2806,"Ġtenison":2807,"Ġscudamores":2808,"Ġschedu":2809,"Ġ00872208000":2810,"Ġ01223333516":2811,"bt":2812,"fis":2813,"hl":2814,"jm":2815,"oc":2816,"pri":2817,"vm":2818,"xa":2819,"Ġran":2820,"Ġpan":2821,"Ġwagamama":2822,"Ġdesk":2823,"Ġwhipple":2824,"509":2825,"599":2826,"4600":2827,"8882":2828,"scent":2829,"Ġ01223336265":2830,"Ġpossib":2831,"Ġ01223366611":2832,"Ġ01223304705":2833,"both":2834,"most":2835,"27410":2836,"Ġcrescent":2837,"afe":2838,"brook":2839,"same":2840,"ws":2841,"Ġer":2842,"Ġreally":2843,"Ġmichael":2844,"Ġcase":2845,"Ġheld":2846,"Ġallowing":2847,"aid":2848,"Ġ69":2849,"Ġspecify":2850,"Ġclar":2851,"little":2852,"221":2853,"354":2854,"446":2855,"bi":2856,"fw":2857,"graf":2858,"mf":2859,"phone":2860,"qb":2861,"rl":2862,"wonderful":2863,"xy":2864,"zc":2865,"Ġed":2866,"ention":2867,"Ġcat":2868,"Ġhong":2869,"Ġgir":2870,"elix":2871,"Ġmention":2872,"Ġland":2873,"Ġfelix":2874,"Ġslu":2875,"Ġranges":2876,"238":2877,"Ġ42":2878,"Ġ327908":2879,"Ġorder":2880,"Ġ01223355":2881,"Ġ71":2882,"Ġmahal":2883,"orning":2884,"Ġkingfis":2885,"4050":2886,"Ġgetting":2887,"Ġwhitehouse":2888,"Ġlettu":2889,"428":2890,"222":2891,"Ġ01223902112":2892,"5664":2893,"66800":2894,"Ġgirton":2895,"Ġslug":2896,"Ġ01223355397":2897,"Ġkingfisher":2898,"Ġlettuce":2899,"aut":2900,"qa":2901,"Ġaustri":2902,"Ġmorning":2903,"Ġrequests":2904,"277":2905,"Ġlynne":2906,"Ġincluding":2907,"owns":2908,"Ġ01223866800":2909,"Ġamenities":2910,"Ġaustrian":2911,"bn":2912,"dt":2913,"dx":2914,"hs":2915,"iz":2916,"iking":2917,"jk":2918,"rg":2919,"rk":2920,"vb":2921,"vf":2922,"zk":2923,"zt":2924,"Ġye":2925,"heep":2926,"Ġbu":2927,"Ġpas":2928,"Ġdouble":2929,"deed":2930,"12660":2931,"Ġoffering":2932,"Ġbeaut":2933,"Ġ01223354":2934,"iful":2935,"Ġ62":2936,"Ġwanted":2937,"1018":2938,"596":2939,"Ġhinch":2940,"nown":2941,"877":2942,"781018":2943,"Ġ01223365664":2944,"quale":2945,"Ġmillers":2946,"702":2947,"Ġ01223304050":2948,"714600":2949,"Ġscott":2950,"Ġ01223902088":2951,"Ġ01954781018":2952,"Ġ01954714600":2953,"Ġestate":2954,"Ġpasquale":2955,"Ġbeautiful":2956,"451":2957,"di":2958,"ging":2959,"park":2960,"yc":2961,"yr":2962,"Ġwithin":2963,"Ġ710":2964,"155010":2965,"Ġfitz":2966,"Ġarchitectu":2967,"Ġ365":2968,"Ġdinner":2969,"Ġclarify":2970,"552":2971,"dh":2972,"ij":2973,"ius":2974,"lj":2975,"mu":2976,"zf":2977,"inbrook":2978,"Ġreta":2979,"Ġbart":2980,"Ġwor":2981,"Ġgrant":2982,"Ġlan":2983,"Ġsqu":2984,"Ġcaius":2985,"1241":2986,"Ġ012237":2987,"Ġ25":2988,"Ġsesame":2989,"Ġviking":2990,"00170":2991,"5166":2992,"Ġ139":2993,"Ġ99":2994,"Ġindustri":2995,"Ġcouldn":2996,"Ġclowns":2997,"3830":2998,"ways":2999,"6412":3000,"Ġ0122330257":3001,"Ġ40428":3002,"Ġ01223351241":3003,"ahar":3004,"Ġ087155010":3005,"12430":3006,"Ġedward":3007,"Ġhinchinbrook":3008,"Ġarchitectural":3009,"Ġretail":3010,"Ġbarton":3011,"Ġgranta":3012,"Ġindustrial":3013,"known":3014,"lq":3015,"xs":3016,"Ġhun":3017,"Ġmet":3018,"Ġdriver":3019,"Ġsort":3020,"Ġsafe":3021,"Ġanywhere":3022,"table":3023,"Ġseem":3024,"Ġwhile":3025,"118":3026,"Ġindia":3027,"Ġnews":3028,"Ġtakes":3029,"Ġswimmingpool":3030,"Ġapologies":3031,"Ġaccommodate":3032,"Ġ01223315702":3033,"con":3034,"iy":3035,"kf":3036,"mp":3037,"tb":3038,"vh":3039,"xd":3040,"zn":3041,"rame":3042,"angh":3043,"Ġsheep":3044,"Ġstyle":3045,"mmas":3046,"Ġ46":3047,"Ġ350688":3048,"Ġ566":3049,"Ġ0730":3050,"Ġring":3051,"Ġunder":3052,"Ġ619":3053,"Ġshangh":3054,"Ġalways":3055,"4222":3056,"Ġ01223576412":3057,"Ġ01223324600":3058,"prise":3059,"Ġ01223302579":3060,"Ġ08715501010":3061,"Ġshanghai":3062,"bq":3063,"cla":3064,"ew":3065,"gn":3066,"ial":3067,"ome":3068,"Ġen":3069,"Ġacce":3070,"Ġready":3071,"this":3072,"Ġsay":3073,"rosa":3074,"Ġ01223323":3075,"Ġwasn":3076,"Ġ0760":3077,"iam":3078,"Ġ169":3079,"1480":3080,"perfect":3081,"Ġincludes":3082,"Ġexpecting":3083,"parkside":3084,"Ġsquare":3085,"188":3086,"734":3087,"911":3088,"cg":3089,"cj":3090,"gog":3091,"mn":3092,"ux":3093,"wf":3094,"wk":3095,"xq":3096,"zm":3097,"zy":3098,"Ġpress":3099,"Ġpern":3100,"Ġlion":3101,"Ġant":3102,"Ġfar":3103,"Ġsil":3104,"2360":3105,"1260":3106,"Ġ012232":3107,"Ġneare":3108,"Ġ351707":3109,"248":3110,"580":3111,"5159":3112,"Ġunknown":3113,"Ġ138":3114,"880":3115,"296":3116,"104":3117,"Ġ144":3118,"8745":3119,"Ġhourly":3120,"abase":3121,"Ġlammas":3122,"Ġ01223332360":3123,"Ġenterprise":3124,"Ġ01223304906":3125,"Ġ01223324222":3126,"Ġdatabase":3127,"Ġ0778221":3128,"Ġfamily":3129,"Ġranging":3130,"Ġpanahar":3131,"446000":3132,"Ġperne":3133,"Ġsilver":3134,"Ġnearest":3135,"Ġ07782218745":3136,"rt":3137,"vk":3138,"Ġ\"":3139,"ero":3140,"Ġ01480":3141,"royal":3142,"esome":3143,"Ġcheaply":3144,"Ġratings":3145,"Ġjama":3146,"202":3147,"Ġtheaters":3148,"Ġinterests":3149,"Ġ01480446000":3150,"Ġjamaican":3151,"251":3152,"851":3153,"bh":3154,"berg":3155,"cm":3156,"ious":3157,"jd":3158,"jq":3159,"rv":3160,"sn":3161,"vc":3162,"vg":3163,"vn":3164,"vie":3165,"wb":3166,"wd":3167,"Ġinqu":3168,"Ġindeed":3169,"raham":3170,"elberg":3171,"arri":3172,"get":3173,"Ġtrainid":3174,"Ġheid":3175,"ute":3176,"Ġ57":3177,"Ġ0758":3178,"Ġ0779":3179,"111":3180,"51880":3181,"Ġmagog":3182,"306":3183,"074":3184,"5017":3185,"Ġgog":3186,"5264":3187,"591":3188,"8786":3189,"Ġ01223364222":3190,"Ġconfusion":3191,"Ġ08451":3192,"Ġchecking":3193,"Ġ40210":3194,"rent":3195,"Ġ362456":3196,"962320":3197,"Ġ01223902158":3198,"tty":3199,"Ġbabraham":3200,"Ġrunning":3201,"golden":3202,"Ġ01799":3203,"Ġmentioned":3204,"Ġheidelberg":3205,"Ġ08451962320":3206,"bb":3207,"ik":3208,"ptable":3209,"yh":3210,"res":3211,"Ġcur":3212,"Ġrecor":3213,"Ġpurch":3214,"Ġhad":3215,"Ġfare":3216,"Ġframe":3217,"chiquito":3218,"Ġcolville":3219,"Ġ01223243830":3220,"Ġzero":3221,"Ġapp":3222,"Ġinteresting":3223,"teen":3224,"iques":3225,"william":3226,"Ġaccommodations":3227,"Ġfitzwilliam":3228,"clare":3229,"Ġacceptable":3230,"Ġcurrent":3231,"Ġpurchase":3232,"ience":3233,"ju":3234,"pf":3235,"ph":3236,"qe":3237,"sf":3238,"sm":3239,"vq":3240,"wg":3241,"xf":3242,"ready":3243,"Ġstur":3244,"2330":3245,"Ġthorn":3246,"church":3247,"Ġ354":3248,"Ġ360966":3249,"Ġexhi":3250,"Ġ54":3251,"Ġ59":3252,"Ġ012233279":3253,"Ġ01223323737":3254,"Ġrather":3255,"Ġpretty":3256,"Ġ89":3257,"Ġ132":3258,"Ġ110":3259,"2010":3260,"504":3261,"565":3262,"Ġregard":3263,"555":3264,"18591":3265,"Ġnorthern":3266,"681":3267,"Ġ40270":3268,"Ġ355166":3269,"Ġ078077":3270,"Ġ01223295264":3271,"50914":3272,"Ġmichaelhouse":3273,"Ġ566388":3274,"Ġsturton":3275,"Ġthornton":3276,"Ġexhib":3277,"Ġ01223327978":3278,"Ġ07807718591":3279,"cked":3280,"eh":3281,"more":3282,"ns":3283,"pen":3284,"wr":3285,"Ġet":3286,"Ġtran":3287,"race":3288,"hes":3289,"Ġpm":3290,"elf":3291,"Ġsir":3292,"Ġem":3293,"Ġdesi":3294,"Ġtables":3295,"Ġmaking":3296,"5015":3297,"Ġalready":3298,"abl":3299,"Ġ01223302330":3300,"Ġappears":3301,"Ġestabl":3302,"Ġantiques":3303,"187":3304,"2525":3305,"500":3306,"au":3307,"bk":3308,"cc":3309,"cn":3310,"jc":3311,"nn":3312,"nw":3313,"oll":3314,"rx":3315,"ror":3316,"self":3317,"vp":3318,"wc":3319,"wm":3320,"ww":3321,"wick":3322,"xp":3323,"zl":3324,"anatolia":3325,"Ġanymore":3326,"12299":3327,"Ġdepend":3328,"Ġ323737":3329,"Ġ01223359":3330,"Ġ01223350914":3331,"Ġ0746":3332,"Ġ0739":3333,"2138":3334,"2400":3335,"Ġsidg":3336,"390":3337,"355":3338,"3471":3339,"3200":3340,"361":3341,"77900":3342,"7942":3343,"7015":3344,"8650":3345,"Ġ01223355159":3346,"Ġ01223446104":3347,"52500":3348,"Ġdirect":3349,"Ġterrace":3350,"Ġerror":3351,"Ġrecords":3352,"Ġestablish":3353,"gonville":3354,"hk":3355,"iq":3356,"min":3357,"ni":3358,"til":3359,"Ġke":3360,"then":3361,"roke":3362,"Ġ241":3363,"Ġsec":3364,"Ġ72":3365,"Ġuntil":3366,"Ġ172":3367,"5314":3368,"Ġquery":3369,"Ġ01223477900":3370,"Ġmarriot":3371,"Ġ01223334200":3372,"Ġnearby":3373,"Ġ01223575314":3374,"Ġdates":3375,"Ġexactly":3376,"334":3377,"aj":3378,"gv":3379,"hd":3380,"hq":3381,"kp":3382,"sb":3383,"tp":3384,"tx":3385,"uv":3386,"xo":3387,"yk":3388,"zp":3389,"Ġrevie":3390,"Ġhap":3391,"Ġmal":3392,"Ġdone":3393,"mbroke":3394,"anh":3395,"Ġfull":3396,"Ġwide":3397,"Ġ244":3398,"Ġchecked":3399,"Ġ356":3400,"Ġ01223350688":3401,"Ġ0707":3402,"Ġ0754":3403,"Ġ0708":3404,"Ġ0727":3405,"Ġ812660":3406,"Ġstations":3407,"Ġsomewhere":3408,"Ġpolar":3409,"7766":3410,"post":3411,"11053":3412,"Ġveget":3413,"Ġ012235033":3414,"Ġ01223566388":3415,"Ġ012233116":3416,"Ġ01223217118":3417,"Ġschedule":3418,"Ġcurrently":3419,"Ġtrans":3420,"Ġsidgwick":3421,"Ġvegetarian":3422,"bridge":3423,"even":3424,"gy":3425,"hc":3426,"oon":3427,"uh":3428,"vel":3429,"Ġaust":3430,"thanh":3431,"aysian":3432,"Ġnamed":3433,"ctions":3434,"Ġuse":3435,"allenbell":3436,"ilities":3437,"Ġsoon":3438,"Ġassisting":3439,"Ġ196":3440,"before":3441,"Ġ01223355017":3442,"express":3443,"Ġactiv":3444,"511511":3445,"Ġpossibly":3446,"Ġdesired":3447,"Ġreviews":3448,"Ġhappen":3449,"Ġmalaysian":3450,"Ġaustral":3451,"166":3452,"400":3453,"616":3454,"7660":3455,"7877":3456,"843":3457,"bangkok":3458,"df":3459,"gq":3460,"ii":3461,"ja":3462,"jah":3463,"sounds":3464,"ua":3465,"vy":3466,"wq":3467,"xc":3468,"xm":3469,"zo":3470,"zs":3471,"rajah":3472,"Ġpumping":3473,"Ġwent":3474,"Ġdanish":3475,"member":3476,"Ġnumbers":3477,"lly":3478,"Ġarrange":3479,"Ġeleven":3480,"ddars":3481,"Ġthom":3482,"Ġ251":3483,"Ġ290":3484,"Ġcheddars":3485,"Ġ400170":3486,"Ġ412430":3487,"Ġ328":3488,"Ġ01223335":3489,"Ġpeas":3490,"Ġ0724":3491,"Ġ0756":3492,"Ġ0777":3493,"Ġ0799":3494,"0089":3495,"Ġ86":3496,"1763":3497,"8871":3498,"6055":3499,"467":3500,"Ġamaz":3501,"Ġworks":3502,"413":3503,"802":3504,"194":3505,"Ġcomp":3506,"4917":3507,"Ġdidn":3508,"harajah":3509,"7977":3510,"Ġ01223368650":3511,"Ġ01223332138":3512,"Ġ404":3513,"9224":3514,"Ġpersonally":3515,"psons":3516,"Ġ01223338000":3517,"anything":3518,"Ġthroughout":3519,"ergency":3520,"Ġworked":3521,"churchill":3522,"Ġexhibition":3523,"Ġemergency":3524,"Ġthompsons":3525,"Ġ01223335511":3526,"Ġamazing":3527,"broughton":3528,"finches":3529,"gu":3530,"logy":3531,"oe":3532,"saint":3533,"ti":3534,"uc":3535,"va":3536,"vw":3537,"ines":3538,"Ġremember":3539,"Ġhaving":3540,"Ġmi":3541,"meghna":3542,"edb":3543,"ered":3544,"Ġheard":3545,"Ġ01223511511":3546,"Ġ0726":3547,"Ġmaharajah":3548,"Ġjourne":3549,"Ġtrying":3550,"Ġ01223247942":3551,"ughes":3552,"Ġbarnwell":3553,"Ġappeal":3554,"awesome":3555,"Ġswiss":3556,"ternoon":3557,"Ġjourney":3558,"466":3559,"534":3560,"679":3561,"755":3562,"901":3563,"bm":3564,"cs":3565,"dn":3566,"ded":3567,"fg":3568,"har":3569,"kq":3570,"lc":3571,"ng":3572,"old":3573,"pk":3574,"pu":3575,"pz":3576,"sue":3577,"ubs":3578,"wl":3579,"wv":3580,"xe":3581,"xv":3582,"yf":3583,"zr":3584,"Ġ!":3585,"oup":3586,"ortra":3587,"Ġportra":3588,"Ġgi":3589,"Ġlank":3590,"ayside":3591,"Ġsri":3592,"2372":3593,"Ġcant":3594,"Ġ0122346":3595,"ashley":3596,"urgh":3597,"Ġ58":3598,"Ġ01223327908":3599,"Ġpembroke":3600,"Ġ0749":3601,"Ġparts":3602,"216":3603,"Ġru":3604,"Ġ732":3605,"iams":3606,"Ġcarib":3607,"6653":3608,"Ġjedb":3609,"Ġ113":3610,"5478":3611,"08681":3612,"526":3613,"2725":3614,"357":3615,"Ġ183":3616,"Ġalmost":3617,"Ġquayside":3618,"Ġ01223247015":3619,"Ġ01223240089":3620,"448":3621,"Ġcourt":3622,"bean":3623,"Ġ01223333200":3624,"Ġ01223337766":3625,"Ġ248882":3626,"Ġgastropubs":3627,"Ġgroup":3628,"Ġvere":3629,"5122":3630,"Ġ01223519224":3631,"Ġhung":3632,"Ġ354382":3633,"Ġetc":3634,"Ġ01223503333":3635,"Ġportraits":3636,"Ġlankan":3637,"Ġcaribbean":3638,"529":3639,"ban":3640,"kk":3641,"ks":3642,"oi":3643,"sp":3644,"vely":3645,"Ġaccess":3646,"Ġfa":3647,"Ġfact":3648,"Ġwilling":3649,"Ġ01223356":3650,"Ġkos":3651,"Ġ0712":3652,"Ġ0734":3653,"219":3654,"247":3655,"lyn":3656,"Ġ94":3657,"Ġtravels":3658,"bson":3659,"Ġcuban":3660,"Ġafternoon":3661,"533":3662,"Ġhobson":3663,"Ġ01223368786":3664,"8988":3665,"actually":3666,"Ġ01223575122":3667,"hobsons":3668,"graffiti":3669,"Ġregarding":3670,"146":3671,"180":3672,"300":3673,"407":3674,"750":3675,"807":3676,"8111":3677,"977":3678,"bf":3679,"cf":3680,"cq":3681,"gf":3682,"gs":3683,"jl":3684,"lm":3685,"nq":3686,"pn":3687,"rb":3688,"rd":3689,"sd":3690,"saigon":3691,"vl":3692,"was":3693,"xu":3694,"xx":3695,"xz":3696,"zd":3697,"Ġpaid":3698,"erman":3699,"Ġhilton":3700,"Ġhughes":3701,"Ġgerman":3702,"com":3703,"Ġmoment":3704,"Ġprint":3705,"2354":3706,"definitely":3707,"Ġ0122384":3708,"Ġbeing":3709,"Ġmean":3710,"Ġgreek":3711,"Ġ315":3712,"Ġsection":3713,"Ġ0719":3714,"university":3715,"Ġ727410":3716,"581":3717,"Ġ90":3718,"Ġplaza":3719,"2054":3720,"292":3721,"404":3722,"462":3723,"32565":3724,"903":3725,"does":3726,"53355":3727,"hamilton":3728,"Ġsearching":3729,"Ġcrown":3730,"Ġ01223332400":3731,"Ġshorten":3732,"Ġ01223276653":3733,"Ġ01223425478":3734,"Ġ01223506055":3735,"Ġ01223566188":3736,"Ġ01223518111":3737,"Ġcathar":3738,"Ġbudge":3739,"Ġ241387":3740,"postcode":3741,"Ġjedburgh":3742,"Ġ01223842725":3743,"Ġ315232":3744,"frankie":3745,"got":3746,"hunting":3747,"pre":3748,"qh":3749,"qm":3750,"wo":3751,"Ġresta":3752,"Ġide":3753,"Ġput":3754,"Ġwa":3755,"Ġdrop":3756,"Ġfac":3757,"Ġyourself":3758,"Ġ26":3759,"Ġ34":3760,"uring":3761,"Ġlocate":3762,"Ġexper":3763,"Ġ0757":3764,"Ġsele":3765,"5153":3766,"Ġmain":3767,"Ġaltern":3768,"Ġdepartures":3769,"Ġdont":3770,"Ġafford":3771,"Ġspot":3772,"Ġnarrows":3773,"Ġ01223367660":3774,"Ġ01223353248":3775,"Ġincluded":3776,"Ġthinking":3777,"Ġsites":3778,"Ġ01223277977":3779,"Ġkeep":3780,"Ġtransport":3781,"Ġkosher":3782,"Ġbudget":3783,"030":3784,"212":3785,"358":3786,"330":3787,"317":3788,"360":3789,"bc":3790,"br":3791,"ee":3792,"fn":3793,"ft":3794,"gc":3795,"hj":3796,"ied":3797,"kb":3798,"kd":3799,"kz":3800,"lz":3801,"mc":3802,"mr":3803,"nu":3804,"pc":3805,"qk":3806,"ql":3807,"qp":3808,"tn":3809,"tv":3810,"tree":3811,"uq":3812,"xg":3813,"yy":3814,"yz":3815,"zh":3816,"Ġcate":3817,"Ġiri":3818,"Ġmor":3819,"Ġlate":3820,"Ġduring":3821,"Ġfin":3822,"Ġsince":3823,"Ġsaid":3824,"lesbray":3825,"ssian":3826,"yeah":3827,"peking":3828,"travel":3829,"Ġcentra":3830,"Ġtaking":3831,"Ġ200":3832,"Ġwilliams":3833,"Ġ01223348":3834,"Ġ01223352500":3835,"Ġ0721":3836,"Ġ0711":3837,"Ġ0717":3838,"Ġ0759":3839,"Ġ0701":3840,"Ġ0736":3841,"Ġ0738":3842,"Ġ0706":3843,"Ġ0789":3844,"Ġ0769":3845,"0059":3846,"unt":3847,"518":3848,"Ġ116":3849,"540":3850,"Ġgoes":3851,"276":3852,"Ġalright":3853,"Ġpersian":3854,"dojo":3855,"Ġregency":3856,"cafe":3857,"131":3858,"494":3859,"184":3860,"Ġ01223412299":3861,"Ġ01223363471":3862,"Ġhalls":3863,"Ġsuitable":3864,"Ġ521260":3865,"Ġ01223357851":3866,"ively":3867,"Ġdoubletree":3868,"Ġ01223727410":3869,"contact":3870,"Ġsecond":3871,"Ġaustralian":3872,"Ġrussian":3873,"Ġcrowne":3874,"Ġcatharine":3875,"Ġaffordable":3876,"Ġcateg":3877,"Ġirish":3878,"cine":3879,"fantastic":3880,"ier":3881,"que":3882,"ron":3883,"sic":3884,"zen":3885,"stand":3886,"Ġim":3887,"Ġgh":3888,"Ġdue":3889,"edish":3890,"onese":3891,"etian":3892,"Ġchose":3893,"Ġdozen":3894,"Ġwithout":3895,"Ġthir":3896,"Ġ48":3897,"Ġrecommended":3898,"Ġonce":3899,"iring":3900,"Ġ0740":3901,"Ġmust":3902,"Ġamount":3903,"Ġ01223247877":3904,"Ġseeing":3905,"Ġ01223302010":3906,"Ġvenetian":3907,"Ġ01223312843":3908,"Ġswedish":3909,"Ġyet":3910,"Ġcantonese":3911,"prezzo":3912,"377":3913,"557":3914,"620":3915,"657":3916,"709":3917,"7966":3918,"828":3919,"9448":3920,"ba":3921,"cd":3922,"dv":3923,"fm":3924,"fs":3925,"first":3926,"gt":3927,"hf":3928,"jn":3929,"jp":3930,"jw":3931,"jz":3932,"kl":3933,"li":3934,"lr":3935,"nb":3936,"oj":3937,"qc":3938,"rn":3939,"sala":3940,"tf":3941,"ual":3942,"vs":3943,"vu":3944,"vent":3945,"wa":3946,"wz":3947,"wery":3948,"xr":3949,"zv":3950,"raunt":3951,"Ġbill":3952,"aylesbray":3953,"Ġsend":3954,"231":3955,"239":3956,"12598":3957,"rology":3958,"Ġ0122344":3959,"Ġ01223512":3960,"Ġ432565":3961,"Ġlocal":3962,"Ġ01223351707":3963,"ensively":3964,"Ġ0700":3965,"Ġ0751":3966,"Ġ0750":3967,"Ġ0715":3968,"Ġ0716":3969,"Ġ0709":3970,"Ġ76":3971,"245":3972,"583":3973,"ando":3974,"6666":3975,"501":3976,"6060":3977,"Ġbrewery":3978,"Ġ141":3979,"Ġknown":3980,"Ġpolish":3981,"Ġspecifically":3982,"16074":3983,"Ġprov":3984,"4264":3985,"771":3986,"7786":3987,"48100":3988,"786":3989,"Ġchristmas":3990,"trains":3991,"Ġvary":3992,"Ġdale":3993,"Ġrestate":3994,"Ġ01223350059":3995,"fitzbillies":3996,"camboats":3997,"occan":3998,"grafton":3999,"Ġ01223748100":4000,"Ġexperience":4001,"Ġtransportation":4002,"Ġmoroccan":4003,"Ġcentrally":4004,").":4005,".,":4006,"321":4007,"826":4008,"bed":4009,"cp":4010,"fic":4011,"jinling":4012,"lt":4013,"might":4014,"sl":4015,"wha":4016,"Ġnando":4017,"Ġdel":4018,"ses":4019,"Ġfif":4020,"Ġcab":4021,"Ġaddres":4022,"Ġhelping":4023,"asian":4024,"Ġmins":4025,"Ġunsure":4026,"Ġabs":4027,"8842":4028,"Ġbarbe":4029,"ased":4030,"Ġspecial":4031,"down":4032,"Ġnarrowed":4033,"Ġ01223335153":4034,"Ġ01223353110":4035,"Ġbroad":4036,"kymmoy":4037,"Ġpersonal":4038,"byard":4039,"Ġopening":4040,"Ġconsid":4041,"Ġwhether":4042,"Ġconcerthalls":4043,"Ġscheduled":4044,"Ġpossibilities":4045,"Ġswimmingpools":4046,"Ġinquiring":4047,"Ġdirectly":4048,"Ġestablishment":4049,"Ġhungarian":4050,"Ġ01223512596":4051,"Ġprovid":4052,"250":4053,"339":4054,"378":4055,"3270":4056,"5599":4057,"817":4058,"908":4059,"980":4060,"938":4061,"autumn":4062,"bx":4063,"cote":4064,"du":4065,"dir":4066,"fd":4067,"fh":4068,"hb":4069,"hr":4070,"jt":4071,"kj":4072,"km":4073,"ku":4074,"mz":4075,"ob":4076,"oq":4077,"sq":4078,"sse":4079,"vr":4080,"vt":4081,"vell":4082,"xj":4083,"xk":4084,"yippee":4085,"zi":4086,"hell":4087,"Ġpast":4088,"Ġgues":4089,"Ġgwy":4090,"Ġdis":4091,"Ġful":4092,"Ġfoll":4093,"ary":4094,"cept":4095,"onesian":4096,"Ġcentral":4097,"ross":4098,"Ġpolyn":4099,"Ġ0122369":4100,"Ġhelped":4101,"Ġbeca":4102,"esian":4103,"charlie":4104,"Ġ351880":4105,"Ġ312598":4106,"Ġexpensively":4107,"Ġ01223306":4108,"Ġ01223351880":4109,"Ġ01223311053":4110,"Ġ0710":4111,"Ġ0780":4112,"Ġ0744":4113,"Ġ0737":4114,"117":4115,"Ġsouthern":4116,"Ġcomm":4117,"585":4118,"5154":4119,"662":4120,"3071":4121,"Ġindonesian":4122,"209":4123,"2094":4124,"502":4125,"8800":4126,"293":4127,"2987":4128,"199":4129,"Ġqual":4130,"Ġ01223248882":4131,"ieve":4132,"Ġbelieve":4133,"286":4134,"address":4135,"success":4136,"Ġ01223361763":4137,"Ġ01223362372":4138,"Ġ01223363270":4139,"Ġ01223365599":4140,"Ġ225":4141,"2512":4142,"899":4143,"Ġ01223357187":4144,"Ġ01462":4145,"Ġcomes":4146,"Ġhaven":4147,"Ġ01223311911":4148,"59988":4149,"Ġ01223323361":4150,"Ġ01223359750":4151,"minute":4152,"Ġ356555":4153,"52607":4154,"Ġfair":4155,"Ġcategory":4156,"cineworld":4157,"bedouin":4158,"Ġbroaden":4159,"hello":4160,"Ġgueshouse":4161,"Ġgwydir":4162,"Ġpolynesian":4163,"Ġ01223694264":4164,"Ġbecause":4165,"cast":4166,"cher":4167,"from":4168,"ild":4169,"ring":4170,"Ġtou":4171,"Ġnap":4172,"Ġwon":4173,"Ġhop":4174,"Ġhal":4175,"Ġmis":4176,"ancy":4177,"Ġfoo":4178,"Ġfall":4179,"Ġbookings":4180,"Ġever":4181,"Ġtrouble":4182,"ali":4183,"Ġlow":4184,"Ġneu":4185,"Ġneither":4186,"Ġexcept":4187,"ghan":4188,"Ġconven":4189,"4187":4190,"Ġspecifics":4191,"Ġupsca":4192,"568988":4193,"Ġlets":4194,"147":4195,"home":4196,"Ġlodgings":4197,"Ġdirections":4198,"Ġscottish":4199,"Ġappro":4200,"Ġactivity":4201,"huntingdon":4202,"whale":4203,"Ġfifteen":4204,"downing":4205,"Ġconsidered":4206,"castle":4207,"cherry":4208,"Ġupscale":4209,"107":4210,"260":4211,"2580":4212,"351":4213,"319":4214,"629":4215,"659":4216,"754":4217,"808":4218,"839":4219,"958":4220,"989":4221,"bl":4222,"bloomsbury":4223,"dm":4224,"ez":4225,"fk":4226,"gz":4227,"hh":4228,"kc":4229,"ls":4230,"mt":4231,"mv":4232,"nc":4233,"np":4234,"oz":4235,"over":4236,"ojg":4237,"pw":4238,"qz":4239,"rr":4240,"rice":4241,"ten":4242,"tely":4243,"uz":4244,"vv":4245,"xw":4246,"yp":4247,"ys":4248,"zu":4249,"Ġtus":4250,"Ġmood":4251,"ature":4252,"arbury":4253,"Ġnum":4254,"Ġsing":4255,"Ġsur":4256,"leigh":4257,"Ġ0124":4258,"Ġleast":4259,"230":4260,"126":4261,"Ġ43":4262,"Ġ450":4263,"Ġ413":4264,"adc":4265,"Ġexam":4266,"xim":4267,"Ġ012233240":4268,"Ġ012233236":4269,"Ġ01223360966":4270,"Ġ01223316074":4271,"Ġ01223352607":4272,"Ġ0766":4273,"Ġ0735":4274,"Ġ0713":4275,"Ġ0718":4276,"Ġ0733":4277,"218":4278,"unch":4279,"Ġeastside":4280,"1100":4281,"Ġ84":4282,"Ġ92":4283,"309":4284,"8860":4285,"Ġacross":4286,"290":4287,"Ġ143":4288,"594":4289,"2753":4290,"468":4291,"393":4292,"3942":4293,"Ġspecified":4294,"4149":4295,"5767":4296,"561":4297,"564":4298,"363":4299,"Ġcuisines":4300,"ters":4301,"283":4302,"Ġ01223364917":4303,"Ġ01223362054":4304,"Ġcompletely":4305,"898":4306,"wise":4307,"Ġ01223302580":4308,"Ġ01223338800":4309,"Ġ01223331100":4310,"Ġvarious":4311,"765":4312,"Ġ302":4313,"Ġ01223353071":4314,"Ġ01223353942":4315,"Ġ362525":4316,"7423":4317,"Ġscand":4318,"Ġburleigh":4319,"Ġ01223312598":4320,"Ġ01223338400":4321,"Ġ01223366202":4322,"6003":4323,"Ġ01223307030":4324,"Ġappear":4325,"Ġ01223505015":4326,"corpus":4327,"Ġ01223354382":4328,"Ġ01223354755":4329,"tball":4330,"Ġunderstand":4331,"2515":4332,"Ġ01223311625":4333,"Ġidea":4334,"Ġabsolutely":4335,"Ġnapier":4336,"Ġhoping":4337,"Ġfootball":4338,"Ġapproxim":4339,"Ġtuscan":4340,"Ġ012454":4341,"Ġ413000":4342,"Ġexample":4343,"Ġ01223324033":4344,"5219":4345,"bour":4346,"eb":4347,"emmanuel":4348,"fu":4349,"iod":4350,"ki":4351,"lb":4352,"ov":4353,"ric":4354,"yq":4355,"Ġtri":4356,"Ġtour":4357,"icine":4358,"Ġbas":4359,"Ġbased":4360,"erify":4361,"Ġsm":4362,"cess":4363,"Ġ02":4364,"Ġcam":4365,"Ġcanc":4366,"Ġwelsh":4367,"Ġ01223568988":4368,"Ġverify":4369,"241":4370,"Ġperiod":4371,"Ġriding":4372,"Ġbelg":4373,"Ġsuggestion":4374,"Ġ01223362525":4375,"Ġprovides":4376,"9859":4377,"Ġmedical":4378,"Ġmedicine":4379,"Ġ01223336540":4380,"glish":4381,"...":4382,"Ġ01223292094":4383,"Ġenglish":4384,"Ġ01223323178":4385,"Ġ01223259988":4386,"Ġmista":4387,"Ġselection":4388,"Ġapproximately":4389,"Ġtried":4390,"144":4391,"335":4392,"412":4393,"458":4394,"410":4395,"4277":4396,"610":4397,"636":4398,"618":4399,"706":4400,"744":4401,"769":4402,"827":4403,"846":4404,"834":4405,"990":4406,"955":4407,"949":4408,"ao":4409,"back":4410,"car":4411,"dk":4412,"dl":4413,"fc":4414,"fp":4415,"fz":4416,"gj":4417,"gw":4418,"hv":4419,"hope":4420,"hakka":4421,"ih":4422,"jr":4423,"kg":4424,"kh":4425,"kn":4426,"kx":4427,"ken":4428,"lg":4429,"lw":4430,"look":4431,"mh":4432,"mj":4433,"nh":4434,"ped":4435,"qd":4436,"qt":4437,"qv":4438,"rp":4439,"tc":4440,"td":4441,"tg":4442,"tj":4443,"town":4444,"vz":4445,"vian":4446,"wx":4447,"yb":4448,"yw":4449,"yx":4450,"zj":4451,"zx":4452,"Ġtd":4453,"Ġnt":4454,"Ġpub":4455,"Ġpull":4456,"Ġwoll":4457,"Ġgpb":4458,"atology":4459,"Ġfully":4460,"Ġ123":4461,"Ġ0184":4462,"dep":4463,"129":4464,"Ġ01223413":4465,"alan":4466,"ask":4467,"Ġ300":4468,"Ġ353":4469,"Ġ308681":4470,"aston":4471,"Ġ553355":4472,"Ġexpand":4473,"Ġ01223330":4474,"Ġsusse":4475,"Ġ0743":4476,"Ġ0790":4477,"Ġ0748":4478,"Ġ0770":4479,"Ġ0786":4480,"ific":4481,"005":4482,"Ġeastern":4483,"2420":4484,"andi":4485,"Ġ107":4486,"519":4487,"5170":4488,"667":4489,"2025":4490,"2083":4491,"886":4492,"8813":4493,"545":4494,"5484":4495,"Ġyo":4496,"603":4497,"2900":4498,"522":4499,"27330":4500,"4630":4501,"395":4502,"579":4503,"438":4504,"Ġtrips":4505,"569":4506,"3682":4507,"4550":4508,"193":4509,"club":4510,"nothing":4511,"Ġregion":4512,"169":4513,"0637":4514,"Ġ012232449":4515,"Ġ01223244149":4516,"Ġ01223244277":4517,"inavian":4518,"776":4519,"7755":4520,"77977":4521,"Ġze":4522,"Ġzk":4523,"261":4524,"archway":4525,"Ġ01223400170":4526,"Ġ01223412430":4527,"Ġ01223363682":4528,"Ġconfuse":4529,"Ġcrossover":4530,"9900":4531,"Ġ01223332900":4532,"8620":4533,"Ġclubs":4534,"Ġ308871":4535,"Ġresturant":4536,"Ġcorsic":4537,"4748":4538,"Ġsuits":4539,"8207":4540,"93131":4541,"0254":4542,"Ġ01223307581":4543,"Ġ01733":4544,"Ġ01223812660":4545,"Ġhaem":4546,"Ġ01223315232":4547,"Ġ07229":4548,"Ġcatalan":4549,"Ġ464630":4550,"Ġdepending":4551,"Ġ244277":4552,"Ġ01223311687":4553,"Ġ01223462354":4554,"Ġalternat":4555,"Ġghandi":4556,"Ġthirteen":4557,"Ġ01223448620":4558,"Ġaddresses":4559,"Ġprovided":4560,"Ġfairly":4561,"Ġconvenient":4562,"Ġ01223323639":4563,"2753771":4564,"Ġscandinavian":4565,"Ġ01245493131":4566,"8464":4567,"Ġwollaston":4568,"Ġ01842753771":4569,"Ġ01223413000":4570,"Ġ01223330906":4571,"Ġsussex":4572,"Ġ01223244955":4573,"Ġconfused":4574,"Ġcorsica":4575,"1387":4576,"432":4577,"719":4578,"ballare":4579,"dred":4580,"darrys":4581,"iu":4582,"iry":4583,"lic":4584,"try":4585,"Ġton":4586,"Ġrel":4587,"Ġba":4588,"Ġfancy":4589,"Ġatt":4590,"Ġprop":4591,"ites":4592,"Ġuk":4593,"Ġfeature":4594,"Ġresp":4595,"Ġrq":4596,"Ġwestside":4597,"Ġmusue":4598,"102":4599,"usual":4600,"Ġworking":4601,"Ġalone":4602,"4134":4603,"Ġafghan":4604,"Ġsatis":4605,"Ġadress":4606,"koh":4607,"Ġ01223308871":4608,"after":4609,"vious":4610,"Ġdaily":4611,"Ġ012232173":4612,"Ġconcern":4613,"0552":4614,"Ġlasts":4615,"riverboat":4616,"lovell":4617,"Ġterri":4618,"Ġyear":4619,"Ġworries":4620,"Ġhundred":4621,"arrive":4622,"Ġestablishments":4623,"Ġ01223356354":4624,"Ġwait":4625,"Ġimport":4626,"Ġdozens":4627,"Ġfollowing":4628,"Ġgueshouses":4629,"Ġbelgian":4630,"carolina":4631,"Ġfeatures":4632,"259":4633,"253":4634,"420":4635,"454":4636,"4216":4637,"5390":4638,"654":4639,"641":4640,"676":4641,"759":4642,"8903":4643,"930":4644,"9561":4645,"bv":4646,"cz":4647,"call":4648,"cue":4649,"dj":4650,"eq":4651,"fv":4652,"fx":4653,"ga":4654,"gers":4655,"hp":4656,"iat":4657,"ji":4658,"kr":4659,"lv":4660,"list":4661,"mx":4662,"nus":4663,"pg":4664,"primavera":4665,"qj":4666,"qr":4667,"rm":4668,"rdi":4669,"tk":4670,"uo":4671,"vue":4672,"wp":4673,"were":4674,"warkworth":4675,"yo":4676,"ret":4677,"Ġtons":4678,"Ġaw":4679,"icious":4680,"rat":4681,"Ġcw":4682,"Ġcle":4683,"Ġcreat":4684,"Ġig":4685,"Ġpd":4686,"eron":4687,"Ġworld":4688,"Ġmn":4689,"Ġlw":4690,"Ġdk":4691,"Ġdri":4692,"Ġissue":4693,"Ġansw":4694,"meters":4695,"otel":4696,"Ġoy":4697,"Ġ112":4698,"Ġ03":4699,"Ġec":4700,"Ġeh":4701,"Ġevent":4702,"121":4703,"Ġthereafter":4704,"Ġ0122359":4705,"ason":4706,"Ġ264":4707,"Ġ277977":4708,"Ġ414":4709,"Ġ311053":4710,"Ġ577":4711,"taj":4712,"Ġ01223308681":4713,"Ġva":4714,"Ġvj":4715,"Ġ0723":4716,"Ġ0720":4717,"Ġ0752":4718,"Ġ0764":4719,"Ġ0776":4720,"Ġprevious":4721,"Ġmanage":4722,"Ġ150":4723,"115":4724,"1159":4725,"1163":4726,"Ġreserving":4727,"246":4728,"Ġ102":4729,"Ġunusual":4730,"Ġunlist":4731,"Ġ61":4732,"Ġ600":4733,"661":4734,"Ġ942":4735,"Ġ9180":4736,"Ġjz":4737,"Ġ115":4738,"Ġ118":4739,"075":4740,"076":4741,"206":4742,"2045":4743,"1791":4744,"5056":4745,"887":4746,"5454":4747,"604":4748,"605":4749,"2974":4750,"Ġ122":4751,"108":4752,"Ġ140":4753,"Ġchesteron":4754,"528":4755,"5225":4756,"521260":4757,"Ġotherwise":4758,"5921":4759,"406":4760,"4651":4761,"Ġ189":4762,"414":4763,"0189":4764,"5729":4765,"4319":4766,"567":4767,"803":4768,"806":4769,"Ġdowntown":4770,"167":4771,"1681":4772,"531":4773,"870":4774,"0635":4775,"Ġbelfast":4776,"Ġ01223358899":4777,"Ġsuggestions":4778,"Ġzb":4779,"Ġstarts":4780,"2800":4781,"481":4782,"4859":4783,"269":4784,"Ġ01223367755":4785,"Ġ01223364319":4786,"Ġcomplex":4787,"2534":4788,"9937":4789,"Ġstev":4790,"7040":4791,"6834":4792,"Ġparameters":4793,"Ġ0797":4794,"Ġkinds":4795,"Ġ01223334898":4796,"Ġ01223356666":4797,"Ġ01223356060":4798,"Ġshortly":4799,"point":4800,"474":4801,"Ġeating":4802,"Ġ0871":4803,"Ġaccommodation":4804,"Ġ01223338901":4805,"Ġ01223338300":4806,"Ġ01223366552":4807,"Ġpassengers":4808,"8530":4809,"Ġlatin":4810,"Ġ01223300552":4811,"Ġ01223354679":4812,"Ġ01799521260":4813,"Ġ01223359506":4814,"Ġ244955":4815,"1661":4816,"6163":4817,"uarant":4818,"Ġcompany":4819,"5348":4820,"Ġgiven":4821,"Ġ01223356555":4822,"8070":4823,"Ġrestaraunt":4824,"Ġfacility":4825,"Ġ012233483":4826,"Ġdelicious":4827,"Ġbarbecue":4828,"Ġfulbour":4829,"Ġcommon":4830,"Ġhalal":4831,"Ġneurology":4832,"Ġnumer":4833,"backstreet":4834,"Ġ353110":4835,"Ġhaematology":4836,"Ġalternative":4837,"Ġimportant":4838,"Ġ577786":4839,"Ġunlisted":4840,"Ġfulbourn":4841,"024":4842,"312":4843,"338":4844,"423":4845,"833":4846,"978":4847,"926":4848,"cid":4849,"cong":4850,"ditional":4851,"gourmet":4852,"ise":4853,"mit":4854,"qn":4855,"queen":4856,"wandlebury":4857,"zizzi":4858,"Ġtex":4859,"hed":4860,"ors":4861,"Ġbring":4862,"Ġpul":4863,"Ġplu":4864,"Ġwr":4865,"Ġtraditional":4866,"Ġhote":4867,"Ġ00":4868,"Ġless":4869,"Ġanyth":4870,"23178":4871,"Ġelder":4872,"ddle":4873,"Ġelsewhere":4874,"Ġtal":4875,"Ġmeant":4876,"ending":4877,"oly":4878,"Ġroman":4879,"Ġrespect":4880,"under":4881,"0788":4882,"Ġoperat":4883,"Ġasked":4884,"3577":4885,"Ġlookout":4886,"Ġ01223241387":4887,"Ġadjust":4888,"Ġzip":4889,"Ġentertainments":4890,"ersborough":4891,"Ġ01223362456":4892,"Ġrequirement":4893,"Ġappoint":4894,"stars":4895,"Ġpetersborough":4896,"Ġquestion":4897,"Ġfavorites":4898,"Ġ01223338600":4899,"Ġ01223227330":4900,"arriving":4901,"Ġactivities":4902,"Ġdropped":4903,"3211":4904,"tenpin":4905,"Ġbasque":4906,"Ġcancel":4907,"Ġpublic":4908,"kohinoor":4909,"Ġmanaged":4910,"Ġnumerous":4911,"Ġpulled":4912,"Ġelderly":4913,"Ġromanian":4914,"Ġappointment":4915,"--":4916,"049":4917,"134":4918,"1502":4919,"207":4920,"256":4921,"2292":4922,"311":4923,"359":4924,"4765":4925,"558":4926,"559":4927,"536":4928,"677":4929,"6110":4930,"6357":4931,"757":4932,"787":4933,"7802":4934,"8494":4935,"8199":4936,"987":4937,"aval":4938,"alpha":4939,"cx":4940,"dan":4941,"ei":4942,"een":4943,"fq":4944,"gi":4945,"gp":4946,"gall":4947,"hz":4948,"holy":4949,"io":4950,"iw":4951,"jh":4952,"mi":4953,"mk":4954,"ml":4955,"mq":4956,"nv":4957,"none":4958,"pv":4959,"rc":4960,"rw":4961,"rz":4962,"sion":4963,"spot":4964,"tandoori":4965,"ume":4966,"wj":4967,"xl":4968,"xn":4969,"ref":4970,"reci":4971,"Ġtj":4972,"entrance":4973,"rate":4974,"rajmahal":4975,"Ġcy":4976,"Ġreason":4977,"ordan":4978,"Ġns":4979,"Ġbl":4980,"Ġbs":4981,"Ġih":4982,"Ġpy":4983,"erv":4984,"Ġwv":4985,"Ġhh":4986,"Ġhj":4987,"Ġgave":4988,"ating":4989,"atively":4990,"Ġlarge":4991,"Ġdb":4992,"Ġdarry":4993,"anage":4994,"sed":4995,"three":4996,"those":4997,"Ġff":4998,"Ġfz":4999,"Ġowe":5000,"Ġhotspot":5001,"Ġ188":5002,"ediat":5003,"Ġstick":5004,"234":5005,"Ġep":5006,"Ġcambrdi":5007,"Ġ01223500":5008,"aland":5009,"Ġ226":5010,"Ġuq":5011,"Ġuz":5012,"Ġ412299":5013,"Ġ311":5014,"Ġ366":5015,"Ġ323178":5016,"Ġsuff":5017,"Ġ0729":5018,"Ġ0787":5019,"Ġ0728":5020,"Ġ0784":5021,"Ġ07511":5022,"2130":5023,"2153":5024,"Ġwestern":5025,"114":5026,"119":5027,"Ġ77":5028,"2433":5029,"589":5030,"5874":5031,"Ġ87":5032,"Ġ828":5033,"669":5034,"6688":5035,"Ġjordan":5036,"307":5037,"3043":5038,"071":5039,"072":5040,"2021":5041,"2061":5042,"508":5043,"8824":5044,"Ġsize":5045,"Ġacute":5046,"Ġaccom":5047,"543":5048,"546":5049,"5401":5050,"Ġyy":5051,"2939":5052,"Ġqa":5053,"1537":5054,"592":5055,"2730":5056,"2715":5057,"463":5058,"4626":5059,"4679":5060,"4698":5061,"3948":5062,"341":5063,"345":5064,"349":5065,"5711":5066,"5737":5067,"328":5068,"Ġclin":5069,"909":5070,"386":5071,"1923":5072,"168":5073,"0927":5074,"0995":5075,"8792":5076,"Ġprocess":5077,"Ġ012232499":5078,"5507":5079,"449":5080,"4466":5081,"4212":5082,"4256":5083,"770":5084,"7733":5085,"Ġpaediat":5086,"4975":5087,"Ġzf":5088,"Ġzj":5089,"Ġzn":5090,"2826":5091,"482":5092,"1828":5093,"2621":5094,"792":5095,"7931":5096,"rooms":5097,"2530":5098,"Ġxv":5099,"Ġxy":5100,"374":5101,"3702":5102,"9969":5103,"684":5104,"6838":5105,"6971":5106,"Ġ0796":5107,"Ġ07956":5108,"Ġtension":5109,"Ġ07623":5110,"761":5111,"7656":5112,"Ġ368786":5113,"Ġ363471":5114,"Ġ361763":5115,"Ġ364917":5116,"3138":5117,"6334":5118,"Ġreachable":5119,"1499":5120,"Ġ01223902116":5121,"Ġ0704":5122,"0523":5123,"Ġ01223464630":5124,"Ġ01223338100":5125,"6009":5126,"Ġperfectly":5127,"Ġsteakhouses":5128,"Ġ41518":5129,"Ġ017335":5130,"1549":5131,"Ġpanasian":5132,"arrival":5133,"reserv":5134,"Ġappreci":5135,"5009":5136,"Ġ356354":5137,"9016":5138,"5570":5139,"Ġopenings":5140,"Ġ01223306283":5141,"9892":5142,"Ġcampus":5143,"Ġmistake":5144,"8272":5145,"depart":5146,"Ġzealand":5147,"Ġrelatively":5148,"Ġrespon":5149,"nusha":5150,"Ġawesome":5151,"Ġstevanage":5152,"congrat":5153,"Ġrespectively":5154,"avalon":5155,"galleria":5156,"Ġcambrdige":5157,"Ġ01223500005":5158,"Ġ311911":5159,"Ġ366668":5160,"Ġjordans":5161,"Ġaccomod":5162,"Ġ01223249955":5163,"Ġpaediatric":5164,"Ġ01733553355":5165,"!!":5166,"836":5167,"8533":5168,"ape":5169,"bab":5170,"gery":5171,"hm":5172,"hic":5173,"hotel":5174,"jwe":5175,"mil":5176,"sy":5177,"sen":5178,"wagamama":5179,"Ġot":5180,"rean":5181,"Ġrec":5182,"Ġbuy":5183,"Ġpat":5184,"Ġwy":5185,"Ġhi":5186,"Ġhand":5187,"Ġmt":5188,"Ġissu":5189,"less":5190,"cocum":5191,"Ġforgot":5192,"Ġpricey":5193,"fered":5194,"Ġ04":5195,"itrean":5196,"Ġchosen":5197,"Ġeas":5198,"Ġdeal":5199,"Ġtaken":5200,"Ġ45":5201,"uter":5202,"ulations":5203,"aporean":5204,"Ġ0742":5205,"Ġrate":5206,"Ġmine":5207,"Ġcardi":5208,"Ġserver":5209,"515":5210,"Ġ97":5211,"0721":5212,"Ġasking":5213,"Ġsimil":5214,"Ġalot":5215,"Ġalong":5216,"magdalene":5217,"otten":5218,"abbey":5219,"Ġmyself":5220,"Ġhistor":5221,"7610":5222,"Ġmostly":5223,"shall":5224,"Ġchanged":5225,"ign":5226,"Ġvehic":5227,"0122324":5228,"riverside":5229,"loch":5230,"Ġweekend":5231,"Ġeritrean":5232,"Ġinquiry":5233,"Ġcomputer":5234,"Ġappeals":5235,"Ġappealing":5236,"Ġfacilities":5237,"Ġspots":5238,"Ġquality":5239,"Ġtourist":5240,"Ġmisunder":5241,"Ġsingaporean":5242,"Ġtonight":5243,"4235":5244,"9781":5245,"Ġtext":5246,"Ġtalking":5247,"Ġappreciate":5248,"congratulations":5249,"Ġissues":5250,"Ġcardiology":5251,"Ġsimilar":5252,"Ġvehicle":5253,"010":5254,"0467":5255,"158":5256,"1581":5257,"254":5258,"2000":5259,"332":5260,"380":5261,"3596":5262,"429":5263,"408":5264,"434":5265,"4170":5266,"4202":5267,"550":5268,"532":5269,"538":5270,"724":5271,"740":5272,"738":5273,"749":5274,"7309":5275,"838":5276,"8387":5277,"917":5278,"941":5279,"919":5280,"9533":5281,"9276":5282,"9102":5283,"ace":5284,"but":5285,"cotto":5286,"dc":5287,"ea":5288,"eo":5289,"fun":5290,"gb":5291,"pounds":5292,"pipasha":5293,"qi":5294,"slf":5295,"telephone":5296,"uk":5297,"vj":5298,"vol":5299,"wt":5300,"yg":5301,"yi":5302,"yj":5303,"yt":5304,"Ġic":5305,"Ġoo":5306,"Ġzz":5307,"indeed":5308,"Ġtb":5309,"Ġtf":5310,"Ġtg":5311,"Ġtp":5312,"enu":5313,"Ġao":5314,"Ġay":5315,"Ġaz":5316,"Ġintend":5317,"stood":5318,"Ġcut":5319,"Ġcool":5320,"Ġnd":5321,"Ġbq":5322,"Ġbell":5323,"Ġbunch":5324,"Ġia":5325,"Ġij":5326,"Ġiv":5327,"Ġpw":5328,"Ġwp":5329,"Ġws":5330,"Ġwz":5331,"Ġhc":5332,"Ġgj":5333,"Ġgk":5334,"Ġgdp":5335,"Ġgotten":5336,"Ġmc":5337,"Ġlg":5338,"Ġlk":5339,"Ġln":5340,"Ġlp":5341,"Ġlx":5342,"Ġlunch":5343,"Ġdg":5344,"Ġdx":5345,"sess":5346,"Ġfk":5347,"Ġft":5348,"Ġsd":5349,"Ġsg":5350,"Ġsq":5351,"Ġsv":5352,"Ġ120":5353,"Ġwis":5354,"Ġliking":5355,"Ġstated":5356,"2379":5357,"2325":5358,"Ġeo":5359,"Ġev":5360,"Ġeater":5361,"125":5362,"roy":5363,"Ġdoing":5364,"Ġfoods":5365,"Ġ0122325":5366,"Ġdec":5367,"Ġdear":5368,"Ġdeci":5369,"esp":5370,"Ġuj":5371,"Ġum":5372,"Ġurology":5373,"Ġ400":5374,"Ġ420":5375,"Ġ480":5376,"Ġ448":5377,"ows":5378,"cht":5379,"Ġ352500":5380,"Ġexist":5381,"Ġ55":5382,"Ġ518":5383,"Ġ525":5384,"taxi":5385,"Ġvf":5386,"Ġvm":5387,"Ġvw":5388,"Ġvx":5389,"Ġ0747":5390,"Ġ07598":5391,"009":5392,"0032":5393,"Ġconst":5394,"213":5395,"Ġrt":5396,"Ġallenb":5397,"249":5398,"Ġ81":5399,"5108":5400,"666":5401,"Ġassume":5402,"Ġjc":5403,"Ġjn":5404,"Ġavo":5405,"079":5406,"0743":5407,"0718":5408,"0798":5409,"0797":5410,"Ġassess":5411,"2058":5412,"1756":5413,"1755":5414,"1704":5415,"1761":5416,"505":5417,"542":5418,"5413":5419,"5465":5420,"Ġyb":5421,"Ġyv":5422,"601":5423,"602":5424,"606":5425,"6066":5426,"298":5427,"2950":5428,"2929":5429,"2985":5430,"29180":5431,"Ġ12233":5432,"1027":5433,"086":5434,"087":5435,"Ġqf":5436,"Ġqk":5437,"Ġsomeone":5438,"Ġboast":5439,"5212":5440,"5909":5441,"5965":5442,"4015":5443,"275":5444,"278":5445,"2704":5446,"469":5447,"4680":5448,"4625":5449,"392":5450,"394":5451,"398":5452,"Ġpleased":5453,"356":5454,"3412":5455,"3456":5456,"419":5457,"0188":5458,"572":5459,"573":5460,"574":5461,"5720":5462,"3225":5463,"4379":5464,"9020":5465,"5677":5466,"5686":5467,"5694":5468,"809":5469,"8017":5470,"8042":5471,"369":5472,"3600":5473,"3685":5474,"381":5475,"3844":5476,"198":5477,"1997":5478,"1688":5479,"1610":5480,"0919":5481,"0922":5482,"0996":5483,"537":5484,"873":5485,"8730":5486,"Ġquick":5487,"4494":5488,"Ġspend":5489,"4284":5490,"Ġvisitors":5491,"137":5492,"1316":5493,"Ġwhenever":5494,"496":5495,"Ġzm":5496,"4849":5497,"4828":5498,"again":5499,"262":5500,"268":5501,"kings":5502,"793":5503,"7928":5504,"3371":5505,"Ġ012233650":5506,"Ġ01223365454":5507,"Ġ01223362433":5508,"why":5509,"Ġxm":5510,"Ġxx":5511,"373":5512,"3720":5513,"8913":5514,"Ġrequired":5515,"2257":5516,"998":5517,"9933":5518,"7047":5519,"685":5520,"6811":5521,"Ġ01223302800":5522,"Ġpickup":5523,"Ġvolkswagon":5524,"696":5525,"6939":5526,"Ġgives":5527,"Ġ0793":5528,"Ġ07924":5529,"Ġ07915":5530,"8610":5531,"8636":5532,"nac":5533,"Ġ07629":5534,"Ġ07657":5535,"Ġ07618":5536,"Ġ302010":5537,"Ġrestraunt":5538,"Ġrestuarant":5539,"Ġ01223355166":5540,"Ġ0772":5541,"Ġ07727":5542,"Ġ362372":5543,"9629":5544,"9635":5545,"Ġjoin":5546,"3112":5547,"3158":5548,"3130":5549,"6745":5550,"Ġ012232177":5551,"Ġ01223216811":5552,"1492":5553,"Ġ07017":5554,"5662":5555,"Ġ087194":5556,"8224":5557,"Ġ07421":5558,"Ġ07479":5559,"0532":5560,"0212":5561,"8314":5562,"Ġsitu":5563,"9557":5564,"Ġ0122327618":5565,"Ġcharges":5566,"Ġ07558":5567,"correct":5568,"wards":5569,"two":5570,"Ġfamous":5571,"Ġfitzroy":5572,"Ġ462354":5573,"Ġ464550":5574,"7349":5575,"2514":5576,"Ġ354755":5577,"3342":5578,"3343":5579,"6167":5580,"4664":5581,"Ġgiving":5582,"Ġ01223461661":5583,"5298":5584,"3005":5585,"Ġselections":5586,"Ġalternate":5587,"2125":5588,"3602":5589,"6578":5590,"7094":5591,"Ġvarying":5592,"9082":5593,"Ġ01223306306":5594,"Ġtouch":5595,"6595":5596,"8080":5597,"6368":5598,"7447":5599,"9904":5600,"ifications":5601,"Ġpropert":5602,"Ġclear":5603,"Ġanswer":5604,"queens":5605,"Ġeateries":5606,"Ġ012232566":5607,"Ġdecide":5608,"Ġ448620":5609,"Ġ518111":5610,"Ġassessment":5611,"Ġ08719429180":5612,"Ġ01223276182":5613,"),":5614,"329":5615,"336":5616,"6247":5617,"ders":5618,"each":5619,"hmm":5620,"kirkwood":5621,"line":5622,"oa":5623,"tur":5624,"ticket":5625,"ucr":5626,"wad":5627,"zil":5628,"Ġform":5629,"inion":5630,"reg":5631,"rey":5632,"read":5633,"Ġah":5634,"ential":5635,"raint":5636,"Ġcq":5637,"Ġcame":5638,"Ġreal":5639,"Ġir":5640,"Ġpot":5641,"Ġwal":5642,"Ġhog":5643,"Ġhig":5644,"Ġmone":5645,"ves":5646,"mbridge":5647,"Ġfron":5648,"leverton":5649,"cology":5650,"Ġforward":5651,"Ġwife":5652,"Ġlight":5653,"Ġcanape":5654,"Ġaddition":5655,"Ġhelpful":5656,"Ġoncology":5657,"adly":5658,"admission":5659,"Ġdestinations":5660,"Ġexpl":5661,"Ġnorthend":5662,"Ġcheapest":5663,"Ġavai":5664,"Ġopinion":5665,"Ġenjoyed":5666,"Ġyt":5667,"Ġ1223":5668,"156":5669,"Ġriders":5670,"196":5671,"1958":5672,"1612":5673,"5331":5674,"0674":5675,"Ġspace":5676,"feel":5677,"7713":5678,"Ġcompl":5679,"4969":5680,"7846":5681,"saf":5682,"Ġchrists":5683,"3330":5684,"Ġvaries":5685,"postal":5686,"Ġbrazil":5687,"Ġreaching":5688,"Ġending":5689,"Ġkettles":5690,"efes":5691,"Ġplans":5692,"anytime":5693,"0315":5694,"Ġenough":5695,"Ġinquire":5696,"Ġdepends":5697,"Ġdependency":5698,"Ġsecure":5699,"Ġaustralasian":5700,"Ġarranged":5701,"Ġmiddle":5702,"lynne":5703,"comend":5704,"Ġfinal":5705,"Ġfinish":5706,"Ġbarbeque":5707,"Ġqualifications":5708,"Ġlower":5709,"Ġsingle":5710,"7195":5711,"Ġattending":5712,"Ġmusuem":5713,"Ġ01223217314":5714,"Ġterrific":5715,"Ġwaiting":5716,"Ġcreative":5717,"Ġdriving":5718,"Ġevents":5719,"8331":5720,"Ġplus":5721,"Ġwrong":5722,"Ġsuffice":5723,"Ġresponse":5724,"bably":5725,"Ġeasy":5726,"Ġdecis":5727,"Ġconstraint":5728,"Ġboasts":5729,"tickets":5730,"Ġhigher":5731,"Ġmoney":5732,"Ġfront":5733,"Ġcanapes":5734,"Ġbrazilian":5735,")?":5736,".\"":5737,"0357":5738,"0363":5739,"0545":5740,"0115":5741,"123":5742,"138":5743,"1395":5744,"288":5745,"228":5746,"2286":5747,"323":5748,"366":5749,"352":5750,"316":5751,"3000":5752,"3194":5753,"3404":5754,"459":5755,"456":5756,"487":5757,"524":5758,"530":5759,"560":5760,"5077":5761,"5504":5762,"5567":5763,"624":5764,"651":5765,"640":5766,"643":5767,"6517":5768,"6387":5769,"6585":5770,"6193":5771,"758":5772,"743":5773,"7245":5774,"7075":5775,"7604":5776,"7803":5777,"830":5778,"849":5779,"848":5780,"818":5781,"8265":5782,"8306":5783,"8585":5784,"8662":5785,"8126":5786,"8290":5787,"8241":5788,"8685":5789,"920":5790,"915":5791,"935":5792,"9299":5793,"9178":5794,"9580":5795,"9802":5796,"9886":5797,"agg":5798,"best":5799,"bal":5800,"bry":5801,"bly":5802,"bmg":5803,"cin":5804,"cing":5805,"cular":5806,"cjv":5807,"dated":5808,"ev":5809,"fb":5810,"fj":5811,"fri":5812,"gk":5813,"gyc":5814,"gbq":5815,"gbh":5816,"hcw":5817,"ibp":5818,"ios":5819,"iment":5820,"jesus":5821,"jqg":5822,"kt":5823,"lot":5824,"md":5825,"mal":5826,"main":5827,"mod":5828,"nm":5829,"nect":5830,"omy":5831,"pi":5832,"pan":5833,"qo":5834,"qx":5835,"sz":5836,"sadly":5837,"tm":5838,"tsi":5839,"uvd":5840,"vpa":5841,"vrv":5842,"wu":5843,"wof":5844,"wkv":5845,"xxh":5846,"xej":5847,"yd":5848,"yv":5849,"yln":5850,"ymg":5851,"yhu":5852,"Ġ'":5853,"Ġxi":5854,"inue":5855,"Ġtq":5856,"Ġtz":5857,"Ġtandoor":5858,"Ġinfect":5859,"Ġaj":5860,"Ġave":5861,"Ġari":5862,"Ġaway":5863,"icas":5864,"option":5865,"oua":5866,"ourit":5867,"Ġinter":5868,"Ġce":5869,"Ġcm":5870,"Ġcp":5871,"Ġcz":5872,"Ġcet":5873,"Ġcities":5874,"Ġrefer":5875,"Ġnh":5876,"Ġnk":5877,"Ġnr":5878,"Ġnz":5879,"Ġnigh":5880,"Ġbb":5881,"Ġbg":5882,"Ġbm":5883,"Ġbt":5884,"Ġbv":5885,"Ġbw":5886,"Ġbx":5887,"Ġbib":5888,"Ġie":5889,"Ġian":5890,"Ġimp":5891,"Ġpc":5892,"Ġpf":5893,"Ġpg":5894,"Ġpj":5895,"Ġpq":5896,"Ġpz":5897,"Ġpar":5898,"Ġpri":5899,"Ġwb":5900,"Ġwd":5901,"Ġwf":5902,"Ġwj":5903,"Ġwk":5904,"Ġwt":5905,"Ġhl":5906,"Ġhq":5907,"Ġhw":5908,"Ġhz":5909,"Ġhdt":5910,"Ġgc":5911,"Ġgf":5912,"Ġgs":5913,"Ġgw":5914,"Ġgray":5915,"Ġglo":5916,"ingling":5917,"Ġmb":5918,"Ġml":5919,"Ġmp":5920,"Ġmq":5921,"Ġmix":5922,"atc":5923,"Ġls":5924,"Ġlbs":5925,"Ġlnk":5926,"Ġdh":5927,"Ġdm":5928,"Ġdr":5929,"Ġdw":5930,"Ġdise":5931,"Ġbooks":5932,"seo":5933,"though":5934,"Ġfd":5935,"Ġfl":5936,"Ġfp":5937,"Ġfw":5938,"Ġfas":5939,"aru":5940,"Ġoi":5941,"Ġos":5942,"riate":5943,"Ġattem":5944,"leave":5945,"lecular":5946,"Ġmove":5947,"Ġmovie":5948,"Ġmolecular":5949,"Ġforty":5950,"Ġnames":5951,"ssage":5952,"Ġchines":5953,"Ġ012":5954,"itti":5955,"Ġstate":5956,"people":5957,"Ġcabridge":5958,"2311":5959,"2378":5960,"Ġarche":5961,"Ġez":5962,"Ġema":5963,"arts":5964,"1227":5965,"Ġtrust":5966,"Ġ01223257":5967,"lpm":5968,"Ġtast":5969,"Ġguestrooms":5970,"Ġarrived":5971,"asg":5972,"Ġnoon":5973,"Ġmessage":5974,"endly":5975,"Ġ211":5976,"ished":5977,"Ġue":5978,"Ġuf":5979,"Ġur":5980,"Ġrecommendations":5981,"Ġnever":5982,"lac":5983,"Ġonline":5984,"utc":5985,"Ġ306":5986,"Ġexc":5987,"Ġextra":5988,"Ġ500":5989,"Ġmoderatly":5990,"Ġresol":5991,"Ġ0122335010":5992,"Ġ0122333948":5993,"Ġsuper":5994,"Ġsupp":5995,"Ġkh":5996,"Ġkz":5997,"Ġvc":5998,"Ġvh":5999,"Ġvo":6000,"Ġvy":6001,"Ġ0732":6002,"Ġ0745":6003,"Ġ0755":6004,"Ġ0768":6005,"Ġ0771":6006,"Ġ07248":6007,"Ġ074134":6008,"okt":6009,"001":6010,"0044":6011,"0031":6012,"0094":6013,"Ġcont":6014,"Ġwhy":6015,"Ġwhose":6016,"217":6017,"2166":6018,"2145":6019,"2178":6020,"2164":6021,"ilv":6022,"Ġrj":6023,"Ġrw":6024,"Ġrx":6025,"Ġrz":6026,"yesbray":6027,"116":6028,"1156":6029,"1180":6030,"1162":6031,"Ġ73":6032,"Ġcontacted":6033,"244":6034,"5866":6035,"5806":6036,"5831":6037,"5867":6038,"Ġsouthend":6039,"5107":6040,"Ġ65":6041,"Ġabo":6042,"6607":6043,"6628":6044,"6692":6045,"6697":6046,"Ġ91":6047,"Ġjm":6048,"Ġjp":6049,"Ġjq":6050,"Ġju":6051,"Ġjw":6052,"Ġjingling":6053,"303":6054,"3057":6055,"3087":6056,"3062":6057,"0717":6058,"0713":6059,"0776":6060,"0774":6061,"203":6062,"205":6063,"2029":6064,"2052":6065,"2042":6066,"171":6067,"173":6068,"1750":6069,"1709":6070,"1770":6071,"5012":6072,"5034":6073,"5042":6074,"5089":6075,"Ġdiffic":6076,"882":6077,"5473":6078,"amg":6079,"five":6080,"Ġyg":6081,"Ġyj":6082,"Ġyn":6083,"Ġ165":6084,"6034":6085,"6053":6086,"297":6087,"2912":6088,"109":6089,"fod":6090,"082":6091,"0813":6092,"0862":6093,"Ġqb":6094,"Ġqd":6095,"Ġqg":6096,"Ġqq":6097,"ases":6098,"153":6099,"157":6100,"1526":6101,"1567":6102,"1575":6103,"5266":6104,"5256":6105,"597":6106,"5910":6107,"5901":6108,"5953":6109,"5949":6110,"5928":6111,"5918":6112,"5979":6113,"5972":6114,"5998":6115,"4016":6116,"4031":6117,"2788":6118,"2764":6119,"2771":6120,"2775":6121,"4638":6122,"4689":6123,"4673":6124,"396":6125,"Ġserved":6126,"3450":6127,"3470":6128,"3476":6129,"Ġalthough":6130,"418":6131,"4194":6132,"0141":6133,"570":6134,"576":6135,"5754":6136,"5713":6137,"5747":6138,"3207":6139,"3257":6140,"Ġparticularly":6141,"Ġchurchhill":6142,"4329":6143,"4334":6144,"904":6145,"905":6146,"9066":6147,"9039":6148,"9025":6149,"9063":6150,"8056":6151,"8026":6152,"362":6153,"367":6154,"3677":6155,"3637":6156,"Ġ231":6157,"383":6158,"3854":6159,"3810":6160,"3839":6161,"3843":6162,"3847":6163,"1699":6164,"1672":6165,"098":6166,"0945":6167,"0953":6168,"5358":6169,"Ġnewham":6170,"876":6171,"8714":6172,"8705":6173,"Ġprobably":6174,"0680":6175,"0625":6176,"0686":6177,"0684":6178,"Ġsundays":6179,"4447":6180,"422":6181,"4288":6182,"4226":6183,"4283":6184,"caffe":6185,"Ġadvent":6186,"7721":6187,"7734":6188,"7769":6189,"4987":6190,"4928":6191,"Ġbelfy":6192,"Ġbelfrey":6193,"Ġzc":6194,"Ġzl":6195,"Ġzs":6196,"Ġzt":6197,"haa":6198,"2854":6199,"2860":6200,"2863":6201,"2895":6202,"484":6203,"4824":6204,"4863":6205,"784":6206,"7850":6207,"7822":6208,"1800":6209,"1854":6210,"1827":6211,"1898":6212,"1892":6213,"263":6214,"2617":6215,"2635":6216,"2694":6217,"erson":6218,"795":6219,"796":6220,"797":6221,"337":6222,"Ġ01223369299":6223,"2557":6224,"whg":6225,"Ġxj":6226,"ropriate":6227,"372":6228,"376":6229,"3732":6230,"8932":6231,"6477":6232,"996":6233,"999":6234,"9956":6235,"with":6236,"704":6237,"7020":6238,"7057":6239,"683":6240,"686":6241,"6833":6242,"Ġ01223301761":6243,"aft":6244,"voq":6245,"693":6246,"697":6247,"6946":6248,"Ġ07937":6249,"Ġ--":6250,"867":6251,"8600":6252,"8676":6253,"8631":6254,"7187":6255,"myl":6256,"Ġ0767":6257,"Ġ07621":6258,"Ġ07611":6259,"Ġ07650":6260,"Ġ07648":6261,"8885":6262,"762":6263,"763":6264,"7678":6265,"Ġgastron":6266,"ava":6267,"Ġ01223355012":6268,"Ġ0122335388":6269,"8410":6270,"Ġ07749":6271,"should":6272,"Ġ375":6273,"aej":6274,"6742":6275,"Ġ505015":6276,"kambar":6277,"Ġ0782":6278,"Ġ07823":6279,"Ġ07854":6280,"Ġ0122321629":6281,"sjz":6282,"1006":6283,"7324":6284,"7360":6285,"981":6286,"9823":6287,"9839":6288,"Ġ07060":6289,"Ġ07059":6290,"9452":6291,"Ġlonger":6292,"7430":6293,"7450":6294,"7460":6295,"Ġ568988":6296,"5669":6297,"6226":6298,"lho":6299,"iby":6300,"Ġ07411":6301,"Ġ07430":6302,"Ġ07417":6303,"Ġfavourit":6304,"9360":6305,"0559":6306,"Ġ01223577786":6307,"Ġluxu":6308,"8335":6309,"flx":6310,"sitar":6311,"Ġruns":6312,"6524":6313,"Ġ01223366668":6314,"Ġ07330":6315,"Ġ07314":6316,"Ġamericas":6317,"8151":6318,"Ġ01223274680":6319,"Ġ01223274284":6320,"medi":6321,"Ġdeter":6322,"0122333":6323,"01223358":6324,"jxx":6325,"upu":6326,"crc":6327,"crn":6328,"gob":6329,"Ġbites":6330,"Ġ07554":6331,"Ġclassic":6332,"2232":6333,"Ġ07138":6334,"2001":6335,"2006":6336,"zqe":6337,"fyq":6338,"nkz":6339,"qwfw":6340,"Ġ01223217231":6341,"Ġ01223217261":6342,"3544":6343,"rlm":6344,"Ġcatch":6345,"vbb":6346,"vfa":6347,"vfv":6348,"zkd":6349,"gnm":6350,"mnu":6351,"Ġ01223256":6352,"2519":6353,"jqm":6354,"Ġappropriate":6355,"50420":6356,"Ġexhibits":6357,"1879":6358,"vpv":6359,"zlr":6360,"sbrookes":6361,"Ġsoonest":6362,"1662":6363,"4003":6364,"Ġarrangements":6365,"Ġ079989":6366,"4669":6367,"5343":6368,"dnb":6369,"Ġhungting":6370,"1465":6371,"1469":6372,"8078":6373,"9775":6374,"huntington":6375,"Ġideas":6376,"2129":6377,"3177":6378,"Ġ01223348144":6379,"Ġthirty":6380,"7092":6381,"2503":6382,"3782":6383,"8176":6384,"Ġdisc":6385,"Ġfulf":6386,"Ġfalls":6387,"1079":6388,"2602":6389,"7548":6390,"8399":6391,"9589":6392,"Ġsurgery":6393,"126194":6394,"6105":6395,"7062":6396,"Ġpulling":6397,"4322":6398,"Ġmusuems":6399,"Ġsatisfy":6400,"Ġterribly":6401,"9303":6402,"Ġ01223596066":6403,"Ġvacan":6404,"Ġpreviously":6405,"Ġcomplexes":6406,"Ġ01223348313":6407,"Ġ01223348314":6408,"Ġoperation":6409,"1342":6410,"2078":6411,"7878":6412,"Ġclinic":6413,"reservation":6414,"departure":6415,"Ġpatience":6416,"Ġmisunderstood":6417,"funky":6418,"Ġallenball":6419,"Ġavoid":6420,"Ġ01223365068":6421,"Ġjoining":6422,"Ġ07479126194":6423,"Ġcompliment":6424,"Ġconstraints":6425,"8185":6426,"cinating":6427,"Ġinfectious":6428,"Ġglobal":6429,"Ġdiseases":6430,"Ġfascinating":6431,"Ġarcheology":6432,"Ġemail":6433,"Ġ306306":6434,"Ġ01223350106":6435,"Ġ01223339485":6436,"Ġdifficult":6437,"Ġgastronomy":6438,"Ġ01223216297":6439,"Ġfavourite":6440,"01223358966":6441,"qwfwx":6442,"Ġcomplimentary":6443,"324":6444,"315":6445,"480":6446,"aurant":6447,"bet":6448,"cre":6449,"cent":6450,"cap":6451,"cated":6452,"den":6453,"fa":6454,"four":6455,"fly":6456,"frame":6457,"iar":6458,"idge":6459,"lime":6460,"mine":6461,"michael":6462,"ned":6463,"pla":6464,"sry":6465,"sful":6466,"soul":6467,"tance":6468,"tang":6469,"uge":6470,"warts":6471,"Ġ/":6472,"Ġou":6473,"Ġtel":6474,"Ġtook":6475,"ensbrookes":6476,"Ġincon":6477,"Ġinju":6478,"oux":6479,"Ġintensive":6480,"hey":6481,"Ġrep":6482,"Ġrepe":6483,"Ġretur":6484,"Ġnic":6485,"Ġbon":6486,"Ġik":6487,"Ġil":6488,"Ġph":6489,"onary":6490,"erology":6491,"Ġwou":6492,"Ġwet":6493,"Ġhang":6494,"Ġhuh":6495,"Ġga":6496,"Ġgl":6497,"Ġgone":6498,"Ġgaf":6499,"Ġguy":6500,"ings":6501,"Ġmg":6502,"Ġmm":6503,"Ġmenu":6504,"Ġlq":6505,"Ġlt":6506,"Ġlco":6507,"Ġline":6508,"Ġdj":6509,"Ġdiver":6510,"Ġiscb":6511,"meze":6512,"another":6513,"see":6514,"sey":6515,"Ġtota":6516,"Ġfi":6517,"Ġfo":6518,"Ġfu":6519,"Ġflu":6520,"Ġfix":6521,"Ġob":6522,"Ġoh":6523,"Ġown":6524,"Ġocc":6525,"rific":6526,"Ġatm":6527,"lect":6528,"Ġwise":6529,"Ġwouldn":6530,"Ġlie":6531,"Ġ000":6532,"Ġleft":6533,"travell":6534,"Ġes":6535,"Ġeye":6536,"Ġecon":6537,"ros":6538,"Ġaddenb":6539,"Ġcambri":6540,"Ġher":6541,"Ġhelps":6542,"Ġtimeframe":6543,"Ġdesp":6544,"Ġtax":6545,"ured":6546,"Ġmodify":6547,"Ġresaurant":6548,"Ġ01223329":6549,"Ġki":6550,"ounding":6551,"Ġvice":6552,"Ġ0714":6553,"Ġpref":6554,"Ġprefered":6555,"Ġconnect":6556,"Ġpartial":6557,"ccesful":6558,"Ġwho":6559,"Ġmusic":6560,"isty":6561,"Ġtwenty":6562,"5859":6563,"665":6564,"Ġji":6565,"Ġassisted":6566,"0734":6567,"Ġnote":6568,"Ġsimp":6569,"Ġaccid":6570,"fied":6571,"Ġqm":6572,"1596":6573,"Ġamong":6574,"Ġmatched":6575,"Ġspeak":6576,"Ġspecification":6577,"3262":6578,"illed":6579,"433":6580,"Ġupdated":6581,"Ġfewer":6582,"terrific":6583,"venience":6584,"Ġ0122324515":6585,"Ġspread":6586,"neither":6587,"Ġnarrowing":6588,"Ġadmit":6589,"Ġpasta":6590,"itecture":6591,"183":6592,"1819":6593,"rewell":6594,"ared":6595,"Ġgrafitti":6596,"Ġseeking":6597,"6488":6598,"trainid":6599,"Ġoutside":6600,"Ġaylesbury":6601,"Ġgastro":6602,"Ġshows":6603,"Ġ01223355711":6604,"scudamores":6605,"Ġbishop":6606,"464646":6607,"Ġcoronary":6608,"4724":6609,"Ġ#:":6610,"1493":6611,"Ġpostalcode":6612,"Ġturns":6613,"Ġcloser":6614,"Ġactual":6615,"perhaps":6616,"Ġtechnical":6617,"Ġdata":6618,"0122321":6619,"0122330":6620,"Ġpoints":6621,"Ġclosed":6622,"located":6623,"Ġdirection":6624,"Ġconsidering":6625,"plant":6626,"Ġspecifying":6627,"Ġbuild":6628,"ique":6629,"Ġtransplant":6630,"Ġcompared":6631,"Ġfinished":6632,"standing":6633,"Ġspecializ":6634,"Ġproviding":6635,"Ġneuros":6636,"Ġsmall":6637,"Ġmistaken":6638,"ification":6639,"Ġresturants":6640,"Ġproper":6641,"Ġsatisfied":6642,"Ġhundreds":6643,"retfully":6644,"Ġcreate":6645,"Ġanythign":6646,"Ġhistoric":6647,"Ġintended":6648,"Ġcutting":6649,"regretfully":6650,"Ġpotential":6651,"Ġhogwarts":6652,"Ġexplore":6653,"saffron":6654,"Ġimpress":6655,"Ġresolve":6656,"Ġadventure":6657,"Ġdetermine":6658,"Ġfulfill":6659,"centre":6660,"limehouse":6661,"Ġinconvenience":6662,"Ġinjury":6663,"Ġrepeat":6664,"Ġguys":6665,"Ġdiverse":6666,"Ġtotally":6667,"travellers":6668,"Ġeconom":6669,"Ġdespite":6670,"Ġ01223329432":6671,"Ġsimply":6672,"Ġaccident":6673,"Ġadmittance":6674,"\".":6675,"020":6676,"059":6677,"027":6678,"032":6679,"045":6680,"0517":6681,"0516":6682,"0117":6683,"0209":6684,"0121":6685,"0481":6686,"0269":6687,"0328":6688,"0601":6689,"0394":6690,"0217":6691,"141":6692,"190":6693,"142":6694,"1233":6695,"1428":6696,"1309":6697,"224":6698,"258":6699,"266":6700,"229":6701,"280":6702,"225":6703,"2583":6704,"346":6705,"3888":6706,"3353":6707,"3387":6708,"3390":6709,"3293":6710,"3661":6711,"417":6712,"488":6713,"452":6714,"440":6715,"427":6716,"439":6717,"443":6718,"445":6719,"479":6720,"4506":6721,"4404":6722,"4117":6723,"4594":6724,"4115":6725,"4887":6726,"4604":6727,"521":6728,"507":6729,"554":6730,"5517":6731,"5234":6732,"623":6733,"630":6734,"652":6735,"646":6736,"649":6737,"628":6738,"6210":6739,"6583":6740,"6870":6741,"6386":6742,"6809":6743,"6998":6744,"751":6745,"707":6746,"717":6747,"732":6748,"790":6749,"745":6750,"728":6751,"718":6752,"7299":6753,"7222":6754,"7355":6755,"7276":6756,"7239":6757,"7583":6758,"7293":6759,"7147":6760,"7468":6761,"7667":6762,"7169":6763,"7307":6764,"7213":6765,"7278":6766,"7683":6767,"823":6768,"821":6769,"811":6770,"858":6771,"801":6772,"890":6773,"844":6774,"842":6775,"8149":6776,"8509":6777,"8504":6778,"8361":6779,"8292":6780,"8363":6781,"8522":6782,"8406":6783,"8167":6784,"912":6785,"907":6786,"950":6787,"988":6788,"939":6789,"953":6790,"928":6791,"933":6792,"9517":6793,"9382":6794,"9202":6795,"9219":6796,"9209":6797,"9286":6798,"9545":6799,"9522":6800,"9605":6801,"9531":6802,"9345":6803,"9792":6804,"9704":6805,"??":6806,"axi":6807,"aok":6808,"ben":6809,"bpe":6810,"bif":6811,"bqq":6812,"boh":6813,"bza":6814,"bjs":6815,"based":6816,"cxb":6817,"cnx":6818,"cnl":6819,"dr":6820,"dra":6821,"dim":6822,"dtz":6823,"darry":6824,"dje":6825,"djx":6826,"duf":6827,"dnk":6828,"djm":6829,"eu":6830,"eel":6831,"eas":6832,"eog":6833,"ebg":6834,"ezt":6835,"found":6836,"fda":6837,"fgd":6838,"fwh":6839,"fbo":6840,"fpx":6841,"fpq":6842,"fzc":6843,"fmn":6844,"fsf":6845,"fbk":6846,"gr":6847,"gst":6848,"gma":6849,"gac":6850,"gcl":6851,"gvm":6852,"gwv":6853,"hw":6854,"hit":6855,"hrq":6856,"hqy":6857,"hhs":6858,"hwc":6859,"iere":6860,"iit":6861,"iye":6862,"iog":6863,"iester":6864,"ikv":6865,"iww":6866,"iwl":6867,"jen":6868,"jor":6869,"jed":6870,"jad":6871,"jful":6872,"jyn":6873,"jds":6874,"jaw":6875,"jmg":6876,"jnf":6877,"jpq":6878,"jnn":6879,"jrd":6880,"jnac":6881,"kvo":6882,"kff":6883,"kcv":6884,"kjk":6885,"lol":6886,"lof":6887,"liple":6888,"lhi":6889,"mon":6890,"mpe":6891,"mia":6892,"mof":6893,"mtl":6894,"mlx":6895,"mjc":6896,"mvl":6897,"nice":6898,"net":6899,"ntu":6900,"nsk":6901,"njx":6902,"nho":6903,"ngm":6904,"ncv":6905,"namg":6906,"ox":6907,"ora":6908,"ozc":6909,"oxq":6910,"ovk":6911,"ova":6912,"ozr":6913,"pound":6914,"pai":6915,"pab":6916,"pax":6917,"pgq":6918,"person":6919,"qot":6920,"qit":6921,"qis":6922,"qam":6923,"qlh":6924,"qmu":6925,"qrd":6926,"rfr":6927,"rfl":6928,"rxh":6929,"rpl":6930,"sg":6931,"sly":6932,"sgg":6933,"since":6934,"smo":6935,"srq":6936,"spl":6937,"szk":6938,"sheep":6939,"sdi":6940,"sgj":6941,"szj":6942,"ts":6943,"tre":6944,"tep":6945,"toy":6946,"tpr":6947,"tdb":6948,"uic":6949,"uran":6950,"udd":6951,"ulp":6952,"uoh":6953,"ufr":6954,"ucu":6955,"uhu":6956,"uvx":6957,"vis":6958,"vok":6959,"vlu":6960,"vso":6961,"vma":6962,"vies":6963,"vhn":6964,"vsr":6965,"vgm":6966,"vcv":6967,"vaa":6968,"vlk":6969,"vvf":6970,"vjp":6971,"vvpv":6972,"wre":6973,"wla":6974,"wow":6975,"wun":6976,"wly":6977,"wfo":6978,"wka":6979,"wpr":6980,"wmg":6981,"wzq":6982,"wxs":6983,"xen":6984,"xed":6985,"xag":6986,"xbe":6987,"xmy":6988,"xoc":6989,"xgy":6990,"yl":6991,"ym":6992,"yay":6993,"yce":6994,"yka":6995,"ypx":6996,"yjx":6997,"ypd":6998,"ykf":6999,"yvg":7000,"yyh":7001,"zg":7002,"zly":7003,"zte":7004,"ziv":7005,"zuy":7006,"zyu":7007,"zjm":7008,"zvm":7009,"zxo":7010,"zaft":7011,"Ġsta":7012,"Ġry":7013,"inera":7014,"inet":7015,"Ġtc":7016,"Ġts":7017,"Ġtx":7018,"Ġtop":7019,"Ġtat":7020,"enn":7021,"enage":7022,"Ġincorrect":7023,"Ġae":7024,"Ġau":7025,"Ġaen":7026,"Ġale":7027,"Ġakf":7028,"Ġaeb":7029,"iche":7030,"ically":7031,"enterology":7032,"opok":7033,"raa":7034,"rable":7035,"ought":7036,"oubt":7037,"oucjv":7038,"stnz":7039,"stom":7040,"hely":7041,"Ġcd":7042,"Ġcg":7043,"Ġcj":7044,"Ġck":7045,"Ġcv":7046,"Ġcen":7047,"Ġcct":7048,"Ġcit":7049,"Ġcul":7050,"Ġcig":7051,"Ġcxz":7052,"Ġrese":7053,"Ġrece":7054,"Ġremain":7055,"ories":7056,"Ġna":7057,"Ġnb":7058,"Ġnl":7059,"Ġnm":7060,"Ġnw":7061,"Ġnx":7062,"Ġny":7063,"Ġnch":7064,"Ġngh":7065,"Ġninet":7066,"Ġbc":7067,"Ġbp":7068,"Ġbz":7069,"Ġbad":7070,"Ġbank":7071,"Ġbout":7072,"Ġbsj":7073,"Ġbtt":7074,"Ġbloom":7075,"Ġbnf":7076,"Ġbvc":7077,"Ġbvu":7078,"Ġbzx":7079,"Ġib":7080,"Ġiu":7081,"Ġiy":7082,"Ġive":7083,"Ġiil":7084,"Ġivx":7085,"Ġixe":7086,"Ġikc":7087,"Ġpn":7088,"Ġpv":7089,"Ġpie":7090,"Ġpux":7091,"Ġwo":7092,"Ġwq":7093,"Ġwu":7094,"Ġww":7095,"Ġworry":7096,"Ġwww":7097,"Ġwsp":7098,"ooj":7099,"Ġhb":7100,"Ġhg":7101,"Ġhv":7102,"Ġhy":7103,"Ġhld":7104,"Ġhno":7105,"Ġhag":7106,"Ġhandle":7107,"Ġhxg":7108,"Ġgm":7109,"Ġgq":7110,"Ġgu":7111,"Ġgx":7112,"Ġgz":7113,"Ġgra":7114,"Ġgxt":7115,"Ġgvn":7116,"Ġgpu":7117,"Ġglb":7118,"Ġmd":7119,"Ġmf":7120,"Ġmh":7121,"Ġmj":7122,"Ġmr":7123,"Ġms":7124,"Ġmz":7125,"Ġmut":7126,"Ġmil":7127,"Ġmrq":7128,"Ġmxm":7129,"Ġmdk":7130,"Ġmqr":7131,"veg":7132,"vered":7133,"Ġlf":7134,"Ġlj":7135,"Ġlm":7136,"Ġlr":7137,"Ġlv":7138,"Ġlz":7139,"Ġlma":7140,"Ġldy":7141,"Ġlgm":7142,"Ġlqs":7143,"Ġlxm":7144,"formation":7145,"Ġdd":7146,"Ġdf":7147,"Ġdi":7148,"Ġdl":7149,"Ġdn":7150,"Ġdp":7151,"Ġdq":7152,"Ġdt":7153,"Ġdv":7154,"Ġdy":7155,"Ġdke":7156,"Ġdilton":7157,"Ġdci":7158,"Ġdjf":7159,"Ġdkv":7160,"Ġanf":7161,"Ġanh":7162,"rania":7163,"erable":7164,"sesame":7165,"Ġtowards":7166,"thj":7167,"Ġfr":7168,"Ġfan":7169,"Ġfle":7170,"Ġfab":7171,"Ġfig":7172,"Ġfkv":7173,"Ġfgo":7174,"Ġfrg":7175,"Ġfvn":7176,"arm":7177,"aria":7178,"arzy":7179,"Ġsb":7180,"Ġsf":7181,"Ġsn":7182,"Ġsop":7183,"Ġsol":7184,"Ġsly":7185,"Ġoe":7186,"Ġog":7187,"Ġom":7188,"Ġoq":7189,"Ġow":7190,"Ġox":7191,"Ġoz":7192,"Ġowa":7193,"Ġojful":7194,"rian":7195,"Ġoffered":7196,"Ġtraum":7197,"ceed":7198,"kei":7199,"kev":7200,"Ġmovies":7201,"ldq":7202,"Ġ111":7203,"eda":7204,"Ġprot":7205,"cttg":7206,"ssl":7207,"ssyp":7208,"Ġchance":7209,"Ġchild":7210,"Ġlimit":7211,"Ġ011":7212,"Ġstree":7213,"these":7214,"Ġlevel":7215,"Ġleiester":7216,"Ġanyone":7217,"pey":7218,"pembroke":7219,"pefs":7220,"2329":7221,"2334":7222,"2357":7223,"2319":7224,"2392":7225,"Ġeq":7226,"Ġew":7227,"Ġeopok":7228,"Ġerania":7229,"arting":7230,"dding":7231,"ddha":7232,"120":7233,"1220":7234,"1287":7235,"1242":7236,"rogd":7237,"Ġitinera":7238,"wnh":7239,"wnx":7240,"Ġguesth":7241,"alf":7242,"alble":7243,"also":7244,"almost":7245,"asa":7246,"mmy":7247,"Ġnoddle":7248,"Ġtowne":7249,"Ġtowns":7250,"Ġthous":7251,"Ġthought":7252,"Ġ223":7253,"Ġ266":7254,"Ġ278":7255,"isne":7256,"Ġuc":7257,"Ġuh":7258,"Ġuv":7259,"Ġux":7260,"Ġuy":7261,"Ġucw":7262,"Ġuxy":7263,"Ġuqm":7264,"Ġ439":7265,"Ġneigh":7266,"ryc":7267,"rym":7268,"owl":7269,"owr":7270,"utf":7271,"utt":7272,"uting":7273,"uli":7274,"ulous":7275,"Ġ307":7276,"urt":7277,"urz":7278,"Ġmodrate":7279,"Ġorig":7280,"xiw":7281,"xible":7282,"Ġ536":7283,"Ġ544":7284,"tai":7285,"taq":7286,"take":7287,"Ġmoderatley":7288,"Ġ01223360":7289,"Ġ01223349":7290,"Ġ01223350420":7291,"Ġpey":7292,"irg":7293,"iroom":7294,"Ġkj":7295,"Ġko":7296,"Ġkp":7297,"Ġks":7298,"Ġku":7299,"Ġkv":7300,"Ġkx":7301,"Ġkci":7302,"Ġksh":7303,"Ġksf":7304,"Ġkhb":7305,"Ġkvv":7306,"Ġsed":7307,"Ġseen":7308,"Ġsear":7309,"ghn":7310,"Ġvq":7311,"Ġvr":7312,"Ġvt":7313,"Ġvon":7314,"Ġvie":7315,"Ġvers":7316,"Ġvzf":7317,"Ġ0741":7318,"Ġ0753":7319,"Ġ0722":7320,"Ġ0731":7321,"Ġ07149":7322,"Ġ07566":7323,"Ġ07237":7324,"Ġ07906":7325,"Ġ07299":7326,"Ġ072054":7327,"Ġnorthside":7328,"Ġmintu":7329,"004":7330,"006":7331,"0035":7332,"0033":7333,"00085":7334,"Ġconver":7335,"211":7336,"2141":7337,"2106":7338,"2148":7339,"2118":7340,"2192":7341,"und":7342,"unl":7343,"Ġrc":7344,"Ġrf":7345,"Ġrg":7346,"Ġrh":7347,"Ġrk":7348,"Ġrp":7349,"Ġrr":7350,"Ġrs":7351,"Ġselected":7352,"1188":7353,"1160":7354,"1110":7355,"1108":7356,"1152":7357,"1144":7358,"1149":7359,"1193":7360,"1197":7361,"1165":7362,"Ġ738":7363,"Ġ718":7364,"Ġallen":7365,"iaj":7366,"Ġtwice":7367,"Ġcob":7368,"2417":7369,"2408":7370,"2452":7371,"2436":7372,"2445":7373,"2444":7374,"2442":7375,"2478":7376,"2471":7377,"2473":7378,"2462":7379,"2475":7380,"2432565":7381,"5815":7382,"5849":7383,"5869":7384,"5884":7385,"5863":7386,"Ġsouthside":7387,"jos":7388,"Ġ800":7389,"510":7390,"5100":7391,"5167":7392,"5163":7393,"51603":7394,"Ġuniver":7395,"Ġuncertain":7396,"Ġunless":7397,"Ġunique":7398,"Ġ67":7399,"Ġ623":7400,"lyl":7401,"Ġmajor":7402,"Ġabkff":7403,"6633":7404,"6668":7405,"6673":7406,"6698":7407,"6662":7408,"Ġ93":7409,"Ġja":7410,"Ġjb":7411,"Ġjd":7412,"Ġjg":7413,"Ġjak":7414,"Ġjjwe":7415,"301":7416,"304":7417,"308":7418,"3066":7419,"3052":7420,"3078":7421,"ightly":7422,"Ġ114":7423,"070":7424,"073":7425,"0757":7426,"0755":7427,"0768":7428,"0767":7429,"luw":7430,"luck":7431,"Ġifhs":7432,"Ġifxp":7433,"Ġhasn":7434,"Ġasbury":7435,"Ġashely":7436,"2016":7437,"2069":7438,"2098":7439,"174":7440,"175":7441,"176":7442,"1764":7443,"1784":7444,"5060":7445,"5057":7446,"5032":7447,"50505":7448,"Ġdiffer":7449,"881":7450,"884":7451,"8899":7452,"8863":7453,"8873":7454,"8893":7455,"8805":7456,"Ġacron":7457,"544":7458,"547":7459,"5412":7460,"5410":7461,"5408":7462,"5436":7463,"5433":7464,"5496":7465,"wek":7466,"weqk":7467,"Ġenjoyable":7468,"Ġyh":7469,"Ġyq":7470,"Ġys":7471,"Ġyon":7472,"Ġywn":7473,"Ġyrip":7474,"Ġyip":7475,"Ġyff":7476,"Ġysv":7477,"Ġ168":7478,"Ġ1630":7479,"Ġ1610":7480,"609":7481,"6011":7482,"6024":7483,"6088":7484,"6027":7485,"6016":7486,"6037":7487,"6096":7488,"2958":7489,"2952":7490,"2941":7491,"2919":7492,"2913":7493,"2999":7494,"2969":7495,"Ġ125":7496,"101":7497,"103":7498,"1030":7499,"1088":7500,"1039":7501,"1044":7502,"1037":7503,"1086":7504,"1047":7505,"1062":7506,"zzny":7507,"zzgl":7508,"089":7509,"0823":7510,"0822":7511,"Ġqo":7512,"Ġqw":7513,"Ġqx":7514,"Ġqit":7515,"Ġqmy":7516,"Ġqlk":7517,"Ġqsn":7518,"Ġqlm":7519,"Ġsometime":7520,"Ġ1414":7521,"Ġboard":7522,"159":7523,"1521":7524,"1550":7525,"1534":7526,"1590":7527,"1528":7528,"1562":7529,"5287":7530,"5273":7531,"5285":7532,"5936":7533,"5906":7534,"5971":7535,"409":7536,"4017":7537,"4068":7538,"4096":7539,"2759":7540,"2709":7541,"2755":7542,"2713":7543,"2776":7544,"4615":7545,"463830":7546,"462432565":7547,"Ġmakes":7548,"399":7549,"3940":7550,"3922":7551,"3999":7552,"3969":7553,"3973":7554,"3904":7555,"ids":7556,"3566":7557,"3564":7558,"3451":7559,"3466":7560,"3420":7561,"3433":7562,"3447":7563,"34356":7564,"Ġ180":7565,"Ġalyesbray":7566,"416":7567,"4144":7568,"4161":7569,"013":7570,"0139":7571,"0168":7572,"0192":7573,"5717":7574,"5749":7575,"5762":7576,"5793":7577,"5797":7578,"3212":7579,"3259":7580,"Ġ206":7581,"Ġpizzaria":7582,"437":7583,"4300":7584,"4351":7585,"4346":7586,"4387":7587,"4389":7588,"4376":7589,"902":7590,"9024":7591,"9030":7592,"9033":7593,"90257":7594,"uey":7595,"Ġcustom":7596,"5611":7597,"5688":7598,"5613":7599,"5649":7600,"5648":7601,"5678":7602,"5626":7603,"5670":7604,"5691":7605,"cheap":7606,"check":7607,"804":7608,"8054":7609,"8036":7610,"8044":7611,"368":7612,"3624":7613,"3634":7614,"362974":7615,"pyo":7616,"4553":7617,"45339":7618,"3873":7619,"192":7620,"1911":7621,"1955":7622,"1978":7623,"ogbr":7624,"bud":7625,"clubs":7626,"nom":7627,"163":7628,"164":7629,"165":7630,"1656":7631,"0916":7632,"0998":7633,"0992":7634,"09147":7635,"Ġlookup":7636,"5312":7637,"5370":7638,"879":7639,"8724":7640,"8762":7641,"Ġproceed":7642,"063":7643,"0615":7644,"0638":7645,"0644":7646,"0677":7647,"0678":7648,"0672":7649,"5511":7650,"5558":7651,"5538":7652,"feq":7653,"4266":7654,"4250":7655,"4280":7656,"sof":7657,"ggn":7658,"neq":7659,"mac":7660,"774":7661,"7759":7662,"7727":7663,"7706":7664,"7744":7665,"7768":7666,"7776":7667,"7763":7668,"7747":7669,"7785":7670,"1339":7671,"1336":7672,"138056":7673,"Ġyello":7674,"Ġditto":7675,"492":7676,"4977":7677,"4992":7678,"Ġ01223358399":7679,"Ġzg":7680,"Ġzi":7681,"Ġzp":7682,"Ġzq":7683,"Ġzu":7684,"Ġzw":7685,"Ġzxi":7686,"Ġzmg":7687,"Ġzcr":7688,"Ġzdt":7689,"Ġzvf":7690,"281":7691,"282":7692,"2851":7693,"2850":7694,"2815":7695,"2840":7696,"2833":7697,"2831":7698,"abqg":7699,"485":7700,"4800":7701,"4829":7702,"4840":7703,"4836":7704,"4813":7705,"4899":7706,"4861":7707,"addensbrookes":7708,"Ġweds":7709,"785":7710,"789":7711,"7852":7712,"7834":7713,"7864":7714,"1830":7715,"1817":7716,"1842":7717,"1849":7718,"1864":7719,"18620":7720,"suh":7721,"suq":7722,"suagg":7723,"267":7724,"2634":7725,"2656":7726,"2636":7727,"2687":7728,"2677":7729,"2625":7730,"2673":7731,"26339":7732,"7940":7733,"7935":7734,"7943":7735,"7978":7736,"7979":7737,"Ġtelling":7738,"3339":7739,"epk":7740,"epn":7741,"Ġ331":7742,"quu":7743,"udn":7744,"2521":7745,"Ġfunk":7746,"gdibp":7747,"gdbza":7748,"Ġxf":7749,"Ġxh":7750,"Ġxl":7751,"Ġxn":7752,"Ġxr":7753,"Ġxz":7754,"Ġxpe":7755,"Ġxdy":7756,"Ġxfd":7757,"Ġxgbq":7758,"mwg":7759,"mwp":7760,"mwr":7761,"ipf":7762,"3730":7763,"3735":7764,"3780":7765,"3736":7766,"3787":7767,"3765":7768,"3703":7769,"897":7770,"8954":7771,"8935":7772,"ynw":7773,"Ġhuts":7774,"6457":7775,"6456":7776,"Ġbistros":7777,"9911":7778,"9942":7779,"9999":7780,"9997":7781,"1412":7782,"1400":7783,"1490":7784,"1477":7785,"1472":7786,"1475":7787,"wik":7788,"7043":7789,"703476":7790,"6823":7791,"68321":7792,"ugq":7793,"Ġparace":7794,"afp":7795,"afs":7796,"6958":7797,"6908":7798,"6980":7799,"6919":7800,"6913":7801,"Ġ247877":7802,"Ġ07912":7803,"Ġ07951":7804,"Ġ07908":7805,"Ġ07957":7806,"Ġ07980":7807,"Ġ07916":7808,"Ġ07987":7809,"Ġ07976":7810,"Ġ079410":7811,"Ġ079449":7812,"Ġ079394":7813,"Ġ07918620":7814,"8659":7815,"8627":7816,"8653":7817,"8699":7818,"8674":7819,"Ġkinda":7820,"7151":7821,"myg":7822,"myx":7823,"myrl":7824,"Ġ07634":7825,"Ġ07643":7826,"Ġ07625":7827,"Ġ07699":7828,"Ġ07674":7829,"Ġ076199":7830,"Ġ076468":7831,"Ġ076359":7832,"Ġ076362974":7833,"dyj":7834,"dyt":7835,"7634":7836,"7653":7837,"7671":7838,"xbf":7839,"xby":7840,"ohdj":7841,"Ġ01223355909":7842,"8466":7843,"8420":7844,"Ġ0775":7845,"Ġ07700":7846,"Ġ07730":7847,"Ġ07760":7848,"Ġ07740":7849,"Ġ07736":7850,"Ġ07738":7851,"Ġ07733":7852,"Ġ077466":7853,"Ġ077378":7854,"Ġ0771027":7855,"gladly":7856,"Ġ367660":7857,"kyz":7858,"961":7859,"9611":7860,"9688":7861,"9641":7862,"9680":7863,"9616":7864,"9644":7865,"9678":7866,"shc":7867,"zbr":7868,"zbt":7869,"zbnkz":7870,"7223":7871,"7257":7872,"oyk":7873,"ahm":7874,"aeg":7875,"3190":7876,"3187":7877,"673":7878,"6741":7879,"6725":7880,"Ġ2800":7881,"Ġ2828":7882,"Ġ356666":7883,"Ġ356060":7884,"Ġ07835":7885,"Ġ07857":7886,"Ġ078558":7887,"Ġ01223217450":7888,"Ġ01223217671":7889,"6310":7890,"6313":7891,"473":7892,"4758":7893,"4708":7894,"4757":7895,"lnx":7896,"hih":7897,"Ġtraveller":7898,"2402":7899,"Ġbrassiere":7900,"7310":7901,"dpb":7902,"dpu":7903,"9835":7904,"9831":7905,"odsgj":7906,"nyhs":7907,"9187":7908,"Ġ07021":7909,"Ġ07058":7910,"Ġ07029":7911,"Ġ07015":7912,"Ġ070552":7913,"Ġ0704379":7914,"9424":7915,"9460":7916,"9427":7917,"9445":7918,"9487":7919,"7420":7920,"Ġ5636":7921,"9226":7922,"9225":7923,"Ġclosely":7924,"Ġwanna":7925,"Ġrides":7926,"Ġeatery":7927,"Ġducking":7928,"6224":7929,"kwt":7930,"williams":7931,"xtp":7932,"8260":7933,"8255":7934,"dqz":7935,"Ġ07451":7936,"Ġ07407":7937,"Ġ07439":7938,"Ġ074247":7939,"Ġ0742054":7940,"Ġ074218":7941,"Ġbotanical":7942,"jsq":7943,"jsr":7944,"gljed":7945,"9332":7946,"Ġnearly":7947,"Ġtech":7948,"Ġteenage":7949,"Ġ2929":7950,"2361":7951,"ixg":7952,"ixj":7953,"2333057":7954,"0466":7955,"0415":7956,"0440":7957,"0471":7958,"9724":7959,"9732":7960,"psd":7961,"psy":7962,"psgf":7963,"frx":7964,"frzlr":7965,"dwv":7966,"sitive":7967,"Ġtimeslot":7968,"dzw":7969,"dzgma":7970,"qfy":7971,"bdj":7972,"tzh":7973,"uyv":7974,"Ġslightly":7975,"Ġ0122336661":7976,"moz":7977,"Ġ07323":7978,"Ġ07321":7979,"Ġ07359":7980,"Ġ07346":7981,"Ġ07334":7982,"Ġ073599":7983,"ppd":7984,"igs":7985,"Ġ01223324351":7986,"hyb":7987,"skic":7988,"singly":7989,"rqr":7990,"8135":7991,"aww":7992,"Ġ01223274222":7993,"3889":7994,"pxr":7995,"0378":7996,"hxg":7997,"hxk":7998,"01223353":7999,"01223334":8000,"8604":8001,"jev":8002,"jff":8003,"kvn":8004,"kvjv":8005,"nfd":8006,"nty":8007,"Ġ01233":8008,"Ġ01462432565":8009,"2575401":8010,"jjd":8011,"jjn":8012,"wyt":8013,"....":8014,"1120":8015,"goi":8016,"tlc":8017,"tlw":8018,"Ġroutes":8019,"qypsgf":8020,"Ġ07520":8021,"lox":8022,"lock":8023,"svf":8024,"omk":8025,"pdt":8026,"pmq":8027,"pmu":8028,"39758":8029,"twa":8030,"Ġeighteen":8031,"1542":8032,"1546":8033,"gmv":8034,"htb":8035,"Ġ07123":8036,"Ġ07130":8037,"Ġ07140":8038,"Ġ07146":8039,"jvd":8040,"jvt":8041,"uwf":8042,"zqv":8043,"cvh":8044,"Ġ07212":8045,"Ġ07207":8046,"huxe":8047,"njh":8048,"njn":8049,"nrce":8050,"cwd":8051,"qsq":8052,"qwr":8053,"rfm":8054,"rft":8055,"rfjq":8056,"zwp":8057,"Ġterms":8058,"Ġ07880":8059,"btn":8060,"bts":8061,"jmto":8062,"ocx":8063,"prisingly":8064,"vmj":8065,"vmt":8066,"vmx":8067,"Ġclarification":8068,"2211":8069,"3547":8070,"biq":8071,"fwj":8072,"xyh":8073,"zcf":8074,"bnbr":8075,"izi":8076,"jkm":8077,"vbm":8078,"zkz":8079,"Ġbuddha":8080,"Ġbuisne":8081,"Ġofferings":8082,"diw":8083,"yrzn":8084,"55225":8085,"ijp":8086,"iju":8087,"ljghn":8088,"tbm":8089,"vhb":8090,"vhj":8091,"vhw":8092,"Ġstyles":8093,"Ġ566188":8094,"Ġ07306":8095,"Ġ0730458":8096,"ewg":8097,"ewq":8098,"gnb":8099,"Ġaccept":8100,"Ġsaying":8101,"cji":8102,"cjz":8103,"wki":8104,"zmv":8105,"zym":8106,"12603":8107,"Ġ012232564":8108,"8519":8109,"cmh":8110,"jdc":8111,"rvy":8112,"vcf":8113,"wdraa":8114,"Ġ075852":8115,"php":8116,"qee":8117,"sfh":8118,"smh":8119,"vql":8120,"churchhill":8121,"Ġregardless":8122,"1873":8123,"rxz":8124,"wmd":8125,"wmr":8126,"zlg":8127,"Ġ0746915":8128,"Ġ07462575401":8129,"hkc":8130,"hkr":8131,"minton":8132,"hqvd":8133,"kpv":8134,"uvz":8135,"Ġ075407":8136,"Ġ070809":8137,"Ġ0122350333":8138,"6162":8139,"8431":8140,"vytsi":8141,"xcd":8142,"Ġ0756247":8143,"oeik":8144,"Ġ07263703":8145,"6799":8146,"9012325":8147,"puq":8148,"oiwki":8149,"Ġfarewell":8150,"Ġ07121756":8151,"1809":8152,"4076":8153,"4078":8154,"90366":8155,"Ġrestauran":8156,"Ġ0757463830":8157,"3304":8158,"3173":8159,"number":8160,"tvyr":8161,"Ġ07389012325":8162,"Ġ070642":8163,"Ġ0789839":8164,"Ġimmedi":8165,"Ġ074040":8166,"6203":8167,"6572":8168,"8285":8169,"like":8170,"Ġdelay":8171,"8177":8172,"9083":8173,"9805":8174,"9383":8175,"9384":8176,"9386":8177,"ssed":8178,"Ġfollows":8179,"Ġ071013":8180,"Ġhalf":8181,"3515":8182,"3197":8183,"7542":8184,"8089":8185,"9588":8186,"9891":8187,"Ġ07669":8188,"Ġ07137":8189,"fui":8190,"Ġtours":8191,"Ġcancer":8192,"4106":8193,"7692":8194,"9495":8195,"dkt":8196,"looks":8197,"wxesp":8198,"yxaw":8199,"Ġ07862333057":8200,"Ġzkogbr":8201,"26151603":8202,"Ġ072298":8203,"Ġconcerns":8204,"4204":8205,"4549":8206,"6549":8207,"6419":8208,"6763":8209,"Ġmnkwt":8210,"Ġeclect":8211,"Ġ01223596055":8212,"Ġ076400":8213,"545456":8214,"28007":8215,"3128":8216,"0497":8217,"5365":8218,"7578":8219,"Ġreasonable":8220,"Ġuzfw":8221,"Ġ07289":8222,"Ġ07845910":8223,"34136":8224,"Ġclinical":8225,"reservations":8226,"Ġaccomodate":8227,"8364":8228,"Ġreccomend":8229,"Ġhandful":8230,"Ġservers":8231,"Ġhistorical":8232,"01223245151":8233,"1584":8234,"4344":8235,"5389":8236,"7409":8237,"9179":8238,"Ġftvoq":8239,"Ġwishes":8240,"Ġwished":8241,"Ġexists":8242,"Ġ1223316074":8243,"Ġxmcht":8244,"Ġ07924138056":8245,"Ġ077226339":8246,"Ġ01223217712":8247,"Ġsituation":8248,"Ġsituated":8249,"Ġproperty":8250,"Ġproperties":8251,"Ġ01223256650":8252,"Ġ01223256645":8253,"Ġwallet":8254,"Ġavaialble":8255,"Ġdecisions":8256,"8495":8257,"bmgni":8258,"friendly":8259,"panahar":8260,"Ġajte":8261,"optional":8262,"Ġnighclubs":8263,"Ġprior":8264,"Ġattempt":8265,"Ġ01223257168":8266,"Ġ075554":8267,"Ġcontinue":8268,"586609":8269,"Ġaboard":8270,"Ġ07621703476":8271,"Ġ07648586609":8272,"Ġ0741190257":8273,"Ġluxury":8274,"Ġ07330545456":8275,"Ġ01223256166":8276,"Ġ07998934356":8277,"Ġhungtington":8278,"Ġvacancy":8279,"michaelhouse":8280,"ugese":8281,"Ġaddenbrook":8282,"Ġpreferable":8283,"Ġbuildings":8284,"7177":8285,"bifd":8286,"eelpu":8287,"fgdre":8288,"ikvz":8289,"kcvthj":8290,"personally":8291,"splt":8292,"toyzuy":8293,"tdbiju":8294,"uddov":8295,"Ġaebkvjv":8296,"Ġcitiroom":8297,"Ġcigyxaw":8298,"Ġnghd":8299,"Ġnineteen":8300,"Ġbtts":8301,"Ġbloomsb":8302,"Ġixezzny":8303,"Ġglbnk":8304,"Ġmutliple":8305,"Ġmxmohdj":8306,"Ġmqrgdbza":8307,"Ġlmabmgni":8308,"Ġlxmfrzlr":8309,"Ġflexible":8310,"Ġfabulous":8311,"Ġfgom":8312,"arzytlc":8313,"Ġsolid":8314,"Ġtrauma":8315,"Ġchildren":8316,"Ġeopokff":8317,"Ġitinerary":8318,"Ġthousand":8319,"Ġ01223360409":8320,"Ġ0122334900":8321,"Ġkciwxesp":8322,"Ġksfskic":8323,"Ġkhbljghn":8324,"Ġview":8325,"Ġversa":8326,"Ġmintues":8327,"Ġmajority":8328,"Ġjjweo":8329,"Ġifhsyrzn":8330,"Ġifxpnyhs":8331,"Ġyffshc":8332,"Ġysvsly":8333,"Ġqsnsuagg":8334,"Ġcustomer":8335,"Ġzvftq":8336,"Ġxdyjmto":8337,"Ġxgbqhc":8338,"Ġ07918620184":8339,"Ġ07619968321":8340,"Ġ07636297454":8341,"Ġ07737828007":8342,"Ġ07710275649":8343,"Ġ07855855225":8344,"Ġ07043795737":8345,"Ġ07420542713":8346,"gljedpz":8347,"qypsgfh":8348,"huxeuz":8349,"Ġbuisness":8350,"Ġ07304585611":8351,"Ġ01223256459":8352,"Ġ07469156027":8353,"vytsij":8354,"Ġ07562472408":8355,"Ġ07263703306":8356,"Ġ07121756826":8357,"Ġ07574638307":8358,"Ġ07898395762":8359,"Ġimmediately":8360,"Ġzkogbrmr":8361,"Ġeclectic":8362,"Ġ07845910981":8363,"Ġftvoqphp":8364,"Ġ07722633912":8365,"Ġ07411902572":8366,"Ġcitiroomz":8367,"Ġixezznyl":8368,"!)":8369,"!.":8370,"0277":8371,"287":8372,"3279":8373,"8202":8374,"9236":8375,"aar":8376,"blue":8377,"every":8378,"find":8379,"gca":8380,"han":8381,"hood":8382,"hughes":8383,"ien":8384,"iest":8385,"ide":8386,"ias":8387,"ises":8388,"jured":8389,"london":8390,"mation":8391,"nic":8392,"now":8393,"rounding":8394,"sat":8395,"sot":8396,"tel":8397,"tot":8398,"tit":8399,"tes":8400,"tell":8401,"uu":8402,"ude":8403,"uate":8404,"vest":8405,"vak":8406,"want":8407,"yell":8408,"zuc":8409,"Ġ$":8410,"Ġ+":8411,"ined":8412,"Ġtll":8413,"ens":8414,"Ġincre":8415,"Ġinjured":8416,"Ġaut":8417,"Ġawh":8418,"Ġaim":8419,"Ġawa":8420,"Ġambridge":8421,"ics":8422,"ication":8423,"icient":8424,"entry":8425,"ently":8426,"entertainment":8427,"rating":8428,"raving":8429,"starting":8430,"Ġcn":8431,"Ġchat":8432,"Ġcde":8433,"Ġcraving":8434,"Ġrenown":8435,"Ġrecomend":8436,"Ġnc":8437,"Ġbn":8438,"Ġbound":8439,"Ġbase":8440,"Ġbbq":8441,"Ġill":8442,"Ġibi":8443,"Ġpap":8444,"Ġpint":8445,"oos":8446,"Ġhs":8447,"Ġhu":8448,"Ġhous":8449,"Ġgoo":8450,"Ġgue":8451,"Ġmon":8452,"Ġmotel":8453,"ather":8454,"vera":8455,"Ġlb":8456,"Ġld":8457,"Ġlab":8458,"Ġlines":8459,"Ġinformat":8460,"Ġdan":8461,"mbe":8462,"rand":8463,"sec":8464,"Ġtoward":8465,"thre":8466,"Ġfro":8467,"Ġfil":8468,"Ġfill":8469,"Ġfond":8470,"Ġfilled":8471,"Ġnumbe":8472,"Ġshe":8473,"ged":8474,"ges":8475,"Ġov":8476,"Ġodd":8477,"rig":8478,"rike":8479,"Ġoften":8480,"ces":8481,"Ġtraining":8482,"lev":8483,"ede":8484,"ctuate":8485,"Ġcharm":8486,"Ġhavea":8487,"Ġwild":8488,"Ġlive":8489,"Ġliek":8490,"itude":8491,"Ġstun":8492,"Ġstrot":8493,"Ġstrike":8494,"Ġliked":8495,"Ġlikewise":8496,"peci":8497,"Ġarr":8498,"deb":8499,"Ġcentere":8500,"Ġeg":8501,"Ġeaf":8502,"Ġtypo":8503,"Ġadded":8504,"Ġdoor":8505,"Ġhep":8506,"Ġtrick":8507,"Ġpositive":8508,"Ġ01223596":8509,"imeters":8510,"Ġtalk":8511,"Ġguestroom":8512,"Ġguesthome":8513,"als":8514,"Ġcbr":8515,"Ġpostco":8516,"Ġtownsh":8517,"Ġmegh":8518,"Ġmeghan":8519,"ends":8520,"ended":8521,"Ġcheers":8522,"sid":8523,"six":8524,"sider":8525,"sidney":8526,"Ġut":8527,"Ġuu":8528,"utes":8529,"cho":8530,"chy":8531,"chinese":8532,"houses":8533,"Ġ324":8534,"adress":8535,"adoux":8536,"urgery":8537,"aster":8538,"Ġlocale":8539,"Ġsus":8540,"Ġvk":8541,"Ġvia":8542,"Ġvag":8543,"Ġcityrooms":8544,"Ġ07236":8545,"Ġgooday":8546,"Ġpreci":8547,"ified":8548,"0087":8549,"uming":8550,"unit":8551,"unfortun":8552,"unication":8553,"iliar":8554,"Ġcaridge":8555,"Ġcover":8556,"Ġuser":8557,"Ġ:)":8558,"Ġentre":8559,"Ġentire":8560,"Ġentered":8561,"Ġunaw":8562,"Ġshown":8563,"Ġabd":8564,"Ġassign":8565,"Ġjra":8566,"Ġavail":8567,"ightful":8568,"0742":8569,"0714":8570,"Ġtravelers":8571,"Ġindust":8572,"Ġsign":8573,"5476":8574,"ams":8575,"ardon":8576,"Ġyi":8577,"Ġ1600":8578,"Ġbutter":8579,"295":8580,"2965":8581,"105":8582,"ussed":8583,"Ġqh":8584,"Ġcritera":8585,"Ġknew":8586,"Ġchestert":8587,"Ġcouldnt":8588,"osphere":8589,"Ġmarvel":8590,"Ġalter":8591,"trinity":8592,"Ġfourteen":8593,"9062":8594,"Ġperimeters":8595,"ema":8596,"Ġnewest":8597,"Ġspending":8598,"some":8599,"Ġhuntingdo":8600,"Ġblast":8601,"jgi":8602,"Ġzizi":8603,"Ġstarted":8604,"2823":8605,"oodles":8606,"architecture":8607,"Ġ...":8608,"cial":8609,"Ġchanging":8610,"alrighty":8611,"Ġadmissions":8612,"ipt":8613,"Ġapart":8614,"Ġdepartments":8615,"6454":8616,"afr":8617,"Ġinfomation":8618,"Ġkindly":8619,"Ġswim":8620,"Ġunsuccesful":8621,"hns":8622,"Ġ07720":8623,"Ġ07726151603":8624,"shiraz":8625,"Ġjob":8626,"Ġjoint":8627,"3149":8628,"Ġquesthouse":8629,"6354":8630,"lnf":8631,"7329":8632,"ghest":8633,"Ġscudamore":8634,"ructions":8635,"Ġdescri":8636,"Ġoffice":8637,"many":8638,"0427":8639,"Ġinstructions":8640,"Ġopened":8641,"lets":8642,"Ġshopping":8643,"Ġlasting":8644,"igo":8645,"awa":8646,"Ġslots":8647,"Ġveg":8648,"Ġconsist":8649,"0339":8650,"012233":8651,"0122357":8652,"01223464646":8653,"hold":8654,"Ġcruises":8655,"Ġ011223":8656,"Ġlearn":8657,"Ġcloses":8658,"Ġcharged":8659,"Ġcaffee":8660,"christs":8661,"ciences":8662,"hills":8663,"lovely":8664,"clowns":8665,"Ġfamiliar":8666,"Ġamenity":8667,"parking":8668,"Ġsorts":8669,"consider":8670,"Ġrecord":8671,"Ġpurchased":8672,"Ġregards":8673,"Ġdesire":8674,"minutes":8675,"Ġmeans":8676,"Ġexperien":8677,"Ġcategories":8678,"Ġsending":8679,"Ġlocals":8680,"Ġdelightful":8681,"Ġcommuting":8682,"Ġmisin":8683,"Ġlowest":8684,"Ġconvenience":8685,"Ġsurprisingly":8686,"Ġsurrounding":8687,"rict":8688,"cessful":8689,"Ġpulls":8690,"Ġconveniently":8691,"Ġattend":8692,"Ġdrive":8693,"Ġanswered":8694,"Ġrestaraunts":8695,"0244":8696,"9263":8697,"Ġmeantime":8698,"357708":8699,"Ġcancelled":8700,"Ġsufficient":8701,"Ġaccomodation":8702,"Ġaccomodations":8703,"Ġhighest":8704,"01223243830":8705,"Ġmisunderstanding":8706,"Ġrestuarants":8707,"Ġformal":8708,"Ġwalk":8709,"Ġdecision":8710,"moderat":8711,"Ġarive":8712,"Ġreferring":8713,"Ġmixed":8714,"leaves":8715,"Ġtasty":8716,"Ġsupply":8717,"Ġsuppose":8718,"Ġdiscussed":8719,"Ġdifficulty":8720,"Ġdifficulties":8721,"Ġreturned":8722,"Ġglitch":8723,"Ġlcoated":8724,"Ġfluctuate":8725,"Ġatmosphere":8726,"Ġespeci":8727,"Ġkidding":8728,"Ġwhole":8729,"Ġgastroenterology":8730,"01223210353":8731,"01223302010":8732,"Ġspecializes":8733,"Ġneurosciences":8734,"Ġimpressive":8735,"Ġeconomically":8736,"Ġresearch":8737,"Ġreceipt":8738,"Ġremainder":8739,"Ġbankok":8740,"Ġthoughts":8741,"Ġneighbor":8742,"Ġorigin":8743,"Ġsearches":8744,"Ġconvers":8745,"undant":8746,"Ġuniveristy":8747,"Ġdiffernt":8748,"Ġsometimes":8749,"Ġaddenbrooks":8750,"yellow":8751,"Ġrenowned":8752,"Ġpapadoux":8753,"Ġpinto":8754,"Ġdancing":8755,"Ġstunning":8756,"Ġstrotford":8757,"Ġguesthomes":8758,"Ġtownship":8759,"Ġprecise":8760,"Ġunaware":8761,"Ġassigned":8762,"Ġbutterfly":8763,"Ġmarvelous":8764,"Ġexperiencing":8765,"Ġespecially":8766,"\",":8767,"\"?":8768,"'.":8769,"(?":8770,",.":8771,",?":8772,".?":8773,"023":8774,"058":8775,"051":8776,"066":8777,"088":8778,"015":8779,"039":8780,"057":8781,"055":8782,"028":8783,"033":8784,"031":8785,"0279":8786,"0236":8787,"0397":8788,"0104":8789,"02010":8790,"0292":8791,"0583":8792,"0662":8793,"0393":8794,"0283":8795,"0667":8796,"0579":8797,"0605":8798,"0449":8799,"0275":8800,"0469":8801,"0537":8802,"0904":8803,"0176":8804,"0609":8805,"151":8806,"130":8807,"136":8808,"148":8809,"1660":8810,"1402":8811,"1382":8812,"14600":8813,"1238":8814,"15015":8815,"1404":8816,"1903":8817,"1393":8818,"13577":8819,"1328":8820,"1392":8821,"1419":8822,"14828":8823,"220":8824,"2236":8825,"2274":8826,"2504":8827,"2526":8828,"22725":8829,"2293":8830,"2568988":8831,"2569":8832,"2887":8833,"2870":8834,"2589":8835,"350":8836,"310":8837,"340":8838,"327":8839,"318":8840,"379":8841,"3237":8842,"3660":8843,"3210":8844,"3111":8845,"3504":8846,"3355":8847,"3292":8848,"3245":8849,"3501":8850,"3209":8851,"3126":8852,"3102":8853,"3246":8854,"3206":8855,"3108":8856,"3234":8857,"3183":8858,"430":8859,"450":8860,"441":8861,"457":8862,"4966":8863,"471":8864,"4888":8865,"472":8866,"4906":8867,"4274":8868,"4210":8869,"4178":8870,"45015":8871,"4209":8872,"4230":8873,"4218":8874,"4564":8875,"4886":8876,"4603":8877,"4414":8878,"4803":8879,"4909":8880,"4792":8881,"4249":8882,"4905":8883,"47769":8884,"4902":8885,"523":8886,"539":8887,"553":8888,"5353":8889,"5124":8890,"5580":8891,"55017":8892,"5216":8893,"5245":8894,"5502":8895,"5076":8896,"52042":8897,"52098":8898,"607":8899,"627":8900,"632":8901,"690":8902,"680":8903,"645":8904,"638":8905,"687":8906,"655":8907,"644":8908,"626":8909,"625":8910,"637":8911,"689":8912,"622":8913,"670":8914,"671":8915,"631":8916,"6240":8917,"6516":8918,"6906":8919,"6270":8920,"62456":8921,"6880":8922,"6413":8923,"6309":8924,"6564":8925,"6898":8926,"6806":8927,"6072":8928,"64256":8929,"6125":8930,"65694":8931,"6496":8932,"65866":8933,"6881":8934,"6159":8935,"712":8936,"700":8937,"711":8938,"720":8939,"727":8940,"746":8941,"736":8942,"753":8943,"748":8944,"733":8945,"722":8946,"731":8947,"7397":8948,"7598":8949,"7178":8950,"7509":8951,"7277":8952,"752500":8953,"7467":8954,"7526":8955,"7494":8956,"7564":8957,"7519":8958,"7438":8959,"7569":8960,"7406":8961,"7909":8962,"7298":8963,"7156":8964,"7001":8965,"7372":8966,"7376":8967,"7013":8968,"75648":8969,"800":8970,"824":8971,"850":8972,"854":8973,"829":8974,"810":8975,"840":8976,"835":8977,"841":8978,"857":8979,"856":8980,"845":8981,"853":8982,"8966":8983,"813":8984,"822":8985,"831":8986,"8511":8987,"8233":8988,"8517":8989,"8208":8990,"8598":8991,"8238":8992,"8118":8993,"8580":8994,"8390":8995,"8131":8996,"8184":8997,"8239":8998,"8293":8999,"8230":9000,"8569":9001,"8121":9002,"8206":9003,"8531":9004,"82130":9005,"8542":9006,"8574":9007,"8373":9008,"8244":9009,"8297":9010,"8372":9011,"8665":9012,"923":9013,"921":9014,"952":9015,"927":9016,"946":9017,"932":9018,"936":9019,"945":9020,"913":9021,"918":9022,"925":9023,"964":9024,"968":9025,"931":9026,"947":9027,"9100":9028,"9149":9029,"9110":9030,"9525":9031,"9077":9032,"9296":9033,"9404":9034,"9518":9035,"9131":9036,"9494":9037,"92094":9038,"9199":9039,"9468":9040,"9283":9041,"9765":9042,"9395":9043,"9246":9044,"9414":9045,"9275":9046,"94284":9047,"91827":9048,"9376":9049,"9693":9050,"9547":9051,"ahe":9052,"aor":9053,"amb":9054,"aot":9055,"aed":9056,"ade":9057,"amm":9058,"aow":9059,"aai":9060,"aos":9061,"afi":9062,"afo":9063,"aue":9064,"aem":9065,"awi":9066,"aaf":9067,"axb":9068,"aav":9069,"aac":9070,"aax":9071,"auy":9072,"auel":9073,"aup":9074,"aoe":9075,"aava":9076,"augq":9077,"ajsr":9078,"ajjn":9079,"acial":9080,"ber":9081,"bing":9082,"bat":9083,"bge":9084,"bco":9085,"bll":9086,"bad":9087,"bxi":9088,"bta":9089,"bcce":9090,"bck":9091,"bog":9092,"bno":9093,"bag":9094,"bci":9095,"bvo":9096,"bze":9097,"bmy":9098,"bky":9099,"bzb":9100,"bah":9101,"bae":9102,"baq":9103,"btt":9104,"billies":9105,"bib":9106,"bgl":9107,"brh":9108,"btu":9109,"bbw":9110,"big":9111,"bkv":9112,"bho":9113,"bqy":9114,"btq":9115,"bfw":9116,"brl":9117,"bbn":9118,"bhs":9119,"bkf":9120,"brt":9121,"bvq":9122,"bcc":9123,"brx":9124,"blc":9125,"bvl":9126,"bvs":9127,"bvu":9128,"blt":9129,"blho":9130,"bstnz":9131,"birg":9132,"bhtb":9133,"brft":9134,"bcji":9135,"cen":9136,"cst":9137,"came":9138,"cwn":9139,"cch":9140,"cul":9141,"cur":9142,"cif":9143,"cus":9144,"czz":9145,"cple":9146,"cso":9147,"cies":9148,"csa":9149,"croomz":9150,"cwh":9151,"csw":9152,"cester":9153,"cna":9154,"cvi":9155,"csh":9156,"cln":9157,"cds":9158,"ccy":9159,"crh":9160,"cdz":9161,"ccina":9162,"crq":9163,"cjb":9164,"cje":9165,"cup":9166,"cjj":9167,"cwy":9168,"cpb":9169,"cqg":9170,"ccu":9171,"cfy":9172,"ccw":9173,"czw":9174,"cqb":9175,"cdt":9176,"czk":9177,"czt":9178,"czf":9179,"ccg":9180,"czm":9181,"cpu":9182,"cxu":9183,"cxj":9184,"cseo":9185,"cutc":9186,"cilv":9187,"ckev":9188,"cpsy":9189,"cpdt":9190,"doo":9191,"dat":9192,"dth":9193,"dla":9194,"dol":9195,"destination":9196,"dai":9197,"dzz":9198,"dpy":9199,"dander":9200,"dci":9201,"dze":9202,"dhn":9203,"dzb":9204,"dka":9205,"dny":9206,"dlh":9207,"drh":9208,"div":9209,"dxh":9210,"dnf":9211,"dtl":9212,"dht":9213,"dtq":9214,"dfy":9215,"duj":9216,"dcg":9217,"dcj":9218,"dvk":9219,"djq":9220,"dvq":9221,"dcc":9222,"dnn":9223,"dkp":9224,"djl":9225,"dvl":9226,"duq":9227,"dlr":9228,"drr":9229,"diaj":9230,"dfwj":9231,"ehe":9232,"eve":9233,"eay":9234,"ece":9235,"ess":9236,"epe":9237,"eet":9238,"eow":9239,"eif":9240,"eum":9241,"ems":9242,"eub":9243,"ebe":9244,"eky":9245,"ezb":9246,"egl":9247,"ecb":9248,"eig":9249,"ejf":9250,"eej":9251,"ezq":9252,"ecl":9253,"eaa":9254,"eqw":9255,"ezw":9256,"ebi":9257,"eqa":9258,"ebn":9259,"eiy":9260,"ebb":9261,"ecc":9262,"ezl":9263,"evw":9264,"eoj":9265,"ebx":9266,"eiry":9267,"ecnl":9268,"eoyk":9269,"fst":9270,"foo":9271,"fan":9272,"fge":9273,"fke":9274,"fed":9275,"fet":9276,"fdd":9277,"free":9278,"fry":9279,"fta":9280,"fir":9281,"fos":9282,"fus":9283,"fbs":9284,"fbu":9285,"fem":9286,"frow":9287,"fmw":9288,"fack":9289,"faf":9290,"fze":9291,"fdy":9292,"fxb":9293,"fza":9294,"ffiti":9295,"flh":9296,"ftt":9297,"fusion":9298,"fact":9299,"frh":9300,"fpt":9301,"fpp":9302,"fcum":9303,"fmg":9304,"fkv":9305,"fpb":9306,"fqy":9307,"fyu":9308,"fjv":9309,"fuw":9310,"fpj":9311,"fbz":9312,"fnj":9313,"fvd":9314,"fbg":9315,"fzw":9316,"fbn":9317,"fdx":9318,"fmp":9319,"fcj":9320,"fux":9321,"fzm":9322,"fcm":9323,"fjq":9324,"fph":9325,"fns":9326,"fau":9327,"ftp":9328,"fua":9329,"fvl":9330,"fzd":9331,"fpc":9332,"fuq":9333,"fcd":9334,"fdv":9335,"fjw":9336,"fkl":9337,"fbx":9338,"fhkr":9339,"gor":9340,"guest":9341,"gouse":9342,"gas":9343,"gis":9344,"gta":9345,"gine":9346,"gun":9347,"gck":9348,"gos":9349,"gzz":9350,"give":9351,"gose":9352,"gbu":9353,"gne":9354,"gci":9355,"gip":9356,"gxb":9357,"gsc":9358,"gah":9359,"gza":9360,"gaq":9361,"gcy":9362,"gtt":9363,"gosa":9364,"gical":9365,"gfl":9366,"gxh":9367,"grq":9368,"gaw":9369,"gwy":9370,"gff":9371,"gcv":9372,"gcu":9373,"gpa":9374,"gbi":9375,"grl":9376,"gzk":9377,"gij":9378,"gvh":9379,"gwk":9380,"gsn":9381,"gyh":9382,"gsf":9383,"gsm":9384,"gcn":9385,"gkp":9386,"gzp":9387,"gzs":9388,"gcf":9389,"grd":9390,"gpc":9391,"gba":9392,"grc":9393,"gfyq":9394,"giaj":9395,"gixg":9396,"grfm":9397,"hst":9398,"hse":9399,"hth":9400,"hri":9401,"hle":9402,"hct":9403,"hwn":9404,"his":9405,"hut":9406,"hir":9407,"hgh":9408,"hil":9409,"hus":9410,"hzz":9411,"hno":9412,"hqq":9413,"hbury":9414,"hko":9415,"hub":9416,"hug":9417,"hsh":9418,"hange":9419,"hrs":9420,"hcb":9421,"huy":9422,"hpp":9423,"hpx":9424,"hjj":9425,"hjy":9426,"hpm":9427,"hpj":9428,"hqg":9429,"hcu":9430,"hfy":9431,"hbg":9432,"hvx":9433,"hzw":9434,"hbt":9435,"hhl":9436,"hrl":9437,"hjk":9438,"hmu":9439,"hcg":9440,"hzy":9441,"hju":9442,"hpf":9443,"hwq":9444,"hzr":9445,"hwo":9446,"hvu":9447,"hzv":9448,"hlac":9449,"hzqe":9450,"ior":9451,"ith":9452,"ihat":9453,"iut":9454,"ixi":9455,"iir":9456,"ium":9457,"iyn":9458,"ihn":9459,"iky":9460,"iosa":9461,"iiv":9462,"iig":9463,"iits":9464,"ijb":9465,"ijx":9466,"ijj":9467,"iyu":9468,"iht":9469,"izq":9470,"iyc":9471,"iik":9472,"ihc":9473,"iuc":9474,"iwv":9475,"ioq":9476,"ioz":9477,"ikoh":9478,"iuli":9479,"iwmr":9480,"ihkc":9481,"jhe":9482,"jer":9483,"joo":9484,"jmb":9485,"jme":9486,"jlp":9487,"jas":9488,"jmm":9489,"jsi":9490,"jir":9491,"jfi":9492,"jid":9493,"jbu":9494,"jda":9495,"jgg":9496,"jjg":9497,"jag":9498,"jsu":9499,"jko":9500,"jci":9501,"jmy":9502,"jsc":9503,"jky":9504,"jsh":9505,"jza":9506,"jka":9507,"jhi":9508,"jdp":9509,"jny":9510,"jaq":9511,"jjs":9512,"jbw":9513,"jnt":9514,"jtl":9515,"jqy":9516,"jpm":9517,"jlx":9518,"juf":9519,"jzq":9520,"jnk":9521,"jzw":9522,"jhs":9523,"jcg":9524,"jcj":9525,"jrt":9526,"jwg":9527,"jns":9528,"jau":9529,"jww":9530,"jhq":9531,"jtx":9532,"jpu":9533,"jrn":9534,"jwhg":9535,"jzqe":9536,"jpyo":9537,"kel":9538,"kmb":9539,"kar":9540,"kle":9541,"klp":9542,"kwn":9543,"kow":9544,"kut":9545,"kir":9546,"kely":9547,"kia":9548,"klu":9549,"kfo":9550,"kind":9551,"kca":9552,"karl":9553,"kbe":9554,"kav":9555,"kds":9556,"kcy":9557,"krs":9558,"kxt":9559,"kdq":9560,"kru":9561,"ktu":9562,"kcb":9563,"kdz":9564,"ktz":9565,"kxh":9566,"kmo":9567,"kig":9568,"ksk":9569,"krq":9570,"knz":9571,"khx":9572,"kje":9573,"kjf":9574,"knf":9575,"ksx":9576,"kjy":9577,"kty":9578,"ktq":9579,"kcl":9580,"kbz":9581,"kcu":9582,"kfy":9583,"kqs":9584,"kfis":9585,"kbi":9586,"kbn":9587,"klj":9588,"kmu":9589,"kzm":9590,"kbh":9591,"kns":9592,"kcn":9593,"kni":9594,"kuv":9595,"kgy":9596,"kuh":9597,"kxc":9598,"kxe":9599,"klm":9600,"kxx":9601,"ktn":9602,"kuq":9603,"kgt":9604,"krn":9605,"kdnb":9606,"kugq":9607,"kzbt":9608,"kjsr":9609,"kqfy":9610,"lin":9611,"lon":9612,"loo":9613,"lat":9614,"lan":9615,"lpe":9616,"lis":9617,"lif":9618,"lun":9619,"lbs":9620,"ltr":9621,"log":9622,"lno":9623,"lsw":9624,"loy":9625,"lsj":9626,"lcy":9627,"lrs":9628,"lby":9629,"liv":9630,"lqf":9631,"lbo":9632,"lrq":9633,"lbj":9634,"lje":9635,"ltl":9636,"ltq":9637,"lcu":9638,"lrf":9639,"lto":9640,"lbi":9641,"lzn":9642,"lvk":9643,"lwm":9644,"lww":9645,"lii":9646,"lva":9647,"lwl":9648,"lvt":9649,"lmyl":9650,"ljxx":9651,"lrym":9652,"lqwr":9653,"mer":9654,"mse":9655,"mri":9656,"mark":9657,"mut":9658,"mir":9659,"mely":9660,"mand":9661,"mda":9662,"mqq":9663,"mway":9664,"mko":9665,"mip":9666,"myn":9667,"mna":9668,"mvi":9669,"mcy":9670,"mkw":9671,"mib":9672,"mrh":9673,"mcb":9674,"mix":9675,"mfr":9676,"muse":9677,"mtz":9678,"mrq":9679,"mgx":9680,"mjx":9681,"mhg":9682,"mht":9683,"mdb":9684,"mnl":9685,"mqw":9686,"mvx":9687,"mxa":9688,"mzc":9689,"mjk":9690,"mrk":9691,"mlj":9692,"mlq":9693,"miy":9694,"mcm":9695,"mik":9696,"mju":9697,"mzl":9698,"mhk":9699,"mkp":9700,"mzp":9701,"mva":9702,"mqh":9703,"mtn":9704,"mjz":9705,"mlr":9706,"mkj":9707,"mls":9708,"mqd":9709,"miry":9710,"mveg":9711,"mxbf":9712,"mhih":9713,"mpmu":9714,"mcwd":9715,"mjdc":9716,"nre":9717,"nou":9718,"nor":9719,"nth":9720,"nce":9721,"nke":9722,"ndd":9723,"nwn":9724,"nal":9725,"nes":9726,"nis":9727,"nut":9728,"north":9729,"nia":9730,"nwe":9731,"nope":9732,"ntr":9733,"niver":9734,"nted":9735,"nsw":9736,"nyal":9737,"nsc":9738,"npo":9739,"nito":9740,"nds":9741,"nxt":9742,"nfl":9743,"njb":9744,"nhx":9745,"nnf":9746,"njy":9747,"nsv":9748,"npd":9749,"nnx":9750,"nnr":9751,"nuj":9752,"nvx":9753,"nhs":9754,"nwk":9755,"nik":9756,"nvq":9757,"ngv":9758,"nhd":9759,"nvw":9760,"nvl":9761,"nmc":9762,"oin":9763,"ove":9764,"omb":9765,"oay":9766,"oet":9767,"oas":9768,"oad":9769,"ogh":9770,"obp":9771,"oag":9772,"oyn":9773,"oops":9774,"oah":9775,"oim":9776,"oef":9777,"oman":9778,"oby":9779,"obd":9780,"ojb":9781,"omg":9782,"oje":9783,"ojf":9784,"ocr":9785,"ocl":9786,"oqg":9787,"obz":9788,"ocu":9789,"oaa":9790,"ovx":9791,"ojm":9792,"oxy":9793,"oxd":9794,"ojd":9795,"ovq":9796,"ojc":9797,"ovp":9798,"ovy":9799,"oxc":9800,"obf":9801,"ozv":9802,"oalf":9803,"ozzgl":9804,"ojvt":9805,"oqsq":9806,"par":9807,"pay":9808,"pld":9809,"pdd":9810,"pis":9811,"pum":9812,"pia":9813,"pos":9814,"ption":9815,"pam":9816,"phow":9817,"pple":9818,"ppy":9819,"pqq":9820,"pie":9821,"pted":9822,"pwi":9823,"psc":9824,"pte":9825,"pae":9826,"polk":9827,"ppee":9828,"pac":9829,"pps":9830,"pby":9831,"pbd":9832,"pje":9833,"pjf":9834,"pnf":9835,"puw":9836,"pcl":9837,"pcu":9838,"phs":9839,"pvb":9840,"pial":9841,"pcj":9842,"pux":9843,"pwd":9844,"pute":9845,"pwg":9846,"pvp":9847,"puv":9848,"plly":9849,"pva":9850,"pgt":9851,"pgz":9852,"prym":9853,"pdyj":9854,"paww":9855,"pardon":9856,"qat":9857,"qay":9858,"qpe":9859,"qet":9860,"qes":9861,"qut":9862,"qck":9863,"qos":9864,"qdo":9865,"qbu":9866,"qgg":9867,"qag":9868,"qci":9869,"qgd":9870,"qsw":9871,"qvo":9872,"qsh":9873,"qzb":9874,"qah":9875,"qka":9876,"qim":9877,"qef":9878,"qib":9879,"qcb":9880,"qfr":9881,"qxh":9882,"qmg":9883,"qho":9884,"qej":9885,"qlx":9886,"qbz":9887,"qnl":9888,"qrj":9889,"qlk":9890,"qij":9891,"qlj":9892,"qxs":9893,"qxd":9894,"qzn":9895,"qcj":9896,"qjd":9897,"qvg":9898,"qxf":9899,"qcc":9900,"qcn":9901,"qzl":9902,"qtx":9903,"qcs":9904,"qpu":9905,"qcq":9906,"qvl":9907,"qtn":9908,"qvs":9909,"qvu":9910,"qdu":9911,"qjt":9912,"qxk":9913,"qnc":9914,"qava":9915,"qjxx":9916,"rre":9917,"rou":9918,"rhe":9919,"rme":9920,"rct":9921,"rss":9922,"rdd":9923,"rut":9924,"rur":9925,"rxi":9926,"rly":9927,"rinese":9928,"rms":9929,"rda":9930,"rust":9931,"rinity":9932,"rte":9933,"rny":9934,"rkw":9935,"rjs":9936,"rcb":9937,"rby":9938,"rical":9939,"rbd":9940,"rbo":9941,"rpp":9942,"rpx":9943,"rmg":9944,"rjx":9945,"rpq":9946,"ruskin":9947,"rlo":9948,"rpd":9949,"rty":9950,"rgm":9951,"rnx":9952,"rcu":9953,"rvx":9954,"rmf":9955,"rxy":9956,"rtb":9957,"rvh":9958,"rxd":9959,"rwf":9960,"rxq":9961,"rcm":9962,"rwb":9963,"rwd":9964,"rcn":9965,"rrx":9966,"rni":9967,"rdn":9968,"rzr":9969,"rcq":9970,"rnq":9971,"rrn":9972,"rcp":9973,"rpw":9974,"rmwp":9975,"rmyg":9976,"rpsy":9977,"rgoi":9978,"sce":9979,"sle":9980,"sct":9981,"sll":9982,"slp":9983,"sal":9984,"sas":9985,"scode":9986,"sow":9987,"sut":9988,"sul":9989,"sxi":9990,"sos":9991,"sbs":9992,"sdo":9993,"sfe":9994,"sjg":9995,"sican":9996,"suck":9997,"smw":9998,"syn":9999}