{"<pad>":0,"</s>":1,"<unk>":2,"<|area|>":3,"<|customerrating|>":4,"<|eattype|>":5,"<|familyfriendly|>":6,"<|food|>":7,"<|name|>":8,"<|near|>":9,"<|pricerange|>":10,"\n":11,"\r":12,"!":13,"$":14,"'":15,"+":16,",":17,"-":18,".":19,"/":20,"0":21,"1":22,"2":23,"3":24,"4":25,"5":26,"6":27,"8":28,"9":29,":":30,";":31,"<":32,">":33,"?":34,"a":35,"b":36,"c":37,"d":38,"e":39,"f":40,"g":41,"h":42,"i":43,"j":44,"k":45,"l":46,"m":47,"n":48,"o":49,"p":50,"q":51,"r":52,"s":53,"t":54,"u":55,"v":56,"w":57,"x":58,"y":59,"z":60,"|":61,"£":62,"é":63,"▁":64,"<|":65,"|>":66,"▁<|":67,"er":68,"ri":69,"an":70,"▁c":71,"▁t":72,"at":73,"▁i":74,"▁th":75,"en":76,"e|>":77,"re":78,"▁f":79,"ly":80,"am":81,"▁the":82,"st":83,"▁a":84,"od":85,"in":86,"ood":87,"▁o":88,"▁<|n":89,"▁<|f":90,"es":91,"ric":92,"ing":93,"ea":94,"▁is":95,"▁p":96,"rat":97,"end":98,"riend":99,"riendly":100,"om":101,"id":102,"rating":103,"ver":104,"ust":105,"ustom":106,"ustomer":107,"▁h":108,"▁s":109,"ame|>":110,"▁<|name|>":111,"▁b":112,"▁n":113,"ear":114,"ty":115,"ang":116,"ami":117,"▁l":118,".\n":119,"amily":120,"ood|>":121,"▁<|food|>":122,"▁of":123,"▁in":124,"ed":125,"li":126,"friendly":127,"▁ri":128,"▁river":129,"pric":130,"ide":131,"rea":132,"▁5":133,"side":134,"▁riverside":135,"▁it":136,"▁<|pric":137,"erang":138,"▁<|pricerang":139,"▁<|pricerange|>":140,"▁lo":141,"customer":142,"▁<|customer":143,"rating|>":144,"▁<|customerrating|>":145,"▁co":146,"▁food":147,"▁<|family":148,"friendly|>":149,"▁<|familyfriendly|>":150,"▁m":151,"▁w":152,"ur":153,"area":154,"▁<|area":155,"▁<|area|>":156,"ut":157,"ge":158,"ho":159,"ee":160,"ent":161,"▁an":162,"ff":163,"▁out":164,"▁y":165,"eat":166,"rest":167,"▁ch":168,"▁£":169,"▁coff":170,"▁coffee":171,"▁sho":172,"▁shop":173,"▁<|near":174,"▁<|near|>":175,"gh":176,"▁r":177,"typ":178,"▁<|eat":179,"type|>":180,"▁<|eattype|>":181,"▁near":182,"rice":183,"igh":184,"▁high":185,"▁rest":186,"▁yes":187,"ant":188,"▁and":189,"aur":190,"▁restaur":191,"▁restaurant":192,"▁loc":193,"ity":194,"▁city":195,"▁cent":196,"▁rating":197,"ese":198,"il":199,"▁no":200,"▁centre":201,"▁pu":202,"▁ca":203,"▁friendly":204,"it":205,"▁customer":206,"▁than":207,"20":208,"ated":209,"ch":210,"▁located":211,"▁g":212,"ren":213,"▁£20":214,"▁ha":215,"▁pub":216,"ll":217,"ast":218,"ou":219,"ve":220,"ap":221,"ro":222,"vera":223,"▁low":224,"ali":225,"fé":226,"▁avera":227,"▁café":228,"▁average":229,"▁j":230,"▁price":231,"▁fast":232,"▁itali":233,"▁italian":234,"▁family":235,"apan":236,"▁japan":237,"▁japanese":238,"ate":239,"▁mod":240,"▁moder":241,"▁moderate":242,"▁has":243,"▁fren":244,"▁french":245,"di":246,"▁rang":247,"ol":248,"▁ser":249,"or":250,"▁indi":251,"um":252,"ers":253,"▁indian":254,"▁wit":255,"▁with":256,"▁range":257,"▁serv":258,"ar":259,"▁yes\n":260,"sh":261,"ne":262,"ild":263,"la":264,"eap":265,"▁cheap":266,"ce":267,"ess":268,"▁less":269,"le":270,"▁k":271,"▁en":272,"▁bo":273,"lish":274,"▁rice":275,"▁boat":276,"▁3":277,"▁pric":278,"▁1":279,"glish":280,"▁english":281,"ore":282,"▁more":283,"ra":284,"30":285,"▁e":286,"▁£30":287,"▁serves":288,"▁that":289,"▁by":290,"▁child":291,"dge":292,"amb":293,"ridge":294,"▁camb":295,"▁cambridge":296,"▁st":297,"25":298,"old":299,"row":300,"▁gold":301,"▁golden":302,"xp":303,"▁chin":304,"▁chinese":305,"▁bar":306,"-25":307,"▁not":308,"▁exp":309,"ater":310,"▁kid":311,"▁£20-25":312,"▁water":313,"man":314,"▁waterman":315,"-friendly":316,"ns":317,"▁ar":318,"ow":319,"ere":320,"ue":321,"▁area":322,"▁tw":323,"▁pla":324,"ment":325,"lies":326,"▁priced":327,"ry":328,"▁no\n":329,"▁rat":330,"ay":331,"▁call":332,"▁called":333,"▁for":334,"lue":335,"se":336,"▁blue":337,"▁there":338,"zi":339,"ss":340,"▁rated":341,"▁rou":342,"▁rouge":343,"▁cur":344,"ress":345,"▁hol":346,"iday":347,"▁holiday":348,"▁inn":349,"▁express":350,"▁curry":351,"▁at":352,"ix":353,"▁fit":354,"zb":355,"illies":356,"▁fitzb":357,"▁fitzbillies":358,"▁ea":359,"▁ra":360,"▁eag":361,"▁eagle":362,"▁one":363,"▁to":364,"▁rating.\n":365,"▁family-friendly":366,"da":367,"▁riverside\n":368,"▁off":369,"rowns":370,"▁browns":371,"mentum":372,"▁ali":373,"▁alimentum":374,"▁all":375,"ic":376,"is":377,"▁d":378,"▁hou":379,"▁house":380,"ort":381,"rada":382,"▁strada":383,"▁v":384,"ms":385,"and":386,"▁children":387,"▁friendly.\n":388,"ice":389,"land":390,"▁port":391,"▁arms":392,"▁portland":393,"ul":394,"▁wrest":395,"▁wrestl":396,"▁wrestlers":397,"▁sp":398,"▁5.\n":399,"el":400,"enix":401,"▁pho":402,"▁phoenix":403,"get":404,"ult":405,"▁prices":406,"▁gre":407,"▁fy":408,"▁fyne":409,"▁loch":410,"▁spice":411,"ari":412,"tt":413,"urg":414,"▁pro":415,"▁are":416,"▁burg":417,"▁be":418,"▁prov":419,"pp":420,"▁ve":421,"▁veget":422,"bow":423,"inbow":424,"arian":425,"▁vegetarian":426,"▁rainbow":427,"▁offers":428,"nt":429,"▁mid":430,"ive":431,"▁provid":432,"▁nood":433,"▁burger":434,"tto":435,"▁noodle":436,"▁cotto":437,"ipp":438,"ippee":439,"ot":440,"▁yippee":441,"▁food.":442,"ine":443,"▁punt":444,"▁punter":445,"▁king":446,"ults":447,"▁hot":448,"▁hotel":449,"za":450,"▁crow":451,"enty":452,"▁plaza":453,"▁twenty":454,"▁star":455,"▁two":456,"wood":457,"ildwood":458,"▁wildwood":459,"▁cl":460,"▁on":461,"cum":462,"▁cocum":463,"▁crowne":464,"▁va":465,"on":466,"s.\n":467,"▁man":468,"▁place":469,"ree":470,"▁vaults":471,"ili":472,"▁green":473,"▁sic":474,"▁rouge\n":475,"▁sicili":476,"▁sicilia":477,"ak":478,"ill":479,"zzi":480,"zizzi":481,"▁ran":482,"▁inn\n":483,"▁zizzi":484,"▁serving":485,"▁wh":486,"▁ranch":487,"▁cu":488,"▁cuis":489,"▁cuisine":490,"▁oli":491,"▁olive":492,"mer":493,"▁gro":494,"▁grove":495,"ummer":496,"summer":497,"▁midsummer":498,"▁but":499,"▁pa":500,"▁moderately":501,"▁food.\n":502,"▁they":503,"lace":504,"▁palace":505,"▁arom":506,"▁aromi":507,"▁bak":508,"▁bakers":509,"▁cla":510,"▁mill":511,"▁hall":512,"▁clare":513,"▁kids":514,"▁its":515,"ling":516,"ens":517,"ump":518,"▁tree":519,"▁dump":520,"▁dumpling":521,"ensive":522,"nd":523,"rent":524,"▁sor":525,"▁ad":526,"▁arms\n":527,"rento":528,"▁sorrento":529,"ich":530,"▁which":531,"▁gi":532,"▁you":533,"▁provides":534,"▁one\n":535,"et":536,"▁range.":537,"'s":538,"ough":539,"▁pl":540,"▁centre\n":541,"owns":542,"▁clowns":543,"▁nam":544,"ffe":545,"▁gira":546,"▁giraffe":547,"▁5\n":548,"lls":549,"ound":550,"▁plough":551,"ket":552,"▁café\n":553,"▁cric":554,"keters":555,"▁cricketers":556,"▁highly":557,"▁riverside.\n":558,"im":559,"▁bar\n":560,"▁named":561,"ab":562,"▁food,":563,"▁bra":564,"▁range.\n":565,"ib":566,"▁expensive":567,"▁king\n":568,"▁friendly,":569,"▁riverside,":570,"zil":571,"▁brazil":572,"bap":573,"imbap":574,"ibimbap":575,"▁centre.\n":576,"▁hotel\n":577,"▁bibimbap":578,"▁riverside.":579,"▁centre.":580,"▁re":581,"▁can":582,"▁al":583,"▁center":584,"al":585,"ja":586,"-pric":587,"▁raja":588,"▁it's":589,"▁tast":590,"▁have":591,"▁sicilia\n":592,"▁ratings":593,"▁taste":594,"-priced":595,"▁boat\n":596,"▁customers":597,"▁ranch\n":598,"▁six":599,"▁centre,":600,"▁rating.":601,"eater":602,"▁su":603,"▁cost":604,"▁this":605,"vi":606,"▁providing":607,"▁bakers\n":608,"▁20":609,"▁hall\n":610,"▁rating,":611,"▁family-friendly.\n":612,"▁offer":613,"riat":614,"▁adriat":615,"▁adriatic":616,"▁se":617,"▁restaurant,":618,"▁area.\n":619,"ose":620,"▁sorrento\n":621,"▁av":622,"▁bells":623,"▁close":624,"▁restaurant.\n":625,"▁tra":626,"▁fr":627,"▁area.":628,"▁friendly.":629,"▁from":630,"alon":631,"▁avalon":632,"▁5.":633,"▁ne":634,"▁offering":635,"▁trave":636,"llers":637,"▁bee":638,"▁£30.\n":639,"▁beef":640,"▁area,":641,"▁travellers":642,"▁beefeater":643,"▁five":644,"▁shop,":645,"▁£20.\n":646,"com":647,"▁found":648,"▁u":649,"eal":650,"▁brazil\n":651,"shi":652,"▁sushi":653,"so":654,"▁also":655,"▁non":656,"▁good":657,"▁est":658,"ablish":659,"▁establish":660,"▁establishment":661,"▁cuisine\n":662,"▁sit":663,"th":664,"▁fami":665,"▁families":666,"ir":667,"xt":668,"▁great":669,"os":670,"ion":671,"▁meal":672,"▁next":673,"▁ven":674,"ew":675,"▁venue":676,"▁sells":677,"▁if":678,"▁pound":679,"▁serve":680,"▁5,":681,"▁rouge.\n":682,"▁bells\n":683,"▁ratings.\n":684,"▁£20-25.\n":685,"able":686,"▁as":687,"ron":688,"▁high\n":689,"▁inn.":690,"▁envi":691,"ronment":692,"▁environment":693,"▁only":694,"▁30":695,"▁range,":696,"▁eat":697,"▁child-friendly":698,"qu":699,"uated":700,"▁situated":701,"▁kid-friendly":702,"very":703,"-st":704,"ec":705,"▁one.\n":706,"ind":707,"▁try":708,"▁we":709,"▁priced,":710,"▁adriatic\n":711,"▁average\n":712,"here":713,"ok":714,"▁restaurant.":715,"▁qu":716,"▁very":717,"▁find":718,"iv":719,"▁rece":720,"▁po":721,"view":722,"mos":723,"phere":724,"▁atmos":725,"elcom":726,"▁atmosphere":727,"▁low\n":728,"▁receiv":729,"▁welcom":730,"▁look":731,"▁adult":732,"▁three":733,"▁cheap,":734,"▁review":735,"▁average.\n":736,"▁pub,":737,"▁inn.\n":738,"-star":739,"▁prices.\n":740,"▁do":741,"▁arms.\n":742,"▁£20.":743,"▁shop.":744,"exp":745,"▁inexp":746,"own":747,"▁avalon\n":748,"▁inexpensive":749,"▁looking":750,"▁nor":751,"▁boat,":752,"▁stars":753,"▁customers.\n":754,"▁café.\n":755,"'t":756,"-f":757,"▁fa":758,"▁rea":759,"rin":760,"▁their":761,"▁boat.":762,"yle":763,"▁north":764,"▁family-friendly,":765,"▁bar.\n":766,"▁higher":767,"▁rouge.":768,"▁rating\n":769,"▁low.\n":770,"ium":771,"▁med":772,"▁received":773,"▁river.\n":774,"ong":775,"▁eater":776,"▁boat.\n":777,"▁rated,":778,"rit":779,"▁eatery":780,"▁meals":781,"▁medium":782,"ality":783,"ven":784,"▁wine":785,"▁hotel.\n":786,"▁costs":787,"ble":788,"son":789,"▁high-priced":790,"▁£30.":791,"▁reason":792,"▁welcome":793,"we":794,"▁friendly\n":795,"▁pounds":796,"▁aff":797,"▁affor":798,"ome":799,"▁afforda":800,"▁quality":801,"twe":802,"▁betwe":803,"▁between":804,"bo":805,"▁along":806,"▁style":807,"our":808,"▁affordable":809,"▁low-priced":810,"▁20-25":811,"▁will":812,"▁abo":813,"▁high.\n":814,"▁adults":815,"▁over":816,"▁children-friendly":817,"▁poor":818,"▁cuisine.\n":819,"▁rate":820,"▁de":821,"▁ranch.\n":822,"▁go":823,"▁ex":824,"▁rouge,":825,"▁bakers.\n":826,"▁does":827,"▁your":828,"▁arms.":829,"▁service":830,"▁din":831,"ish":832,"▁get":833,"▁eur":834,"▁prices.":835,"▁king.":836,"▁£20\n":837,"▁food\n":838,"▁café.":839,"n't":840,"ation":841,"▁deli":842,"enu":843,"▁menu":844,"▁brit":845,"▁british":846,"▁suit":847,"▁one.":848,"▁di":849,"▁arms,":850,"nder":851,"▁under":852,"▁exce":853,"ake":854,"▁inn,":855,"▁how":856,"▁stars.\n":857,"ever":858,"▁center.":859,"▁£30\n":860,"▁however":861,"▁che":862,"▁price.\n":863,"comm":864,"▁location":865,"▁kids-friendly":866,"▁pounds.\n":867,"▁bar.":868,"▁hall.\n":869,"-rat":870,"▁who":871,"-rated":872,"isit":873,"▁sicilia.\n":874,"▁where":875,"▁family-friendly.":876,"commend":877,"▁suitable":878,"▁excell":879,"▁recommend":880,"▁excellent":881,"▁cuisine.":882,"tion":883,"▁served":884,"▁visit":885,"▁take":886,"▁dining":887,"▁£20,":888,"lls.\n":889,"▁bells.\n":890,"▁priced.\n":891,"▁sicilia.":892,"▁sorrento.\n":893,"▁£30,":894,"▁waterman,":895,"▁above":896,"▁then":897,"▁£20-25.":898,"▁families.\n":899,"as":900,"▁hotel.":901,"▁isn't":902,"▁children.\n":903,"▁alt":904,"▁been":905,"▁£20-":906,"▁up":907,"▁king.\n":908,"▁brazil.\n":909,"▁just":910,"▁prices,":911,"▁ranch.":912,"jo":913,"hou":914,"▁cambridge,":915,"▁well":916,"▁,":917,"▁enjo":918,"▁enjoy":919,"£25":920,"hough":921,"▁there's":922,"▁although":923,"▁am":924,"▁you'":925,"▁crown":926,"▁£20-£25":927,"▁café,":928,"▁reviews":929,"▁fitzbillies,":930,"▁eagle,":931,"▁allow":932,"▁ranging":933,"▁per":934,"▁price.":935,"▁environment.\n":936,"yp":937,"▁typ":938,"rink":939,"▁within":940,"▁drink":941,"▁center.\n":942,"▁recommended":943,"▁one,":944,"▁£20-25\n":945,"▁op":946,"ght":947,"▁moderate\n":948,"▁house,":949,"▁river,":950,"▁£25":951,"▁curry,":952,"int":953,"ring":954,"ac":955,"▁alimentum,":956,"way":957,"-family":958,"▁cambridge.":959,"▁pub.\n":960,"▁bar,":961,"▁strada,":962,"▁whole":963,"▁dish":964,"▁non-family":965,"▁end":966,"▁brea":967,"ite":968,"▁-":969,"▁reasonable":970,"▁cheese":971,"▁expensive,":972,"-food":973,"▁shop.\n":974,"▁fair":975,"▁dishes":976,"rient":977,"▁pricing":978,"▁around":979,"ous":980,"▁fast-food":981,"▁sicilia,":982,"▁bakers.":983,"▁king,":984,"▁name":985,"▁river.":986,"▁cheap.\n":987,"▁atmosphere.\n":988,"▁waterman.":989,"▁ranch,":990,"ably":991,"▁break":992,"eri":993,"▁given":994,"▁side":995,"▁reasonably":996,"▁our":997,"▁you're":998,"ence":999,"co":1000,"▁bu":1001,"▁pub.":1002,"▁cambridge.\n":1003,"fast":1004,"▁outside":1005,"▁hotel,":1006,"▁ratings.":1007,"ect":1008,"▁reviews.\n":1009,"▁breakfast":1010,"▁orient":1011,"▁experi":1012,"▁costing":1013,"▁kn":1014,"▁moderately-priced":1015,"▁experience":1016,"▁cuisine,":1017,"ies":1018,"▁.":1019,"▁feat":1020,"▁£20-25,":1021,"▁featu":1022,"▁ranges":1023,"▁cotto,":1024,"▁foods":1025,"▁euro":1026,"▁come":1027,"▁or":1028,"▁sell":1029,"▁deliver":1030,"▁past":1031,"▁wrestlers,":1032,"▁mid-priced":1033,"ally":1034,"▁range\n":1035,"▁cheap\n":1036,"ad":1037,"▁euros":1038,"eck":1039,"▁welcome.\n":1040,"▁nice":1041,"▁check":1042,"▁customers.":1043,"▁25":1044,"▁punter,":1045,"▁city.\n":1046,"▁eagle.":1047,"▁known":1048,"by":1049,"▁right":1050,"▁curry.":1051,"▁down":1052,"▁jo":1053,"▁phoenix,":1054,"▁poorly":1055,"▁though":1056,"▁cons":1057,"▁want":1058,"▁best":1059,"▁star,":1060,"▁'":1061,"ed.\n":1062,"▁nearby":1063,"▁sat":1064,"ile":1065,"▁pasta":1066,"▁so":1067,"▁pricey":1068,"▁alimentum.":1069,"▁give":1070,"eci":1071,"▁fine":1072,"▁averagely":1073,"isf":1074,"tting":1075,"▁sorrento,":1076,"▁ratings,":1077,"▁fitzbillies.":1078,"▁while":1079,"▁bakers,":1080,"▁setting":1081,"▁non-family-friendly":1082,"ca":1083,"▁fare":1084,"▁satisf":1085,"▁being":1086,"▁start":1087,"▁speci":1088,"▁family.\n":1089,"▁delic":1090,"ient":1091,"▁yes,":1092,"-a":1093,"res":1094,"▁con":1095,"▁price,":1096,"▁type":1097,"▁satisfac":1098,"un":1099,"▁some":1100,"▁restaurant\n":1101,"ries":1102,"▁customers,":1103,"▁non-":1104,"▁town":1105,"▁friend":1106,"▁conven":1107,"ious":1108,"▁convenient":1109,"▁.\n":1110,"▁rated.\n":1111,"ail":1112,"▁pre":1113,"▁vi":1114,"▁gets":1115,"▁satisfaction":1116,"▁ac":1117,"▁bring":1118,"▁was":1119,"▁average,":1120,"▁avail":1121,"▁euros.\n":1122,"▁delicious":1123,"▁view":1124,"▁available":1125,"▁two,":1126,"▁place.\n":1127,"▁sorrento.":1128,"▁li":1129,"▁waterman.\n":1130,"▁mid-":1131,"▁however,":1132,"▁dine":1133,"▁fyne.\n":1134,"ld":1135,"▁wrestlers.":1136,"▁burgers":1137,"▁man.":1138,"▁hall.":1139,"▁welcomes":1140,"ts":1141,"▁city,":1142,"▁man,":1143,"▁aromi,":1144,"cost":1145,"▁oriented":1146,"op":1147,"▁cho":1148,"▁fries":1149,"▁city.":1150,"▁boast":1151,"▁house.":1152,"▁expensive.\n":1153,"▁child-friendly.\n":1154,"▁take-a":1155,"▁budge":1156,"▁take-away":1157,"rang":1158,"▁house.\n":1159,"▁vari":1160,"▁fyne,":1161,"▁center,":1162,"▁joint":1163,"▁low-":1164,"-price":1165,"▁strada.":1166,"▁adriatic.\n":1167,"▁budget":1168,"ition":1169,"▁lower":1170,"▁place,":1171,"▁brazil,":1172,"▁kid-friendly.\n":1173,"▁consid":1174,"dition":1175,"umer":1176,"▁one-star":1177,"▁dec":1178,"▁fairly":1179,"▁speciali":1180,"▁consider":1181,"▁two.\n":1182,"▁palace.\n":1183,"▁hall,":1184,"range":1185,"▁sc":1186,"▁bes":1187,"▁wou":1188,"▁spice,":1189,"▁tree.\n":1190,"▁would":1191,"zing":1192,"▁vaults,":1193,"▁zizzi,":1194,"▁un":1195,"s,":1196,"▁com":1197,"▁bel":1198,"▁win":1199,"▁ranged":1200,"the":1201,"▁pounds.":1202,"▁bas":1203,"▁5-star":1204,"itt":1205,"▁selling":1206,"▁decent":1207,"ges":1208,"▁l20":1209,"▁love":1210,"ight":1211,"▁high-":1212,"▁tradition":1213,"▁quite":1214,"▁features":1215,"▁conveniently":1216,"ety":1217,"ving":1218,"lic":1219,"▁moderate.\n":1220,"▁variety":1221,"▁considered":1222,"▁option":1223,"▁beside":1224,"▁average.":1225,"uld":1226,"▁cocum,":1227,"▁mill,":1228,"▁stars.":1229,"▁based":1230,"▁traditional":1231,"▁family-friendly\n":1232,"▁receives":1233,"ful":1234,"ular":1235,"▁adriatic.":1236,"▁environment.":1237,"▁lik":1238,"▁mid-range":1239,"▁below":1240,"eric":1241,"▁provide":1242,"▁avalon.":1243,"▁new":1244,"▁about":1245,"erican":1246,"▁ite":1247,"▁spice.":1248,"▁spice.\n":1249,"▁palace,":1250,"▁us":1251,"▁boasts":1252,"▁rank":1253,"▁american":1254,"▁items":1255,"eses":1256,"▁that's":1257,"▁kids.\n":1258,"▁too":1259,"▁wildwood,":1260,"ther":1261,"▁pop":1262,"ead":1263,"▁mo":1264,"▁phoenix.":1265,"▁punter.\n":1266,"▁star.\n":1267,"▁perf":1268,"▁deliveries":1269,"▁wines":1270,"ain":1271,"io":1272,"ard":1273,"▁midd":1274,"▁choice":1275,"▁low-cost":1276,"▁perfect":1277,"▁curry.\n":1278,"▁high,":1279,"▁high.":1280,"▁3-star":1281,"▁two.":1282,"▁brazil.":1283,"▁head":1284,"child":1285,"▁low-rated":1286,"▁area\n":1287,"▁priced.":1288,"▁establishment.\n":1289,"▁score":1290,"▁middle":1291,"▁cheap.":1292,"▁vaults.\n":1293,"▁adriatic,":1294,"▁cheeses":1295,"▁typic":1296,"lly":1297,"s.":1298,"▁cheaply":1299,"▁highly-rated":1300,"▁costumer":1301,"▁five.\n":1302,"▁families.":1303,"▁atmosphere.":1304,"▁like":1305,"▁ear":1306,"aters":1307,"▁public":1308,"▁punter.":1309,"▁grove,":1310,"▁tree,":1311,"▁30.\n":1312,"▁caters":1313,"▁des":1314,"▁20.\n":1315,"▁bells,":1316,"▁five-star":1317,"-style":1318,"▁three-star":1319,"cale":1320,"▁non-child":1321,"▁popular":1322,"on't":1323,"▁cricketers,":1324,"▁sushi.\n":1325,"▁pay":1326,"llar":1327,"▁even":1328,"▁place.":1329,"▁grove.\n":1330,"▁giraffe,":1331,"▁eating":1332,"lu":1333,"▁cater":1334,"▁point":1335,"▁litt":1336,"▁vaults.":1337,"▁dollar":1338,"▁little":1339,"azing":1340,"clu":1341,"▁ro":1342,"▁family.":1343,"▁eagle.\n":1344,"▁amazing":1345,"▁delivers":1346,"▁wildwood.\n":1347,"▁kid-friendly,":1348,"red":1349,"▁far":1350,"▁them":1351,"▁blue.\n":1352,"▁fyne.":1353,"▁wine,":1354,"▁£20-£25.\n":1355,"▁'the":1356,"ions":1357,"▁road":1358,"▁family,":1359,"▁expect":1360,"▁cotto.":1361,"▁clowns,":1362,"▁fu":1363,"▁alimentum.\n":1364,"▁prices\n":1365,"▁value":1366,"▁zizzi.":1367,"▁earn":1368,"▁pe":1369,"▁£25.\n":1370,"kir":1371,"▁children.":1372,"▁phoenix.\n":1373,"▁cotto.\n":1374,"▁plea":1375,"▁plough,":1376,"▁stars,":1377,"▁drinks":1378,"▁starting":1379,"▁peop":1380,"kirts":1381,"skirts":1382,"▁bad":1383,"▁may":1384,"▁outskirts":1385,"▁got":1386,"▁low,":1387,"ices":1388,"▁spend":1389,"▁venue,":1390,"▁venue.\n":1391,"▁full":1392,"▁earned":1393,"▁people":1394,"ian":1395,"tions":1396,"▁id":1397,"ross":1398,"▁don't":1399,"▁sushi.":1400,"▁child-friendly,":1401,"▁inexpensive,":1402,"▁pounds,":1403,"▁across":1404,"all":1405,"scale":1406,"▁local":1407,"▁had":1408,"ately":1409,"▁plac":1410,"▁blue,":1411,"▁wrestlers.\n":1412,"▁man.\n":1413,"▁mill.\n":1414,"▁plough.":1415,"▁upscale":1416,"▁high-end":1417,"▁fitzbillies.\n":1418,"▁aromi.\n":1419,"▁environment,":1420,"irit":1421,"▁here":1422,"▁bit":1423,"▁services":1424,"▁strada.\n":1425,"▁spirit":1426,"▁cocum.\n":1427,"▁zizzi.\n":1428,"▁palace.":1429,"▁class":1430,"▁doesn't":1431,"▁allowed.\n":1432,"▁open":1433,"▁specializ":1434,"ner":1435,"▁home":1436,"▁having":1437,"ond":1438,"▁ratings\n":1439,"▁ideal":1440,"fort":1441,"▁sli":1442,"lec":1443,"▁both":1444,"▁rates":1445,"▁grove.":1446,"▁avalon,":1447,"▁atmosphere,":1448,"kid":1449,"pite":1450,"▁app":1451,"▁away":1452,"▁1-star":1453,"ick":1454,"▁mid-price":1455,"▁aromi.":1456,"▁mill.":1457,"ack":1458,"▁featuring":1459,"▁slight":1460,"uc":1461,"▁bea":1462,"▁inclu":1463,"▁river\n":1464,"▁wort":1465,"uti":1466,"▁gr":1467,"▁low.":1468,"▁wildwood.":1469,"▁avalon.\n":1470,"▁really":1471,"▁despite":1472,"▁slightly":1473,"▁includ":1474,"▁worth":1475,"▁other":1476,"▁average-priced":1477,"▁giraffe.":1478,"▁cricketers.\n":1479,"▁dist":1480,"▁specializes":1481,"▁beauti":1482,"▁beautiful":1483,"use":1484,"ative":1485,"▁hear":1486,"▁foods.\n":1487,"uth":1488,"▁yet":1489,"▁price\n":1490,"▁server":1491,"▁selec":1492,"▁allowed":1493,"▁pricing.\n":1494,"unately":1495,"▁unfort":1496,"▁typically":1497,"▁unfortunately":1498,"est":1499,"▁ent":1500,"▁par":1501,"▁20.":1502,"▁asian":1503,"▁high-priced,":1504,"▁menu.\n":1505,"▁please":1506,"uit":1507,"▁som":1508,"▁l30":1509,"▁could":1510,"let":1511,"▁beca":1512,"▁cocum.":1513,"▁establishment.":1514,"▁20-25.\n":1515,"▁children-friendly,":1516,"▁you'll":1517,"▁non-kid":1518,"▁because":1519,"ip":1520,"▁those":1521,"▁sm":1522,"▁should":1523,"▁top":1524,"▁children,":1525,"▁spa":1526,"▁cricketers.":1527,"▁options":1528,"▁usu":1529,"ft":1530,"ener":1531,"▁beefeater,":1532,"▁establishment,":1533,"▁service.\n":1534,"▁small":1535,"'re":1536,"her":1537,"▁hamb":1538,"▁night":1539,"ront":1540,"▁italian.\n":1541,"▁japanese,":1542,"▁moderate.":1543,"▁kids,":1544,"▁wine.\n":1545,"▁hamburg":1546,"lo":1547,"ves":1548,"▁it.\n":1549,"▁shop\n":1550,"▁french,":1551,"ney":1552,"▁beefeater.\n":1553,"▁30.":1554,"▁comp":1555,"▁money":1556,"us":1557,"ank":1558,"▁lowly":1559,"▁stop":1560,"▁clowns.":1561,"▁bells.":1562,"▁child-friendly.":1563,"▁l20-25":1564,"▁lovely":1565,"front":1566,"tty":1567,"▁pers":1568,"▁lea":1569,"▁outlet":1570,"▁char":1571,"▁gener":1572,"▁bevera":1573,"▁tree.":1574,"▁giraffe.\n":1575,"▁only.\n":1576,"▁stars\n":1577,"▁fav":1578,"▁kids-friendly.\n":1579,"▁reviews.":1580,"▁pretty":1581,"▁person":1582,"one":1583,"oup":1584,"▁sited":1585,"▁meal.\n":1586,"▁quick":1587,"▁ranked":1588,"▁placed":1589,"▁fur":1590,"▁aw":1591,"▁sh":1592,"▁see":1593,"▁when":1594,"▁expensive.":1595,"▁drinks.\n":1596,"▁friends":1597,"▁most":1598,"▁non-children":1599,"▁usually":1600,"-on":1601,"ett":1602,"les":1603,"led":1604,"out":1605,"▁overa":1606,"ghett":1607,"▁locate":1608,"▁family\n":1609,"▁store":1610,"▁there.\n":1611,"▁sup":1612,"▁costly":1613,"▁fruit":1614,"▁sits":1615,"▁families,":1616,"▁eatery.\n":1617,"▁among":1618,"▁setting.":1619,"▁scores":1620,"▁spaghett":1621,"-only":1622,"▁overall":1623,"▁spaghetti":1624,"ern":1625,"stand":1626,"▁int":1627,"▁mar":1628,"▁no,":1629,"▁average-rated":1630,"▁moderate-priced":1631,"▁what":1632,"▁£20-£25.":1633,"▁experience.\n":1634,"▁appro":1635,"▁servers":1636,"▁further":1637,"cket":1638,"ance":1639,"ates":1640,"▁aft":1641,"▁outstand":1642,"▁centra":1643,"▁pub\n":1644,"▁low-price":1645,"▁averag":1646,"▁spot":1647,"▁reg":1648,"▁sure":1649,"▁eatery,":1650,"▁euros.":1651,"▁setting.\n":1652,"▁take-away.\n":1653,"▁outstanding":1654,"cent":1655,"▁every":1656,"▁blue.":1657,"▁clowns.\n":1658,"▁alco":1659,"▁fac":1660,"▁£25.":1661,"▁l20.\n":1662,"▁hamburgers":1663,"▁super":1664,"▁alcoho":1665,"'.\n":1666,"king":1667,"▁ok":1668,"▁pr":1669,"▁sea":1670,"▁bank":1671,"▁neat":1672,"▁mat":1673,"▁wide":1674,"▁high-rated":1675,"▁restaurants":1676,"vel":1677,"▁due":1678,"▁plough.\n":1679,"▁bracket":1680,"▁beefeater.":1681,"▁children-friendly.\n":1682,"▁cheese,":1683,"▁selection":1684,"-d":1685,"resh":1686,"▁fant":1687,"▁aren":1688,"▁ages":1689,"▁sa":1690,"▁wond":1691,"astic":1692,"room":1693,"▁english,":1694,"▁cost,":1695,"▁offered":1696,"▁meals.\n":1697,"▁low-priced,":1698,"▁dinner":1699,"▁menu.":1700,"▁center.,":1701,"▁allows":1702,"▁dishes.\n":1703,"▁oriental":1704,"▁specializing":1705,"▁cheeses,":1706,"▁spirits":1707,"▁somew":1708,"▁generally":1709,"▁beverages":1710,"▁after":1711,"▁fantastic":1712,"▁aren't":1713,"▁wonder":1714,"00":1715,"of":1716,"rt":1717,"ub":1718,"▁sn":1719,"▁riverfront":1720,"▁might":1721,"hout":1722,"▁short":1723,"▁italian,":1724,"▁without":1725,"▁cambridge\n":1726,"▁many":1727,"akes":1728,"▁customers\n":1729,"▁reviewed":1730,"▁medium-priced":1731,"▁20-25.":1732,"▁adults.\n":1733,"▁reviews,":1734,"▁town.\n":1735,"▁prem":1736,"▁comes":1737,"▁too.\n":1738,"▁typical":1739,"▁heart":1740,"▁part":1741,"-in":1742,"ele":1743,"▁4":1744,"▁he":1745,"▁lut":1746,"▁current":1747,"▁kids.":1748,"▁rel":1749,"▁review.\n":1750,"▁meals.":1751,"▁affordable,":1752,"▁service,":1753,"▁dining.\n":1754,"▁up.\n":1755,"▁perm":1756,"▁though.\n":1757,"▁pasta.\n":1758,"▁fare.\n":1759,"▁opened":1760,"▁leave":1761,"▁facili":1762,"▁snack":1763,"▁luton":1764,"ist":1765,"yled":1766,"ert":1767,"▁age":1768,"▁hold":1769,"▁restroom":1770,"▁now":1771,"▁moderate,":1772,"▁east":1773,"▁location.\n":1774,"▁side.\n":1775,"▁euros,":1776,"ards":1777,"▁low-cost,":1778,"▁ship":1779,"▁wonderful":1780,"▁currently":1781,"▁relative":1782,"-5":1783,"are":1784,"ire":1785,"rict":1786,"▁lies":1787,"▁none":1788,"▁italian\n":1789,"▁star.":1790,"▁they're":1791,"▁you.":1792,"▁center\n":1793,"▁tasty":1794,"▁meal.":1795,"rite":1796,"▁adults.":1797,"▁well-":1798,"▁consumer":1799,"unch":1800,"▁unfriendly":1801,"▁dollars.\n":1802,"▁district":1803,"▁centrally":1804,"▁superb":1805,"▁alcohol":1806,"of5":1807,"eed":1808,"food":1809,"iz":1810,"ting":1811,"ved":1812,"▁fresh":1813,"▁auth":1814,"entic":1815,"entele":1816,"itive":1817,"▁family-":1818,"▁waterman\n":1819,"▁priced\n":1820,"▁att":1821,"▁names":1822,"▁res":1823,"▁cost.\n":1824,"▁20,":1825,"▁kids-friendly,":1826,"▁whose":1827,"▁cheese.\n":1828,"▁ord":1829,"▁join":1830,"▁special":1831,"▁acc":1832,"▁themed":1833,"▁distance":1834,"▁l30.\n":1835,"▁favo":1836,"▁permitt":1837,"▁authentic":1838,"ave":1839,"bp":1840,"mp":1841,"xim":1842,"▁cli":1843,"▁free":1844,"▁le":1845,"▁lunch":1846,"▁makes":1847,"▁gave":1848,"ors":1849,"▁cheaper":1850,"▁thats":1851,"▁called,":1852,"▁two\n":1853,"imed":1854,"▁tasting":1855,"vious":1856,"▁need":1857,"▁meal,":1858,"▁only\n":1859,"quality":1860,"▁receiving":1861,"▁suited":1862,"▁well.\n":1863,"▁pricing.":1864,"▁breakfast.\n":1865,"▁experience,":1866,"▁south":1867,"▁fries.":1868,"▁fries.\n":1869,"loc":1870,"▁relatively":1871,"▁favorite":1872,"gin":1873,"iet":1874,"uch":1875,"▁ed":1876,"▁fan":1877,"ames":1878,"▁it,":1879,"▁much":1880,"eep":1881,"▁rating:":1882,"verage":1883,"▁modest":1884,"▁stand":1885,"▁rated.":1886,"▁children\n":1887,"▁five.":1888,"▁sushi,":1889,"▁venue.":1890,"▁quiet":1891,"▁norm":1892,"-free":1893,"▁location,":1894,"▁buy":1895,"▁pricey,":1896,"▁previous":1897,"▁satisfaction.\n":1898,"▁available.\n":1899,"▁grub":1900,"▁includes":1901,"▁compet":1902,"▁seafood":1903,"▁premium":1904,"-s":1905,"ng":1906,"ning":1907,"pa":1908,"ure":1909,"▁thir":1910,"▁thames":1911,"▁feed":1912,"oduc":1913,"▁say":1914,"▁light":1915,"▁5of5":1916,"▁must":1917,"▁family's":1918,"▁more.\n":1919,"▁styled":1920,"▁greater":1921,"pper":1922,"▁clentele":1923,"▁plus":1924,"▁highly.\n":1925,"▁upper":1926,"▁eats":1927,"▁eat.\n":1928,"▁welcome.":1929,"▁dis":1930,"▁drink.\n":1931,"▁bus":1932,"▁breakfast.":1933,"▁25.\n":1934,"▁town.":1935,"▁group":1936,"',":1937,"cre":1938,"e,":1939,"ean":1940,"sive":1941,"▁tak":1942,"▁fond":1943,"▁sear":1944,"▁let":1945,"▁make":1946,"▁were":1947,"▁coffee.\n":1948,"ching":1949,"▁japanese\n":1950,"▁ste":1951,"▁chinese.":1952,"▁deal":1953,"▁children-friendly\n":1954,"▁children-friendly.":1955,"ways":1956,"▁list":1957,"arded":1958,"▁places":1959,"▁classic":1960,"▁entire":1961,"▁produc":1962,"▁holds":1963,"▁order":1964,"▁thirty":1965,"cy":1966,"hing":1967,"met":1968,"ps":1969,"pri":1970,"ual":1971,"▁tow":1972,"▁set":1973,"▁mind":1974,"▁out.\n":1975,"▁family-style":1976,"▁curry\n":1977,"▁tree\n":1978,"▁you.\n":1979,"▁always":1980,"▁such":1981,"▁site":1982,"▁eat,":1983,"▁adult-only":1984,"▁inexpensive.\n":1985,"▁falls":1986,"▁go.\n":1987,"▁oriented.\n":1988,"▁fare.":1989,"▁boasting":1990,"▁dollars":1991,"▁including":1992,"▁l20-25.\n":1993,"▁charges":1994,"▁banks":1995,"▁edge":1996,"▁fancy":1997,"ag":1998,"ired":1999,"orient":2000,"ux":2001,"▁fun":2002,"▁soup":2003,"▁bite":2004,"▁lux":2005,"▁inside":2006,"▁main":2007,"▁any":2008,"▁chain":2009,"▁coffee,":2010,"▁city\n":2011,"▁gra":2012,"▁gour":2013,"▁pub-style":2014,"▁italian.":2015,"▁house\n":2016,"▁fyne\n":2017,"▁why":2018,"▁plates":2019,"ible":2020,"▁red":2021,"▁only.":2022,"▁30,":2023,"▁we're":2024,"▁fall":2025,"▁welcome\n":2026,"▁adults-only":2027,"▁exclu":2028,"▁£20-£25,":2029,"▁drink.":2030,"▁side.":2031,"▁foods.":2032,"▁nearby.\n":2033,"▁town,":2034,"▁person.\n":2035,"▁mature":2036,"▁bracket.\n":2037,"▁somewhere":2038,"▁restrooms":2039,"▁permitted.\n":2040,"▁client":2041,"▁level":2042,"▁standard":2043,"▁searching":2044,"▁gourmet":2045,"▁exclusive":2046,"..":2047,"oe":2048,"rner":2049,"sing":2050,"up":2051,"▁z":2052,"▁amb":2053,"ery":2054,"review":2055,"▁few":2056,"▁sam":2057,"▁scale":2058,"▁corner":2059,"▁wal":2060,"ities":2061,"▁e20":2062,"▁stay":2063,"▁still":2064,"▁note":2065,"▁rather":2066,"▁blue\n":2067,"▁strada\n":2068,"▁punter\n":2069,"▁grove\n":2070,"▁young":2071,"ething":2072,"▁recent":2073,"▁can't":2074,"▁cost.":2075,"▁five,":2076,"▁us.\n":2077,"▁good,":2078,"▁kid-friendly.":2079,"▁higher-priced":2080,"▁medio":2081,"▁service.":2082,"▁ranges.\n":2083,"▁prepa":2084,"▁burgers,":2085,"▁items.\n":2086,"▁deliveries.\n":2087,"uced":2088,"▁something":2089,"▁averaging":2090,"▁averaged":2091,"▁regarded":2092,"▁facility":2093,"▁competitive":2094,"▁steps":2095,"▁reduced":2096,"▁mediocre":2097,"▁2":2098,"erri":2099,"▁cra":2100,"▁tag":2101,"▁terri":2102,"▁aimed":2103,"iness":2104,"eaway":2105,"▁lic":2106,"▁cook":2107,"▁war":2108,"ffer":2109,"▁chip":2110,"▁japanese.\n":2111,"▁french\n":2112,"umers":2113,"lax":2114,"▁english\n":2115,"▁all\n":2116,"▁place\n":2117,"▁kids\n":2118,"ensed":2119,"▁relax":2120,"▁20£":2121,"▁uns":2122,"▁sit-d":2123,"there":2124,"▁environment\n":2125,"▁eat.":2126,"▁welcomed":2127,"▁quality,":2128,"▁kids-friendly.":2129,"▁dining,":2130,"▁side,":2131,"▁reasonably-priced":2132,"▁know":2133,"▁'b":2134,"-average":2135,"▁budget.\n":2136,"▁high-cost":2137,"▁option.\n":2138,"▁okay":2139,"▁takeaway":2140,"▁towards":2141,"▁zone":2142,"reviewed":2143,"▁prepared":2144,"▁licensed":2145,"▁sit-down":2146,"'oe":2147,"-out":2148,"aint":2149,"cri":2150,"ege":2151,"lf":2152,"ties":2153,"uv":2154,"£20":2155,"▁ate":2156,"eres":2157,"▁imp":2158,"▁theres":2159,"▁ass":2160,"esome":2161,"▁pur":2162,"ides":2163,"▁hors":2164,"▁sur":2165,"▁bloc":2166,"▁loves":2167,"▁coll":2168,"▁coup":2169,"▁my":2170,"▁won't":2171,"▁coffee.":2172,"▁shops":2173,"▁highest":2174,"▁gbp":2175,"ount":2176,"▁averages":2177,"ory":2178,"level":2179,"▁3.\n":2180,"self":2181,"▁rage":2182,"▁to.\n":2183,"▁day":2184,"▁d'oe":2185,"tter":2186,"▁better":2187,"▁provided":2188,"▁cotto\n":2189,"▁sorry":2190,"▁gives":2191,"▁rep":2192,"▁only,":2193,"▁welcoming":2194,"▁door":2195,"▁quality.\n":2196,"▁20-25,":2197,"▁going":2198,"▁altern":2199,"▁£20-£25\n":2200,"▁end,":2201,"▁bread":2202,"ade":2203,"▁pasta.":2204,"▁pricey.\n":2205,"▁setting,":2206,"▁oriented,":2207,"▁option.":2208,"▁scored":2209,"▁highly-rated,":2210,"▁point.\n":2211,"▁aware":2212,"▁awesome":2213,"▁into":2214,"▁everyone":2215,"▁riverfront,":2216,"▁family-orient":2217,"-ser":2218,"▁products":2219,"▁grab":2220,"▁recently":2221,"▁terrible":2222,"▁block":2223,"▁college":2224,"▁d'oeuv":2225,"e.\n":2226,"ging":2227,"hat":2228,"sp":2229,"▁cam":2230,"▁tr":2231,"▁tend":2232,"▁thing":2233,"enities":2234,"ining":2235,"es,":2236,"es.\n":2237,"▁pri":2238,"▁sco":2239,"▁bill":2240,"▁french-style":2241,"▁cambridge's":2242,"▁chines":2243,"▁chinese,":2244,"ownt":2245,"▁eagle\n":2246,"▁downt":2247,"▁phoenix\n":2248,"▁proxim":2249,"▁vaults\n":2250,"▁zizzi\n":2251,"▁zizzi's":2252,"▁but,":2253,"▁neigh":2254,"▁use":2255,"▁good.\n":2256,"▁eat-in":2257,"▁eatery.":2258,"▁wine.":2259,"▁affordable.\n":2260,"▁20-25\n":2261,"▁yourself":2262,"▁diner":2263,"▁menu,":2264,"▁however.\n":2265,"▁visit.\n":2266,"▁enjoy.":2267,"▁amenities":2268,"▁drinks.":2269,"▁recommended.\n":2270,"▁reasonable.\n":2271,"▁pricing,":2272,"▁mid-priced,":2273,"▁fine-d":2274,"▁non-family-friendly,":2275,"▁views":2276,"▁mid-level":2277,"▁joint.\n":2278,"▁wines,":2279,"ains":2280,"▁low-rated,":2281,"▁catering":2282,"▁dollars.":2283,"▁appet":2284,"▁selections":2285,"▁allowed.":2286,"▁seeking":2287,"▁market":2288,"▁margin":2289,"▁match":2290,"▁somewhat":2291,"▁normal":2292,"▁deals":2293,"priate":2294,"▁alternative":2295,"▁scoring":2296,"▁downtown":2297,"▁proximity":2298,"▁fine-dining":2299,"ct":2300,"ely":2301,"gg":2302,"hn":2303,"iring":2304,"nic":2305,"ses":2306,"sual":2307,"▁es":2308,"▁tim":2309,"ating":2310,"▁fo":2311,"▁fee":2312,"stert":2313,"ince":2314,"▁is,":2315,"▁pat":2316,"▁pic":2317,"▁prin":2318,"▁sold":2319,"▁since":2320,"▁food;":2321,"▁made":2322,"▁wor":2323,"▁near,":2324,"▁hight":2325,"▁high-price":2326,"▁casual":2327,"ary":2328,"cep":2329,"▁3-5":2330,"▁ext":2331,"▁noodles":2332,"▁star\n":2333,"▁highly-priced":2334,"ealth":2335,"▁great,":2336,"▁polic":2337,"▁welcomed.\n":2338,"▁£20.00":2339,"▁northern":2340,"▁willing":2341,"▁rate.\n":2342,"▁goes":2343,"▁service\n":2344,"▁differ":2345,"▁exceed":2346,"▁chestert":2347,"commod":2348,"tional":2349,"▁upw":2350,"acies":2351,"▁dishes.":2352,"▁moderately-priced,":2353,"▁john":2354,"▁poorly-rated":2355,"▁delicacies":2356,"unning":2357,"▁accep":2358,"▁accommod":2359,"▁view.\n":2360,"▁uni":2361,"▁winery":2362,"▁5-star,":2363,"▁high-quality":2364,"▁cheeses.":2365,"▁cheeses.\n":2366,"▁pleas":2367,"▁home.\n":2368,"look":2369,"▁money.\n":2370,"▁fruit,":2371,"▁appropriate":2372,"▁ages.\n":2373,"▁facilities":2374,"▁snacks":2375,"ertain":2376,"▁business":2377,"▁fondue":2378,"▁warm":2379,"▁assort":2380,"▁couples":2381,"▁prince":2382,"▁policy":2383,"▁different":2384,"▁chesterton":2385,"▁john's":2386,"'s.\n":2387,"be":2388,"bly":2389,"bed":2390,"back":2391,"fin":2392,"ied":2393,"po":2394,"pect":2395,"ptional":2396,"que":2397,"sy":2398,"ud":2399,"ug":2400,"val":2401,"▁tap":2402,"▁fish":2403,"amous":2404,"▁health":2405,"▁5;":2406,"▁loved":2407,"▁min":2408,"▁mood":2409,"▁wron":2410,"▁wall":2411,"▁happ":2412,"rons":2413,"alimentum":2414,"▁japanese.":2415,"▁keep":2416,"▁e30":2417,"▁egg":2418,"▁st.":2419,"▁stunning":2420,"-25.\n":2421,"▁waterfront":2422,"▁play":2423,"▁rated\n":2424,"▁eagle'":2425,"▁wrestlers'":2426,"▁twenty-f":2427,"▁pairing":2428,"▁palace\n":2429,"▁aromi\n":2430,"▁adja":2431,"▁supp":2432,"▁20\n":2433,"▁quaint":2434,"▁review,":2435,"▁higher-":2436,"▁high-priced.\n":2437,"▁welcome,":2438,"▁adults,":2439,"▁defin":2440,"▁exceptional":2441,"▁location.":2442,"▁kids-friendly\n":2443,"▁excellent,":2444,"▁take-out":2445,"▁amount":2446,"▁reviews\n":2447,"▁£25\n":2448,"itely":2449,"▁foods,":2450,"▁soft":2451,"▁dine-in":2452,"▁chop":2453,"▁decently":2454,"ained":2455,"▁choice.\n":2456,"▁head.\n":2457,"▁descri":2458,"▁include":2459,"▁heard":2460,"▁unfortunately,":2461,"uitable":2462,"▁options.":2463,"▁options.\n":2464,"▁hamburger":2465,"▁said":2466,"▁alcohol.":2467,"▁attra":2468,"▁specialty":2469,"▁feedback":2470,"▁same":2471,"▁craving":2472,"▁unsuitable":2473,"spired":2474,"▁appetiz":2475,"▁feel":2476,"▁patrons":2477,"▁wrong":2478,"▁twenty-five":2479,"▁adjacent":2480,"▁definitely":2481,"-range":2482,"ding":2483,"gain":2484,"gbp":2485,"iss":2486,"lb":2487,"round":2488,"tory":2489,"uri":2490,"wit":2491,"y.\n":2492,"erts":2493,"▁tea":2494,"reat":2495,"▁opp":2496,"▁pos":2497,"vers":2498,"▁his":2499,"▁bist":2500,"liar":2501,"▁lot":2502,"▁cool":2503,"▁cond":2504,"▁mom":2505,"▁mee":2506,"▁mean":2507,"ury":2508,"utation":2509,"ents":2510,"▁£3":2511,"▁yes.\n":2512,"▁rating;":2513,"▁pup":2514,"▁customer.\n":2515,"▁located.":2516,"▁moderated":2517,"▁french.\n":2518,"ers.\n":2519,"▁indian,":2520,"▁indian.":2521,"▁range;":2522,"▁kind":2523,"▁more,":2524,"▁more.":2525,"▁by.\n":2526,"▁stree":2527,"erest":2528,"▁fitzbillies\n":2529,"▁date":2530,"ulous":2531,"▁spice\n":2532,"▁begin":2533,"▁mill\n":2534,"▁plu":2535,"▁expensive\n":2536,"▁ref":2537,"▁beefeater\n":2538,"▁uk":2539,"▁atmosphere\n":2540,"▁£30.00":2541,"▁pounds\n":2542,"▁quality.":2543,"▁alongside":2544,"▁overlook":2545,"▁getting":2546,"▁visiting":2547,"▁dining.":2548,"▁although,":2549,"▁£25,":2550,"▁fair-priced":2551,"▁dishes,":2552,"▁breakfasts":2553,"▁moderately-priced.\n":2554,"▁consumers":2555,"▁'co":2556,"▁starts":2557,"▁friend,":2558,"▁friends,":2559,"▁choose":2560,"▁fries,":2561,"▁one-star,":2562,"▁coming":2563,"iance":2564,"▁services.\n":2565,"▁spirits.\n":2566,"▁spirits,":2567,"ucive":2568,"▁entries":2569,"▁space":2570,"▁beverage":2571,"▁mostly":2572,"▁interest":2573,"▁mark":2574,"▁approval":2575,"▁regular":2576,"▁freshly":2577,"▁access":2578,"▁normally":2579,"▁thames,":2580,"▁busy":2581,"▁luxury":2582,"▁ambiance":2583,"▁walking":2584,"▁staying":2585,"▁purch":2586,"▁reputation":2587,"-serving":2588,"▁upwards":2589,"pected":2590,"▁healthy":2591,"▁wallet":2592,"▁described":2593,"▁bistro":2594,"▁conducive":2595,"▁street":2596,"-rating":2597,"ase":2598,"bs":2599,"ck":2600,"hap":2601,"low":2602,"mely":2603,"near":2604,"ost":2605,"ple":2606,"vid":2607,"erling":2608,"▁tod":2609,"▁treat":2610,"▁i'":2611,"▁thin":2612,"remely":2613,"▁fab":2614,"inity":2615,"ination":2616,"▁sim":2617,"▁la":2618,"▁lack":2619,"▁inspired":2620,"▁rivers":2621,"▁lots":2622,"▁cont":2623,"▁me":2624,"▁mil":2625,"▁anot":2626,"▁show":2627,"▁yes.":2628,"▁locates":2629,"▁centre's":2630,"▁gue":2631,"▁price-range":2632,"▁fast,":2633,"▁french.":2634,"ording":2635,"▁indian\n":2636,"▁indian.\n":2637,"laimed":2638,"▁less.":2639,"▁english-style":2640,"▁ever":2641,"▁child-free":2642,"▁sterling":2643,"▁chinese\n":2644,"▁chinese.\n":2645,"▁bargain":2646,"▁waterman'":2647,"▁there.":2648,"▁easy":2649,"▁rave":2650,"▁alimentum\n":2651,"icinity":2652,"▁dess":2653,"▁vicinity":2654,"▁children's":2655,"▁sport":2656,"▁highly-":2657,"▁rating,\n":2658,"▁sitting":2659,"▁families\n":2660,"osite":2661,"▁try.":2662,"▁affordably":2663,"▁low-priced.":2664,"▁over.\n":2665,"▁delivery":2666,"▁above-average":2667,"▁well-rated":2668,"▁enjoy.\n":2669,"▁perhap":2670,"▁river,there":2671,"▁cheese.":2672,"▁fast-food,":2673,"▁build":2674,"▁europ":2675,"▁euro's.\n":2676,"▁euros\n":2677,"▁'alimentum":2678,"▁fare,":2679,"respected":2680,"▁satisfactory":2681,"▁views,":2682,"▁joint,":2683,"▁low-rating":2684,"▁specialises":2685,"▁scen":2686,"▁belug":2687,"▁liked":2688,"▁too.":2689,"▁score.\n":2690,"▁point.":2691,"▁spending":2692,"▁here.\n":2693,"▁entertain":2694,"▁park":2695,"▁please.\n":2696,"▁non-kids":2697,"▁usual":2698,"▁charging":2699,"▁person,":2700,"▁spaghetti.\n":2701,"▁approxim":2702,"▁central":2703,"▁saf":2704,"▁well-respected":2705,"▁district.":2706,"▁according":2707,"located":2708,"▁let's":2709,"▁luxuri":2710,"▁20£.\n":2711,"▁zone.\n":2712,"▁time":2713,"▁picnic":2714,"▁extremely":2715,"▁pleasant":2716,"▁tapas":2717,"▁e30.\n":2718,"▁eggs":2719,"▁attrac":2720,"with":2721,"▁opposite":2722,"▁positive":2723,"▁means":2724,"▁accessible":2725,"▁today":2726,"▁fabulous":2727,"▁another":2728,"▁guest":2729,"▁perhaps":2730,"▁'alimentum'":2731,"▁beluga":2732,"▁approximately":2733,".5":2734,"average":2735,"ber":2736,"bor":2737,"con":2738,"cus":2739,"ek":2740,"fer":2741,"fic":2742,"gge":2743,"hood":2744,"ie":2745,"ier":2746,"ise":2747,"less":2748,"ming":2749,"▁:":2750,"ans":2751,"▁cant":2752,"▁fry":2753,"▁famous":2754,"stination":2755,"▁ach":2756,"▁old":2757,"es.":2758,"ing.\n":2759,"eared":2760,"▁put":2761,"▁pick":2762,"omic":2763,"▁sod":2764,"▁sing":2765,"▁beat":2766,"▁bab":2767,"▁mix":2768,"▁miss":2769,"▁out,":2770,"▁shopp":2771,"▁shop's":2772,"ither":2773,"▁customer's":2774,"▁customer-rating":2775,"▁gla":2776,"▁geared":2777,"llo":2778,"appo":2779,"▁japaneses":2780,"▁individ":2781,"▁board":2782,"▁1-5":2783,"▁english.\n":2784,"▁equ":2785,"▁econ":2786,"▁childless":2787,"▁there,":2788,"▁to,":2789,"▁wrestlers\n":2790,"▁greek":2791,"▁cotton":2792,"▁crowd":2793,"▁wildwood\n":2794,"▁man\n":2795,"▁pass":2796,"▁addition":2797,"▁you,":2798,"▁plate":2799,"▁clowns\n":2800,"▁cricketers\n":2801,"▁rem":2802,"▁sugge":2803,"▁cost\n":2804,"▁nest":2805,"▁sushi\n":2806,"▁also,":2807,"▁eats.\n":2808,"▁try.\n":2809,"▁poss":2810,"▁review.":2811,"▁20-25l":2812,"▁destination":2813,"▁go.":2814,"▁delight":2815,"▁above.\n":2816,"▁well.":2817,"▁drinking":2818,"▁end.\n":2819,"▁breakfast,":2820,"▁orientated":2821,"▁feature":2822,"▁ranges.":2823,"▁wanting":2824,"▁'ca":2825,"▁soon":2826,"▁pricey.":2827,"▁prefer":2828,"▁act":2829,"▁mid-cost":2830,"▁dine.\n":2831,"▁budget,":2832,"▁specialising":2833,"▁items.":2834,"▁choice.":2835,"▁point,":2836,"▁amazing.\n":2837,"▁upscale,":2838,"▁spirits.":2839,"▁classy":2840,"▁favor":2841,"▁overall,":2842,"▁hamburgers,":2843,"▁alcoholic":2844,"▁high-rated,":2845,"▁dinner.\n":2846,"▁beverages.\n":2847,"▁premis":2848,"▁hello":2849,"▁snacks,":2850,"▁well-reviewed":2851,"▁district.\n":2852,"▁alcohol.\n":2853,"▁resides":2854,"▁acclaimed":2855,"▁permitted":2856,"▁favorite.\n":2857,"▁disappo":2858,"▁groups":2859,"▁groups.\n":2860,"▁anyone":2861,"▁ambient":2862,"▁walk":2863,"▁cooks":2864,"▁family-oriented":2865,"▁family-oriented.\n":2866,"▁d'oeuvre":2867,"▁d'oeuvres":2868,"▁neighbor":2869,"ctive":2870,"▁focus":2871,"▁accept":2872,"▁assorted":2873,"▁pairings":2874,"▁moment":2875,"▁meet":2876,"▁interested":2877,"▁purchase":2878,"▁think":2879,"▁european":2880,"▁achie":2881,"▁glass":2882,"▁individual":2883,"▁economic":2884,"▁suggest":2885,"▁'café":2886,"▁disappoint":2887,"-side":2888,"-cent":2889,"-quality":2890,"5.\n":2891,"ey":2892,"ees":2893,"gry":2894,"ig":2895,"med":2896,"oon":2897,"peci":2898,"rd":2899,"ten":2900,"vice":2901,"£30":2902,"▁ric":2903,"▁-25":2904,"er,":2905,"ried":2906,"any":2907,"▁cut":2908,"▁te":2909,"▁tri":2910,"ather":2911,"enn":2912,"▁fla":2913,"▁ob":2914,"▁penn":2915,"▁hun":2916,"▁bear":2917,"▁back":2918,"▁native":2919,"amiliar":2920,"▁often":2921,"▁river's":2922,"priced":2923,"▁ma":2924,"▁mere":2925,"▁went":2926,"hop":2927,"hool":2928,"ently":2929,"ention":2930,"▁£1":2931,"▁coffee-s":2932,"▁run":2933,"▁and\n":2934,"▁city's":2935,"▁city-cent":2936,"▁car":2937,"▁care":2938,"its":2939,"iting":2940,"itud":2941,"▁customer-rated":2942,"▁located\n":2943,"▁gast":2944,"▁gather":2945,"▁hard":2946,"rop":2947,"▁low-pric":2948,"▁modern":2949,"▁indiana":2950,"▁range:":2951,"▁cheap-priced":2952,"▁english.":2953,"ray":2954,"▁either":2955,"▁steep":2956,"rown":2957,"▁array":2958,"▁form":2959,"▁all,":2960,"▁all.\n":2961,"ised":2962,"▁did":2963,"▁vary":2964,"▁children-free":2965,"▁spect":2966,"▁prof":2967,"▁beans":2968,"▁starred":2969,"▁cocum\n":2970,"▁sicilian":2971,"▁whit":2972,"▁moderately.\n":2973,"▁aromis":2974,"▁giving":2975,"▁you\n":2976,"▁highly.":2977,"▁food,\n":2978,"▁friendly,\n":2979,"▁centre,\n":2980,"▁costumers":2981,"than":2982,"▁30\n":2983,"quisit":2984,"-styled":2985,"▁receive":2986,"▁adult-":2987,"▁adult-friendly":2988,"▁northwe":2989,"▁family-friendly,\n":2990,"▁eatery\n":2991,"▁style,":2992,"▁affordable.":2993,"▁overpriced":2994,"▁poor.\n":2995,"▁rate.":2996,"▁exquisit":2997,"▁diners":2998,"▁excellently":2999,"▁served.\n":3000,"▁visit.":3001,"▁visited":3002,"▁well-priced":3003,"▁enjoying":3004,"▁enjoyed":3005,"▁types":3006,"▁recommended,":3007,"▁opin":3008,"▁pricing\n":3009,"▁fast-food.":3010,"▁featured":3011,"▁euro.\n":3012,"▁'c":3013,"▁pasta,":3014,"▁finest":3015,"▁friend-family":3016,"▁view,":3017,"▁burgers.\n":3018,"▁fries\n":3019,"▁various":3020,"▁joint.":3021,"▁low-quality":3022,"▁school":3023,"▁l20,":3024,"▁l20.":3025,"▁high-rating":3026,"▁deliveries.":3027,"▁middle-priced":3028,"▁desired":3029,"▁three-star,":3030,"▁non-child-friendly":3031,"▁paying":3032,"▁catered":3033,"▁theme":3034,"▁maybe":3035,"▁specialized":3036,"▁l30,":3037,"lete":3038,"▁company":3039,"▁complete":3040,"▁money,":3041,"▁leaves":3042,"▁charge":3043,"▁fruits":3044,"▁fruit.\n":3045,"▁amongst":3046,"▁average-rated,":3047,"▁bracket.":3048,"reshment":3049,"▁snacks.\n":3050,"▁luton.\n":3051,"▁attitud":3052,"▁needs":3053,"▁needs.\n":3054,"▁mainly":3055,"singly":3056,"▁tag.\n":3057,"▁chips":3058,"▁high-cost,":3059,"▁impress":3060,"▁surpri":3061,"▁surround":3062,"▁gbp.\n":3063,"▁tends":3064,"▁neighbo":3065,"▁especi":3066,"▁accommodate":3067,"▁unique":3068,"▁univers":3069,"▁supplies":3070,"▁feedback.\n":3071,"▁appetizers":3072,"▁wrong.\n":3073,"gbp.\n":3074,"▁£35":3075,"▁plus.\n":3076,"▁refreshment":3077,"▁overlooking":3078,"▁'cocum":3079,"▁desserts":3080,"▁entertainment":3081,"▁luxurious":3082,"▁mixed":3083,"▁shopping":3084,"▁equally":3085,"▁hungry":3086,"▁coffee-shop":3087,"▁northwest":3088,"▁exquisite":3089,"▁surrounding":3090,"▁especially":3091,"▁university":3092,"-c":3093,"-e":3094,"0.":3095,"ale":3096,"bank":3097,"cap":3098,"e.":3099,"equ":3100,"hib":3101,"has":3102,"ily":3103,"kn":3104,"mb":3105,"o.\n":3106,"ont":3107,"pro":3108,"rum":3109,"tu":3110,"teri":3111,"tained":3112,"udi":3113,"y,":3114,"erate":3115,"rity":3116,"rimp":3117,"▁cre":3118,"▁tou":3119,"ations":3120,"▁fin":3121,"▁the,":3122,"▁audi":3123,"eak":3124,"▁pea":3125,"▁pra":3126,"▁pres":3127,"▁piz":3128,"endy":3129,"▁hel":3130,"▁hist":3131,"▁host":3132,"▁sort":3133,"▁sens":3134,"▁siz":3135,"▁bough":3136,"▁num":3137,"▁late":3138,"▁lar":3139,"▁in,":3140,"▁ind":3141,"▁inf":3142,"▁rive":3143,"▁river-side":3144,"▁riverbank":3145,"▁riverside;":3146,"▁it.":3147,"▁mer":3148,"▁mak":3149,"▁way":3150,"▁wish":3151,"▁wont":3152,"▁ans":3153,"▁cheat":3154,"▁cheep":3155,"▁shot":3156,"▁shops.\n":3157,"▁rd":3158,"▁ru":3159,"▁rant":3160,"▁and,":3161,"ilet":3162,"▁cal":3163,"▁friendly:":3164,"ited.\n":3165,"▁customer.":3166,"▁located,":3167,"▁gu":3168,"▁gri":3169,"▁grown":3170,"▁£20;":3171,"▁pubs":3172,"oud":3173,"ous.\n":3174,"▁caféteri":3175,"▁average-":3176,"▁price's":3177,"▁italian-style":3178,"▁indian-serving":3179,"ark":3180,"▁less.\n":3181,"▁boat'":3182,"▁3out":3183,"▁3of5":3184,"▁pricier":3185,"▁1.\n":3186,"▁1out":3187,"▁ev":3188,"▁emer":3189,"▁that,":3190,"▁cambridge;":3191,"▁stat":3192,"▁kid-free":3193,"▁for.":3194,"▁forget":3195,"▁rough":3196,"▁at.\n":3197,"▁eagles":3198,"▁toilet":3199,"▁all-":3200,"▁dear":3201,"▁drop":3202,"▁strada;":3203,"▁prohib":3204,"▁becom":3205,"▁provider":3206,"▁king;":3207,"▁vaults'":3208,"▁cup":3209,"▁moderately-rated":3210,"▁palace;":3211,"▁adequ":3212,"▁giraffe\n":3213,"▁sub":3214,"▁closest":3215,"▁traveling":3216,"▁non-f":3217,"▁good\n":3218,"▁goods":3219,"thing":3220,"▁great.\n":3221,"▁30lb":3222,"▁eaten":3223,"▁adult,":3224,"▁meals\n":3225,"▁meals,":3226,"▁costs.":3227,"▁20-25£":3228,"▁adults\n":3229,"▁go,":3230,"▁exc":3231,"▁british-style":3232,"▁dire":3233,"▁location\n":3234,"▁served.":3235,"▁takeout":3236,"▁,\n":3237,"▁enjoys":3238,"▁fair,":3239,"▁fast-food.\n":3240,"▁experience.":3241,"▁ranges,":3242,"▁pastas":3243,"▁25.":3244,"▁though,":3245,"▁best.\n":3246,"▁'ra":3247,"▁averagely.\n":3248,"▁setting\n":3249,"unfriendly":3250,"▁friends.":3251,"▁satisfaction.":3252,"▁available.":3253,"▁dine.":3254,"▁burgers\n":3255,"▁oriented.":3256,"ranged":3257,"▁fairly-priced":3258,"▁besides":3259,"▁combo":3260,"▁comfort":3261,"▁option,":3262,"▁based,":3263,"▁new,":3264,"▁rank\n":3265,"▁ranking":3266,"▁wines.\n":3267,"▁perfectly":3268,"▁3-star,":3269,"▁head,":3270,"▁cheaply-priced":3271,"▁five-star,":3272,"▁popular,":3273,"▁dollars,":3274,"▁road.\n":3275,"▁here,":3276,"▁services.":3277,"▁ideally":3278,"▁select":3279,"▁allowed\n":3280,"▁entre":3281,"▁20.00":3282,"▁l30.":3283,"loch":3284,"usa":3285,"▁l20-25.":3286,"▁charming":3287,"▁general":3288,"▁person.":3289,"▁quickly":3290,"▁shrimp":3291,"▁friends\n":3292,"▁fruits,":3293,"▁approved":3294,"▁low-price,":3295,"▁region":3296,"▁fact":3297,"▁hamburgers.":3298,"▁proud":3299,"▁ages,":3300,"▁sale":3301,"▁sausa":3302,"▁reviewed,":3303,"▁parties":3304,"▁restrooms.\n":3305,"▁well-re":3306,"▁well-kn":3307,"▁unfriendly,":3308,"▁district,":3309,"▁attention":3310,"▁leg":3311,"▁lunch,":3312,"▁modestly":3313,"▁thames.\n":3314,"▁says":3315,"▁clentele\n":3316,"▁disc":3317,"▁taking":3318,"▁ordered":3319,"▁soup,":3320,"▁falling":3321,"▁clients":3322,"....":3323,"▁sample":3324,"▁e20-25.\n":3325,"▁e20-e":3326,"▁facility,":3327,"▁cooked":3328,"▁chips.\n":3329,"▁relaxed":3330,"▁'blue":3331,"▁'bibimbap":3332,"£20-25.\n":3333,"▁sorry,":3334,"▁report":3335,"▁bread.\n":3336,"-service":3337,"▁blocks":3338,"▁prim":3339,"▁amenities\n":3340,"▁noodles.\n":3341,"▁exceeding":3342,"▁accepts":3343,"▁assortment":3344,"▁minors":3345,"▁happen":3346,"▁waterfront,":3347,"▁amount.\n":3348,"▁tea.\n":3349,"▁regularly":3350,"▁reputation.":3351,"▁lacks":3352,"▁miles":3353,"▁sterling.\n":3354,"▁sports":3355,"▁scenic":3356,"▁safe":3357,"▁attracts":3358,"▁older":3359,"▁soda":3360,"▁baby":3361,"▁nestled":3362,"▁possible":3363,"▁favorable":3364,"▁focused":3365,"▁tell":3366,"▁trip":3367,"▁obtained":3368,"▁penny.\n":3369,"▁city-centre":3370,"▁gastro":3371,"▁low-prices":3372,"▁either.\n":3373,"than-average":3374,"▁school.\n":3375,"▁impressive":3376,"▁'cocum'":3377,"▁audience":3378,"▁praised":3379,"▁pizza":3380,"▁hosts":3381,"▁bought":3382,"▁number":3383,"▁making":3384,"▁caféteria":3385,"▁prohibited.\n":3386,"▁non-familiar":3387,"▁well-known":3388,"▁e20-e25":3389,"'.":3390,"'ve":3391,"-p":3392,"-reviewed":3393,"50":3394,"ared":3395,"ci":3396,"car":3397,"cable":3398,"dy":3399,"ded":3400,"ds.\n":3401,"eur":3402,"family":3403,"fit":3404,"fied":3405,"gan":3406,"got":3407,"gative":3408,"ground":3409,"high":3410,"hroom":3411,"ires":3412,"l.\n":3413,"min":3414,"oric":3415,"oid":3416,"ran":3417,"ser":3418,"sion":3419,"tly":3420,"ters":3421,"where":3422,"welcom":3423,"yor":3424,"zy":3425,"£.\n":3426,"▁\n":3427,"▁6":3428,"▁;":3429,"er.":3430,"erran":3431,"rist":3432,"rive":3433,"andi":3434,"▁cate":3435,"▁cele":3436,"▁certain":3437,"▁tab":3438,"athroom":3439,"atters":3440,"▁ice":3441,"enc":3442,"enance":3443,"▁front":3444,"▁fried":3445,"▁ah":3446,"▁abs":3447,"inary":3448,"▁ow":3449,"▁ore":3450,"▁oth":3451,"ing,":3452,"east":3453,"▁prest":3454,"rate":3455,"ended":3456,"omi":3457,"omant":3458,"ided":3459,"ustenance":3460,"▁her":3461,"▁hop":3462,"▁handi":3463,"▁sol":3464,"▁sad":3465,"▁sca":3466,"▁sustenance":3467,"▁big":3468,"▁bathroom":3469,"▁land":3470,"▁liv":3471,"▁inc":3472,"▁inv":3473,"▁in.\n":3474,"▁incre":3475,"lit":3476,"▁5out":3477,"▁5-5":3478,"▁riverside-":3479,"▁core":3480,"▁cour":3481,"▁coast":3482,"▁cous":3483,"▁food:":3484,"▁mile":3485,"▁maint":3486,"utely":3487,"eemed":3488,"ents,":3489,"▁ant":3490,"ffers":3491,"eaters":3492,"▁£,":3493,"▁coffees":3494,"▁coffee\n":3495,"▁romant":3496,"▁restaurant's":3497,"▁locale":3498,"ilst":3499,"ilar":3500,"▁centre;":3501,"▁friendly;":3502,"ited":3503,"iterran":3504,"▁customer\n":3505,"▁gains":3506,"▁gained":3507,"veyor":3508,"veral":3509,"▁lowest":3510,"▁japanese-style":3511,"olutely":3512,"▁india":3513,"▁witch":3514,"arant":3515,"aromi":3516,"lain":3517,"▁cheapest":3518,"▁3\n":3519,"ored":3520,"▁et":3521,"▁effe":3522,"▁eth":3523,"▁child-":3524,"▁sty":3525,"▁stro":3526,"▁steak":3527,"▁note,":3528,"▁£20-25;":3529,"▁watermans":3530,"▁waterman's":3531,"▁for,":3532,"▁for.\n":3533,"▁fitzbillies'":3534,"▁fitzbillies;":3535,"▁raving":3536,"▁eagle;":3537,"▁eagle's":3538,"▁to.":3539,"▁alik":3540,"icated":3541,"▁deemed":3542,"▁houses":3543,"▁strada's":3544,"▁fyne'":3545,"▁are,":3546,"▁be,":3547,"▁be.":3548,"▁be.\n":3549,"pping":3550,"ively":3551,"tto'":3552,"▁zizzi;":3553,"▁zizzis":3554,"▁serving,":3555,"▁whet":3556,"▁whilst":3557,"▁cuisin":3558,"▁pal":3559,"▁moderately,":3560,"▁palace's":3561,"▁bakers;":3562,"▁mills":3563,"▁its'":3564,"▁platters":3565,"▁highly,":3566,"imum":3567,"▁named,":3568,"▁food,and":3569,"ibly":3570,"▁riverside,\n":3571,"▁tastes":3572,"-priced,":3573,"▁costs.\n":3574,"▁sec":3575,"▁several":3576,"▁avoid":3577,"▁negative":3578,"▁offerings":3579,"▁beefeaters":3580,"▁area,the":3581,"▁also.\n":3582,"▁non-friendly":3583,"▁good.":3584,"▁establishment\n":3585,"▁familiar":3586,"▁great.":3587,"▁greatly":3588,"▁pound.\n":3589,"▁as,":3590,"▁30gbp.\n":3591,"▁eat\n":3592,"here\n":3593,"▁quid":3594,"▁quali":3595,"▁finding":3596,"▁inexpensive.":3597,"▁inexpensively":3598,"▁mediterran":3599,"▁wine\n":3600,"▁over,":3601,"▁over-":3602,"▁rate,":3603,"▁go\n":3604,"▁exist":3605,"▁under.\n":3606,"-rate":3607,"▁who's":3608,"▁recommend.\n":3609,"▁£30,\n":3610,"▁above,":3611,"▁then£20":3612,"▁well,":3613,"▁enjoyable":3614,"▁you've":3615,"▁drinks,":3616,"▁operate":3617,"▁dish.\n":3618,"▁-£25":3619,"▁around,":3620,"ously":3621,"▁name,":3622,"▁ranch,\n":3623,"erior":3624,"▁buck":3625,"▁breakfasts.\n":3626,"▁.the":3627,"▁foods\n":3628,"▁euro.":3629,"▁euro's":3630,"▁nice,":3631,"▁25,":3632,"▁poorly.\n":3633,"▁consist":3634,"▁'average":3635,"▁'loch":3636,"▁'aromi":3637,"▁satisfied":3638,"▁specific":3639,"resque":3640,"unity":3641,"▁brings":3642,"▁bringing":3643,"▁view.":3644,"▁views.\n":3645,"▁available,":3646,"▁mid-ranged":3647,"▁burgers.":3648,"▁choices":3649,"▁take-away\n":3650,"▁varied":3651,"▁one-starred":3652,"▁scener":3653,"▁wouldn't":3654,"▁comm":3655,"they":3656,"▁basic":3657,"▁love.\n":3658,"▁variety,":3659,"▁mid-range,":3660,"▁mid-range.":3661,"▁about.\n":3662,"▁wines.":3663,"aining":3664,"▁middling":3665,"▁head\n":3666,"children":3667,"▁likely":3668,"▁deserts":3669,"▁popular.\n":3670,"▁them.":3671,"▁expected":3672,"▁fusion":3673,"▁earning":3674,"▁badly":3675,"▁full-service":3676,"▁services,":3677,"▁home,":3678,"lect":3679,"▁away.\n":3680,"icks":3681,"▁grap":3682,"▁hearty":3683,"▁allowed,":3684,"▁enter":3685,"▁parents":3686,"▁top-rated":3687,"▁options,":3688,"▁compared":3689,"▁least":3690,"▁generated":3691,"▁favored":3692,"▁person\n":3693,"▁awful":3694,"▁awarded":3695,"▁seek":3696,"▁seems":3697,"▁store,":3698,"▁superior":3699,"▁overall.\n":3700,"ernoon":3701,"▁intended":3702,"▁afternoon":3703,"▁£25.00":3704,"▁pram":3705,"▁bank.":3706,"▁beverages,":3707,"▁partner":3708,"▁snacks.":3709,"▁nowhere\n":3710,"▁unfriendly.\n":3711,"▁result":3712,"▁orders":3713,"▁clientele":3714,"▁lunches":3715,"▁grub,":3716,"▁competit":3717,"pass":3718,"▁discri":3719,"▁groups.":3720,"▁lets":3721,"▁produces":3722,"▁minded":3723,"▁edge.\n":3724,"oriented":3725,"▁soups":3726,"▁soup.\n":3727,"▁anything":3728,"▁anywhere":3729,"▁level.\n":3730,"▁exclusively":3731,"▁competitively":3732,"▁23":3733,"▁chips,":3734,"▁'browns":3735,"▁impro":3736,"▁purveyor":3737,"▁rage,":3738,"▁day.\n":3739,"▁breads":3740,"▁everyone.\n":3741,"▁college.\n":3742,"▁trendy":3743,"▁things":3744,"▁use,":3745,"▁yourself.\n":3746,"▁market.":3747,"▁match.\n":3748,"▁downtown.\n":3749,"▁escar":3750,"▁pictu":3751,"▁work":3752,"▁casual,":3753,"▁3-5.\n":3754,"▁extra":3755,"▁£20.00\n":3756,"▁winery.\n":3757,"▁pleased":3758,"▁couples.\n":3759,"▁fish.\n":3760,"▁minimum":3761,"▁happy":3762,"▁playground":3763,"▁support":3764,"▁higher-end":3765,"▁higher-cost":3766,"▁higher-than-average":3767,"▁appetizers.\n":3768,"▁patrons.\n":3769,"▁kinds":3770,"▁beginning":3771,"▁£30.00.\n":3772,"▁overlooks":3773,"▁'cotto'":3774,"▁entries.\n":3775,"▁i'm":3776,"▁similar":3777,"▁laid":3778,"▁contains":3779,"▁sterling.":3780,"▁sporting":3781,"▁highly-reviewed":3782,"▁building":3783,"▁today.\n":3784,"▁guests.\n":3785,"▁singles":3786,"▁passing":3787,"▁additionally":3788,"▁preferred":3789,"▁activ":3790,"▁premises":3791,"▁permitted\n":3792,"▁neighborhood":3793,"▁achieved":3794,"▁rich":3795,"▁cute":3796,"▁flare":3797,"▁£10":3798,"▁spectrum":3799,"▁adult-oriented":3800,"▁opinion":3801,"▁friend-family.\n":3802,"▁desired.\n":3803,"▁surprisingly":3804,"▁neighbour":3805,"▁refreshments":3806,"▁desserts.":3807,"▁surroundings":3808,"-can":3809,"▁cream":3810,"▁tourist":3811,"▁peace":3812,"▁historic":3813,"▁sensibly":3814,"▁large":3815,"▁indeed":3816,"▁infamous":3817,"▁runs":3818,"▁calm":3819,"▁guarant":3820,"▁emerging":3821,"▁statu":3822,"▁adequate":3823,"▁direct":3824,"▁20.00.\n":3825,"▁legal":3826,"got,":3827,"minating":3828,"▁categ":3829,"▁celeb":3830,"▁certainly":3831,"▁absolutely":3832,"▁handicap":3833,"▁sadly":3834,"▁incredi":3835,"▁course":3836,"▁cousin":3837,"▁maintains":3838,"▁romantic":3839,"▁effective":3840,"▁ethnic":3841,"▁mediterranean":3842,"▁discriminating":3843,"▁escargot,":3844,"▁picturesque":3845,"\r\n":3846,"!\n":3847,"'\n":3848,",\n":3849,"-1":3850,"-typ":3851,"-so":3852,"-way":3853,"-by":3854,"-of":3855,".3":3856,".9":3857,"..\n":3858,"2.\n":3859,"8.":3860,"9\n":3861,"9.9":3862,"aff":3863,"ban":3864,"but":3865,"cc":3866,"cery":3867,"de":3868,"day":3869,"drink":3870,"fe":3871,"fore":3872,"gn":3873,"gs":3874,"hist":3875,"ilies":3876,"ied.\n":3877,"ious.\n":3878,"ified":3879,"ksh":3880,"key":3881,"lust":3882,"liness":3883,"m,":3884,"mal":3885,"most":3886,"mber":3887,"mark":3888,"nam":3889,"nit":3890,"not":3891,"o.":3892,"ons":3893,"offer":3894,"ority":3895,"pan":3896,"ply":3897,"pound":3898,"phist":3899,"rant":3900,"rough":3901,"rank":3902,"sitt":3903,"sily":3904,"ted":3905,"ton":3906,"ues":3907,"uff":3908,"ues.":3909,"vate":3910,"vor":3911,"wildwood":3912,"ware":3913,"you":3914,"yippee":3915,"▁od":3916,"▁ur":3917,"▁'s":3918,"▁-priced":3919,"▁'t":3920,"erves":3921,"river":3922,"ansive":3923,"ansp":3924,"▁cul":3925,"▁crit":3926,"▁tur":3927,"▁table":3928,"▁tad":3929,"▁tail":3930,"▁tuc":3931,"▁takes":3932,"atisf":3933,"▁through":3934,"ene":3935,"recommend":3936,"▁fam":3937,"▁f30":3938,"▁four":3939,"▁foe":3940,"american":3941,"ample":3942,"ster":3943,"star":3944,"strada":3945,"sticks":3946,"▁able":3947,"es\n":3948,"ing.":3949,"ington":3950,"earest":3951,"rated":3952,"end,":3953,"verth":3954,"▁hi":3955,"▁hat":3956,"▁hang":3957,"▁bare":3958,"▁blow":3959,"▁lend":3960,"▁l.\n":3961,"▁last":3962,"▁lay":3963,"▁lim":3964,"▁lad":3965,"▁luc":3966,"▁of£20-25.\n":3967,"▁ing":3968,"▁inst":3969,"lie":3970,"liss":3971,"price":3972,"reasy":3973,"reasingly":3974,"▁5star":3975,"side,":3976,"▁riverside's":3977,"▁it'":3978,"▁lose":3979,"▁long":3980,"▁cove":3981,"▁meat":3982,"▁mild":3983,"▁mot":3984,"▁wa":3985,"▁wat":3986,"▁wake":3987,"▁wise":3988,"urpass":3989,"utes":3990,"hos.\n":3991,"ents.\n":3992,"▁out.":3993,"▁outer":3994,"▁year":3995,"▁chill":3996,"▁£2":3997,"▁£.\n":3998,"▁£8.":3999,"▁shores":4000,"▁shoo.":4001,"▁rood":4002,"antly":4003,"▁restaurants.":4004,"▁locating":4005,"▁noise":4006,"▁cast":4007,"▁friendly-friendly":4008,"itch":4009,"▁customer,":4010,"▁than£20":4011,"cheap":4012,"▁gy":4013,"▁god":4014,"▁gate":4015,"▁gar":4016,"▁gas":4017,"▁gaining":4018,"▁gliss":4019,"▁greasy":4020,"▁pub's":4021,"asto.\n":4022,"ourite":4023,"vellers":4024,"appro":4025,"▁low;":4026,"▁café'.\n":4027,"▁average-price":4028,"▁average-rate":4029,"▁fast.\n":4030,"▁fastfood":4031,"▁family-free":4032,"▁moderates":4033,"▁moderate-":4034,"▁french-styled":4035,"dian":4036,"▁servic":4037,"nexp":4038,"lare":4039,"ceiv":4040,"ess,":4041,"esses":4042,"essment":4043,"ession":4044,"leg":4045,"▁key":4046,"▁kitch":4047,"▁boats":4048,"▁boat's":4049,"▁3-out":4050,"▁3.5":4051,"▁3.3":4052,"▁english-styled":4053,"ravellers":4054,"▁serves.":4055,"▁st,":4056,"▁stake":4057,"▁stick":4058,"▁stud":4059,"▁staff":4060,"▁stuff":4061,"rowne":4062,"▁chinese-serving":4063,"▁bar'.\n":4064,"-25,":4065,"▁noted":4066,"▁notch":4067,"▁nothing":4068,"▁expansive":4069,"▁kid's":4070,"▁water.":4071,"▁waterman;":4072,"▁waterman',":4073,"ns.":4074,"ns.\n":4075,"▁area;":4076,"▁area's":4077,"▁areas.":4078,"ryout":4079,"▁ratting":4080,"▁rater,":4081,"▁for£20-25.\n":4082,"▁blue'":4083,"▁therefore":4084,"▁curried":4085,"▁inn;":4086,"▁at,":4087,"▁atro":4088,"▁fits":4089,"zbillies":4090,"▁fitzbilies":4091,"▁each":4092,"▁easily":4093,"▁toast":4094,"▁toget":4095,"▁alimentum;":4096,"▁all.":4097,"▁all-d":4098,"icult":4099,"icular":4100,"ises":4101,"iskey":4102,"▁dra":4103,"▁det":4104,"▁drive":4105,"▁house'":4106,"ort,":4107,"▁vib":4108,"▁arms;":4109,"▁arms'.\n":4110,"▁spl":4111,"▁spent":4112,"▁spite":4113,"▁spoon":4114,"eless,":4115,"▁prices;":4116,"▁spice'.\n":4117,"arily":4118,"tten":4119,"urger":4120,"▁proble":4121,"▁ares":4122,"▁beware":4123,"▁proves":4124,"▁cotto;":4125,"otic":4126,"▁punters":4127,"▁punter-":4128,"▁king'.\n":4129,"ults.\n":4130,"▁hotel'.\n":4131,"▁clos":4132,"▁ones":4133,"▁valu":4134,"▁sicilia;":4135,"▁sicilia'.\n":4136,"▁whine":4137,"▁whiskey":4138,"▁olives":4139,"▁grocery":4140,"▁moderately.":4141,"▁aromi's":4142,"▁baked":4143,"▁mill'":4144,"ensal":4145,"umpington":4146,"▁tree;":4147,"▁adv":4148,"▁added":4149,"▁sorrento'.\n":4150,"▁which,":4151,"et.":4152,"▁giraff":4153,"▁plough\n":4154,"imate":4155,"▁food,it":4156,"▁brazil'.\n":4157,"▁requ":4158,"▁albe":4159,"▁almost":4160,"▁tastes,":4161,"▁tastes.":4162,"▁ratings;":4163,"▁taste.":4164,"▁taste.\n":4165,"▁customers'":4166,"▁centre,near":4167,"▁rating..":4168,"▁rating..\n":4169,"▁suffers":4170,"▁20gbp":4171,"▁20lb":4172,"▁20gbp.\n":4173,"▁seen":4174,"▁severs":4175,"▁restaurant,the":4176,"▁close-by":4177,"▁france":4178,"▁from.\n":4179,"▁5..":4180,"▁need.\n":4181,"▁neverth":4182,"▁offerings.\n":4183,"▁area,\n":4184,"▁beefeater'":4185,"▁five\n":4186,"compan":4187,"▁found.":4188,"▁unexp":4189,"▁sushi-serving":4190,"sons.\n":4191,"▁established":4192,"▁establishments.\n":4193,"▁meal\n":4194,"▁venues.":4195,"▁venue\n":4196,"▁serve.\n":4197,"▁environment:":4198,"▁30£":4199,"▁30l.\n":4200,"▁eats,":4201,"eccable":4202,"▁try,":4203,"▁trying":4204,"▁west":4205,"▁we've":4206,"▁priced,kid":4207,"oks":4208,"▁pocket":4209,"▁polit":4210,"▁adult's":4211,"▁reviewers":4212,"▁reviewed.\n":4213,"▁done":4214,"▁dogs":4215,"▁rear":4216,"▁ready":4217,"▁reasons.\n":4218,"▁northeast":4219,"▁higher.\n":4220,"▁median":4221,"▁medium-price":4222,"▁style.\n":4223,"ourable":4224,"▁20-25eur":4225,"▁over.":4226,"▁delect":4227,"▁gotten":4228,"▁exac":4229,"▁example":4230,"▁exotic":4231,"▁dinning":4232,"▁get-a":4233,"▁menu\n":4234,"▁menus":4235,"▁diet.":4236,"▁under,":4237,"▁under.":4238,"▁underrated":4239,"▁inn,\n":4240,"▁suitable.\n":4241,"▁excellent.\n":4242,"▁served,":4243,"▁visitor":4244,"▁visitors":4245,"ased":4246,"▁£20-2":4247,"▁£20-£30":4248,"▁£20-50":4249,"▁up,":4250,"▁up.":4251,"house":4252,"▁,and":4253,"▁,near":4254,"▁,with":4255,"▁enjoyed.\n":4256,"▁café,is":4257,"▁eagle,has":4258,"▁recommended.":4259,"▁£25-25":4260,"▁curry,\n":4261,"acular":4262,"▁alimentum,is":4263,"▁--":4264,"▁dishes\n":4265,"▁around.\n":4266,"▁bakers.\r\n":4267,"▁breaking":4268,"cogn":4269,"▁buds.\n":4270,"▁breakfast\n":4271,"▁experienc":4272,"▁experience\n":4273,"▁.n":4274,"▁organ":4275,"▁pastries":4276,"▁mid-priced.\n":4277,"adent":4278,"▁25\n":4279,"▁25£.\n":4280,"▁right,":4281,"▁poorly-reviewed":4282,"▁though\n":4283,"▁though.":4284,"▁wants":4285,"▁'wildwood":4286,"▁'yippee":4287,"▁'strada":4288,"ile.":4289,"▁so-so":4290,"▁sophist":4291,"▁averagely-rated":4292,"▁ratings,\n":4293,"▁bakers,\n":4294,"▁non-family-friendly.":4295,"▁non-family-friendly.\n":4296,"▁fares":4297,"▁satisfy":4298,"▁start.":4299,"▁starts.\n":4300,"▁delicious.\n":4301,"▁town\n":4302,"▁friend.":4303,"▁friend.\n":4304,"▁friends.\n":4305,"▁satisfaction\n":4306,"▁accompan":4307,"▁viewed":4308,"▁views.":4309,"ts,":4310,"▁chopping":4311,"▁budgets,":4312,"▁take-away,":4313,"▁take-away.":4314,"▁varies":4315,"▁low-end,":4316,"▁budget.":4317,"▁decided":4318,"▁decadent":4319,"▁considerable":4320,"▁unf":4321,"▁unable":4322,"▁comensal":4323,"themed":4324,"▁5-stars":4325,"▁decent,":4326,"▁love,":4327,"▁below.":4328,"▁user":4329,"▁ranks":4330,"▁american-style":4331,"▁items,":4332,"▁too,":4333,"ead.":4334,"▁moved":4335,"arded.\n":4336,"ards,":4337,"▁choice\n":4338,"▁choice,":4339,"▁3-stars":4340,"▁head.":4341,"▁cheaply.":4342,"▁like.":4343,"▁earns":4344,"▁earth":4345,"▁public\n":4346,"▁public,":4347,"▁public.\n":4348,"▁deserves":4349,"▁three-starred":4350,"▁evening":4351,"▁eating.\n":4352,"▁point\n":4353,"▁farm":4354,"▁far.\n":4355,"▁theme,":4356,"▁theme.\n":4357,"ions\n":4358,"▁road.":4359,"▁value,":4360,"▁pleasing":4361,"▁stars,\n":4362,"▁bad.\n":4363,"▁low,\n":4364,"▁high-end,":4365,"▁bites":4366,"▁services\n":4367,"▁classified":4368,"▁open.":4369,"▁open.\n":4370,"kids":4371,"▁appear":4372,"▁appeal":4373,"▁away.":4374,"▁grand":4375,"▁average-priced,":4376,"▁beautifully":4377,"▁entree":4378,"▁parking":4379,"▁l30\n":4380,"▁non-kid-friendly":4381,"ipasto.\n":4382,"▁shouldn't":4383,"▁night\n":4384,"▁30.£":4385,"▁money.":4386,"▁l20-25\n":4387,"▁l20-25,":4388,"▁leaving":4389,"▁outlet.":4390,"▁outlet.\n":4391,"▁favourite":4392,"▁furnit":4393,"▁seem":4394,"▁most,":4395,"▁store.\n":4396,"▁costly.\n":4397,"▁fruits.\n":4398,"▁spaghetti,":4399,"▁spaghetti.":4400,"▁moderate-priced,":4401,"ates.\n":4402,"▁spot,":4403,"▁regarded.\n":4404,"▁everyday":4405,"▁prom":4406,"▁bank,":4407,"▁english,nam":4408,"▁dinner,":4409,"▁dinner.":4410,"▁center.,there":4411,"▁riverfront.":4412,"▁riverfront.\n":4413,"akes,":4414,"▁particular":4415,"-inspired":4416,"▁4.\n":4417,"▁4.5":4418,"▁permits":4419,"▁luton,":4420,"erts.\n":4421,"▁age.\n":4422,"▁restroom.\n":4423,"▁ship,":4424,"▁ship.":4425,"▁unfriendly\n":4426,"ized":4427,"▁family-unfriendly":4428,"▁attained":4429,"▁reser":4430,"▁resid":4431,"▁respo":4432,"▁results.\n":4433,"▁specials":4434,"▁specialties":4435,"▁climb":4436,"▁lunch.\n":4437,"▁tastings":4438,"▁edible":4439,"▁fans,":4440,"▁much,":4441,"▁modest,":4442,"▁standards":4443,"▁quiet,":4444,"▁buy.\n":4445,"▁seafood.\n":4446,"▁5of5,":4447,"▁family's.":4448,"▁clentele,":4449,"▁clentele.":4450,"▁group.\n":4451,"▁stellar":4452,"▁list.\n":4453,"▁product":4454,"▁fun,":4455,"▁soups.\n":4456,"▁soups,":4457,"▁plates.":4458,"▁adults-only.\n":4459,"▁clients.\n":4460,"▁levels":4461,"▁standard.":4462,"▁standards.\n":4463,"ities.\n":4464,"▁e20\n":4465,"▁e20.\n":4466,"▁higher-priced,":4467,"▁burgers,drink":4468,"▁facility.":4469,"▁21":4470,"▁24":4471,"▁crack":4472,"▁crazy":4473,"▁relaxing":4474,"▁20£.":4475,"▁unsatisf":4476,"▁unsurpass":4477,"▁'burger":4478,"▁impeccable":4479,"▁assessment":4480,"▁coupled":4481,"▁gbp.":4482,"▁day.":4483,"▁days":4484,"▁true":4485,"▁transp":4486,"▁trumpington":4487,"▁pried":4488,"▁priority":4489,"▁private":4490,"▁useful":4491,"▁eat-in,":4492,"▁mid-level.\n":4493,"▁appetite":4494,"▁match.":4495,"▁fool":4496,"▁worry":4497,"▁worse":4498,"▁world":4499,"▁highly-priced,":4500,"▁£20.00.\n":4501,"▁delicacies.":4502,"▁accommodations":4503,"looking":4504,"▁tapa":4505,"▁minutes":4506,"▁keeping":4507,"▁eggs,":4508,"▁play,":4509,"▁eagle'.":4510,"▁pairings.\n":4511,"▁chopsticks":4512,"▁attractive":4513,"ents\n":4514,"▁£32.\n":4515,"▁plus.":4516,"▁starts\n":4517,"▁space.\n":4518,"▁interesting":4519,"▁mark.\n":4520,"▁marked":4521,"▁marks.\n":4522,"▁ambiance.":4523,"▁ambiance.\n":4524,"▁purchased":4525,"▁reputation.\n":4526,"▁wallet.\n":4527,"low-priced,":4528,"▁i'd":4529,"▁i've":4530,"▁simply":4531,"▁law":4532,"▁lacklust":4533,"▁riversides":4534,"▁contin":4535,"▁meant":4536,"▁milksh":4537,"▁shown":4538,"▁price-range.\n":4539,"▁bargains.\n":4540,"▁easy,":4541,"▁desserts.\n":4542,"▁low-ratings":4543,"▁scene,":4544,"▁non-kids-friendly":4545,"▁safe,":4546,"▁luxuriant":4547,"▁attraction":4548,"▁accessible.":4549,"▁accessible.\n":4550,"▁guests,":4551,".50.":4552,"fication":4553,"▁sodas":4554,"▁single":4555,"▁beat.\n":4556,"▁babies":4557,"▁customer-rating\n":4558,"▁1-5,":4559,"▁1-5.\n":4560,"▁crowd.":4561,"▁plate.":4562,"▁remark":4563,"▁possesses":4564,"▁20-25l.\n":4565,"▁delights":4566,"▁soon.\n":4567,"▁actively":4568,"▁premises,":4569,"▁hello,":4570,"▁acclaimed,":4571,"▁ambient.":4572,"▁d'oeuvres.\n":4573,"▁achieving":4574,"▁individuals":4575,"▁disappointing":4576,"▁disappointed.\n":4577,"igious":4578,"▁-25.":4579,"▁flavor":4580,"▁maxim":4581,"▁£19.9":4582,"▁carries":4583,"▁carryout":4584,"▁didn't":4585,"▁varying":4586,"▁spectacular":4587,"▁profession":4588,"▁profile.":4589,"▁sicilian.\n":4590,"▁costumers.\n":4591,"▁opinions\n":4592,"▁'clare":4593,"▁'crowne":4594,"▁attitude.":4595,"▁neighboring":4596,"▁£35\n":4597,"▁northwestern":4598,"▁university,":4599,"▁finally":4600,"▁presently":4601,"▁help":4602,"▁rive.\n":4603,"▁merits":4604,"▁ranting":4605,"▁grill":4606,"▁grills":4607,"▁events,":4608,"▁events\n":4609,"▁forget.\n":4610,"▁roughly":4611,"▁toilets":4612,"▁all-you":4613,"▁all-american":4614,"▁become":4615,"▁becoming":4616,"▁exciting":4617,"▁'rainbow":4618,"▁'raja":4619,"▁comfortable":4620,"▁shrimp.\n":4621,"▁proudly":4622,"▁sausage":4623,"▁sausages":4624,"▁well-receiv":4625,"▁well-recogn":4626,"▁attention\n":4627,"▁discount":4628,"......":4629,"▁prime":4630,"▁primarily":4631,"▁babysitt":4632,"▁city-centre.\n":4633,"▁gastro-p":4634,"▁well-known,":4635,"▁e20-e25,":4636,"▁e20-e25.":4637,"fitzbillies":4638,"serving":4639,"welcoming":4640,"▁others.\n":4641,"▁prestigious":4642,"▁herb":4643,"▁hope":4644,"▁scare":4645,"▁bathrooms.\n":4646,"▁landmark":4647,"▁lives":4648,"▁increasingly":4649,"▁5-5.\n":4650,"▁riverside-area":4651,"▁antipasto.\n":4652,"▁ethos.\n":4653,"▁child-unfriendly":4654,"▁styling":4655,"▁strollers":4656,"▁platters,":4657,"▁second":4658,"▁familiar.":4659,"▁quid.\n":4660,"▁qualification":4661,"▁over-looking":4662,"▁then£20.\n":4663,"▁consistently":4664,"▁'aromi'":4665,"▁specifically":4666,"▁scenery.\n":4667,"▁community":4668,"▁enter.\n":4669,"▁prams.\n":4670,"▁competitor":4671,"▁improve":4672,"▁activities.\n":4673,"▁opinion\n":4674,"▁cream.\n":4675,"▁peaceful":4676,"▁historical":4677,"▁indeed,":4678,"▁guarantee":4679,"▁status.\n":4680,"▁directly":4681,"▁category":4682,"▁celebrating":4683,"▁incredibly":4684,"-type":4685,"-of-5":4686,"offering":4687,"ranked":4688,"▁urban":4689,"▁'travellers":4690,"▁culinary":4691,"▁critic":4692,"▁turn":4693,"▁tucson":4694,"recommended":4695,"▁famed":4696,"▁barely":4697,"▁luck":4698,"▁coveted":4699,"▁mildly":4700,"▁wakey":4701,"▁glisson":4702,"▁servicing":4703,"▁kitchen":4704,"▁3.5,":4705,"▁3.33":4706,"▁together":4707,"▁all-day":4708,"▁albeit":4709,"▁nevertheless,":4710,"▁20-25euros":4711,"▁exactly":4712,"▁get-a-way":4713,"▁organiz":4714,"▁'strada'":4715,"▁sophisticated":4716,"▁accompanied":4717,"▁furniture":4718,"▁english,name":4719,"▁respons":4720,"▁burgers,drinks,":4721,"▁cracker":4722,"▁unsurpassed":4723,"▁transport,":4724,"▁lackluster":4725,"▁milkshakes,":4726,"▁remarkable":4727,"▁flavorful":4728,"▁£19.99\n":4729,"▁professionally":4730,"▁all-you-can":4731,"▁well-received":4732,"▁well-recognized":4733,"▁babysitter":4734,"▁gastro-pub":4735}