#version: 0.2 - Trained by `huggingface/tokenizers`
e r
i n
] ,
a t
r e
o n
▁ a
o r
m e
l a
▁ p
l e
a s
a me
v e
▁ g
la y
t h
t i
f or
in g
▁ s
▁ th
e n
er s
o u
e d
e s
▁ i
 

n t
] )
▁ "
" ,
]) ",
r at
s [
c ti
▁g ame
for m
i r
le as
lay er
re leas
n ame
( name
(name [
i on
▁ h
n d
a r
▁i s
▁ y
▁ S
▁y ou
m u
l at
▁ rat
▁ T
o o
▁ P
▁p ers
releas e
p e
u re
▁ d
2 0
▁g en
▁ w
s t
▁h as
▁ I
▁gen re
▁ o
▁ b
▁genre s[
a l
▁ M
▁rat ing
▁pers on
a d
v er
" 

n o
])", "
ve nt
vent ure
ir d
▁a nd
p layer
at ion
r i
a c
▁ f
▁o f
r o
▁has _
o p
cti ve
lat form
▁rating [
pe ctive
l ti
mu lti
multi player
h e
▁p latform
▁ E
▁ in
20 1
in form
▁" inform
▁"inform (name[
▁th e
S t
▁ t
▁ on
e ve
e ar
i e
g e
a i
cti on
lay St
laySt ation
a m
l op
eve lop
ad venture
a n
' s
▁ release
t er
. "

e l
▁P C
▁p layer
p ers
_ pers
pective [
_pers pective[
▁th at
[ y
[y es
▁d evelop
▁platform s[
▁player _perspective[
t e
er [
▁ C
l i
b o
▁game s
▁ for
_ y
ear [
_y ear[
b le
e x
▁ c
▁s h
▁release _year[
▁I t
X bo
Xbo x
[ no
ction -
v ai
vai la
vaila ble
ction- adventure
▁sh oo
▁a vailable
▁T he
_ release
▁platforms[ P
▁ (
▁( for
▁ R
oo d
o m
es t
? 

▁ Xbox
▁shoo ter
▁ W
▁a n
▁i t
▁ A
▁ v
▁ D
ie w
▁w as
in u
inu x
a ge
▁ 201
▁develop er[
▁ L
▁has_ multiplayer
layStation ,
▁p lay
▁v iew
le -
ver age
l y
l d
g h
or t
ir st
i c
e g
i f
▁th ird
k e
▁ N
▁ re
i t
▁ multiplayer
▁s t
▁ releas
rat eg
▁ H
p ort
l l
rateg y
▁ m
▁Xbox ,
▁w i
▁releas ed
i mu
. 

p lay
le nt
imu lat
i s
▁st rategy
▁genres[ a
u t
ro le-
role- play
role-play ing
▁ no
i d
▁ 2
? "

in t
ri v
▁ 1
q u
▁b y
▁wi th
▁ li
b [
r b[
es rb[
ou t
en d
▁" re
ex c
20 0
▁release_year[ 201
s ],
i ve
) ],
e am
r ac
▁ esrb[
gh t
exc el
excel lent
_release [no
g ood
▁t o
T he
▁ B
a y
rac ing
qu est
a ve
▁li ke
imulat ion
▁ role-playing
▁rating[ good
ction-adventure ,
t ri
a verage
z z
[yes ])","
▁S te
▁Ste am
_ on
_ st
_on _st
_on_st eam
d venture
riv ing
9 9
▁rating[ average
▁available _on_steam
▁person ],
▁rating[good ],
i o
b u
o or
int end
intend o
th ird
▁genres[a ction-adventure,
▁player_perspective[ third
f t
▁b e
ro m
▁f rom
tri bu
m ac
▁M ac
tribu te
_ at
▁rat ed
[yes ],
▁platforms[P layStation,
▁rating[average ],
_at tribute
at ure
▁has_ mac
▁p u
▁L inux
l inux
▁a ction-adventure
▁pu zz
c h
c e
▁has_ linux
/ racing
riving /racing
▁puzz le
d ie
▁no t
▁d o
a nd
▁PC ],
▁ G
in ion
▁a dventure
▁ V
c k
▁ O
▁s port
on e
▁f irst
▁b ut
la n
▁pers pective
▁play ed
u n
▁P layStation,
▁M ature
t a
om b
_ op
g ive
y _attribute
▁ F
▁" ver
▁" give
if y_attribute
▁"re quest
inion (name[
_op inion(name[
▁"ver ify_attribute
▁"give _opinion(name[
▁"verify_attribute (name[
f irst
▁shooter ],
i ght
▁T e
e t
▁I I
▁player_perspective[ first
▁ 3
▁h ave
▁g ood
▁S t
ex p
▁s imulation
▁in die
al l
▁has_multiplayer [no
▁rating[ excellent
▁N intendo
er ta
ai d
Y ou
▁ or
▁ me
u p
p oor
▁c an
i a
al ly
ver y
W h
me nt
u d
pe c
▁a b
s u
▁rating[excellent ],
▁platforms[P C
▁ e
▁has_linux _release[no
▁rating[ poor
adventure ,
▁ab out
u r
▁ 200
▁genres[ adventure,
▁ out
▁has_linux_release[no ],
▁a verage
r y
very one
])"," I
▁P layStation
▁Te en
▁G ame
a re
▁release_year[ 200
c om
' t
▁ en
▁genres[ s
b ird
c al
▁b ird
▁player_perspective[ bird
o re
▁E veryone
▁platform er
a g
▁rating[poor ],
o w
er o
▁ U
▁T h
u s
ud io
id e
a nt
▁S pe
▁St udio
e ed
- and
-and -
▁develop ed
4 ],
j o
▁s o
ed :
▁Spe ed:
i g
in d
ti on
[yes ])",
jo y
▁en joy
d riving/racing
me nd
▁has_mac _release[no
com mend
erta in
▁genres[ driving/racing
nt ertain
▁E ntertain
▁Entertain ment
▁Mature )],
▁2 ],
g g
5 ],
▁strategy ],
t le
ir m
ar d
▁w h
▁esrb[ M
pec if
gg est
on f
c onf
s :
ad e
_ exp
i er[
▁" su
▁" conf
ation (
▁"re commend
lan ation(
▁"request _exp
irm (name[
pecif ier[
ggest (name[
▁"su ggest(name[
▁"conf irm(name[
▁"recommend (name[
▁"request_exp lanation(
▁D o
▁a s
▁t a
P G
▁It 's
▁ l
ac k
Wh at
ti me
or m
cti cal
or ld
▁ta ctical
▁person ])",
en t
▁platforms[P layStation
o ft
o st
ld er
k ing
el l
s s
▁an y
r on
er e
▁has_mac _release
m p
▁game .
o l
o t
D o
n 't
▁R aid
▁Raid er
▁a re
▁ excellent
▁PC ,
s .
th er
▁view ],
e m
▁has_mac_release[no ])","
s h
▁release_year[ 1
- time
o d
al -time
▁has_multiplayer [yes])","
N eed
on d
u st
i v
▁1 99
▁PC .
it ch
b er
▁H ero
e ],
▁c ame
s ,
imulation ,
▁1 0
▁release_year[1 99
▁S k
▁d riving/racing
up er
▁genres[s imulation,
▁game ,
▁has_mac_release [yes])","
▁has_multiplayer [yes],
▁esrb[ E
▁esrb[ T
▁ k
as s
▁W ar
▁available_on_steam [yes],
▁genres[driving/racing ,
l in
▁th in
▁Teen )],
▁thin k
R o
b all
▁a l
ou ld
▁do es
r a
o int
▁"inform(name[ M
▁"inform(name[ The
▁has_multiplayer [yes])",
▁ j
la r
o on
▁201 4
▁W orld
▁s ing
oo m
▁games ,
▁f e
r an
▁s pecifier[
]) ,
▁re quest
it tle
▁"request (
le- player
▁sing le-player
i re
▁j ust
ction ,
ra ft
s o
▁you '
▁p re
a w
▁201 8
▁available_on_steam [yes])","
as ed
▁person ,
▁p oor
no w
ur n
▁p oint
▁platforms[ Xbox
▁re ally
▁s aid
])", I
▁k now
▁C h
li ck
b ased
▁T y
as t
- based
c lick
-and- click
urn -based
a k
c oon
m ber
at er
▁Mature )
▁point -and-click
▁Ty coon
9 ],
▁"inform(name[ T
▁genres[a ction,
▁platforms[PC ],
ore st
▁Raider :
u lar
▁F orest
▁on ly
ou gh
o ad
▁a ction
])", What
])"," S
▁"inform(name[ S
et ro
▁S h
▁ n
6 ],
R PG
▁role-playing ],
imulat or
lan c
M O
t t
MO RPG
t o
▁you r
▁ 4
▁s u
▁ exp
N intendo
c ro
▁W i
y 's
▁P ro
▁c omb
oad ed
d ge
s la
▁S oft
-and- sla
ack -and-sla
ack-and-sla sh
▁Steam ."

cro ll
▁release_year[201 4],
a x
▁t urn-based
▁201 5
▁role-playing ,
▁S croll
▁M ag
▁E lder
el oaded
▁C lanc
▁R eloaded
▁has_linux _release
▁II :
▁3 :
▁3 ],
▁Game s
▁Game s],
▁Everyone )],
orm s:
▁Scroll s
▁Mag ic
▁Clanc y's
o ck
▁has_multiplayer[no ],
▁Teen )
▁Steam ,
▁C re
▁"inform(name[ A
▁available_on_steam [no
▁on e
▁m ade
▁Nintendo ,
▁ Z
▁ racing
or i
▁S m
▁genres[ role-playing
▁f un
1 ],
i ll
o s
rat ing
▁o ther
▁R e
▁play ing
7 ],
S h
▁s ide
])", You
at e
▁2 K
])","I f
or ation
▁C or
▁a ll
an ce
▁P ay
▁e ver
t ed
▁it 's
▁puzzle ,
3 ],
n tion
▁sport s
▁me ntion
▁ K
tt y
h ic
▁person ])","
▁sport ],
▁comb at
▁L ast
▁m od
y st
ri ver
▁A m
▁V I
A re
o ve
▁t ry
io Sh
▁Studio s],
▁"request_explanation( rating
ioSh ock
▁"request_explanation(rating [
ve hic
▁C ry
▁A ge
▁platformer ,
▁s up
B A
el y
L ittle
c raft
vehic ular
▁Soft w
▁has_linux_release [yes],
c t
▁th is
▁M MORPG
▁al so
i li
▁ mu
▁A n
▁pre tty
w itch
▁h ack-and-slash
Ro ll
▁2K 1
▁me an
▁mod e
▁ You
▁sup port
in ball
s ide
▁m y
a ke
▁mention ed
r u
s ."

re al-time
▁O n
i m
▁re ce
2 ],
on g
▁th ere
▁genres[ real-time
▁U n
ond er
▁T omb
▁su ch
▁E A
▁you' re
d evelop
▁platforms[ Nintendo
▁player_perspective[ side
▁fe el
▁genres[role-playing ,
develop er[
or y
ant ed
▁N ight
▁l ove
▁10 +
▁On lin
r or
as h
▁M ost
▁H it
0 ],
▁f ind
▁tactical ],
i lent
u it
at al
▁H ill
▁rece ive
uit ar
i er
▁ ex
in 's
on y
nd erta
▁R PG
if e
ss ass
▁Cre ed
▁receive d
nderta le
ssass in's
k 's
m are
ir ror
▁E dge
▁C atal
▁W anted
▁A dventure
▁H aw
▁B ig
▁simulation ],
▁Hero :
▁Sk ater
▁Ch a
▁Sm ash
▁Night mare
irror 's
▁Catal yst
▁Haw k's
v ol
ic h
▁has_multiplayer[no ])","
▁h ear
▁gen er
s ic
▁indie ,
▁M an
▁Studio s
▁S witch
▁shoo t
▁genres[s port
▁Entertainment ],
f er
▁d id
▁hear d
▁f a
▁f ight
▁f an
▁developer[ E
▁release_year[201 5],
▁Mac ."

▁fight ing
y p
▁s ay
▁s imulator
k ed
on t
▁Hero es
e ver
▁g et
▁has_multiplayer[no ])",
o ld
▁shooter ,
▁re al-time
▁puzzle ],
▁II ],
▁201 6
▁view ,
▁Th is
▁developer[ B
▁developer[ S
riv ia
▁release_year[201 6],
▁Softw are
▁B e
▁Sk y
' m
▁wh ich
▁d riving
▁developer[ C
p latform
v i
ri m
▁201 7
as ter
▁T i
bo ard
▁games ?

/ board
rivia /board
W orms:
▁H ave
▁Everyone )
ar k
ar ted
ke t
▁m ost
ire s
8 ],
n es
▁201 1
C o
c ket
e ag
er Co
▁L eag
▁N eed
▁Am ong
erCo aster
▁Leag u
( s
I :
_ d
f 's
u nt
▁ &
▁E nd
▁E mp
▁"inform(name[ F
ie f's
ge l
_release _d
▁R un
▁R oom
▁W ol
▁W itch
▁D oom
▁D ark
gh old
ort al
▁H unt
_attribute (
ch arted
▁II I:
▁Th ief's
ron ghold
▁War craft
▁request (s
▁request _attribute(
▁4 :
▁exp _release_d
▁Wi ld
▁Magic :
ate [
▁K ing
▁An gel
▁Emp ires
▁Wol f
▁Witch er
▁Dark nes
▁request(s pecifier[
▁exp_release_d ate[
L ife
▁Steam .
H ave
▁ vehicular
nt er
▁t al
d a
li zz
om m
▁O lder
ig n
▁Cha os
lizz ard
▁E n
a p
c ade
e p
m an
▁m ak
Wh y
▁platforms[PlayStation ])","
ron ic
k y
▁o p
▁A d
▁B l
▁mak es
v iew
la st
▁available_on_steam[no ],
▁fa v
S uper
▁D river
N BA
c ar
▁re view
▁tal king
r and
li d
▁release_year[201 7],
▁I nter
▁The ory
ori te
B ioShock
▁does n't
▁release_year[201 1],
ay s
ia ],
▁Tycoon ],
c ed
s e
▁develop er
T omb
p oration
u tion
▁M ight
ex t
▁enjoy ed
▁199 9
▁Cor poration
vol ution
in die
re at
▁w onder
▁genres[ indie
▁"inform(name[ H
▁V ],
▁"request_explanation( developer[
▁genres[indie ,
in es
▁t ext
ou ght
ad d
▁be en
G uitar
s port
li er
▁l oo
▁fav orite
F or
on 't
▁so me
mp le
l o
oo t
▁d is
U ndertale
▁th ought
▁R o
▁A re
is h
u m
es id
▁S p
▁200 5
T om
p o
s .

▁ un
re ak
release _year[
▁t rivia/board
▁multiplayer ."

is ],
▁perspective .
us e
▁release_year[199 9],
A ge
a u
c age
ou nd
an ced
it al
▁strategy ,
▁e le
ow n
ig ital
U n
b lo
d own
in a
or St
for ge
ir t
ar a
lat ion
▁E vi
el da
▁A po
▁L eg
▁view ])",
▁N F
is ion
▁li ked
▁available_on_steam [yes])",
▁O car
ia blo
cal yp
orm :
ot orSt
iv ision
ran ge
▁Z elda
▁Pay n
▁Sky rim
▁Ti me
ish ing
esid ent
▁Evi l
▁Apo calyp
▁Leg end
▁Ocar ina
otorSt orm:
▁Zelda :
Q u
e ier
f are
h ind
k ay
o s:
s ir
v anced
y :
z ation
▁ 20
▁ qu
er man
in ce
th an
ar ter
ar io
▁P ri
▁P inball
▁M eier
▁M ario
ro ft
▁E than
▁"inform(name[ D
▁"inform(name[ Need
eve lation
an ishing
▁C ell
▁C iv
▁C arter
▁C roft
▁R evelation
▁D ut
▁D igital
▁D ivision
▁L ines
ut last
▁B omb
▁B reak
and os:
▁V :
▁V anishing
▁O sir
▁Te mple
▁St range
▁release_year[200 5],
ag er
ow down
▁U s],
ant um
em y
▁War fare
lin ter
ran sport
etro id
▁Sh owdown
▁Reloaded ],
ili zation
▁Man ager
▁Be hind
omm andos:
▁En emy
▁Ad vanced
▁Bl ind
add en
oot ball
▁Sp linter
irt :
▁NF L
Qu antum
▁20 3
▁Pri me
▁Meier 's
▁Cell :
▁Civ ilization
▁Dut y:
▁Bomb erman
F A
I FA
▁d on't
▁ele ment
i al
p le
▁o kay
▁c on
▁platforms[PC ])","
▁re me
▁Switch ,
▁multiplayer ,
▁reme mber
▁b o
▁platforms[PlayStation ])",
▁shoot ers
▁did n't
e ct
am i
▁201 0
▁Onlin e
▁i f
▁t oo
▁a m
▁release ."

▁D ance
▁developer[ F
ic e
▁genres[driving/racing ],
▁2018 ],
Roll erCoaster
W orld
u al
▁Linux ."

▁loo king
▁I s
▁multiplayer .

c ent
i en
y e
▁release_year[201 0],
ght y
▁Do g
au ghty
P ortal
d e
▁Linux ,
▁bird 's
or th
▁d e
▁w ell
▁A l
▁1 5
▁ ear
])", Do
▁S o
St ronghold
▁1 5],
▁e ye
BioShock ],
M ax
d y
▁th ough
a f
m all
ti es
ri ght
▁v ide
▁vide o
o x
ll us
▁EA D
▁Older )],
llus ion
A n
▁g reat
▁s e
▁f ound
▁bo th
f f
▁a ction-adventure,
▁sh ould
th ing
▁y ear
▁of f
▁developer[ T
Un charted
▁s im
al ve
▁Mac ,
Ro cket
]), What
▁gener al
c i
me dy
▁wi ll
▁has_multiplayer[yes])"," I
a ctive
e en
s e],
▁ r
▁ eve
on ami
rat ed
▁in to
▁the m
te mber
▁multiplayer .
▁wh at
ep tember
▁Inter active
▁ear lier
▁eve n
d ay
la ck
le d
▁the y
▁L ittle
▁dis li
M an
M irror's
▁T eam
▁I nd
a 's
a ble
am ple
▁simulation ,
▁U s
▁mu ch
▁ex ample
▁developer[E A
r ough
▁game .

▁T o
ri f
▁perspective ,
iv ers
B us
H L
L ara
b ack
▁g ot
▁T ru
▁W ond
▁N orth
et al
ori z
▁Wond ers
C raft
h ot
n ake
r one
s a
u ro
u a's
v ers
z ard
on :
la de
le s:
ing ,
en ua's
rat h
▁game ."

ar Craft
▁S ac
▁S imulator
▁S nake
▁S enua's
▁P ur
▁E ater
▁E ff
▁E rath
▁"inform(name[ C
▁"inform(name[ N
▁The ft
▁R est
▁A ut
▁D aw
▁developer[ N
if t
▁genres[a ction-adventure
riv ial
ay ers
▁G ear
▁F ear
▁"verify_attribute(name[ The
et to
▁indie ],
su it
▁platformer ],
▁Th rone
▁"recommend(name[ The
ss etto
▁Ch ronic
▁"inform(name[S uper
▁Sh ift
▁Wi zard
▁Z ero
▁Re volution
▁Cor sa
▁Pay back
Roll cage
▁Un ivers
▁Hit s],
▁Wanted ],
▁Adventure ],
▁Catalyst ],
▁genres[sport ],
Undertale ],
▁Al one
▁So lid
▁Tru ck
oriz on:
lade :
▁Sac rif
▁Pur suit
▁Eff ect
▁Rest oration
▁Aut o
▁Daw n
▁Chronic les:
▁Wizard 's
▁Univers e
b lade:
▁th rough
▁S im
▁w ould
▁t ri
ell blade:
O ri
▁h ad
▁201 3
ll For
▁mu sic
ien ce
llFor ce
es ign
mu sic
])"," Do
▁PC ."

▁developer[ R
▁Th ere
▁fe ature
▁combat ],
T ony
om p
▁200 9
])",What 's
▁hack-and-slash ,
▁tri ed
a king
i te
▁a r
as y
▁W orms:
a z
b is
i ties
▁ at
▁h ow
▁genres[ music
▁M ont
▁f el
▁C ities
▁D esign
ry s
▁release_year[200 9],
platform er
ci ent
bis oft
▁fel t
▁view .
▁200 1
▁exp er
O utlast
R esident
e tri
▁I 'm
▁Mac .
P ay
h as
▁I llusion
▁release ,
▁off ers
has _
o me
ti c
▁w ere
▁o ver
ky forge
Pay day
▁ u
▁c al
▁view ])","
▁exper ience
A ssassin's
e vers
h am
i ther
▁ exc
in e
at tle
at ely
▁S uper
▁release_year[201 3],
▁release_year[200 1],
▁gener ally
cade ,
▁r un
evers oft
M ight
▁ ti
er ri
▁b ad
▁rating s."

▁Leagu e
S ilent
▁ 4],
ri end
▁f ond
St arCraft
▁c h
▁it ?"

id er
good ],
▁"give_opinion(name[ The
▁you' ve
▁point-and-click ],
▁VI ],
▁"request_explanation(rating[ good],
▁2K1 6],
▁Leagu e],
▁End ],
▁Run ],
▁Room ],
▁Doom ],
▁Hunt ],
▁King s],
▁Darknes s],
s ?"

▁ up
for t
pe llForce
pe aking
▁that 's
▁201 2
▁B ioShock
' ve
4 ,
p t
st rategy
▁c u
▁be t
un ately
▁2K1 6
▁cal led
▁ti tle
C S
w ays
▁ right
ar cade,
▁genres[ arcade,
▁f riend
ic ro
▁release_year[201 2],
▁average .
ero es
▁wh y
▁al ways
▁platforms[Xbox ,
▁Onlin e],
▁Ro ll
P ro
ou s
])", Why
▁poor ly
])","S o
▁op tion
▁cu ri
icro Pro
- rated
ing ?

ter est
▁c he
▁shooter .
port s
▁ex pec
G rand
oo ter
▁genres[ platformer
▁R ed
▁adventure ],
▁release_year[199 8],
platform s[
▁Theory ],
release_year[ 201
▁se em
▁genres[action-adventure ],
E uro
l us
▁th en
▁w ant
▁rating s.
▁200 4
▁199 8
' re
S mall
m er
n am
▁rating s
▁N BA
ce pt
fort unately
nam ic
f -
g en
re s[
re al
on cept
le dge
▁genres[ t
▁C oncept
▁developer[ V
is ual
▁B lizzard
▁F ire
▁developer[F ire
▁de cent
▁ar cade
▁genres[music ],
ham mer
gen res[
ledge hammer
in al
▁b ack
▁C an
is e
▁2 .
▁be ing
L ayers
u ter
▁T ony
▁person ])","I
▁PC ])","
it y
▁pre fer
])","S ince
▁element s
M adden
▁w ay
▁it s
▁release_year[200 4],
▁l ot
▁release_year[199 4],
▁driving/racing ],
▁developer[B lizzard
▁Corporation ],
omp uter
or k
st al
▁rating .
▁e ither
▁wh en
▁Mature) ."

F ar
F IFA
S o
S id
y namic
▁ lat
al f-
▁C omputer
rac k
▁perspective ."

▁F ant
▁platforms[Xbox ])","
▁available_on_steam[no ])","
▁VI I
▁mode ."

▁op inion
▁Payn e
▁Apocalyp se
alf- Life
▁Fant asy
1 7
R B
S RB
[ ]),
s ier
t d
er ic
ar sier
▁is n't
▁T ur
oo f
▁I n
▁M ass
▁E SRB
▁"inform(name[ Little
▁C E
▁W ay
▁W ake
▁W onder
▁201 5],
▁developer[ K
▁developer[ M
▁L td
▁1 2
▁1 2],
▁1 4,
▁O ut
▁"verify_attribute(name[ Need
▁200 2
orm ally
sh ade
▁199 4
▁World ],
▁"inform(name[T om
▁"inform(name[T omb
▁Forest ],
▁"inform(name[A ge
▁"inform(name[A ssassin's
▁Re ign
▁Am eric
▁MMORPG ],
▁Hit s
▁Nightmare s],
▁Software ],
▁Warcraft ],
▁Driver ],
▁Payn e],
▁Skyrim ],
▁Time ],
▁Apocalyp se],
▁Pinball ],
▁Carter ],
▁Revelation ],
▁Division ],
▁Lines ],
▁Break ],
▁Osir is
▁Osir is],
▁Strange ],
▁Warfare ],
▁Showdown ],
▁203 3
▁203 3],
▁Bomberman ],
▁am az
Man ia
Rollcage ],
▁Mont real
rys is],
etri s],
▁Illusion s
kyforge ],
▁Can ad
rack Mania
▁Tur bo
▁Wake 's
▁Americ an
D iablo
M etro
M etroid
i x
u l
re ss
▁S ilent
▁Steam ?

▁qu ite
D irt:
M otorStorm:
o le
al ity
▁in terest
▁t end
▁has_mac_release[yes])"," The
▁point-and-click ,
▁n ormally
▁support ed
▁run s
C all
F ootball
▁s ame
])", Are
▁game ],
▁T om
▁genres[ vehicular
▁c ould
▁it ?

▁perspective .

▁release_year[200 2],
▁Raider ],
ran k
▁developer[R e
▁over all
▁Canad a
▁ us
▁g am
▁g ive
▁M irror's
ie ld
▁U ndertale
▁has_mac_release [yes])",
])",I s
▁n e
▁expec ted
9 8
T ransport
W ar
a use
▁p ar
le ct
ou s,
▁b est
li ght
ic ally
ur t
mp ress
War craft
light ly
I s
M MORPG
f ield
f urt
p r
r t
v ing
th em
▁genres[ MMORPG
▁M ad
ad ow
▁in c
te k
▁A rt
▁D ynamic
▁releas es
▁2 ,
▁G uitar
▁F rank
▁release_year[200 7],
▁has_mac_release[no ])","If
▁"request( platforms[
▁Cre w
▁developer[C ry
▁Dog ],
attle field
▁curi ous,
lect ronic
pr oof
▁Frank furt
I f
at ed
▁adventure ,
ight shade
▁200 7
▁wonder ing,
▁Ro cket
▁disli ke
▁che ck
▁lat ely
C ommandos:
R ise
▁ time
▁be c
pec t
▁PlayStation .
lus ive
s ?

s ider
▁platform ers
▁developer[ A
▁2014 .
▁"request( genres[
▁only .
▁Sm all
▁Un charted
G od
as e
▁sport ,
▁fighting ,
▁exc lusive
b y
d u
w n
ai l
▁c ome
▁N aughty
▁V alve
▁PlayStation ?

▁person])", You
▁Re medy
▁Darknes s
S eptember
f ore
f ox
f ul
h ooter
s y
s em
t en
▁ very
on ix
ar re
▁S eptember
oo ber
player _perspective[
▁developer[ Nintendo
▁play ers
▁H ole
excellent ],
▁B ost
▁genres[s hooter
▁so lid
▁"request_explanation( esrb[
▁"request_explanation(rating[ excellent],
▁genres[sport ,
▁exp_release_date[ September
ky o
▁EAD ],
▁To kyo
▁developer[N aughty
▁developer[K onami
▁developer[Re medy
▁bec ause
by fox
sy onix
sem ble
▁Bost on
a b
nt ly
])"," You
▁t yp
▁W ould
ta le
su ally
ell tale
▁qu ality
▁con sider
▁amaz ing
h ,
▁ lack
▁no w
ur re
▁Mature) .

▁K onami
▁love d
▁shoot ing
b rand
c re
h ack-and-slash
r ing
▁game ?"

▁genres[ hack-and-slash
▁rating s.

▁person .
▁t ru
▁c ont
▁201 4],
▁developer[ P
ic e],
▁m ight
▁2 ?"

▁Linux .
▁St ronghold
poor ],
▁"suggest(name[ The
▁"confirm(name[ H
▁"confirm(name[ The
▁"confirm(name[ An
▁Teen) .
river ],
▁"request_explanation(rating[ poor],
▁platforms[Nintendo ])","
▁request_attribute( has_
af ia
af ia],
▁Interactive ],
▁Ind ia
▁Ind ia],
hot ],
▁Simulator ],
▁Eater ],
▁Erath ia
▁Erath ia],
▁Fear ],
▁Throne ],
▁Shift ],
▁Corsa ],
▁Payback ],
▁Alone ],
▁Sacrif ice
▁Sacrif ice],
▁Pursuit ],
▁Dawn ],
▁Sim s],
▁feature s
▁u sually
StarCraft ],
▁genres[MMORPG ],
urre ntly
▁genres[hack-and-slash ,
U bisoft
i le
▁w e
▁be fore
et ail
▁can 't
so le
▁n ice
▁Older )
▁con sole
- so
a ut
c as
d io
f ly
x t
▁a d
▁P ortal
▁M etro
▁f am
▁the ir
te xt
▁A st
▁A ssassin's
▁m ature
▁m ore
▁Steam .

▁me dio
▁so -so
▁platforms[PlayStation ])",You
ast ers
])","S peaking
▁mode .

inball ,
▁simulator s
tic ular
strategy ,
▁par ticular
▁medio cre
T rivial
i Max
k ill
l la
n ation
s on
u erri
y ro
en tion
en iMax
▁genres[ strategy,
ver kill
▁"inform(name[ NBA
▁"inform(name[ World
el ine
▁c ase
▁D etail
▁developer[ D
▁re fer
▁re cent
average ],
▁do wn
ud son
ron aut
em asters
od emasters
▁driving/racing ,
▁"inform(name[M etro
▁"request( developer[
tt ention
ax is
▁"request_explanation(rating[ average],
▁Softw ork
▁developer[C ore
ap p
▁Cities ],
mpress ed
▁typ ically
cas ual
▁Ast ronaut
nation al
uerri lla
B y
l ud
ers ion
▁of fer
▁m ake
▁to ld
▁200 0
])","I 'm
▁person])", I
▁Teen) ."

▁Inter national
▁bet ter
▁inc lud
A ssetto
l ore
▁s ince
▁v ersion
▁m an
▁3 .
▁U bisoft
▁Teen) .

▁Nightmare s
▁has_multiplayer[no])"," The
▁Sky forge
]),What 's
▁Roll erCoaster
D ance
F 1
M ass
p inball,
▁th an
])", The
▁genres[ text
▁genres[ pinball,
▁person ])","If
])"," Are
ri s
▁c om
▁R esident
▁developer[ G
▁developer[ Ubisoft
▁N eversoft
▁re commend
▁release_year[201 8],
▁release_year[200 0],
▁release_year[200 8],
▁199 3
ili ar
▁King s
▁has_multiplayer[yes])","I f
▁North ],
▁Design ],
▁"request(platforms[ P
▁fam iliar
9 ,
N HL
i lar
▁a w
▁game play
▁C ommandos:
▁c urrently
▁view .

▁O utlast
▁Te tri
▁200 8
▁has_mac_release[no ])",
▁Everyone) ."

▁un fortunately
▁sim ilar
▁friend s
ous ly
▁Mass ive
▁ne w
▁refer ring
M etal
e ce
▁a ction-
])", Have
▁h ate
ar y
▁t een
▁O ri
▁good .
▁2018 ."

▁2015 .
▁support ."

ever ,
vi ously
▁they 're
▁interest ed
▁recent ly
1 ,
B attlefield
I E
J un
N ever
W are
n e
s is
w ood
▁ la
on ic
])", So
ir axis
▁S ant
▁S CS
st ar
▁M onic
no d
▁C ore
▁developer[ I
▁multiplayer ?

▁2 9,
▁1 ,
▁1 1,
▁B arre
io Ware
bu ron
▁puzzle s
ow s
ow er
▁"request_explanation( release_year[201
▁has_mac_release[no])"," The
▁release_year[199 3],
▁"request( has_
▁Mature) .
▁Sh ore
▁Pro du
▁Cry sis
ont nod
rim lore
▁Ti buron
ap com
icroPro se],
▁genres[platformer ,
▁Red wood
▁developer[V alve
ece mber
Jun e
▁Sant a
▁Monic a
▁Barre l
▁Produ ction
S pellForce
u g
w ard
▁p ro
▁game ?

▁S ports
▁T ransport
▁M ax
▁M icroPro
▁m ind
▁some thing
▁cont ent
▁MicroPro se
c es
▁p inball
▁b it
▁b ig
])"," Have
▁t erri
▁it ,
▁no thing
▁enjoy able
▁available_on_steam[yes])"," The
▁2015 ,
▁2016 .
▁2011 .
[]), Do
6 ,
▁ le
▁g o
ing ]),
▁M otorStorm:
▁rating .

▁of ten
▁C all
li m
▁games ?"

▁it ."

▁with out
▁F ootball
▁platforms[PC ])","I
▁platforms[PC ])",You
▁Game s.
▁specifier[ f
▁"request( release_year[201
▁"request( player_perspective[
▁2018 .
▁mode .
▁Cha o
▁developer[S CS
▁developer[S ports
▁developer[S ledgehammer
▁review s
▁un i
▁disli ked
▁developer[N eversoft
▁genres[platformer ],
▁genres[t urn-based
▁genres[t rivia/board
▁gam ing
▁genres[shooter ],
▁"request_explanation(esrb[ M
▁terri ble
E ar
O h,
e k
p p
▁a g
▁s et
▁S ledgehammer
▁I 've
▁rating ,
▁in vol
▁games .
▁D iablo
▁D irt:
▁L ife
▁strategy ])",
eam 17
▁V isual
▁perspective ?

▁platforms[PC ])",I
▁has_mac_release[no])"," Need
▁there 's
▁say ing
▁Roll cage
Ear lier
3 ,
i ally
▁s yst
▁M etroid
no t
▁platform ing
▁Xbox .
▁played ?

▁has_multiplayer[no ])","If
pec ially
▁ab s
▁Game s,
▁Studio s.
os e
▁particular ly
app oint
▁syst em
2 ,
C rysis],
E D
S kyforge],
T etris],
a vailable
b ru
c to
e bru
j ek
u no
w een
z ion
▁ es
la zion
th am
th ough
▁s i
ou tham
▁S imu
▁S outham
])"," The
▁"inform(name[ Worms:
▁"inform(name[ Life
▁"inform(name[ Guitar
▁"inform(name[ Quantum
▁"inform(name[ RollerCoaster
▁"inform(name[ Portal
▁"inform(name[ Stronghold
▁"inform(name[ BioShock],
▁"inform(name[ Uncharted
▁"inform(name[ Rocket
▁"inform(name[ Bus
▁"inform(name[ Lara
▁"inform(name[ Undertale],
▁"inform(name[ Ori
▁"inform(name[ Outlast
▁"inform(name[ Resident
▁"inform(name[ Payday
▁"inform(name[ Grand
▁"inform(name[ Euro
▁"inform(name[ Layers
▁"inform(name[ Rollcage],
▁"inform(name[ Warcraft
▁"inform(name[ Rise
▁"inform(name[ God
▁"inform(name[ StarCraft],
▁PC ?

▁R ED
▁D ays
▁was n't
▁view ."

▁2 2,
▁1 6,
▁B us
▁"give_opinion(name[ Need
▁"give_opinion(name[ Tomb
▁"give_opinion(name[ Guitar
▁"give_opinion(name[ Tom
▁"give_opinion(name[ Age
▁"give_opinion(name[ Mirror's
▁"verify_attribute(name[ Little
▁"verify_attribute(name[ Tomb
▁"verify_attribute(name[ Uncharted
▁"verify_attribute(name[ Assassin's
▁"verify_attribute(name[ Small
▁"verify_attribute(name[ Skyforge],
▁3 ,
▁release_year[200 3],
▁Entertainment .
▁"suggest(name[ Worms:
▁"suggest(name[ BioShock],
▁"suggest(name[ Mirror's
▁"confirm(name[ Little
▁"recommend(name[ Need
▁"recommend(name[ Super
▁person])", The
▁War ],
▁"inform(name[M ight
▁"inform(name[M ass
▁"inform(name[M ax
▁"inform(name[M irror's
▁"inform(name[M otorStorm:
▁"inform(name[M etroid
▁"inform(name[M adden
▁"inform(name[M etal
▁"inform(name[M afia],
▁"inform(name[T ony
▁"inform(name[T ransport
▁"inform(name[T rivial
▁"inform(name[T etris],
▁"inform(name[T rackMania
▁"inform(name[S id
▁"inform(name[S ilent
▁"inform(name[S mall
▁"inform(name[S pellForce
▁"inform(name[S kyforge],
▁Pro jek
▁"inform(name[A lan
▁"inform(name[A ssetto
▁genres[role-playing ],
▁RPG s
▁Nightmare ],
▁fa ir
▁"inform(name[F 1
▁"inform(name[F ar
▁"inform(name[F ootball
▁"inform(name[F IFA
▁"inform(name[F inal
▁wonder ing
▁"inform(name[H orizon:
▁"inform(name[H ellblade:
▁"inform(name[H eroes
▁"inform(name[H alf-Life
▁"inform(name[D ance
▁"inform(name[D iablo
▁"inform(name[D irt:
▁"inform(name[D river],
▁developer[T eam17
▁"inform(name[C all
▁"inform(name[C ommandos:
▁"inform(name[C rysis],
▁"inform(name[N ever
▁"inform(name[N HL
▁"inform(name[N ightshade
▁"inform(name[Super hot],
▁developer[R ed
▁bet ween
▁developer[V isual
▁VII ],
▁Out ],
▁Montreal ],
▁Turbo ],
▁consider ed
▁"confirm(name[An cient
lim ax
▁Chao s],
cto ber
ebru ary
uno s
▁es pecially
lazion i
▁Simu lazioni
▁Projek t
▁"inform(name[Nightshade ],
h at
n g
t y
er ely
▁T arsier
▁rating ."

▁Xbox ?

▁L ara
▁m erely
▁F ar
▁can not
Wh en
▁199 0
▁k ind
▁n or
▁Reloaded ?"

▁Un fortunately
▁most ly
▁review s."

▁right ?"

▁exclusive ly
H ow
T S
y le
▁ Quantum
le ction
▁y et
▁S id
▁c reat
▁shooter ])",
▁1 98
▁F IFA
▁e veryone
▁platformer .
▁Studio s,
▁Do es
▁has_multiplayer[yes])", I
▁2014 ,
▁An cient
▁too ."

een ox
▁Team 17
▁BioShock ?"

H eroes
t ing
▁s ti
▁s witch
ou r
▁S lightly
▁M adden
el ight
te ,
▁c omm
▁R TS
▁Xbox ])",
▁developer[ H
it able
▁st and
▁so l
▁release_year[1 98
▁release_year[199 0],
▁has_mac_release[yes])"," If
▁specifier[ o
▁Tycoon ?"

▁su itable
▁Cry tek
▁2K1 9],
▁platforms[Nintendo ,
▁developer[E lectronic
▁developer[B eenox
▁1999 .
release_year[ 200
▁developer[F use
▁them ?

▁Team ],
▁much ?

▁developer[Fire proof
▁Wonder ],
▁developer[M icroProse],
▁Ltd ],
▁Canada ],
them ],
▁Art s],
▁Dynamic s],
▁developer[Cry stal
▁developer[Cry tek
▁Frankfurt ],
ab ili
▁developer[D ays
available _on_steam
▁creat ed
▁comm on
D river
c all
l oober
y ,
▁th ing
en ox
leas ed
▁T in
▁E lectronic
▁games ."

▁shooter ])","
▁201 9
▁L ayers
ly ,
▁re call
▁perspective s.
un ch
▁PlayStation ."

▁platforms[Xbox ])",
▁platforms[Xbox ])",I
▁Games ?

▁Cry stal
▁2K1 9
▁Be enox
▁End .
▁2010 .
▁too .
▁lately ?

▁man y
▁Unfortunately ,
' d
2 K
7 ,
H orizon:
H alf-Life
h er
la ss
th es
nd er
▁rat her
▁M afia
no ther
▁E x
▁t ell
▁N ever
▁strategy ])","
▁perspective ?"

ron g
▁available_on_steam[yes])"," I
▁person])"," The
▁dis appoint
▁poorly -rated
▁Concept s
▁Dynamic s
thes da
- Man
C rys
O verkill
P re
j a
n semble
r é
u ll
v ory
z ero
▁ 7,
in ja
▁i m
▁T ower
▁d es
▁M etal
▁person .

])"," Guitar
▁release .
▁A zero
▁developer[ to
▁developer[ 2K
▁st yle
▁H ow
▁H ol
ll od
id os
▁1 3,
qu are
▁to byfox
▁B attle
▁puzz le-
▁F use
▁Nintendo .
▁Entertainment 's
▁platforms[PlayStation ])",I
▁has_mac_release[no])"," A
▁"request( esrb[
▁only .

▁n ever
▁"inform(name[A n
▁all ows
ove mber
ru m
▁platforms[Nintendo ])",
▁Catalyst ?"

▁developer[E nsemble
▁fighting ],
▁has_multiplayer[no])", The
▁developer[B lack
▁2017 .
▁Warcraft :
▁En semble
▁review s.

▁developer ,
▁developer[T in
az elight
▁Mont ré
ider -Man
▁Concept s],
▁Fire proof
▁In c
▁CE ],
pect rum
▁developer[P syonix
ug ust
▁abs ol
▁198 6
▁sti ll
▁release_year[198 6],
▁developer[Beenox ],
▁Ex od
Crys is
Pre viously
▁Azero th
▁developer[to byfox
▁Hol o
llod s
▁Montré al
N ightshade
T h
u ally
at ur
▁a ction,
▁s ur
▁P syonix
▁play able
if fer
▁N HL
▁B lack
▁platforms[PC ])",
▁200 3
com ing
▁2014 .

▁has_linux_release [yes])","
▁2016 ,
▁2017 ?

▁Revelation .
▁Sim s
▁ch ance
▁tru ly
▁before ?"

▁ad d
By te,
▁uni mpressed
lass ic
▁Holo Byte,
iffer ent
4 A
H ellblade:
O ne
T etri
T rackMania
Z eniMax
h adow
▁s pec
▁s peaking
▁E uro
▁c omp
▁H ellblade:
ut ely
▁simulation -
mp ly
▁are n't
▁has_multiplayer[yes])", You
])","S uper
▁2011 ,
▁Bl oober
▁review s.
▁element s.
▁2013 .
▁tru e
▁down l
▁si mply
▁absol utely
▁spec ial
C ],
C an
D id
F inal
W ould
d eline
e y,
p ite
p ris
p ider-Man
at ing
▁a pp
le ng
es ome
▁T elltale
▁P yro
▁I 'd
▁b a
▁E volution
▁release ?

▁A ttention
▁developer[ The
▁developer[ Un
▁developer[ 4A
▁developer[ ZeniMax
▁play s
▁play ?

▁view ])",I
▁st rateg
▁H udson
▁li king
▁Linux ?

▁G rand
▁G uerrilla
▁F 1
])","I n
ack ed
sh ooter
▁has_multiplayer[yes])", Need
▁specifier[ c
▁specifier[ s
]), "
▁Un casual
▁developer[S lightly
▁Everyone) ,
▁Ad eline
▁2005 .
▁Lines .
▁okay .
▁platforms[PC])"," Do
▁developer[T arsier
▁developer[T elltale
▁general ,
▁There 's
▁Fire brand
▁Fire fly
▁developer[Fire brand
▁developer[A deline
▁developer[P yro
▁we 're
▁Detail ],
▁"request(platforms[P C],
▁aw esome
▁la unch
▁"request(has_ multiplayer
▁invol ve
▁specifier[o ther
▁How ever,
▁developer[Psyonix ],
▁developer[tobyfox ],
Tetri s
▁developer[Un casual
M afia
f in
m ers
o ice
▁a ud
le ar
▁th ose
▁c ap
est ])",What's
▁Xbox .

▁A ssetto
ic k
▁re al
it man
▁H orizon:
▁m o
▁Steam ?"

▁II ,
▁II .
▁Nintendo ])","Guitar
▁average ?

▁Th ough
▁Entertainment ,
▁wh ile
▁person])", Why
▁platforms[PlayStation ])",What
▁has_mac_release[yes])"," I
▁fe atur
]), Wh
]), Have
▁only ,
▁Z eniMax
▁mu st
Super hot
▁available_on_steam[yes])", You
▁Strange .
▁2010 ,
▁well ."

▁ch oice
▁give n
