{"<pad>":0,"</s>":1,"<unk>":2,"\n":3,"\r":4,"!":5,"\"":6,"&":7,"'":8,"(":9,")":10,"+":11,",":12,"-":13,".":14,"/":15,"0":16,"1":17,"2":18,"3":19,"4":20,"5":21,"6":22,"7":23,"8":24,"9":25,":":26,";":27,"?":28,"A":29,"B":30,"C":31,"D":32,"E":33,"F":34,"G":35,"H":36,"I":37,"J":38,"K":39,"L":40,"M":41,"N":42,"O":43,"P":44,"Q":45,"R":46,"S":47,"T":48,"U":49,"V":50,"W":51,"X":52,"Y":53,"Z":54,"[":55,"\\":56,"]":57,"_":58,"a":59,"b":60,"c":61,"d":62,"e":63,"f":64,"g":65,"h":66,"i":67,"j":68,"k":69,"l":70,"m":71,"n":72,"o":73,"p":74,"q":75,"r":76,"s":77,"t":78,"u":79,"v":80,"w":81,"x":82,"y":83,"z":84,"è":85,"é":86,"▁":87,"er":88,"in":89,"],":90,"at":91,"re":92,"on":93,"▁a":94,"or":95,"me":96,"la":97,"▁p":98,"le":99,"as":100,"ame":101,"ve":102,"▁g":103,"lay":104,"th":105,"ti":106,"for":107,"ing":108,"▁s":109,"▁th":110,"en":111,"ers":112,"ou":113,"ed":114,"es":115,"▁i":116,"\r\n":117,"nt":118,"])":119,"▁\"":120,"\",":121,"])\",":122,"rat":123,"s[":124,"cti":125,"▁game":126,"form":127,"ir":128,"leas":129,"layer":130,"releas":131,"name":132,"(name":133,"(name[":134,"ion":135,"▁h":136,"nd":137,"ar":138,"▁is":139,"▁y":140,"▁S":141,"▁you":142,"mu":143,"lat":144,"▁rat":145,"▁T":146,"oo":147,"▁P":148,"▁pers":149,"release":150,"pe":151,"ure":152,"▁d":153,"20":154,"▁gen":155,"▁w":156,"st":157,"▁has":158,"▁I":159,"▁genre":160,"▁o":161,"▁b":162,"▁genres[":163,"al":164,"▁M":165,"▁rating":166,"▁person":167,"ad":168,"ver":169,"\"\r\n":170,"no":171,"])\",\"":172,"vent":173,"venture":174,"ird":175,"▁and":176,"player":177,"ation":178,"ri":179,"ac":180,"▁f":181,"▁of":182,"ro":183,"▁has_":184,"op":185,"ctive":186,"latform":187,"▁rating[":188,"pective":189,"lti":190,"multi":191,"multiplayer":192,"he":193,"▁platform":194,"▁E":195,"▁in":196,"201":197,"inform":198,"▁\"inform":199,"▁\"inform(name[":200,"▁the":201,"St":202,"▁t":203,"▁on":204,"eve":205,"ear":206,"ie":207,"ge":208,"ai":209,"ction":210,"laySt":211,"layStation":212,"am":213,"lop":214,"evelop":215,"adventure":216,"an":217,"'s":218,"▁release":219,"ter":220,".\"\r\n":221,"el":222,"▁PC":223,"▁player":224,"pers":225,"_pers":226,"pective[":227,"_perspective[":228,"▁that":229,"[y":230,"[yes":231,"▁develop":232,"▁platforms[":233,"▁player_perspective[":234,"te":235,"er[":236,"▁C":237,"li":238,"bo":239,"▁games":240,"▁for":241,"_y":242,"ear[":243,"_year[":244,"ble":245,"ex":246,"▁c":247,"▁sh":248,"▁release_year[":249,"▁It":250,"Xbo":251,"Xbox":252,"[no":253,"ction-":254,"vai":255,"vaila":256,"vailable":257,"ction-adventure":258,"▁shoo":259,"▁available":260,"▁The":261,"_release":262,"▁platforms[P":263,"▁(":264,"▁(for":265,"▁R":266,"ood":267,"om":268,"est":269,"?\r\n":270,"▁Xbox":271,"▁shooter":272,"▁W":273,"▁an":274,"▁it":275,"▁A":276,"▁v":277,"▁D":278,"iew":279,"▁was":280,"inu":281,"inux":282,"age":283,"▁201":284,"▁developer[":285,"▁L":286,"▁has_multiplayer":287,"layStation,":288,"▁play":289,"▁view":290,"le-":291,"verage":292,"ly":293,"ld":294,"gh":295,"ort":296,"irst":297,"ic":298,"eg":299,"if":300,"▁third":301,"ke":302,"▁N":303,"▁re":304,"it":305,"▁multiplayer":306,"▁st":307,"▁releas":308,"rateg":309,"▁H":310,"port":311,"ll":312,"rategy":313,"▁m":314,"▁Xbox,":315,"▁wi":316,"▁released":317,"imu":318,".\r\n":319,"play":320,"lent":321,"imulat":322,"is":323,"▁strategy":324,"▁genres[a":325,"ut":326,"role-":327,"role-play":328,"role-playing":329,"▁no":330,"id":331,"▁2":332,"?\"\r\n":333,"int":334,"riv":335,"▁1":336,"qu":337,"▁by":338,"▁with":339,"▁li":340,"b[":341,"rb[":342,"esrb[":343,"out":344,"end":345,"▁\"re":346,"exc":347,"200":348,"▁release_year[201":349,"s],":350,"ive":351,")],":352,"eam":353,"rac":354,"▁esrb[":355,"ght":356,"excel":357,"excellent":358,"_release[no":359,"good":360,"▁to":361,"The":362,"▁B":363,"ay":364,"racing":365,"quest":366,"ave":367,"▁like":368,"imulation":369,"▁role-playing":370,"▁rating[good":371,"ction-adventure,":372,"tri":373,"average":374,"zz":375,"[yes])\",\"":376,"▁Ste":377,"▁Steam":378,"_on":379,"_st":380,"_on_st":381,"_on_steam":382,"dventure":383,"riving":384,"99":385,"▁rating[average":386,"▁available_on_steam":387,"▁person],":388,"▁rating[good],":389,"io":390,"bu":391,"oor":392,"intend":393,"intendo":394,"third":395,"▁genres[action-adventure,":396,"▁player_perspective[third":397,"ft":398,"▁be":399,"rom":400,"▁from":401,"tribu":402,"mac":403,"▁Mac":404,"tribute":405,"_at":406,"▁rated":407,"[yes],":408,"▁platforms[PlayStation,":409,"▁rating[average],":410,"_attribute":411,"ature":412,"▁has_mac":413,"▁pu":414,"▁Linux":415,"linux":416,"▁action-adventure":417,"▁puzz":418,"ch":419,"ce":420,"▁has_linux":421,"/racing":422,"riving/racing":423,"▁puzzle":424,"die":425,"▁not":426,"▁do":427,"and":428,"▁PC],":429,"▁G":430,"inion":431,"▁adventure":432,"▁V":433,"ck":434,"▁O":435,"▁sport":436,"one":437,"▁first":438,"▁but":439,"lan":440,"▁perspective":441,"▁played":442,"un":443,"▁PlayStation,":444,"▁Mature":445,"ta":446,"omb":447,"_op":448,"give":449,"y_attribute":450,"▁F":451,"▁\"ver":452,"▁\"give":453,"ify_attribute":454,"▁\"request":455,"inion(name[":456,"_opinion(name[":457,"▁\"verify_attribute":458,"▁\"give_opinion(name[":459,"▁\"verify_attribute(name[":460,"first":461,"▁shooter],":462,"ight":463,"▁Te":464,"et":465,"▁II":466,"▁player_perspective[first":467,"▁3":468,"▁have":469,"▁good":470,"▁St":471,"exp":472,"▁simulation":473,"▁indie":474,"all":475,"▁has_multiplayer[no":476,"▁rating[excellent":477,"▁Nintendo":478,"erta":479,"aid":480,"You":481,"▁or":482,"▁me":483,"up":484,"poor":485,"▁can":486,"ia":487,"ally":488,"very":489,"Wh":490,"ment":491,"ud":492,"pec":493,"▁ab":494,"su":495,"▁rating[excellent],":496,"▁platforms[PC":497,"▁e":498,"▁has_linux_release[no":499,"▁rating[poor":500,"adventure,":501,"▁about":502,"ur":503,"▁200":504,"▁genres[adventure,":505,"▁out":506,"▁has_linux_release[no],":507,"▁average":508,"ry":509,"veryone":510,"])\",\"I":511,"▁PlayStation":512,"▁Teen":513,"▁Game":514,"are":515,"▁release_year[200":516,"com":517,"'t":518,"▁en":519,"▁genres[s":520,"bird":521,"cal":522,"▁bird":523,"▁player_perspective[bird":524,"ore":525,"▁Everyone":526,"▁platformer":527,"ag":528,"▁rating[poor],":529,"ow":530,"ero":531,"▁U":532,"▁Th":533,"us":534,"udio":535,"ide":536,"ant":537,"▁Spe":538,"▁Studio":539,"eed":540,"-and":541,"-and-":542,"▁developed":543,"4],":544,"jo":545,"▁so":546,"ed:":547,"▁Speed:":548,"ig":549,"ind":550,"tion":551,"[yes])\",":552,"joy":553,"▁enjoy":554,"driving/racing":555,"mend":556,"▁has_mac_release[no":557,"commend":558,"ertain":559,"▁genres[driving/racing":560,"ntertain":561,"▁Entertain":562,"▁Entertainment":563,"▁Mature)],":564,"▁2],":565,"gg":566,"5],":567,"▁strategy],":568,"tle":569,"irm":570,"ard":571,"▁wh":572,"▁esrb[M":573,"pecif":574,"ggest":575,"onf":576,"conf":577,"s:":578,"ade":579,"_exp":580,"ier[":581,"▁\"su":582,"▁\"conf":583,"ation(":584,"▁\"recommend":585,"lanation(":586,"▁\"request_exp":587,"irm(name[":588,"pecifier[":589,"ggest(name[":590,"▁\"suggest(name[":591,"▁\"confirm(name[":592,"▁\"recommend(name[":593,"▁\"request_explanation(":594,"▁Do":595,"▁as":596,"▁ta":597,"PG":598,"▁It's":599,"▁l":600,"ack":601,"What":602,"time":603,"orm":604,"ctical":605,"orld":606,"▁tactical":607,"▁person])\",":608,"ent":609,"▁platforms[PlayStation":610,"oft":611,"ost":612,"lder":613,"king":614,"ell":615,"ss":616,"▁any":617,"ron":618,"ere":619,"▁has_mac_release":620,"mp":621,"▁game.":622,"ol":623,"ot":624,"Do":625,"n't":626,"▁Raid":627,"▁Raider":628,"▁are":629,"▁excellent":630,"▁PC,":631,"s.":632,"ther":633,"▁view],":634,"em":635,"▁has_mac_release[no])\",\"":636,"sh":637,"▁release_year[1":638,"-time":639,"od":640,"al-time":641,"▁has_multiplayer[yes])\",\"":642,"Need":643,"ond":644,"ust":645,"iv":646,"▁199":647,"▁PC.":648,"itch":649,"ber":650,"▁Hero":651,"e],":652,"▁came":653,"s,":654,"imulation,":655,"▁10":656,"▁release_year[199":657,"▁Sk":658,"▁driving/racing":659,"uper":660,"▁genres[simulation,":661,"▁game,":662,"▁has_mac_release[yes])\",\"":663,"▁has_multiplayer[yes],":664,"▁esrb[E":665,"▁esrb[T":666,"▁k":667,"ass":668,"▁War":669,"▁available_on_steam[yes],":670,"▁genres[driving/racing,":671,"lin":672,"▁thin":673,"▁Teen)],":674,"▁think":675,"Ro":676,"ball":677,"▁al":678,"ould":679,"▁does":680,"ra":681,"oint":682,"▁\"inform(name[M":683,"▁\"inform(name[The":684,"▁has_multiplayer[yes])\",":685,"▁j":686,"lar":687,"oon":688,"▁2014":689,"▁World":690,"▁sing":691,"oom":692,"▁games,":693,"▁fe":694,"ran":695,"▁specifier[":696,"]),":697,"▁request":698,"ittle":699,"▁\"request(":700,"le-player":701,"▁single-player":702,"ire":703,"▁just":704,"ction,":705,"raft":706,"so":707,"▁you'":708,"▁pre":709,"aw":710,"▁2018":711,"▁available_on_steam[yes])\",\"":712,"ased":713,"▁person,":714,"▁poor":715,"now":716,"urn":717,"▁point":718,"▁platforms[Xbox":719,"▁really":720,"▁said":721,"])\",I":722,"▁know":723,"▁Ch":724,"lick":725,"based":726,"▁Ty":727,"ast":728,"-based":729,"click":730,"-and-click":731,"urn-based":732,"ak":733,"coon":734,"mber":735,"ater":736,"▁Mature)":737,"▁point-and-click":738,"▁Tycoon":739,"9],":740,"▁\"inform(name[T":741,"▁genres[action,":742,"▁platforms[PC],":743,"orest":744,"▁Raider:":745,"ular":746,"▁Forest":747,"▁only":748,"ough":749,"oad":750,"▁action":751,"])\",What":752,"])\",\"S":753,"▁\"inform(name[S":754,"etro":755,"▁Sh":756,"▁n":757,"6],":758,"RPG":759,"▁role-playing],":760,"imulator":761,"lanc":762,"MO":763,"tt":764,"MORPG":765,"to":766,"▁your":767,"▁4":768,"▁su":769,"▁exp":770,"Nintendo":771,"cro":772,"▁Wi":773,"y's":774,"▁Pro":775,"▁comb":776,"oaded":777,"dge":778,"sla":779,"▁Soft":780,"-and-sla":781,"ack-and-sla":782,"ack-and-slash":783,"▁Steam.\"\r\n":784,"croll":785,"▁release_year[2014],":786,"ax":787,"▁turn-based":788,"▁2015":789,"▁role-playing,":790,"▁Scroll":791,"▁Mag":792,"▁Elder":793,"eloaded":794,"▁Clanc":795,"▁Reloaded":796,"▁has_linux_release":797,"▁II:":798,"▁3:":799,"▁3],":800,"▁Games":801,"▁Games],":802,"▁Everyone)],":803,"orms:":804,"▁Scrolls":805,"▁Magic":806,"▁Clancy's":807,"ock":808,"▁has_multiplayer[no],":809,"▁Teen)":810,"▁Steam,":811,"▁Cre":812,"▁\"inform(name[A":813,"▁available_on_steam[no":814,"▁one":815,"▁made":816,"▁Nintendo,":817,"▁Z":818,"▁racing":819,"ori":820,"▁Sm":821,"▁genres[role-playing":822,"▁fun":823,"1],":824,"ill":825,"os":826,"rating":827,"▁other":828,"▁Re":829,"▁playing":830,"7],":831,"Sh":832,"▁side":833,"])\",You":834,"ate":835,"▁2K":836,"])\",\"If":837,"oration":838,"▁Cor":839,"▁all":840,"ance":841,"▁Pay":842,"▁ever":843,"ted":844,"▁it's":845,"▁puzzle,":846,"3],":847,"ntion":848,"▁sports":849,"▁mention":850,"▁K":851,"tty":852,"hic":853,"▁person])\",\"":854,"▁sport],":855,"▁combat":856,"▁Last":857,"▁mod":858,"yst":859,"river":860,"▁Am":861,"▁VI":862,"Are":863,"ove":864,"▁try":865,"ioSh":866,"▁Studios],":867,"▁\"request_explanation(rating":868,"ioShock":869,"▁\"request_explanation(rating[":870,"vehic":871,"▁Cry":872,"▁Age":873,"▁platformer,":874,"▁sup":875,"BA":876,"ely":877,"Little":878,"craft":879,"vehicular":880,"▁Softw":881,"▁has_linux_release[yes],":882,"ct":883,"▁this":884,"▁MMORPG":885,"▁also":886,"ili":887,"▁mu":888,"▁An":889,"▁pretty":890,"witch":891,"▁hack-and-slash":892,"Roll":893,"▁2K1":894,"▁mean":895,"▁mode":896,"▁You":897,"▁support":898,"inball":899,"side":900,"▁my":901,"ake":902,"▁mentioned":903,"ru":904,"s.\"\r\n":905,"real-time":906,"▁On":907,"im":908,"▁rece":909,"2],":910,"ong":911,"▁there":912,"▁genres[real-time":913,"▁Un":914,"onder":915,"▁Tomb":916,"▁such":917,"▁EA":918,"▁you're":919,"develop":920,"▁platforms[Nintendo":921,"▁player_perspective[side":922,"▁feel":923,"▁genres[role-playing,":924,"developer[":925,"ory":926,"anted":927,"▁Night":928,"▁love":929,"▁10+":930,"▁Onlin":931,"ror":932,"ash":933,"▁Most":934,"▁Hit":935,"0],":936,"▁find":937,"▁tactical],":938,"ilent":939,"uit":940,"atal":941,"▁Hill":942,"▁receive":943,"uitar":944,"ier":945,"▁ex":946,"in's":947,"ony":948,"nderta":949,"▁RPG":950,"ife":951,"ssass":952,"▁Creed":953,"▁received":954,"ndertale":955,"ssassin's":956,"k's":957,"mare":958,"irror":959,"▁Edge":960,"▁Catal":961,"▁Wanted":962,"▁Adventure":963,"▁Haw":964,"▁Big":965,"▁simulation],":966,"▁Hero:":967,"▁Skater":968,"▁Cha":969,"▁Smash":970,"▁Nightmare":971,"irror's":972,"▁Catalyst":973,"▁Hawk's":974,"vol":975,"ich":976,"▁has_multiplayer[no])\",\"":977,"▁hear":978,"▁gener":979,"sic":980,"▁indie,":981,"▁Man":982,"▁Studios":983,"▁Switch":984,"▁shoot":985,"▁genres[sport":986,"▁Entertainment],":987,"fer":988,"▁did":989,"▁heard":990,"▁fa":991,"▁fight":992,"▁fan":993,"▁developer[E":994,"▁release_year[2015],":995,"▁Mac.\"\r\n":996,"▁fighting":997,"yp":998,"▁say":999,"▁simulator":1000,"ked":1001,"ont":1002,"▁Heroes":1003,"ever":1004,"▁get":1005,"▁has_multiplayer[no])\",":1006,"old":1007,"▁shooter,":1008,"▁real-time":1009,"▁puzzle],":1010,"▁II],":1011,"▁2016":1012,"▁view,":1013,"▁This":1014,"▁developer[B":1015,"▁developer[S":1016,"rivia":1017,"▁release_year[2016],":1018,"▁Software":1019,"▁Be":1020,"▁Sky":1021,"'m":1022,"▁which":1023,"▁driving":1024,"▁developer[C":1025,"platform":1026,"vi":1027,"rim":1028,"▁2017":1029,"aster":1030,"▁Ti":1031,"board":1032,"▁games?\r\n":1033,"/board":1034,"rivia/board":1035,"Worms:":1036,"▁Have":1037,"▁Everyone)":1038,"ark":1039,"arted":1040,"ket":1041,"▁most":1042,"ires":1043,"8],":1044,"nes":1045,"▁2011":1046,"Co":1047,"cket":1048,"eag":1049,"erCo":1050,"▁Leag":1051,"▁Need":1052,"▁Among":1053,"erCoaster":1054,"▁Leagu":1055,"(s":1056,"I:":1057,"_d":1058,"f's":1059,"unt":1060,"▁&":1061,"▁End":1062,"▁Emp":1063,"▁\"inform(name[F":1064,"ief's":1065,"gel":1066,"_release_d":1067,"▁Run":1068,"▁Room":1069,"▁Wol":1070,"▁Witch":1071,"▁Doom":1072,"▁Dark":1073,"ghold":1074,"ortal":1075,"▁Hunt":1076,"_attribute(":1077,"charted":1078,"▁III:":1079,"▁Thief's":1080,"ronghold":1081,"▁Warcraft":1082,"▁request(s":1083,"▁request_attribute(":1084,"▁4:":1085,"▁exp_release_d":1086,"▁Wild":1087,"▁Magic:":1088,"ate[":1089,"▁King":1090,"▁Angel":1091,"▁Empires":1092,"▁Wolf":1093,"▁Witcher":1094,"▁Darknes":1095,"▁request(specifier[":1096,"▁exp_release_date[":1097,"Life":1098,"▁Steam.":1099,"Have":1100,"▁vehicular":1101,"nter":1102,"▁tal":1103,"da":1104,"lizz":1105,"omm":1106,"▁Older":1107,"ign":1108,"▁Chaos":1109,"lizzard":1110,"▁En":1111,"ap":1112,"cade":1113,"ep":1114,"man":1115,"▁mak":1116,"Why":1117,"▁platforms[PlayStation])\",\"":1118,"ronic":1119,"ky":1120,"▁op":1121,"▁Ad":1122,"▁Bl":1123,"▁makes":1124,"view":1125,"last":1126,"▁available_on_steam[no],":1127,"▁fav":1128,"Super":1129,"▁Driver":1130,"NBA":1131,"car":1132,"▁review":1133,"▁talking":1134,"rand":1135,"lid":1136,"▁release_year[2017],":1137,"▁Inter":1138,"▁Theory":1139,"orite":1140,"BioShock":1141,"▁doesn't":1142,"▁release_year[2011],":1143,"ays":1144,"ia],":1145,"▁Tycoon],":1146,"ced":1147,"se":1148,"▁developer":1149,"Tomb":1150,"poration":1151,"ution":1152,"▁Might":1153,"ext":1154,"▁enjoyed":1155,"▁1999":1156,"▁Corporation":1157,"volution":1158,"indie":1159,"reat":1160,"▁wonder":1161,"▁genres[indie":1162,"▁\"inform(name[H":1163,"▁V],":1164,"▁\"request_explanation(developer[":1165,"▁genres[indie,":1166,"ines":1167,"▁text":1168,"ought":1169,"add":1170,"▁been":1171,"Guitar":1172,"sport":1173,"lier":1174,"▁loo":1175,"▁favorite":1176,"For":1177,"on't":1178,"▁some":1179,"mple":1180,"lo":1181,"oot":1182,"▁dis":1183,"Undertale":1184,"▁thought":1185,"▁Ro":1186,"▁Are":1187,"ish":1188,"um":1189,"esid":1190,"▁Sp":1191,"▁2005":1192,"Tom":1193,"po":1194,"s.\r\n":1195,"▁un":1196,"reak":1197,"release_year[":1198,"▁trivia/board":1199,"▁multiplayer.\"\r\n":1200,"is],":1201,"▁perspective.":1202,"use":1203,"▁release_year[1999],":1204,"Age":1205,"au":1206,"cage":1207,"ound":1208,"anced":1209,"ital":1210,"▁strategy,":1211,"▁ele":1212,"own":1213,"igital":1214,"Un":1215,"blo":1216,"down":1217,"ina":1218,"orSt":1219,"forge":1220,"irt":1221,"ara":1222,"lation":1223,"▁Evi":1224,"elda":1225,"▁Apo":1226,"▁Leg":1227,"▁view])\",":1228,"▁NF":1229,"ision":1230,"▁liked":1231,"▁available_on_steam[yes])\",":1232,"▁Ocar":1233,"iablo":1234,"calyp":1235,"orm:":1236,"otorSt":1237,"ivision":1238,"range":1239,"▁Zelda":1240,"▁Payn":1241,"▁Skyrim":1242,"▁Time":1243,"ishing":1244,"esident":1245,"▁Evil":1246,"▁Apocalyp":1247,"▁Legend":1248,"▁Ocarina":1249,"otorStorm:":1250,"▁Zelda:":1251,"Qu":1252,"eier":1253,"fare":1254,"hind":1255,"kay":1256,"os:":1257,"sir":1258,"vanced":1259,"y:":1260,"zation":1261,"▁20":1262,"▁qu":1263,"erman":1264,"ince":1265,"than":1266,"arter":1267,"ario":1268,"▁Pri":1269,"▁Pinball":1270,"▁Meier":1271,"▁Mario":1272,"roft":1273,"▁Ethan":1274,"▁\"inform(name[D":1275,"▁\"inform(name[Need":1276,"evelation":1277,"anishing":1278,"▁Cell":1279,"▁Civ":1280,"▁Carter":1281,"▁Croft":1282,"▁Revelation":1283,"▁Dut":1284,"▁Digital":1285,"▁Division":1286,"▁Lines":1287,"utlast":1288,"▁Bomb":1289,"▁Break":1290,"andos:":1291,"▁V:":1292,"▁Vanishing":1293,"▁Osir":1294,"▁Temple":1295,"▁Strange":1296,"▁release_year[2005],":1297,"ager":1298,"owdown":1299,"▁Us],":1300,"antum":1301,"emy":1302,"▁Warfare":1303,"linter":1304,"ransport":1305,"etroid":1306,"▁Showdown":1307,"▁Reloaded],":1308,"ilization":1309,"▁Manager":1310,"▁Behind":1311,"ommandos:":1312,"▁Enemy":1313,"▁Advanced":1314,"▁Blind":1315,"adden":1316,"ootball":1317,"▁Splinter":1318,"irt:":1319,"▁NFL":1320,"Quantum":1321,"▁203":1322,"▁Prime":1323,"▁Meier's":1324,"▁Cell:":1325,"▁Civilization":1326,"▁Duty:":1327,"▁Bomberman":1328,"FA":1329,"IFA":1330,"▁don't":1331,"▁element":1332,"ial":1333,"ple":1334,"▁okay":1335,"▁con":1336,"▁platforms[PC])\",\"":1337,"▁reme":1338,"▁Switch,":1339,"▁multiplayer,":1340,"▁remember":1341,"▁bo":1342,"▁platforms[PlayStation])\",":1343,"▁shooters":1344,"▁didn't":1345,"ect":1346,"ami":1347,"▁2010":1348,"▁Online":1349,"▁if":1350,"▁too":1351,"▁am":1352,"▁release.\"\r\n":1353,"▁Dance":1354,"▁developer[F":1355,"ice":1356,"▁genres[driving/racing],":1357,"▁2018],":1358,"RollerCoaster":1359,"World":1360,"ual":1361,"▁Linux.\"\r\n":1362,"▁looking":1363,"▁Is":1364,"▁multiplayer.\r\n":1365,"cent":1366,"ien":1367,"ye":1368,"▁release_year[2010],":1369,"ghty":1370,"▁Dog":1371,"aughty":1372,"Portal":1373,"de":1374,"▁Linux,":1375,"▁bird's":1376,"orth":1377,"▁de":1378,"▁well":1379,"▁Al":1380,"▁15":1381,"▁ear":1382,"])\",Do":1383,"▁So":1384,"Stronghold":1385,"▁15],":1386,"▁eye":1387,"BioShock],":1388,"Max":1389,"dy":1390,"▁though":1391,"af":1392,"mall":1393,"ties":1394,"right":1395,"▁vide":1396,"▁video":1397,"ox":1398,"llus":1399,"▁EAD":1400,"▁Older)],":1401,"llusion":1402,"An":1403,"▁great":1404,"▁se":1405,"▁found":1406,"▁both":1407,"ff":1408,"▁action-adventure,":1409,"▁should":1410,"thing":1411,"▁year":1412,"▁off":1413,"▁developer[T":1414,"Uncharted":1415,"▁sim":1416,"alve":1417,"▁Mac,":1418,"Rocket":1419,"]),What":1420,"▁general":1421,"ci":1422,"medy":1423,"▁will":1424,"▁has_multiplayer[yes])\",\"I":1425,"active":1426,"een":1427,"se],":1428,"▁r":1429,"▁eve":1430,"onami":1431,"rated":1432,"▁into":1433,"▁them":1434,"tember":1435,"▁multiplayer.":1436,"▁what":1437,"eptember":1438,"▁Interactive":1439,"▁earlier":1440,"▁even":1441,"day":1442,"lack":1443,"led":1444,"▁they":1445,"▁Little":1446,"▁disli":1447,"Man":1448,"Mirror's":1449,"▁Team":1450,"▁Ind":1451,"a's":1452,"able":1453,"ample":1454,"▁simulation,":1455,"▁Us":1456,"▁much":1457,"▁example":1458,"▁developer[EA":1459,"rough":1460,"▁game.\r\n":1461,"▁To":1462,"rif":1463,"▁perspective,":1464,"ivers":1465,"Bus":1466,"HL":1467,"Lara":1468,"back":1469,"▁got":1470,"▁Tru":1471,"▁Wond":1472,"▁North":1473,"etal":1474,"oriz":1475,"▁Wonders":1476,"Craft":1477,"hot":1478,"nake":1479,"rone":1480,"sa":1481,"uro":1482,"ua's":1483,"vers":1484,"zard":1485,"on:":1486,"lade":1487,"les:":1488,"ing,":1489,"enua's":1490,"rath":1491,"▁game.\"\r\n":1492,"arCraft":1493,"▁Sac":1494,"▁Simulator":1495,"▁Snake":1496,"▁Senua's":1497,"▁Pur":1498,"▁Eater":1499,"▁Eff":1500,"▁Erath":1501,"▁\"inform(name[C":1502,"▁\"inform(name[N":1503,"▁Theft":1504,"▁Rest":1505,"▁Aut":1506,"▁Daw":1507,"▁developer[N":1508,"ift":1509,"▁genres[action-adventure":1510,"rivial":1511,"ayers":1512,"▁Gear":1513,"▁Fear":1514,"▁\"verify_attribute(name[The":1515,"etto":1516,"▁indie],":1517,"suit":1518,"▁platformer],":1519,"▁Throne":1520,"▁\"recommend(name[The":1521,"ssetto":1522,"▁Chronic":1523,"▁\"inform(name[Super":1524,"▁Shift":1525,"▁Wizard":1526,"▁Zero":1527,"▁Revolution":1528,"▁Corsa":1529,"▁Payback":1530,"Rollcage":1531,"▁Univers":1532,"▁Hits],":1533,"▁Wanted],":1534,"▁Adventure],":1535,"▁Catalyst],":1536,"▁genres[sport],":1537,"Undertale],":1538,"▁Alone":1539,"▁Solid":1540,"▁Truck":1541,"orizon:":1542,"lade:":1543,"▁Sacrif":1544,"▁Pursuit":1545,"▁Effect":1546,"▁Restoration":1547,"▁Auto":1548,"▁Dawn":1549,"▁Chronicles:":1550,"▁Wizard's":1551,"▁Universe":1552,"blade:":1553,"▁through":1554,"▁Sim":1555,"▁would":1556,"▁tri":1557,"ellblade:":1558,"Ori":1559,"▁had":1560,"▁2013":1561,"llFor":1562,"▁music":1563,"ience":1564,"llForce":1565,"esign":1566,"music":1567,"])\",\"Do":1568,"▁PC.\"\r\n":1569,"▁developer[R":1570,"▁There":1571,"▁feature":1572,"▁combat],":1573,"Tony":1574,"omp":1575,"▁2009":1576,"])\",What's":1577,"▁hack-and-slash,":1578,"▁tried":1579,"aking":1580,"ite":1581,"▁ar":1582,"asy":1583,"▁Worms:":1584,"az":1585,"bis":1586,"ities":1587,"▁at":1588,"▁how":1589,"▁genres[music":1590,"▁Mont":1591,"▁fel":1592,"▁Cities":1593,"▁Design":1594,"rys":1595,"▁release_year[2009],":1596,"platformer":1597,"cient":1598,"bisoft":1599,"▁felt":1600,"▁view.":1601,"▁2001":1602,"▁exper":1603,"Outlast":1604,"Resident":1605,"etri":1606,"▁I'm":1607,"▁Mac.":1608,"Pay":1609,"has":1610,"▁Illusion":1611,"▁release,":1612,"▁offers":1613,"has_":1614,"ome":1615,"tic":1616,"▁were":1617,"▁over":1618,"kyforge":1619,"Payday":1620,"▁u":1621,"▁cal":1622,"▁view])\",\"":1623,"▁experience":1624,"Assassin's":1625,"evers":1626,"ham":1627,"ither":1628,"▁exc":1629,"ine":1630,"attle":1631,"ately":1632,"▁Super":1633,"▁release_year[2013],":1634,"▁release_year[2001],":1635,"▁generally":1636,"cade,":1637,"▁run":1638,"eversoft":1639,"Might":1640,"▁ti":1641,"erri":1642,"▁bad":1643,"▁ratings.\"\r\n":1644,"▁League":1645,"Silent":1646,"▁4],":1647,"riend":1648,"▁fond":1649,"StarCraft":1650,"▁ch":1651,"▁it?\"\r\n":1652,"ider":1653,"good],":1654,"▁\"give_opinion(name[The":1655,"▁you've":1656,"▁point-and-click],":1657,"▁VI],":1658,"▁\"request_explanation(rating[good],":1659,"▁2K16],":1660,"▁League],":1661,"▁End],":1662,"▁Run],":1663,"▁Room],":1664,"▁Doom],":1665,"▁Hunt],":1666,"▁Kings],":1667,"▁Darkness],":1668,"s?\"\r\n":1669,"▁up":1670,"fort":1671,"pellForce":1672,"peaking":1673,"▁that's":1674,"▁2012":1675,"▁BioShock":1676,"'ve":1677,"4,":1678,"pt":1679,"strategy":1680,"▁cu":1681,"▁bet":1682,"unately":1683,"▁2K16":1684,"▁called":1685,"▁title":1686,"CS":1687,"ways":1688,"▁right":1689,"arcade,":1690,"▁genres[arcade,":1691,"▁friend":1692,"icro":1693,"▁release_year[2012],":1694,"▁average.":1695,"eroes":1696,"▁why":1697,"▁always":1698,"▁platforms[Xbox,":1699,"▁Online],":1700,"▁Roll":1701,"Pro":1702,"ous":1703,"])\",Why":1704,"▁poorly":1705,"])\",\"So":1706,"▁option":1707,"▁curi":1708,"icroPro":1709,"-rated":1710,"ing?\r\n":1711,"terest":1712,"▁che":1713,"▁shooter.":1714,"ports":1715,"▁expec":1716,"Grand":1717,"ooter":1718,"▁genres[platformer":1719,"▁Red":1720,"▁adventure],":1721,"▁release_year[1998],":1722,"platforms[":1723,"▁Theory],":1724,"release_year[201":1725,"▁seem":1726,"▁genres[action-adventure],":1727,"Euro":1728,"lus":1729,"▁then":1730,"▁want":1731,"▁ratings.":1732,"▁2004":1733,"▁1998":1734,"'re":1735,"Small":1736,"mer":1737,"nam":1738,"▁ratings":1739,"▁NBA":1740,"cept":1741,"fortunately":1742,"namic":1743,"f-":1744,"gen":1745,"res[":1746,"real":1747,"oncept":1748,"ledge":1749,"▁genres[t":1750,"▁Concept":1751,"▁developer[V":1752,"isual":1753,"▁Blizzard":1754,"▁Fire":1755,"▁developer[Fire":1756,"▁decent":1757,"▁arcade":1758,"▁genres[music],":1759,"hammer":1760,"genres[":1761,"ledgehammer":1762,"inal":1763,"▁back":1764,"▁Can":1765,"ise":1766,"▁2.":1767,"▁being":1768,"Layers":1769,"uter":1770,"▁Tony":1771,"▁person])\",\"I":1772,"▁PC])\",\"":1773,"ity":1774,"▁prefer":1775,"])\",\"Since":1776,"▁elements":1777,"Madden":1778,"▁way":1779,"▁its":1780,"▁release_year[2004],":1781,"▁lot":1782,"▁release_year[1994],":1783,"▁driving/racing],":1784,"▁developer[Blizzard":1785,"▁Corporation],":1786,"omputer":1787,"ork":1788,"stal":1789,"▁rating.":1790,"▁either":1791,"▁when":1792,"▁Mature).\"\r\n":1793,"Far":1794,"FIFA":1795,"So":1796,"Sid":1797,"ynamic":1798,"▁lat":1799,"alf-":1800,"▁Computer":1801,"rack":1802,"▁perspective.\"\r\n":1803,"▁Fant":1804,"▁platforms[Xbox])\",\"":1805,"▁available_on_steam[no])\",\"":1806,"▁VII":1807,"▁mode.\"\r\n":1808,"▁opinion":1809,"▁Payne":1810,"▁Apocalypse":1811,"alf-Life":1812,"▁Fantasy":1813,"17":1814,"RB":1815,"SRB":1816,"[]),":1817,"sier":1818,"td":1819,"eric":1820,"arsier":1821,"▁isn't":1822,"▁Tur":1823,"oof":1824,"▁In":1825,"▁Mass":1826,"▁ESRB":1827,"▁\"inform(name[Little":1828,"▁CE":1829,"▁Way":1830,"▁Wake":1831,"▁Wonder":1832,"▁2015],":1833,"▁developer[K":1834,"▁developer[M":1835,"▁Ltd":1836,"▁12":1837,"▁12],":1838,"▁14,":1839,"▁Out":1840,"▁\"verify_attribute(name[Need":1841,"▁2002":1842,"ormally":1843,"shade":1844,"▁1994":1845,"▁World],":1846,"▁\"inform(name[Tom":1847,"▁\"inform(name[Tomb":1848,"▁Forest],":1849,"▁\"inform(name[Age":1850,"▁\"inform(name[Assassin's":1851,"▁Reign":1852,"▁Americ":1853,"▁MMORPG],":1854,"▁Hits":1855,"▁Nightmares],":1856,"▁Software],":1857,"▁Warcraft],":1858,"▁Driver],":1859,"▁Payne],":1860,"▁Skyrim],":1861,"▁Time],":1862,"▁Apocalypse],":1863,"▁Pinball],":1864,"▁Carter],":1865,"▁Revelation],":1866,"▁Division],":1867,"▁Lines],":1868,"▁Break],":1869,"▁Osiris":1870,"▁Osiris],":1871,"▁Strange],":1872,"▁Warfare],":1873,"▁Showdown],":1874,"▁2033":1875,"▁2033],":1876,"▁Bomberman],":1877,"▁amaz":1878,"Mania":1879,"Rollcage],":1880,"▁Montreal":1881,"rysis],":1882,"etris],":1883,"▁Illusions":1884,"kyforge],":1885,"▁Canad":1886,"rackMania":1887,"▁Turbo":1888,"▁Wake's":1889,"▁American":1890,"Diablo":1891,"Metro":1892,"Metroid":1893,"ix":1894,"ul":1895,"ress":1896,"▁Silent":1897,"▁Steam?\r\n":1898,"▁quite":1899,"Dirt:":1900,"MotorStorm:":1901,"ole":1902,"ality":1903,"▁interest":1904,"▁tend":1905,"▁has_mac_release[yes])\",\"The":1906,"▁point-and-click,":1907,"▁normally":1908,"▁supported":1909,"▁runs":1910,"Call":1911,"Football":1912,"▁same":1913,"])\",Are":1914,"▁game],":1915,"▁Tom":1916,"▁genres[vehicular":1917,"▁could":1918,"▁it?\r\n":1919,"▁perspective.\r\n":1920,"▁release_year[2002],":1921,"▁Raider],":1922,"rank":1923,"▁developer[Re":1924,"▁overall":1925,"▁Canada":1926,"▁us":1927,"▁gam":1928,"▁give":1929,"▁Mirror's":1930,"ield":1931,"▁Undertale":1932,"▁has_mac_release[yes])\",":1933,"])\",Is":1934,"▁ne":1935,"▁expected":1936,"98":1937,"Transport":1938,"War":1939,"ause":1940,"▁par":1941,"lect":1942,"ous,":1943,"▁best":1944,"light":1945,"ically":1946,"urt":1947,"mpress":1948,"Warcraft":1949,"lightly":1950,"Is":1951,"MMORPG":1952,"field":1953,"furt":1954,"pr":1955,"rt":1956,"ving":1957,"them":1958,"▁genres[MMORPG":1959,"▁Mad":1960,"adow":1961,"▁inc":1962,"tek":1963,"▁Art":1964,"▁Dynamic":1965,"▁releases":1966,"▁2,":1967,"▁Guitar":1968,"▁Frank":1969,"▁release_year[2007],":1970,"▁has_mac_release[no])\",\"If":1971,"▁\"request(platforms[":1972,"▁Crew":1973,"▁developer[Cry":1974,"▁Dog],":1975,"attlefield":1976,"▁curious,":1977,"lectronic":1978,"proof":1979,"▁Frankfurt":1980,"If":1981,"ated":1982,"▁adventure,":1983,"ightshade":1984,"▁2007":1985,"▁wondering,":1986,"▁Rocket":1987,"▁dislike":1988,"▁check":1989,"▁lately":1990,"Commandos:":1991,"Rise":1992,"▁time":1993,"▁bec":1994,"pect":1995,"▁PlayStation.":1996,"lusive":1997,"s?\r\n":1998,"sider":1999,"▁platformers":2000,"▁developer[A":2001,"▁2014.":2002,"▁\"request(genres[":2003,"▁only.":2004,"▁Small":2005,"▁Uncharted":2006,"God":2007,"ase":2008,"▁sport,":2009,"▁fighting,":2010,"▁exclusive":2011,"by":2012,"du":2013,"wn":2014,"ail":2015,"▁come":2016,"▁Naughty":2017,"▁Valve":2018,"▁PlayStation?\r\n":2019,"▁person])\",You":2020,"▁Remedy":2021,"▁Darkness":2022,"September":2023,"fore":2024,"fox":2025,"ful":2026,"hooter":2027,"sy":2028,"sem":2029,"ten":2030,"▁very":2031,"onix":2032,"arre":2033,"▁September":2034,"oober":2035,"player_perspective[":2036,"▁developer[Nintendo":2037,"▁players":2038,"▁Hole":2039,"excellent],":2040,"▁Bost":2041,"▁genres[shooter":2042,"▁solid":2043,"▁\"request_explanation(esrb[":2044,"▁\"request_explanation(rating[excellent],":2045,"▁genres[sport,":2046,"▁exp_release_date[September":2047,"kyo":2048,"▁EAD],":2049,"▁Tokyo":2050,"▁developer[Naughty":2051,"▁developer[Konami":2052,"▁developer[Remedy":2053,"▁because":2054,"byfox":2055,"syonix":2056,"semble":2057,"▁Boston":2058,"ab":2059,"ntly":2060,"])\",\"You":2061,"▁typ":2062,"▁Would":2063,"tale":2064,"sually":2065,"elltale":2066,"▁quality":2067,"▁consider":2068,"▁amazing":2069,"h,":2070,"▁lack":2071,"▁now":2072,"urre":2073,"▁Mature).\r\n":2074,"▁Konami":2075,"▁loved":2076,"▁shooting":2077,"brand":2078,"cre":2079,"hack-and-slash":2080,"ring":2081,"▁game?\"\r\n":2082,"▁genres[hack-and-slash":2083,"▁ratings.\r\n":2084,"▁person.":2085,"▁tru":2086,"▁cont":2087,"▁2014],":2088,"▁developer[P":2089,"ice],":2090,"▁might":2091,"▁2?\"\r\n":2092,"▁Linux.":2093,"▁Stronghold":2094,"poor],":2095,"▁\"suggest(name[The":2096,"▁\"confirm(name[H":2097,"▁\"confirm(name[The":2098,"▁\"confirm(name[An":2099,"▁Teen).":2100,"river],":2101,"▁\"request_explanation(rating[poor],":2102,"▁platforms[Nintendo])\",\"":2103,"▁request_attribute(has_":2104,"afia":2105,"afia],":2106,"▁Interactive],":2107,"▁India":2108,"▁India],":2109,"hot],":2110,"▁Simulator],":2111,"▁Eater],":2112,"▁Erathia":2113,"▁Erathia],":2114,"▁Fear],":2115,"▁Throne],":2116,"▁Shift],":2117,"▁Corsa],":2118,"▁Payback],":2119,"▁Alone],":2120,"▁Sacrifice":2121,"▁Sacrifice],":2122,"▁Pursuit],":2123,"▁Dawn],":2124,"▁Sims],":2125,"▁features":2126,"▁usually":2127,"StarCraft],":2128,"▁genres[MMORPG],":2129,"urrently":2130,"▁genres[hack-and-slash,":2131,"Ubisoft":2132,"ile":2133,"▁we":2134,"▁before":2135,"etail":2136,"▁can't":2137,"sole":2138,"▁nice":2139,"▁Older)":2140,"▁console":2141,"-so":2142,"aut":2143,"cas":2144,"dio":2145,"fly":2146,"xt":2147,"▁ad":2148,"▁Portal":2149,"▁Metro":2150,"▁fam":2151,"▁their":2152,"text":2153,"▁Ast":2154,"▁Assassin's":2155,"▁mature":2156,"▁more":2157,"▁Steam.\r\n":2158,"▁medio":2159,"▁so-so":2160,"▁platforms[PlayStation])\",You":2161,"asters":2162,"])\",\"Speaking":2163,"▁mode.\r\n":2164,"inball,":2165,"▁simulators":2166,"ticular":2167,"strategy,":2168,"▁particular":2169,"▁mediocre":2170,"Trivial":2171,"iMax":2172,"kill":2173,"lla":2174,"nation":2175,"son":2176,"uerri":2177,"yro":2178,"ention":2179,"eniMax":2180,"▁genres[strategy,":2181,"verkill":2182,"▁\"inform(name[NBA":2183,"▁\"inform(name[World":2184,"eline":2185,"▁case":2186,"▁Detail":2187,"▁developer[D":2188,"▁refer":2189,"▁recent":2190,"average],":2191,"▁down":2192,"udson":2193,"ronaut":2194,"emasters":2195,"odemasters":2196,"▁driving/racing,":2197,"▁\"inform(name[Metro":2198,"▁\"request(developer[":2199,"ttention":2200,"axis":2201,"▁\"request_explanation(rating[average],":2202,"▁Softwork":2203,"▁developer[Core":2204,"app":2205,"▁Cities],":2206,"mpressed":2207,"▁typically":2208,"casual":2209,"▁Astronaut":2210,"national":2211,"uerrilla":2212,"By":2213,"lud":2214,"ersion":2215,"▁offer":2216,"▁make":2217,"▁told":2218,"▁2000":2219,"])\",\"I'm":2220,"▁person])\",I":2221,"▁Teen).\"\r\n":2222,"▁International":2223,"▁better":2224,"▁includ":2225,"Assetto":2226,"lore":2227,"▁since":2228,"▁version":2229,"▁man":2230,"▁3.":2231,"▁Ubisoft":2232,"▁Teen).\r\n":2233,"▁Nightmares":2234,"▁has_multiplayer[no])\",\"The":2235,"▁Skyforge":2236,"]),What's":2237,"▁RollerCoaster":2238,"Dance":2239,"F1":2240,"Mass":2241,"pinball,":2242,"▁than":2243,"])\",The":2244,"▁genres[text":2245,"▁genres[pinball,":2246,"▁person])\",\"If":2247,"])\",\"Are":2248,"ris":2249,"▁com":2250,"▁Resident":2251,"▁developer[G":2252,"▁developer[Ubisoft":2253,"▁Neversoft":2254,"▁recommend":2255,"▁release_year[2018],":2256,"▁release_year[2000],":2257,"▁release_year[2008],":2258,"▁1993":2259,"iliar":2260,"▁Kings":2261,"▁has_multiplayer[yes])\",\"If":2262,"▁North],":2263,"▁Design],":2264,"▁\"request(platforms[P":2265,"▁familiar":2266,"9,":2267,"NHL":2268,"ilar":2269,"▁aw":2270,"▁gameplay":2271,"▁Commandos:":2272,"▁currently":2273,"▁view.\r\n":2274,"▁Outlast":2275,"▁Tetri":2276,"▁2008":2277,"▁has_mac_release[no])\",":2278,"▁Everyone).\"\r\n":2279,"▁unfortunately":2280,"▁similar":2281,"▁friends":2282,"ously":2283,"▁Massive":2284,"▁new":2285,"▁referring":2286,"Metal":2287,"ece":2288,"▁action-":2289,"])\",Have":2290,"▁hate":2291,"ary":2292,"▁teen":2293,"▁Ori":2294,"▁good.":2295,"▁2018.\"\r\n":2296,"▁2015.":2297,"▁support.\"\r\n":2298,"ever,":2299,"viously":2300,"▁they're":2301,"▁interested":2302,"▁recently":2303,"1,":2304,"Battlefield":2305,"IE":2306,"Jun":2307,"Never":2308,"Ware":2309,"ne":2310,"sis":2311,"wood":2312,"▁la":2313,"onic":2314,"])\",So":2315,"iraxis":2316,"▁Sant":2317,"▁SCS":2318,"star":2319,"▁Monic":2320,"nod":2321,"▁Core":2322,"▁developer[I":2323,"▁multiplayer?\r\n":2324,"▁29,":2325,"▁1,":2326,"▁11,":2327,"▁Barre":2328,"ioWare":2329,"buron":2330,"▁puzzles":2331,"ows":2332,"ower":2333,"▁\"request_explanation(release_year[201":2334,"▁has_mac_release[no])\",\"The":2335,"▁release_year[1993],":2336,"▁\"request(has_":2337,"▁Mature).":2338,"▁Shore":2339,"▁Produ":2340,"▁Crysis":2341,"ontnod":2342,"rimlore":2343,"▁Tiburon":2344,"apcom":2345,"icroProse],":2346,"▁genres[platformer,":2347,"▁Redwood":2348,"▁developer[Valve":2349,"ecember":2350,"June":2351,"▁Santa":2352,"▁Monica":2353,"▁Barrel":2354,"▁Production":2355,"SpellForce":2356,"ug":2357,"ward":2358,"▁pro":2359,"▁game?\r\n":2360,"▁Sports":2361,"▁Transport":2362,"▁Max":2363,"▁MicroPro":2364,"▁mind":2365,"▁something":2366,"▁content":2367,"▁MicroProse":2368,"ces":2369,"▁pinball":2370,"▁bit":2371,"▁big":2372,"])\",\"Have":2373,"▁terri":2374,"▁it,":2375,"▁nothing":2376,"▁enjoyable":2377,"▁available_on_steam[yes])\",\"The":2378,"▁2015,":2379,"▁2016.":2380,"▁2011.":2381,"[]),Do":2382,"6,":2383,"▁le":2384,"▁go":2385,"ing]),":2386,"▁MotorStorm:":2387,"▁rating.\r\n":2388,"▁often":2389,"▁Call":2390,"lim":2391,"▁games?\"\r\n":2392,"▁it.\"\r\n":2393,"▁without":2394,"▁Football":2395,"▁platforms[PC])\",\"I":2396,"▁platforms[PC])\",You":2397,"▁Games.":2398,"▁specifier[f":2399,"▁\"request(release_year[201":2400,"▁\"request(player_perspective[":2401,"▁2018.":2402,"▁mode.":2403,"▁Chao":2404,"▁developer[SCS":2405,"▁developer[Sports":2406,"▁developer[Sledgehammer":2407,"▁reviews":2408,"▁uni":2409,"▁disliked":2410,"▁developer[Neversoft":2411,"▁genres[platformer],":2412,"▁genres[turn-based":2413,"▁genres[trivia/board":2414,"▁gaming":2415,"▁genres[shooter],":2416,"▁\"request_explanation(esrb[M":2417,"▁terrible":2418,"Ear":2419,"Oh,":2420,"ek":2421,"pp":2422,"▁ag":2423,"▁set":2424,"▁Sledgehammer":2425,"▁I've":2426,"▁rating,":2427,"▁invol":2428,"▁games.":2429,"▁Diablo":2430,"▁Dirt:":2431,"▁Life":2432,"▁strategy])\",":2433,"eam17":2434,"▁Visual":2435,"▁perspective?\r\n":2436,"▁platforms[PC])\",I":2437,"▁has_mac_release[no])\",\"Need":2438,"▁there's":2439,"▁saying":2440,"▁Rollcage":2441,"Earlier":2442,"3,":2443,"ially":2444,"▁syst":2445,"▁Metroid":2446,"not":2447,"▁platforming":2448,"▁Xbox.":2449,"▁played?\r\n":2450,"▁has_multiplayer[no])\",\"If":2451,"pecially":2452,"▁abs":2453,"▁Games,":2454,"▁Studios.":2455,"ose":2456,"▁particularly":2457,"appoint":2458,"▁system":2459,"2,":2460,"Crysis],":2461,"ED":2462,"Skyforge],":2463,"Tetris],":2464,"available":2465,"bru":2466,"cto":2467,"ebru":2468,"jek":2469,"uno":2470,"ween":2471,"zion":2472,"▁es":2473,"lazion":2474,"tham":2475,"though":2476,"▁si":2477,"outham":2478,"▁Simu":2479,"▁Southam":2480,"])\",\"The":2481,"▁\"inform(name[Worms:":2482,"▁\"inform(name[Life":2483,"▁\"inform(name[Guitar":2484,"▁\"inform(name[Quantum":2485,"▁\"inform(name[RollerCoaster":2486,"▁\"inform(name[Portal":2487,"▁\"inform(name[Stronghold":2488,"▁\"inform(name[BioShock],":2489,"▁\"inform(name[Uncharted":2490,"▁\"inform(name[Rocket":2491,"▁\"inform(name[Bus":2492,"▁\"inform(name[Lara":2493,"▁\"inform(name[Undertale],":2494,"▁\"inform(name[Ori":2495,"▁\"inform(name[Outlast":2496,"▁\"inform(name[Resident":2497,"▁\"inform(name[Payday":2498,"▁\"inform(name[Grand":2499,"▁\"inform(name[Euro":2500,"▁\"inform(name[Layers":2501,"▁\"inform(name[Rollcage],":2502,"▁\"inform(name[Warcraft":2503,"▁\"inform(name[Rise":2504,"▁\"inform(name[God":2505,"▁\"inform(name[StarCraft],":2506,"▁PC?\r\n":2507,"▁RED":2508,"▁Days":2509,"▁wasn't":2510,"▁view.\"\r\n":2511,"▁22,":2512,"▁16,":2513,"▁Bus":2514,"▁\"give_opinion(name[Need":2515,"▁\"give_opinion(name[Tomb":2516,"▁\"give_opinion(name[Guitar":2517,"▁\"give_opinion(name[Tom":2518,"▁\"give_opinion(name[Age":2519,"▁\"give_opinion(name[Mirror's":2520,"▁\"verify_attribute(name[Little":2521,"▁\"verify_attribute(name[Tomb":2522,"▁\"verify_attribute(name[Uncharted":2523,"▁\"verify_attribute(name[Assassin's":2524,"▁\"verify_attribute(name[Small":2525,"▁\"verify_attribute(name[Skyforge],":2526,"▁3,":2527,"▁release_year[2003],":2528,"▁Entertainment.":2529,"▁\"suggest(name[Worms:":2530,"▁\"suggest(name[BioShock],":2531,"▁\"suggest(name[Mirror's":2532,"▁\"confirm(name[Little":2533,"▁\"recommend(name[Need":2534,"▁\"recommend(name[Super":2535,"▁person])\",The":2536,"▁War],":2537,"▁\"inform(name[Might":2538,"▁\"inform(name[Mass":2539,"▁\"inform(name[Max":2540,"▁\"inform(name[Mirror's":2541,"▁\"inform(name[MotorStorm:":2542,"▁\"inform(name[Metroid":2543,"▁\"inform(name[Madden":2544,"▁\"inform(name[Metal":2545,"▁\"inform(name[Mafia],":2546,"▁\"inform(name[Tony":2547,"▁\"inform(name[Transport":2548,"▁\"inform(name[Trivial":2549,"▁\"inform(name[Tetris],":2550,"▁\"inform(name[TrackMania":2551,"▁\"inform(name[Sid":2552,"▁\"inform(name[Silent":2553,"▁\"inform(name[Small":2554,"▁\"inform(name[SpellForce":2555,"▁\"inform(name[Skyforge],":2556,"▁Projek":2557,"▁\"inform(name[Alan":2558,"▁\"inform(name[Assetto":2559,"▁genres[role-playing],":2560,"▁RPGs":2561,"▁Nightmare],":2562,"▁fair":2563,"▁\"inform(name[F1":2564,"▁\"inform(name[Far":2565,"▁\"inform(name[Football":2566,"▁\"inform(name[FIFA":2567,"▁\"inform(name[Final":2568,"▁wondering":2569,"▁\"inform(name[Horizon:":2570,"▁\"inform(name[Hellblade:":2571,"▁\"inform(name[Heroes":2572,"▁\"inform(name[Half-Life":2573,"▁\"inform(name[Dance":2574,"▁\"inform(name[Diablo":2575,"▁\"inform(name[Dirt:":2576,"▁\"inform(name[Driver],":2577,"▁developer[Team17":2578,"▁\"inform(name[Call":2579,"▁\"inform(name[Commandos:":2580,"▁\"inform(name[Crysis],":2581,"▁\"inform(name[Never":2582,"▁\"inform(name[NHL":2583,"▁\"inform(name[Nightshade":2584,"▁\"inform(name[Superhot],":2585,"▁developer[Red":2586,"▁between":2587,"▁developer[Visual":2588,"▁VII],":2589,"▁Out],":2590,"▁Montreal],":2591,"▁Turbo],":2592,"▁considered":2593,"▁\"confirm(name[Ancient":2594,"limax":2595,"▁Chaos],":2596,"ctober":2597,"ebruary":2598,"unos":2599,"▁especially":2600,"lazioni":2601,"▁Simulazioni":2602,"▁Projekt":2603,"▁\"inform(name[Nightshade],":2604,"hat":2605,"ng":2606,"ty":2607,"erely":2608,"▁Tarsier":2609,"▁rating.\"\r\n":2610,"▁Xbox?\r\n":2611,"▁Lara":2612,"▁merely":2613,"▁Far":2614,"▁cannot":2615,"When":2616,"▁1990":2617,"▁kind":2618,"▁nor":2619,"▁Reloaded?\"\r\n":2620,"▁Unfortunately":2621,"▁mostly":2622,"▁reviews.\"\r\n":2623,"▁right?\"\r\n":2624,"▁exclusively":2625,"How":2626,"TS":2627,"yle":2628,"▁Quantum":2629,"lection":2630,"▁yet":2631,"▁Sid":2632,"▁creat":2633,"▁shooter])\",":2634,"▁198":2635,"▁FIFA":2636,"▁everyone":2637,"▁platformer.":2638,"▁Studios,":2639,"▁Does":2640,"▁has_multiplayer[yes])\",I":2641,"▁2014,":2642,"▁Ancient":2643,"▁too.\"\r\n":2644,"eenox":2645,"▁Team17":2646,"▁BioShock?\"\r\n":2647,"Heroes":2648,"ting":2649,"▁sti":2650,"▁switch":2651,"our":2652,"▁Slightly":2653,"▁Madden":2654,"elight":2655,"te,":2656,"▁comm":2657,"▁RTS":2658,"▁Xbox])\",":2659,"▁developer[H":2660,"itable":2661,"▁stand":2662,"▁sol":2663,"▁release_year[198":2664,"▁release_year[1990],":2665,"▁has_mac_release[yes])\",\"If":2666,"▁specifier[o":2667,"▁Tycoon?\"\r\n":2668,"▁suitable":2669,"▁Crytek":2670,"▁2K19],":2671,"▁platforms[Nintendo,":2672,"▁developer[Electronic":2673,"▁developer[Beenox":2674,"▁1999.":2675,"release_year[200":2676,"▁developer[Fuse":2677,"▁them?\r\n":2678,"▁Team],":2679,"▁much?\r\n":2680,"▁developer[Fireproof":2681,"▁Wonder],":2682,"▁developer[MicroProse],":2683,"▁Ltd],":2684,"▁Canada],":2685,"them],":2686,"▁Arts],":2687,"▁Dynamics],":2688,"▁developer[Crystal":2689,"▁developer[Crytek":2690,"▁Frankfurt],":2691,"abili":2692,"▁developer[Days":2693,"available_on_steam":2694,"▁created":2695,"▁common":2696,"Driver":2697,"call":2698,"loober":2699,"y,":2700,"▁thing":2701,"enox":2702,"leased":2703,"▁Tin":2704,"▁Electronic":2705,"▁games.\"\r\n":2706,"▁shooter])\",\"":2707,"▁2019":2708,"▁Layers":2709,"ly,":2710,"▁recall":2711,"▁perspectives.":2712,"unch":2713,"▁PlayStation.\"\r\n":2714,"▁platforms[Xbox])\",":2715,"▁platforms[Xbox])\",I":2716,"▁Games?\r\n":2717,"▁Crystal":2718,"▁2K19":2719,"▁Beenox":2720,"▁End.":2721,"▁2010.":2722,"▁too.":2723,"▁lately?\r\n":2724,"▁many":2725,"▁Unfortunately,":2726,"'d":2727,"2K":2728,"7,":2729,"Horizon:":2730,"Half-Life":2731,"her":2732,"lass":2733,"thes":2734,"nder":2735,"▁rather":2736,"▁Mafia":2737,"nother":2738,"▁Ex":2739,"▁tell":2740,"▁Never":2741,"▁strategy])\",\"":2742,"▁perspective?\"\r\n":2743,"rong":2744,"▁available_on_steam[yes])\",\"I":2745,"▁person])\",\"The":2746,"▁disappoint":2747,"▁poorly-rated":2748,"▁Concepts":2749,"▁Dynamics":2750,"thesda":2751,"-Man":2752,"Crys":2753,"Overkill":2754,"Pre":2755,"ja":2756,"nsemble":2757,"ré":2758,"ull":2759,"vory":2760,"zero":2761,"▁7,":2762,"inja":2763,"▁im":2764,"▁Tower":2765,"▁des":2766,"▁Metal":2767,"▁person.\r\n":2768,"])\",\"Guitar":2769,"▁release.":2770,"▁Azero":2771,"▁developer[to":2772,"▁developer[2K":2773,"▁style":2774,"▁How":2775,"▁Hol":2776,"llod":2777,"idos":2778,"▁13,":2779,"quare":2780,"▁tobyfox":2781,"▁Battle":2782,"▁puzzle-":2783,"▁Fuse":2784,"▁Nintendo.":2785,"▁Entertainment's":2786,"▁platforms[PlayStation])\",I":2787,"▁has_mac_release[no])\",\"A":2788,"▁\"request(esrb[":2789,"▁only.\r\n":2790,"▁never":2791,"▁\"inform(name[An":2792,"▁allows":2793,"ovember":2794,"rum":2795,"▁platforms[Nintendo])\",":2796,"▁Catalyst?\"\r\n":2797,"▁developer[Ensemble":2798,"▁fighting],":2799,"▁has_multiplayer[no])\",The":2800,"▁developer[Black":2801,"▁2017.":2802,"▁Warcraft:":2803,"▁Ensemble":2804,"▁reviews.\r\n":2805,"▁developer,":2806,"▁developer[Tin":2807,"azelight":2808,"▁Montré":2809,"ider-Man":2810,"▁Concepts],":2811,"▁Fireproof":2812,"▁Inc":2813,"▁CE],":2814,"pectrum":2815,"▁developer[Psyonix":2816,"ugust":2817,"▁absol":2818,"▁1986":2819,"▁still":2820,"▁release_year[1986],":2821,"▁developer[Beenox],":2822,"▁Exod":2823,"Crysis":2824,"Previously":2825,"▁Azeroth":2826,"▁developer[tobyfox":2827,"▁Holo":2828,"llods":2829,"▁Montréal":2830,"Nightshade":2831,"Th":2832,"ually":2833,"atur":2834,"▁action,":2835,"▁sur":2836,"▁Psyonix":2837,"▁playable":2838,"iffer":2839,"▁NHL":2840,"▁Black":2841,"▁platforms[PC])\",":2842,"▁2003":2843,"coming":2844,"▁2014.\r\n":2845,"▁has_linux_release[yes])\",\"":2846,"▁2016,":2847,"▁2017?\r\n":2848,"▁Revelation.":2849,"▁Sims":2850,"▁chance":2851,"▁truly":2852,"▁before?\"\r\n":2853,"▁add":2854,"Byte,":2855,"▁unimpressed":2856,"lassic":2857,"▁HoloByte,":2858,"ifferent":2859,"4A":2860,"Hellblade:":2861,"One":2862,"Tetri":2863,"TrackMania":2864,"ZeniMax":2865,"hadow":2866,"▁spec":2867,"▁speaking":2868,"▁Euro":2869,"▁comp":2870,"▁Hellblade:":2871,"utely":2872,"▁simulation-":2873,"mply":2874,"▁aren't":2875,"▁has_multiplayer[yes])\",You":2876,"])\",\"Super":2877,"▁2011,":2878,"▁Bloober":2879,"▁reviews.":2880,"▁elements.":2881,"▁2013.":2882,"▁true":2883,"▁downl":2884,"▁simply":2885,"▁absolutely":2886,"▁special":2887,"C],":2888,"Can":2889,"Did":2890,"Final":2891,"Would":2892,"deline":2893,"ey,":2894,"pite":2895,"pris":2896,"pider-Man":2897,"ating":2898,"▁app":2899,"leng":2900,"esome":2901,"▁Telltale":2902,"▁Pyro":2903,"▁I'd":2904,"▁ba":2905,"▁Evolution":2906,"▁release?\r\n":2907,"▁Attention":2908,"▁developer[The":2909,"▁developer[Un":2910,"▁developer[4A":2911,"▁developer[ZeniMax":2912,"▁plays":2913,"▁play?\r\n":2914,"▁view])\",I":2915,"▁strateg":2916,"▁Hudson":2917,"▁liking":2918,"▁Linux?\r\n":2919,"▁Grand":2920,"▁Guerrilla":2921,"▁F1":2922,"])\",\"In":2923,"acked":2924,"shooter":2925,"▁has_multiplayer[yes])\",Need":2926,"▁specifier[c":2927,"▁specifier[s":2928,"]),\"":2929,"▁Uncasual":2930,"▁developer[Slightly":2931,"▁Everyone),":2932,"▁Adeline":2933,"▁2005.":2934,"▁Lines.":2935,"▁okay.":2936,"▁platforms[PC])\",\"Do":2937,"▁developer[Tarsier":2938,"▁developer[Telltale":2939,"▁general,":2940,"▁There's":2941,"▁Firebrand":2942,"▁Firefly":2943,"▁developer[Firebrand":2944,"▁developer[Adeline":2945,"▁developer[Pyro":2946,"▁we're":2947,"▁Detail],":2948,"▁\"request(platforms[PC],":2949,"▁awesome":2950,"▁launch":2951,"▁\"request(has_multiplayer":2952,"▁involve":2953,"▁specifier[other":2954,"▁However,":2955,"▁developer[Psyonix],":2956,"▁developer[tobyfox],":2957,"Tetris":2958,"▁developer[Uncasual":2959,"Mafia":2960,"fin":2961,"mers":2962,"oice":2963,"▁aud":2964,"lear":2965,"▁those":2966,"▁cap":2967,"est])\",What's":2968,"▁Xbox.\r\n":2969,"▁Assetto":2970,"ick":2971,"▁real":2972,"itman":2973,"▁Horizon:":2974,"▁mo":2975,"▁Steam?\"\r\n":2976,"▁II,":2977,"▁II.":2978,"▁Nintendo])\",\"Guitar":2979,"▁average?\r\n":2980,"▁Though":2981,"▁Entertainment,":2982,"▁while":2983,"▁person])\",Why":2984,"▁platforms[PlayStation])\",What":2985,"▁has_mac_release[yes])\",\"I":2986,"▁featur":2987,"]),Wh":2988,"]),Have":2989,"▁only,":2990,"▁ZeniMax":2991,"▁must":2992,"Superhot":2993,"▁available_on_steam[yes])\",You":2994,"▁Strange.":2995,"▁2010,":2996,"▁well.\"\r\n":2997,"▁choice":2998,"▁given":2999}